<?xml version="1.0"?>
<!--
    (c) Copyright 2018 CERN for the benefit of the LHCb Collaboration

    This software is distributed under the terms of the GNU General Public
    Licence version 3 (GPL Version 3), copied verbatim in the file "COPYING".

    In applying this licence, CERN does not waive the privileges and immunities
    granted to it by virtue of its status as an Intergovernmental Organization
    or submit itself to any jurisdiction.
-->
<MethodSetup Method="BDT::BDTG">
  <GeneralInfo>
    <Info name="TMVA Release" value="4.1.3 [262403]"/>
    <Info name="ROOT Release" value="5.34/03 [336387]"/>
    <Info name="Creator" value="cofitzpa"/>
    <Info name="Date" value="Mon Mar 18 23:08:59 2013"/>
    <Info name="Host" value="Linux lxbuild148.cern.ch 2.6.18-238.5.1.el5 #1 SMP Wed Mar 2 15:08:52 CET 2011 x86_64 x86_64 x86_64 GNU/Linux"/>
    <Info name="Dir" value="/afs/cern.ch/user/c/cofitzpa/Bd2Dsttaunu/MC_Mar/tmva/allmodes"/>
    <Info name="Training events" value="249272"/>
    <Info name="TrainingTime" value="5.18999050e+02"/>
    <Info name="AnalysisType" value="Classification"/>
  </GeneralInfo>
  <Options>
    <Option name="V" modified="Yes">False</Option>
    <Option name="VerbosityLevel" modified="No">Default</Option>
    <Option name="VarTransform" modified="No">None</Option>
    <Option name="H" modified="Yes">False</Option>
    <Option name="CreateMVAPdfs" modified="No">False</Option>
    <Option name="IgnoreNegWeightsInTraining" modified="No">False</Option>
    <Option name="NTrees" modified="Yes">1000</Option>
    <Option name="RenormByClass" modified="No">False</Option>
    <Option name="BoostType" modified="Yes">Grad</Option>
    <Option name="AdaBoostR2Loss" modified="No">quadratic</Option>
    <Option name="UseBaggedGrad" modified="Yes">True</Option>
    <Option name="GradBaggingFraction" modified="Yes">5.000000e-01</Option>
    <Option name="Shrinkage" modified="Yes">1.000000e-01</Option>
    <Option name="AdaBoostBeta" modified="No">1.000000e+00</Option>
    <Option name="UseRandomisedTrees" modified="No">False</Option>
    <Option name="UseNvars" modified="No">6</Option>
    <Option name="UsePoissonNvars" modified="No">True</Option>
    <Option name="UseNTrainEvents" modified="No">249272</Option>
    <Option name="UseWeightedTrees" modified="No">True</Option>
    <Option name="UseYesNoLeaf" modified="No">True</Option>
    <Option name="NodePurityLimit" modified="No">5.000000e-01</Option>
    <Option name="SeparationType" modified="No">giniindex</Option>
    <Option name="nEventsMin" modified="No">40</Option>
    <Option name="nCuts" modified="Yes">20</Option>
    <Option name="UseFisherCuts" modified="No">False</Option>
    <Option name="MinLinCorrForFisher" modified="No">8.000000e-01</Option>
    <Option name="UseExclusiveVars" modified="No">False</Option>
    <Option name="PruneStrength" modified="No">0.000000e+00</Option>
    <Option name="PruneMethod" modified="No">nopruning</Option>
    <Option name="PruneBeforeBoost" modified="No">False</Option>
    <Option name="PruningValFraction" modified="No">5.000000e-01</Option>
    <Option name="NNodesMax" modified="Yes">5</Option>
    <Option name="MaxDepth" modified="No">3</Option>
    <Option name="DoBoostMonitor" modified="No">False</Option>
    <Option name="NegWeightTreatment" modified="No">ignorenegweights</Option>
  </Options>
  <Variables NVar="36">
    <Variable VarIndex="0" Expression="tau_isoPlus_nGood" Label="tau_isoPlus_nGood" Title="tau_isoPlus_nGood" Unit="" Internal="tau_isoPlus_nGood" Type="F" Min="1.00000000e+00" Max="4.00000000e+01"/>
    <Variable VarIndex="1" Expression="Min$(tau_isoPlus_newP_LOKI_MM)" Label="Min$(tau_isoPlus_newP_LOKI_MM)" Title="Min$(tau_isoPlus_newP_LOKI_MM)" Unit="" Internal="Min__tau_isoPlus_newP_LOKI_MM_" Type="F" Min="5.00210693e+02" Max="1.17552607e+04"/>
    <Variable VarIndex="2" Expression="Max$(tau_isoPlus_trk_LOKI_TRGHP)" Label="Max$(tau_isoPlus_trk_LOKI_TRGHP)" Title="Max$(tau_isoPlus_trk_LOKI_TRGHP)" Unit="" Internal="Max__tau_isoPlus_trk_LOKI_TRGHP_" Type="F" Min="-0.00000000e+00" Max="4.99936640e-01"/>
    <Variable VarIndex="3" Expression="Max$(tau_isoPlus_newP_LOKI_MM)" Label="Max$(tau_isoPlus_newP_LOKI_MM)" Title="Max$(tau_isoPlus_newP_LOKI_MM)" Unit="" Internal="Max__tau_isoPlus_newP_LOKI_MM_" Type="F" Min="7.09083008e+02" Max="2.70422500e+04"/>
    <Variable VarIndex="4" Expression="Min$(tau_isoPlus_trk_LOKI_IPChi2)" Label="Min$(tau_isoPlus_trk_LOKI_IPChi2)" Title="Min$(tau_isoPlus_trk_LOKI_IPChi2)" Unit="" Internal="Min__tau_isoPlus_trk_LOKI_IPChi2_" Type="F" Min="1.37894558e-05" Max="2.49990139e+01"/>
    <Variable VarIndex="5" Expression="(Min$(tau_isoPlus_newP_LOKI_VCHI2VDOF)-tau_isoPlus_oldP_LOKI_VCHI2VDOF)" Label="(Min$(tau_isoPlus_newP_LOKI_VCHI2VDOF)-tau_isoPlus_oldP_LOKI_VCHI2VDOF)" Title="(Min$(tau_isoPlus_newP_LOKI_VCHI2VDOF)-tau_isoPlus_oldP_LOKI_VCHI2VDOF)" Unit="" Internal="_Min__tau_isoPlus_newP_LOKI_VCHI2VDOF__M_tau_isoPlus_oldP_LOKI_VCHI2VDOF_" Type="F" Min="-6.36847305e+00" Max="1.86535599e+02"/>
    <Variable VarIndex="6" Expression="Min$(tau_isoPlus_newP_LOKI_BPVIPCHI2)" Label="Min$(tau_isoPlus_newP_LOKI_BPVIPCHI2)" Title="Min$(tau_isoPlus_newP_LOKI_BPVIPCHI2)" Unit="" Internal="Min__tau_isoPlus_newP_LOKI_BPVIPCHI2_" Type="F" Min="1.78155737e-04" Max="4.16640234e+04"/>
    <Variable VarIndex="7" Expression="Min$(tau_isoPlus_newP_LOKI_PT)" Label="Min$(tau_isoPlus_newP_LOKI_PT)" Title="Min$(tau_isoPlus_newP_LOKI_PT)" Unit="" Internal="Min__tau_isoPlus_newP_LOKI_PT_" Type="F" Min="6.53085756e+00" Max="4.50447734e+04"/>
    <Variable VarIndex="8" Expression="(Min$(tau_isoPlus_newP_LOKI_VCHI2)-tau_isoPlus_oldP_LOKI_VCHI2)" Label="(Min$(tau_isoPlus_newP_LOKI_VCHI2)-tau_isoPlus_oldP_LOKI_VCHI2)" Title="(Min$(tau_isoPlus_newP_LOKI_VCHI2)-tau_isoPlus_oldP_LOKI_VCHI2)" Unit="" Internal="_Min__tau_isoPlus_newP_LOKI_VCHI2__M_tau_isoPlus_oldP_LOKI_VCHI2_" Type="F" Min="-1.85840797e+01" Max="9.33859436e+02"/>
    <Variable VarIndex="9" Expression="(Min$(tau_isoPlus_newP_LOKI_MM)-tau_LOKI_MM)" Label="(Min$(tau_isoPlus_newP_LOKI_MM)-tau_LOKI_MM)" Title="(Min$(tau_isoPlus_newP_LOKI_MM)-tau_LOKI_MM)" Unit="" Internal="_Min__tau_isoPlus_newP_LOKI_MM__M_tau_LOKI_MM_" Type="F" Min="1.20297241e+01" Max="1.02469014e+04"/>
    <Variable VarIndex="10" Expression="(Min$(tau_isoPlus_newP_LOKI_DOCACHI2MAX)-tau_LOKI_DOCACHI2MAX)" Label="(Min$(tau_isoPlus_newP_LOKI_DOCACHI2MAX)-tau_LOKI_DOCACHI2MAX)" Title="(Min$(tau_isoPlus_newP_LOKI_DOCACHI2MAX)-tau_LOKI_DOCACHI2MAX)" Unit="" Internal="_Min__tau_isoPlus_newP_LOKI_DOCACHI2MAX__M_tau_LOKI_DOCACHI2MAX_" Type="F" Min="-1.34414586e-06" Max="2.32939178e+02"/>
    <Variable VarIndex="11" Expression="Max$(tau_isoPlus_trk_LOKI_IPChi2)" Label="Max$(tau_isoPlus_trk_LOKI_IPChi2)" Title="Max$(tau_isoPlus_trk_LOKI_IPChi2)" Unit="" Internal="Max__tau_isoPlus_trk_LOKI_IPChi2_" Type="F" Min="3.87860666e-04" Max="2.49993401e+01"/>
    <Variable VarIndex="12" Expression="(Min$(tau_isoPlus_newP_LOKI_BPVIPCHI2)-tau_LOKI_BPVIPCHI2)" Label="(Min$(tau_isoPlus_newP_LOKI_BPVIPCHI2)-tau_LOKI_BPVIPCHI2)" Title="(Min$(tau_isoPlus_newP_LOKI_BPVIPCHI2)-tau_LOKI_BPVIPCHI2)" Unit="" Internal="_Min__tau_isoPlus_newP_LOKI_BPVIPCHI2__M_tau_LOKI_BPVIPCHI2_" Type="F" Min="-7.38372734e+04" Max="3.08289141e+04"/>
    <Variable VarIndex="13" Expression="Max$(tau_isoPlus_trk_LOKI_PT)" Label="Max$(tau_isoPlus_trk_LOKI_PT)" Title="Max$(tau_isoPlus_trk_LOKI_PT)" Unit="" Internal="Max__tau_isoPlus_trk_LOKI_PT_" Type="F" Min="2.50041656e+02" Max="3.84309258e+04"/>
    <Variable VarIndex="14" Expression="Min$(tau_isoPlus_trk_LOKI_PT)" Label="Min$(tau_isoPlus_trk_LOKI_PT)" Title="Min$(tau_isoPlus_trk_LOKI_PT)" Unit="" Internal="Min__tau_isoPlus_trk_LOKI_PT_" Type="F" Min="2.50003448e+02" Max="3.84309258e+04"/>
    <Variable VarIndex="15" Expression="Max$(tau_isoPlus_newP_LOKI_VCHI2)" Label="Max$(tau_isoPlus_newP_LOKI_VCHI2)" Title="Max$(tau_isoPlus_newP_LOKI_VCHI2)" Unit="" Internal="Max__tau_isoPlus_newP_LOKI_VCHI2_" Type="F" Min="1.91931054e-02" Max="2.56000171e+03"/>
    <Variable VarIndex="16" Expression="Max$(tau_isoPlus_newP_LOKI_VCHI2VDOF)" Label="Max$(tau_isoPlus_newP_LOKI_VCHI2VDOF)" Title="Max$(tau_isoPlus_newP_LOKI_VCHI2VDOF)" Unit="" Internal="Max__tau_isoPlus_newP_LOKI_VCHI2VDOF_" Type="F" Min="3.83862131e-03" Max="5.12000366e+02"/>
    <Variable VarIndex="17" Expression="Max$(tau_isoPlus_trk_LOKI_P)" Label="Max$(tau_isoPlus_trk_LOKI_P)" Title="Max$(tau_isoPlus_trk_LOKI_P)" Unit="" Internal="Max__tau_isoPlus_trk_LOKI_P_" Type="F" Min="1.31651001e+03" Max="1.30793088e+06"/>
    <Variable VarIndex="18" Expression="Min$(tau_isoPlus_trk_LOKI_TRGHP)" Label="Min$(tau_isoPlus_trk_LOKI_TRGHP)" Title="Min$(tau_isoPlus_trk_LOKI_TRGHP)" Unit="" Internal="Min__tau_isoPlus_trk_LOKI_TRGHP_" Type="F" Min="-0.00000000e+00" Max="4.97939050e-01"/>
    <Variable VarIndex="19" Expression="Max$(tau_isoPlus_newP_LOKI_P)" Label="Max$(tau_isoPlus_newP_LOKI_P)" Title="Max$(tau_isoPlus_newP_LOKI_P)" Unit="" Internal="Max__tau_isoPlus_newP_LOKI_P_" Type="F" Min="1.00803662e+04" Max="1.40944712e+06"/>
    <Variable VarIndex="20" Expression="Min$(tau_isoPlus_newP_LOKI_BPVDIRA)" Label="Min$(tau_isoPlus_newP_LOKI_BPVDIRA)" Title="Min$(tau_isoPlus_newP_LOKI_BPVDIRA)" Unit="" Internal="Min__tau_isoPlus_newP_LOKI_BPVDIRA_" Type="F" Min="-9.99999642e-01" Max="1.00000000e+00"/>
    <Variable VarIndex="21" Expression="Max$(tau_isoPlus_newP_LOKI_BPVIPCHI2)" Label="Max$(tau_isoPlus_newP_LOKI_BPVIPCHI2)" Title="Max$(tau_isoPlus_newP_LOKI_BPVIPCHI2)" Unit="" Internal="Max__tau_isoPlus_newP_LOKI_BPVIPCHI2_" Type="F" Min="1.11613190e-02" Max="3.76921594e+05"/>
    <Variable VarIndex="22" Expression="(Max$(tau_isoPlus_newP_LOKI_BPVIPCHI2)-tau_LOKI_BPVIPCHI2)" Label="(Max$(tau_isoPlus_newP_LOKI_BPVIPCHI2)-tau_LOKI_BPVIPCHI2)" Title="(Max$(tau_isoPlus_newP_LOKI_BPVIPCHI2)-tau_LOKI_BPVIPCHI2)" Unit="" Internal="_Max__tau_isoPlus_newP_LOKI_BPVIPCHI2__M_tau_LOKI_BPVIPCHI2_" Type="F" Min="-3.63307969e+04" Max="3.76841719e+05"/>
    <Variable VarIndex="23" Expression="Max$(tau_isoPlus_newP_LOKI_PT)" Label="Max$(tau_isoPlus_newP_LOKI_PT)" Title="Max$(tau_isoPlus_newP_LOKI_PT)" Unit="" Internal="Max__tau_isoPlus_newP_LOKI_PT_" Type="F" Min="7.08609848e+01" Max="5.57015938e+04"/>
    <Variable VarIndex="24" Expression="Max$(tau_isoPlus_newP_LOKI_DOCACHI2MAX)" Label="Max$(tau_isoPlus_newP_LOKI_DOCACHI2MAX)" Title="Max$(tau_isoPlus_newP_LOKI_DOCACHI2MAX)" Unit="" Internal="Max__tau_isoPlus_newP_LOKI_DOCACHI2MAX_" Type="F" Min="1.02004977e-02" Max="8.67831970e+02"/>
    <Variable VarIndex="25" Expression="(Max$(tau_isoPlus_newP_LOKI_MM)-tau_LOKI_MM)" Label="(Max$(tau_isoPlus_newP_LOKI_MM)-tau_LOKI_MM)" Title="(Max$(tau_isoPlus_newP_LOKI_MM)-tau_LOKI_MM)" Unit="" Internal="_Max__tau_isoPlus_newP_LOKI_MM__M_tau_LOKI_MM_" Type="F" Min="7.04625702e+01" Max="2.58914512e+04"/>
    <Variable VarIndex="26" Expression="Min$(tau_isoPlus_trk_LOKI_P)" Label="Min$(tau_isoPlus_trk_LOKI_P)" Title="Min$(tau_isoPlus_trk_LOKI_P)" Unit="" Internal="Min__tau_isoPlus_trk_LOKI_P_" Type="F" Min="1.19888000e+03" Max="3.99425031e+05"/>
    <Variable VarIndex="27" Expression="Min$(tau_isoPlus_newP_LOKI_P)" Label="Min$(tau_isoPlus_newP_LOKI_P)" Title="Min$(tau_isoPlus_newP_LOKI_P)" Unit="" Internal="Min__tau_isoPlus_newP_LOKI_P_" Type="F" Min="8.63768555e+03" Max="9.03035875e+05"/>
    <Variable VarIndex="28" Expression="(Max$(tau_isoPlus_newP_LOKI_VCHI2)-tau_isoPlus_oldP_LOKI_VCHI2)" Label="(Max$(tau_isoPlus_newP_LOKI_VCHI2)-tau_isoPlus_oldP_LOKI_VCHI2)" Title="(Max$(tau_isoPlus_newP_LOKI_VCHI2)-tau_isoPlus_oldP_LOKI_VCHI2)" Unit="" Internal="_Max__tau_isoPlus_newP_LOKI_VCHI2__M_tau_isoPlus_oldP_LOKI_VCHI2_" Type="F" Min="-1.51973486e+01" Max="2.55353491e+03"/>
    <Variable VarIndex="29" Expression="(Max$(tau_isoPlus_newP_LOKI_DOCACHI2MAX)-tau_LOKI_DOCACHI2MAX)" Label="(Max$(tau_isoPlus_newP_LOKI_DOCACHI2MAX)-tau_LOKI_DOCACHI2MAX)" Title="(Max$(tau_isoPlus_newP_LOKI_DOCACHI2MAX)-tau_LOKI_DOCACHI2MAX)" Unit="" Internal="_Max__tau_isoPlus_newP_LOKI_DOCACHI2MAX__M_tau_LOKI_DOCACHI2MAX_" Type="F" Min="-1.34414586e-06" Max="8.67362976e+02"/>
    <Variable VarIndex="30" Expression="(Max$(tau_isoPlus_newP_LOKI_VCHI2VDOF)-tau_isoPlus_oldP_LOKI_VCHI2VDOF)" Label="(Max$(tau_isoPlus_newP_LOKI_VCHI2VDOF)-tau_isoPlus_oldP_LOKI_VCHI2VDOF)" Title="(Max$(tau_isoPlus_newP_LOKI_VCHI2VDOF)-tau_isoPlus_oldP_LOKI_VCHI2VDOF)" Unit="" Internal="_Max__tau_isoPlus_newP_LOKI_VCHI2VDOF__M_tau_isoPlus_oldP_LOKI_VCHI2VDOF_" Type="F" Min="-5.91362858e+00" Max="5.09844788e+02"/>
    <Variable VarIndex="31" Expression="Min$(tau_isoPlus_newP_LOKI_DOCACHI2MAX)" Label="Min$(tau_isoPlus_newP_LOKI_DOCACHI2MAX)" Title="Min$(tau_isoPlus_newP_LOKI_DOCACHI2MAX)" Unit="" Internal="Min__tau_isoPlus_newP_LOKI_DOCACHI2MAX_" Type="F" Min="1.02004977e-02" Max="2.35559189e+02"/>
    <Variable VarIndex="32" Expression="Min$(tau_isoPlus_newP_LOKI_VCHI2VDOF)" Label="Min$(tau_isoPlus_newP_LOKI_VCHI2VDOF)" Title="Min$(tau_isoPlus_newP_LOKI_VCHI2VDOF)" Unit="" Internal="Min__tau_isoPlus_newP_LOKI_VCHI2VDOF_" Type="F" Min="-1.25737004e-02" Max="1.87126328e+02"/>
    <Variable VarIndex="33" Expression="Min$(tau_isoPlus_newP_LOKI_VCHI2)" Label="Min$(tau_isoPlus_newP_LOKI_VCHI2)" Title="Min$(tau_isoPlus_newP_LOKI_VCHI2)" Unit="" Internal="Min__tau_isoPlus_newP_LOKI_VCHI2_" Type="F" Min="-6.28684983e-02" Max="9.35631653e+02"/>
    <Variable VarIndex="34" Expression="Max$(tau_isoPlus_newP_LOKI_BPVDIRA)" Label="Max$(tau_isoPlus_newP_LOKI_BPVDIRA)" Title="Max$(tau_isoPlus_newP_LOKI_BPVDIRA)" Unit="" Internal="Max__tau_isoPlus_newP_LOKI_BPVDIRA_" Type="F" Min="-9.99986529e-01" Max="1.00000000e+00"/>
    <Variable VarIndex="35" Expression="abs(tau_isoPlus_trk_LOKI_ID)" Label="abs(tau_isoPlus_trk_LOKI_ID)" Title="abs(tau_isoPlus_trk_LOKI_ID)" Unit="" Internal="abs_tau_isoPlus_trk_LOKI_ID_" Type="F" Min="1.10000000e+01" Max="2.21200000e+03"/>
  </Variables>
  <Spectators NSpec="0"/>
  <Classes NClass="2">
    <Class Name="Signal" Index="0"/>
    <Class Name="Background" Index="1"/>
  </Classes>
  <Transformations NTransformations="0"/>
  <MVAPdfs/>
  <Weights NTrees="1000" AnalysisType="1">
    <BinaryTree type="DecisionTree" boostWeight="1.0000000000000000e+00" itree="0">
      <Node pos="s" depth="0" NCoef="0" IVar="0" Cut="8.4285717010498047e+00" cType="1" res="2.8499948978424072e-01" rms="4.1082271933555603e-01" purity="7.8499948978424072e-01" nType="0">
        <Node pos="l" depth="1" NCoef="0" IVar="-1" Cut="0.0000000000000000e+00" cType="1" res="7.4488431215286255e-02" rms="3.3359682559967041e-01" purity="8.7244212627410889e-01" nType="-99"/>
        <Node pos="r" depth="1" NCoef="0" IVar="25" Cut="2.1961455078125000e+03" cType="0" res="1.5039197169244289e-02" rms="4.9977377057075500e-01" purity="5.1503920555114746e-01" nType="0">
          <Node pos="l" depth="2" NCoef="0" IVar="-1" Cut="0.0000000000000000e+00" cType="1" res="2.3204920813441277e-02" rms="4.8635202646255493e-01" purity="6.1602461338043213e-01" nType="-99"/>
          <Node pos="r" depth="2" NCoef="0" IVar="-1" Cut="0.0000000000000000e+00" cType="1" res="-3.4584701061248779e-02" rms="4.6914544701576233e-01" purity="3.2707649469375610e-01" nType="-99"/>
        </Node>
      </Node>
    </BinaryTree>
    <BinaryTree type="DecisionTree" boostWeight="1.0000000000000000e+00" itree="1">
      <Node pos="s" depth="0" NCoef="0" IVar="0" Cut="8.4285717010498047e+00" cType="1" res="2.5712916254997253e-01" rms="4.0388146042823792e-01" purity="7.8559803962707520e-01" nType="0">
        <Node pos="l" depth="1" NCoef="0" IVar="-1" Cut="0.0000000000000000e+00" cType="1" res="6.7501731216907501e-02" rms="3.3317631483078003e-01" purity="8.7281835079193115e-01" nType="-99"/>
        <Node pos="r" depth="1" NCoef="0" IVar="1" Cut="1.2073746337890625e+03" cType="0" res="1.5052582137286663e-02" rms="4.9617734551429749e-01" purity="5.1667702198028564e-01" nType="0">
          <Node pos="l" depth="2" NCoef="0" IVar="-1" Cut="0.0000000000000000e+00" cType="1" res="1.3640090823173523e-02" rms="4.9145463109016418e-01" purity="5.7018965482711792e-01" nType="-99"/>
          <Node pos="r" depth="2" NCoef="0" IVar="-1" Cut="0.0000000000000000e+00" cType="1" res="-6.6929124295711517e-02" rms="3.6910581588745117e-01" purity="1.6451613605022430e-01" nType="-99"/>
        </Node>
      </Node>
    </BinaryTree>
    <BinaryTree type="DecisionTree" boostWeight="1.0000000000000000e+00" itree="2">
      <Node pos="s" depth="0" NCoef="0" IVar="0" Cut="1.0285714149475098e+01" cType="1" res="2.2962726652622223e-01" rms="3.9962059259414673e-01" purity="7.8358978033065796e-01" nType="0">
        <Node pos="l" depth="1" NCoef="0" IVar="-1" Cut="0.0000000000000000e+00" cType="1" res="5.7317741215229034e-02" rms="3.5765168070793152e-01" purity="8.4418219327926636e-01" nType="-99"/>
        <Node pos="r" depth="1" NCoef="0" IVar="9" Cut="4.6534014892578125e+02" cType="0" res="-7.4641630053520203e-02" rms="4.8761385679244995e-01" purity="4.2815443873405457e-01" nType="0">
          <Node pos="l" depth="2" NCoef="0" IVar="-1" Cut="0.0000000000000000e+00" cType="1" res="3.5087332129478455e-02" rms="4.5982128381729126e-01" purity="6.8907344341278076e-01" nType="-99"/>
          <Node pos="r" depth="2" NCoef="0" IVar="-1" Cut="0.0000000000000000e+00" cType="1" res="-2.8441807255148888e-02" rms="4.7277247905731201e-01" purity="3.5787191987037659e-01" nType="-99"/>
        </Node>
      </Node>
    </BinaryTree>
    <BinaryTree type="DecisionTree" boostWeight="1.0000000000000000e+00" itree="3">
      <Node pos="s" depth="0" NCoef="0" IVar="0" Cut="8.4285717010498047e+00" cType="1" res="2.0846980810165405e-01" rms="3.9417225122451782e-01" purity="7.8512358665466309e-01" nType="0">
        <Node pos="l" depth="1" NCoef="0" IVar="-1" Cut="0.0000000000000000e+00" cType="1" res="5.7202249765396118e-02" rms="3.3263757824897766e-01" purity="8.7329912185668945e-01" nType="-99"/>
        <Node pos="r" depth="1" NCoef="0" IVar="25" Cut="2.1961455078125000e+03" cType="0" res="4.2574657127261162e-03" rms="4.8732805252075195e-01" purity="5.1424378156661987e-01" nType="0">
          <Node pos="l" depth="2" NCoef="0" IVar="-1" Cut="0.0000000000000000e+00" cType="1" res="1.8984997645020485e-02" rms="4.7697383165359497e-01" purity="6.1558938026428223e-01" nType="-99"/>
          <Node pos="r" depth="2" NCoef="0" IVar="-1" Cut="0.0000000000000000e+00" cType="1" res="-3.2741580158472061e-02" rms="4.6138295531272888e-01" purity="3.2625302672386169e-01" nType="-99"/>
        </Node>
      </Node>
    </BinaryTree>
    <BinaryTree type="DecisionTree" boostWeight="1.0000000000000000e+00" itree="4">
      <Node pos="s" depth="0" NCoef="0" IVar="0" Cut="1.0285714149475098e+01" cType="1" res="1.8722899258136749e-01" rms="3.9063388109207153e-01" purity="7.8438925743103027e-01" nType="0">
        <Node pos="l" depth="1" NCoef="0" IVar="-1" Cut="0.0000000000000000e+00" cType="1" res="4.9034100025892258e-02" rms="3.5453456640243530e-01" purity="8.4579044580459595e-01" nType="-99"/>
        <Node pos="r" depth="1" NCoef="0" IVar="1" Cut="1.1183079833984375e+03" cType="0" res="-6.8875059485435486e-02" rms="4.8166239261627197e-01" purity="4.2766365408897400e-01" nType="0">
          <Node pos="l" depth="2" NCoef="0" IVar="-1" Cut="0.0000000000000000e+00" cType="1" res="-5.8040777221322060e-03" rms="4.8931181430816650e-01" purity="4.7343739867210388e-01" nType="-99"/>
          <Node pos="r" depth="2" NCoef="0" IVar="-1" Cut="0.0000000000000000e+00" cType="1" res="-7.8035503625869751e-02" rms="2.4592624604701996e-01" purity="6.5429687500000000e-02" nType="-99"/>
        </Node>
      </Node>
    </BinaryTree>
    <BinaryTree type="DecisionTree" boostWeight="1.0000000000000000e+00" itree="5">
      <Node pos="s" depth="0" NCoef="0" IVar="0" Cut="8.4285717010498047e+00" cType="1" res="1.6922095417976379e-01" rms="3.8701751828193665e-01" purity="7.8501266241073608e-01" nType="0">
        <Node pos="l" depth="1" NCoef="0" IVar="-1" Cut="0.0000000000000000e+00" cType="1" res="4.9295291304588318e-02" rms="3.3295613527297974e-01" purity="8.7301504611968994e-01" nType="-99"/>
        <Node pos="r" depth="1" NCoef="0" IVar="1" Cut="1.1889647216796875e+03" cType="0" res="-1.1686249636113644e-03" rms="4.8015198111534119e-01" purity="5.1534837484359741e-01" nType="0">
          <Node pos="l" depth="2" NCoef="0" IVar="-1" Cut="0.0000000000000000e+00" cType="1" res="8.4718922153115273e-03" rms="4.8128163814544678e-01" purity="5.6785953044891357e-01" nType="-99"/>
          <Node pos="r" depth="2" NCoef="0" IVar="-1" Cut="0.0000000000000000e+00" cType="1" res="-6.1884228140115738e-02" rms="3.4458610415458679e-01" purity="1.4764751493930817e-01" nType="-99"/>
        </Node>
      </Node>
    </BinaryTree>
    <BinaryTree type="DecisionTree" boostWeight="1.0000000000000000e+00" itree="6">
      <Node pos="s" depth="0" NCoef="0" IVar="0" Cut="1.0285714149475098e+01" cType="1" res="1.5234300494194031e-01" rms="3.8401213288307190e-01" purity="7.8502845764160156e-01" nType="0">
        <Node pos="l" depth="1" NCoef="0" IVar="-1" Cut="0.0000000000000000e+00" cType="1" res="4.2154934257268906e-02" rms="3.5330709815025330e-01" purity="8.4575325250625610e-01" nType="-99"/>
        <Node pos="r" depth="1" NCoef="0" IVar="9" Cut="4.6534014892578125e+02" cType="0" res="-6.1988059431314468e-02" rms="4.7658383846282959e-01" purity="4.2721292376518250e-01" nType="0">
          <Node pos="l" depth="2" NCoef="0" IVar="-1" Cut="0.0000000000000000e+00" cType="1" res="2.9942629858851433e-02" rms="4.5797669887542725e-01" purity="6.8632137775421143e-01" nType="-99"/>
          <Node pos="r" depth="2" NCoef="0" IVar="-1" Cut="0.0000000000000000e+00" cType="1" res="-2.3740014061331749e-02" rms="4.6581470966339111e-01" purity="3.5909789800643921e-01" nType="-99"/>
        </Node>
      </Node>
    </BinaryTree>
    <BinaryTree type="DecisionTree" boostWeight="1.0000000000000000e+00" itree="7">
      <Node pos="s" depth="0" NCoef="0" IVar="0" Cut="8.4285717010498047e+00" cType="1" res="1.3562086224555969e-01" rms="3.8311088085174561e-01" purity="7.8305763006210327e-01" nType="0">
        <Node pos="l" depth="1" NCoef="0" IVar="-1" Cut="0.0000000000000000e+00" cType="1" res="4.2633563280105591e-02" rms="3.3464848995208740e-01" purity="8.7149751186370850e-01" nType="-99"/>
        <Node pos="r" depth="1" NCoef="0" IVar="25" Cut="2.1961455078125000e+03" cType="0" res="-8.8732820004224777e-03" rms="4.7495949268341064e-01" purity="5.1225447654724121e-01" nType="0">
          <Node pos="l" depth="2" NCoef="0" IVar="-1" Cut="0.0000000000000000e+00" cType="1" res="1.4057398773729801e-02" rms="4.6723338961601257e-01" purity="6.0997605323791504e-01" nType="-99"/>
          <Node pos="r" depth="2" NCoef="0" IVar="-1" Cut="0.0000000000000000e+00" cType="1" res="-3.1351123005151749e-02" rms="4.5481106638908386e-01" purity="3.2960790395736694e-01" nType="-99"/>
        </Node>
      </Node>
    </BinaryTree>
    <BinaryTree type="DecisionTree" boostWeight="1.0000000000000000e+00" itree="8">
      <Node pos="s" depth="0" NCoef="0" IVar="1" Cut="1.0361654052734375e+03" cType="0" res="1.2410300225019455e-01" rms="3.7945151329040527e-01" purity="7.8523761034011841e-01" nType="0">
        <Node pos="l" depth="1" NCoef="0" IVar="-1" Cut="0.0000000000000000e+00" cType="1" res="3.1464021652936935e-02" rms="3.7289899587631226e-01" purity="8.0083531141281128e-01" nType="-99"/>
        <Node pos="r" depth="1" NCoef="0" IVar="0" Cut="1.0285714149475098e+01" cType="1" res="-4.1206675767898560e-01" rms="2.6927819848060608e-01" purity="8.1640191376209259e-02" nType="0">
          <Node pos="l" depth="2" NCoef="0" IVar="-1" Cut="0.0000000000000000e+00" cType="1" res="-1.0904373973608017e-01" rms="3.3288776874542236e-01" purity="1.3980136811733246e-01" nType="-99"/>
          <Node pos="r" depth="2" NCoef="0" IVar="-1" Cut="0.0000000000000000e+00" cType="1" res="-7.3914684355258942e-02" rms="1.6335111856460571e-01" purity="2.7181688696146011e-02" nType="-99"/>
        </Node>
      </Node>
    </BinaryTree>
    <BinaryTree type="DecisionTree" boostWeight="1.0000000000000000e+00" itree="9">
      <Node pos="s" depth="0" NCoef="0" IVar="1" Cut="1.1410792236328125e+03" cType="0" res="1.1151326447725296e-01" rms="3.7830063700675964e-01" purity="7.8475701808929443e-01" nType="0">
        <Node pos="l" depth="1" NCoef="0" IVar="-1" Cut="0.0000000000000000e+00" cType="1" res="3.0275072902441025e-02" rms="3.6933606863021851e-01" purity="8.0819571018218994e-01" nType="-99"/>
        <Node pos="r" depth="1" NCoef="0" IVar="1" Cut="1.0652510986328125e+03" cType="0" res="-2.7018639445304871e-01" rms="3.8187015056610107e-01" purity="2.4368126690387726e-01" nType="0">
          <Node pos="l" depth="2" NCoef="0" IVar="-1" Cut="0.0000000000000000e+00" cType="1" res="-3.0547628179192543e-02" rms="4.4888189435005188e-01" purity="4.4971337914466858e-01" nType="-99"/>
          <Node pos="r" depth="2" NCoef="0" IVar="-1" Cut="0.0000000000000000e+00" cType="1" res="-7.7375769615173340e-02" rms="3.0985584855079651e-01" purity="1.2254901975393295e-01" nType="-99"/>
        </Node>
      </Node>
    </BinaryTree>
    <BinaryTree type="DecisionTree" boostWeight="1.0000000000000000e+00" itree="10">
      <Node pos="s" depth="0" NCoef="0" IVar="0" Cut="8.4285717010498047e+00" cType="1" res="1.0020894557237625e-01" rms="3.7687662243843079e-01" purity="7.8423696756362915e-01" nType="0">
        <Node pos="l" depth="1" NCoef="0" IVar="-1" Cut="0.0000000000000000e+00" cType="1" res="3.6083929240703583e-02" rms="3.3169758319854736e-01" purity="8.7234270572662354e-01" nType="-99"/>
        <Node pos="r" depth="1" NCoef="0" IVar="25" Cut="2.1982145996093750e+03" cType="0" res="-2.8380909934639931e-02" rms="4.6738621592521667e-01" purity="5.1360535621643066e-01" nType="0">
          <Node pos="l" depth="2" NCoef="0" IVar="-1" Cut="0.0000000000000000e+00" cType="1" res="8.8288793340325356e-03" rms="4.6082705259323120e-01" purity="6.1303412914276123e-01" nType="-99"/>
          <Node pos="r" depth="2" NCoef="0" IVar="-1" Cut="0.0000000000000000e+00" cType="1" res="-3.3051602542400360e-02" rms="4.5053321123123169e-01" purity="3.2723003625869751e-01" nType="-99"/>
        </Node>
      </Node>
    </BinaryTree>
    <BinaryTree type="DecisionTree" boostWeight="1.0000000000000000e+00" itree="11">
      <Node pos="s" depth="0" NCoef="0" IVar="0" Cut="6.5714287757873535e+00" cType="1" res="9.0719290077686310e-02" rms="3.7477868795394897e-01" purity="7.8508561849594116e-01" nType="0">
        <Node pos="l" depth="1" NCoef="0" IVar="-1" Cut="0.0000000000000000e+00" cType="1" res="4.0008898824453354e-02" rms="3.0299505591392517e-01" purity="8.9674699306488037e-01" nType="-99"/>
        <Node pos="r" depth="1" NCoef="0" IVar="25" Cut="1.7309326171875000e+03" cType="0" res="1.4510096982121468e-02" rms="4.3633368611335754e-01" purity="6.4643418788909912e-01" nType="0">
          <Node pos="l" depth="2" NCoef="0" IVar="-1" Cut="0.0000000000000000e+00" cType="1" res="1.2668763287365437e-02" rms="4.2030030488967896e-01" purity="6.9102078676223755e-01" nType="-99"/>
          <Node pos="r" depth="2" NCoef="0" IVar="-1" Cut="0.0000000000000000e+00" cType="1" res="-4.4328406453132629e-02" rms="4.5717728137969971e-01" purity="4.2050278186798096e-01" nType="-99"/>
        </Node>
      </Node>
    </BinaryTree>
    <BinaryTree type="DecisionTree" boostWeight="1.0000000000000000e+00" itree="12">
      <Node pos="s" depth="0" NCoef="0" IVar="0" Cut="1.2142857551574707e+01" cType="1" res="8.0749139189720154e-02" rms="3.7361329793930054e-01" purity="7.8367555141448975e-01" nType="0">
        <Node pos="l" depth="1" NCoef="0" IVar="-1" Cut="0.0000000000000000e+00" cType="1" res="2.6257399469614029e-02" rms="3.5767412185668945e-01" purity="8.2414335012435913e-01" nType="-99"/>
        <Node pos="r" depth="1" NCoef="0" IVar="23" Cut="6.2873505859375000e+03" cType="0" res="-1.3137236237525940e-01" rms="4.5614627003669739e-01" purity="3.7426114082336426e-01" nType="0">
          <Node pos="l" depth="2" NCoef="0" IVar="-1" Cut="0.0000000000000000e+00" cType="1" res="3.6044393200427294e-03" rms="4.6430566906929016e-01" purity="5.4270464181900024e-01" nType="-99"/>
          <Node pos="r" depth="2" NCoef="0" IVar="-1" Cut="0.0000000000000000e+00" cType="1" res="-4.0434911847114563e-02" rms="4.3714791536331177e-01" purity="3.0138567090034485e-01" nType="-99"/>
        </Node>
      </Node>
    </BinaryTree>
    <BinaryTree type="DecisionTree" boostWeight="1.0000000000000000e+00" itree="13">
      <Node pos="s" depth="0" NCoef="0" IVar="0" Cut="1.0285714149475098e+01" cType="1" res="7.4841357767581940e-02" rms="3.7098306417465210e-01" purity="7.8564250469207764e-01" nType="0">
        <Node pos="l" depth="1" NCoef="0" IVar="-1" Cut="0.0000000000000000e+00" cType="1" res="2.6887219399213791e-02" rms="3.4673979878425598e-01" purity="8.4662169218063354e-01" nType="-99"/>
        <Node pos="r" depth="1" NCoef="0" IVar="1" Cut="2.1341835937500000e+03" cType="1" res="-7.1983277797698975e-02" rms="4.6268722414970398e-01" purity="4.2923957109451294e-01" nType="0">
          <Node pos="l" depth="2" NCoef="0" IVar="-1" Cut="0.0000000000000000e+00" cType="1" res="-6.9114817306399345e-03" rms="4.6238312125205994e-01" purity="4.6206578612327576e-01" nType="-99"/>
          <Node pos="r" depth="2" NCoef="0" IVar="-1" Cut="0.0000000000000000e+00" cType="1" res="-5.4662775248289108e-02" rms="4.1205564141273499e-01" purity="2.6340326666831970e-01" nType="-99"/>
        </Node>
      </Node>
    </BinaryTree>
    <BinaryTree type="DecisionTree" boostWeight="1.0000000000000000e+00" itree="14">
      <Node pos="s" depth="0" NCoef="0" IVar="1" Cut="1.0361654052734375e+03" cType="0" res="6.7340888082981110e-02" rms="3.7003836035728455e-01" purity="7.8585046529769897e-01" nType="0">
        <Node pos="l" depth="1" NCoef="0" IVar="-1" Cut="0.0000000000000000e+00" cType="1" res="2.0154858008027077e-02" rms="3.6667525768280029e-01" purity="8.0111819505691528e-01" nType="-99"/>
        <Node pos="r" depth="1" NCoef="0" IVar="0" Cut="1.0285714149475098e+01" cType="1" res="-3.4098154306411743e-01" rms="2.8231233358383179e-01" purity="8.8598132133483887e-02" nType="0">
          <Node pos="l" depth="2" NCoef="0" IVar="-1" Cut="0.0000000000000000e+00" cType="1" res="-9.4084493815898895e-02" rms="3.3934462070465088e-01" purity="1.4687499403953552e-01" nType="-99"/>
          <Node pos="r" depth="2" NCoef="0" IVar="-1" Cut="0.0000000000000000e+00" cType="1" res="-6.3136242330074310e-02" rms="1.8323059380054474e-01" purity="3.5125449299812317e-02" nType="-99"/>
        </Node>
      </Node>
    </BinaryTree>
    <BinaryTree type="DecisionTree" boostWeight="1.0000000000000000e+00" itree="15">
      <Node pos="s" depth="0" NCoef="0" IVar="0" Cut="1.4000000000000000e+01" cType="1" res="6.1056610196828842e-02" rms="3.6853536963462830e-01" purity="7.8576582670211792e-01" nType="0">
        <Node pos="l" depth="1" NCoef="0" IVar="-1" Cut="0.0000000000000000e+00" cType="1" res="2.0297698676586151e-02" rms="3.5933059453964233e-01" purity="8.1283223628997803e-01" nType="-99"/>
        <Node pos="r" depth="1" NCoef="0" IVar="23" Cut="6.3603867187500000e+03" cType="0" res="-1.6778339445590973e-01" rms="4.4116899371147156e-01" purity="3.2421082258224487e-01" nType="0">
          <Node pos="l" depth="2" NCoef="0" IVar="-1" Cut="0.0000000000000000e+00" cType="1" res="-1.7118811374530196e-03" rms="4.7094655036926270e-01" purity="5.1891314983367920e-01" nType="-99"/>
          <Node pos="r" depth="2" NCoef="0" IVar="-1" Cut="0.0000000000000000e+00" cType="1" res="-4.7199044376611710e-02" rms="4.1406151652336121e-01" purity="2.5154104828834534e-01" nType="-99"/>
        </Node>
      </Node>
    </BinaryTree>
    <BinaryTree type="DecisionTree" boostWeight="1.0000000000000000e+00" itree="16">
      <Node pos="s" depth="0" NCoef="0" IVar="1" Cut="1.1410792236328125e+03" cType="0" res="5.3566422313451767e-02" rms="3.6934107542037964e-01" purity="7.8447908163070679e-01" nType="0">
        <Node pos="l" depth="1" NCoef="0" IVar="-1" Cut="0.0000000000000000e+00" cType="1" res="1.8327159807085991e-02" rms="3.6344745755195618e-01" purity="8.0802309513092041e-01" nType="-99"/>
        <Node pos="r" depth="1" NCoef="0" IVar="1" Cut="1.0652510986328125e+03" cType="0" res="-2.5039336085319519e-01" rms="3.7306338548660278e-01" purity="2.4380403757095337e-01" nType="0">
          <Node pos="l" depth="2" NCoef="0" IVar="-1" Cut="0.0000000000000000e+00" cType="1" res="-3.7523478269577026e-02" rms="4.4498530030250549e-01" purity="4.5644235610961914e-01" nType="-99"/>
          <Node pos="r" depth="2" NCoef="0" IVar="-1" Cut="0.0000000000000000e+00" cType="1" res="-7.1839615702629089e-02" rms="3.1066307425498962e-01" purity="1.1982968449592590e-01" nType="-99"/>
        </Node>
      </Node>
    </BinaryTree>
    <BinaryTree type="DecisionTree" boostWeight="1.0000000000000000e+00" itree="17">
      <Node pos="s" depth="0" NCoef="0" IVar="0" Cut="6.5714287757873535e+00" cType="1" res="4.8331271857023239e-02" rms="3.6801299452781677e-01" purity="7.8418684005737305e-01" nType="0">
        <Node pos="l" depth="1" NCoef="0" IVar="-1" Cut="0.0000000000000000e+00" cType="1" res="3.0836503952741623e-02" rms="3.0195400118827820e-01" purity="8.9684659242630005e-01" nType="-99"/>
        <Node pos="r" depth="1" NCoef="0" IVar="25" Cut="1.7309326171875000e+03" cType="0" res="-1.4996728859841824e-02" rms="4.2767515778541565e-01" purity="6.4487808942794800e-01" nType="0">
          <Node pos="l" depth="2" NCoef="0" IVar="-1" Cut="0.0000000000000000e+00" cType="1" res="5.3847110830247402e-03" rms="4.1247966885566711e-01" purity="6.8883103132247925e-01" nType="-99"/>
          <Node pos="r" depth="2" NCoef="0" IVar="-1" Cut="0.0000000000000000e+00" cType="1" res="-4.8346545547246933e-02" rms="4.5361509919166565e-01" purity="4.2317709326744080e-01" nType="-99"/>
        </Node>
      </Node>
    </BinaryTree>
    <BinaryTree type="DecisionTree" boostWeight="1.0000000000000000e+00" itree="18">
      <Node pos="s" depth="0" NCoef="0" IVar="2" Cut="2.3806506767868996e-02" cType="1" res="4.2248051613569260e-02" rms="3.6747387051582336e-01" purity="7.8331631422042847e-01" nType="0">
        <Node pos="l" depth="1" NCoef="0" IVar="-1" Cut="0.0000000000000000e+00" cType="1" res="2.8928160667419434e-02" rms="3.0763205885887146e-01" purity="8.7873405218124390e-01" nType="-99"/>
        <Node pos="r" depth="1" NCoef="0" IVar="25" Cut="2.0596916503906250e+03" cType="0" res="-8.4324833005666733e-03" rms="4.1043445467948914e-01" purity="6.9198065996170044e-01" nType="0">
          <Node pos="l" depth="2" NCoef="0" IVar="-1" Cut="0.0000000000000000e+00" cType="1" res="1.0304446332156658e-02" rms="3.8827991485595703e-01" purity="7.4101078510284424e-01" nType="-99"/>
          <Node pos="r" depth="2" NCoef="0" IVar="-1" Cut="0.0000000000000000e+00" cType="1" res="-2.4107499048113823e-02" rms="4.3329557776451111e-01" purity="6.0984033346176147e-01" nType="-99"/>
        </Node>
      </Node>
    </BinaryTree>
    <BinaryTree type="DecisionTree" boostWeight="1.0000000000000000e+00" itree="19">
      <Node pos="s" depth="0" NCoef="0" IVar="0" Cut="6.5714287757873535e+00" cType="1" res="3.8907323032617569e-02" rms="3.6538726091384888e-01" purity="7.8420573472976685e-01" nType="0">
        <Node pos="l" depth="1" NCoef="0" IVar="-1" Cut="0.0000000000000000e+00" cType="1" res="2.7964917942881584e-02" rms="3.0067017674446106e-01" purity="8.9726901054382324e-01" nType="-99"/>
        <Node pos="r" depth="1" NCoef="0" IVar="25" Cut="1.7309326171875000e+03" cType="0" res="-1.8637204542756081e-02" rms="4.2552492022514343e-01" purity="6.4377027750015259e-01" nType="0">
          <Node pos="l" depth="2" NCoef="0" IVar="-1" Cut="0.0000000000000000e+00" cType="1" res="3.5430991556495428e-03" rms="4.1214874386787415e-01" purity="6.8862366676330566e-01" nType="-99"/>
          <Node pos="r" depth="2" NCoef="0" IVar="-1" Cut="0.0000000000000000e+00" cType="1" res="-4.4274415820837021e-02" rms="4.5233651995658875e-01" purity="4.1305309534072876e-01" nType="-99"/>
        </Node>
      </Node>
    </BinaryTree>
    <BinaryTree type="DecisionTree" boostWeight="1.0000000000000000e+00" itree="20">
      <Node pos="s" depth="0" NCoef="0" IVar="0" Cut="1.4000000000000000e+01" cType="1" res="3.6217078566551208e-02" rms="3.6361467838287354e-01" purity="7.8507989645004272e-01" nType="0">
        <Node pos="l" depth="1" NCoef="0" IVar="-1" Cut="0.0000000000000000e+00" cType="1" res="1.4072948135435581e-02" rms="3.5568326711654663e-01" purity="8.1159430742263794e-01" nType="-99"/>
        <Node pos="r" depth="1" NCoef="0" IVar="23" Cut="6.3603867187500000e+03" cType="0" res="-1.5379345417022705e-01" rms="4.3771937489509583e-01" purity="3.3149492740631104e-01" nType="0">
          <Node pos="l" depth="2" NCoef="0" IVar="-1" Cut="0.0000000000000000e+00" cType="1" res="-1.0637985542416573e-03" rms="4.6552282571792603e-01" purity="5.3360486030578613e-01" nType="-99"/>
          <Node pos="r" depth="2" NCoef="0" IVar="-1" Cut="0.0000000000000000e+00" cType="1" res="-4.5018494129180908e-02" rms="4.1139483451843262e-01" purity="2.5091353058815002e-01" nType="-99"/>
        </Node>
      </Node>
    </BinaryTree>
    <BinaryTree type="DecisionTree" boostWeight="1.0000000000000000e+00" itree="21">
      <Node pos="s" depth="0" NCoef="0" IVar="1" Cut="1.0361654052734375e+03" cType="0" res="3.1383711844682693e-02" rms="3.6420986056327820e-01" purity="7.8409755229949951e-01" nType="0">
        <Node pos="l" depth="1" NCoef="0" IVar="-1" Cut="0.0000000000000000e+00" cType="1" res="1.1416793800890446e-02" rms="3.6257776618003845e-01" purity="7.9976648092269897e-01" nType="-99"/>
        <Node pos="r" depth="1" NCoef="0" IVar="0" Cut="1.0285714149475098e+01" cType="1" res="-2.8559523820877075e-01" rms="2.8705725073814392e-01" purity="9.0611353516578674e-02" nType="0">
          <Node pos="l" depth="2" NCoef="0" IVar="-1" Cut="0.0000000000000000e+00" cType="1" res="-8.2280077040195465e-02" rms="3.4064638614654541e-01" purity="1.4854517579078674e-01" nType="-99"/>
          <Node pos="r" depth="2" NCoef="0" IVar="-1" Cut="0.0000000000000000e+00" cType="1" res="-5.6207228451967239e-02" rms="1.9244204461574554e-01" purity="3.8141470402479172e-02" nType="-99"/>
        </Node>
      </Node>
    </BinaryTree>
    <BinaryTree type="DecisionTree" boostWeight="1.0000000000000000e+00" itree="22">
      <Node pos="s" depth="0" NCoef="0" IVar="2" Cut="4.7613013535737991e-02" cType="1" res="2.9243821278214455e-02" rms="3.6307242512702942e-01" purity="7.8528958559036255e-01" nType="0">
        <Node pos="l" depth="1" NCoef="0" IVar="-1" Cut="0.0000000000000000e+00" cType="1" res="2.2340076044201851e-02" rms="3.1542536616325378e-01" purity="8.6738538742065430e-01" nType="-99"/>
        <Node pos="r" depth="1" NCoef="0" IVar="1" Cut="2.1178964843750000e+03" cType="1" res="-2.3879684507846832e-02" rms="4.1280791163444519e-01" purity="6.7480432987213135e-01" nType="0">
          <Node pos="l" depth="2" NCoef="0" IVar="-1" Cut="0.0000000000000000e+00" cType="1" res="1.7323404317721725e-03" rms="3.9940032362937927e-01" purity="7.0056897401809692e-01" nType="-99"/>
          <Node pos="r" depth="2" NCoef="0" IVar="-1" Cut="0.0000000000000000e+00" cType="1" res="-4.3383143842220306e-02" rms="4.4326579570770264e-01" purity="5.6054133176803589e-01" nType="-99"/>
        </Node>
      </Node>
    </BinaryTree>
    <BinaryTree type="DecisionTree" boostWeight="1.0000000000000000e+00" itree="23">
      <Node pos="s" depth="0" NCoef="0" IVar="1" Cut="1.1206236572265625e+03" cType="0" res="2.7665210887789726e-02" rms="3.6080738902091980e-01" purity="7.8671962022781372e-01" nType="0">
        <Node pos="l" depth="1" NCoef="0" IVar="-1" Cut="0.0000000000000000e+00" cType="1" res="1.1507160030305386e-02" rms="3.5717937350273132e-01" purity="8.0860257148742676e-01" nType="-99"/>
        <Node pos="r" depth="1" NCoef="0" IVar="9" Cut="1.9817137145996094e+02" cType="1" res="-2.4473674595355988e-01" rms="3.5063186287879944e-01" purity="2.0088987052440643e-01" nType="0">
          <Node pos="l" depth="2" NCoef="0" IVar="-1" Cut="0.0000000000000000e+00" cType="1" res="-4.6837106347084045e-02" rms="3.5659384727478027e-01" purity="2.4530611932277679e-01" nType="-99"/>
          <Node pos="r" depth="2" NCoef="0" IVar="-1" Cut="0.0000000000000000e+00" cType="1" res="-7.7497825026512146e-02" rms="3.2964962720870972e-01" purity="1.4767725765705109e-01" nType="-99"/>
        </Node>
      </Node>
    </BinaryTree>
    <BinaryTree type="DecisionTree" boostWeight="1.0000000000000000e+00" itree="24">
      <Node pos="s" depth="0" NCoef="0" IVar="0" Cut="8.4285717010498047e+00" cType="1" res="2.2875033318996429e-02" rms="3.6186635494232178e-01" purity="7.8444445133209229e-01" nType="0">
        <Node pos="l" depth="1" NCoef="0" IVar="-1" Cut="0.0000000000000000e+00" cType="1" res="1.6861606389284134e-02" rms="3.2499769330024719e-01" purity="8.7226998805999756e-01" nType="-99"/>
        <Node pos="r" depth="1" NCoef="0" IVar="1" Cut="2.0033807373046875e+03" cType="1" res="-5.6449871510267258e-02" rms="4.4809699058532715e-01" purity="5.1332676410675049e-01" nType="0">
          <Node pos="l" depth="2" NCoef="0" IVar="-1" Cut="0.0000000000000000e+00" cType="1" res="-4.2487713508307934e-03" rms="4.4221639633178711e-01" purity="5.4820621013641357e-01" nType="-99"/>
          <Node pos="r" depth="2" NCoef="0" IVar="-1" Cut="0.0000000000000000e+00" cType="1" res="-4.3448440730571747e-02" rms="4.4133460521697998e-01" purity="3.7885531783103943e-01" nType="-99"/>
        </Node>
      </Node>
    </BinaryTree>
    <BinaryTree type="DecisionTree" boostWeight="1.0000000000000000e+00" itree="25">
      <Node pos="s" depth="0" NCoef="0" IVar="25" Cut="2.5296042480468750e+03" cType="0" res="2.2188281640410423e-02" rms="3.5979413986206055e-01" purity="7.8562110662460327e-01" nType="0">
        <Node pos="l" depth="1" NCoef="0" IVar="-1" Cut="0.0000000000000000e+00" cType="1" res="2.3562183603644371e-02" rms="3.2220417261123657e-01" purity="8.3783781528472900e-01" nType="-99"/>
        <Node pos="r" depth="1" NCoef="0" IVar="3" Cut="3.8281916503906250e+03" cType="1" res="-1.1357722803950310e-02" rms="3.7632387876510620e-01" purity="7.5467729568481445e-01" nType="0">
          <Node pos="l" depth="2" NCoef="0" IVar="-1" Cut="0.0000000000000000e+00" cType="1" res="3.2882180530577898e-03" rms="3.6061570048332214e-01" purity="7.7926987409591675e-01" nType="-99"/>
          <Node pos="r" depth="2" NCoef="0" IVar="-1" Cut="0.0000000000000000e+00" cType="1" res="-6.2293451279401779e-02" rms="4.5167577266693115e-01" purity="5.2732527256011963e-01" nType="-99"/>
        </Node>
      </Node>
    </BinaryTree>
    <BinaryTree type="DecisionTree" boostWeight="1.0000000000000000e+00" itree="26">
      <Node pos="s" depth="0" NCoef="0" IVar="0" Cut="1.2142857551574707e+01" cType="1" res="1.9259195774793625e-02" rms="3.5893845558166504e-01" purity="7.8503346443176270e-01" nType="0">
        <Node pos="l" depth="1" NCoef="0" IVar="-1" Cut="0.0000000000000000e+00" cType="1" res="1.0559863410890102e-02" rms="3.4743845462799072e-01" purity="8.2550823688507080e-01" nType="-99"/>
        <Node pos="r" depth="1" NCoef="0" IVar="9" Cut="4.6534014892578125e+02" cType="0" res="-1.1482378840446472e-01" rms="4.3782657384872437e-01" purity="3.7346810102462769e-01" nType="0">
          <Node pos="l" depth="2" NCoef="0" IVar="-1" Cut="0.0000000000000000e+00" cType="1" res="1.4501065947115421e-02" rms="4.4966459274291992e-01" purity="6.6803467273712158e-01" nType="-99"/>
          <Node pos="r" depth="2" NCoef="0" IVar="-1" Cut="0.0000000000000000e+00" cType="1" res="-3.4438356757164001e-02" rms="4.2300984263420105e-01" purity="3.0158025026321411e-01" nType="-99"/>
        </Node>
      </Node>
    </BinaryTree>
    <BinaryTree type="DecisionTree" boostWeight="1.0000000000000000e+00" itree="27">
      <Node pos="s" depth="0" NCoef="0" IVar="0" Cut="6.5714287757873535e+00" cType="1" res="1.6456808894872665e-02" rms="3.5995230078697205e-01" purity="7.8358882665634155e-01" nType="0">
        <Node pos="l" depth="1" NCoef="0" IVar="-1" Cut="0.0000000000000000e+00" cType="1" res="2.0079802721738815e-02" rms="3.0058988928794861e-01" purity="8.9598643779754639e-01" nType="-99"/>
        <Node pos="r" depth="1" NCoef="0" IVar="25" Cut="1.7309326171875000e+03" cType="0" res="-2.8584033250808716e-02" rms="4.1745170950889587e-01" purity="6.4492881298065186e-01" nType="0">
          <Node pos="l" depth="2" NCoef="0" IVar="-1" Cut="0.0000000000000000e+00" cType="1" res="2.6464706752449274e-04" rms="4.0409111976623535e-01" purity="6.8950533866882324e-01" nType="-99"/>
          <Node pos="r" depth="2" NCoef="0" IVar="-1" Cut="0.0000000000000000e+00" cType="1" res="-4.3388314545154572e-02" rms="4.5052808523178101e-01" purity="4.1868549585342407e-01" nType="-99"/>
        </Node>
      </Node>
    </BinaryTree>
    <BinaryTree type="DecisionTree" boostWeight="1.0000000000000000e+00" itree="28">
      <Node pos="s" depth="0" NCoef="0" IVar="0" Cut="1.4000000000000000e+01" cType="1" res="1.5509069897234440e-02" rms="3.5783851146697998e-01" purity="7.8483998775482178e-01" nType="0">
        <Node pos="l" depth="1" NCoef="0" IVar="-1" Cut="0.0000000000000000e+00" cType="1" res="7.9205306246876717e-03" rms="3.5133138298988342e-01" purity="8.1170272827148438e-01" nType="-99"/>
        <Node pos="r" depth="1" NCoef="0" IVar="0" Cut="2.2142856597900391e+01" cType="1" res="-1.3421761989593506e-01" rms="4.2851901054382324e-01" purity="3.2320722937583923e-01" nType="0">
          <Node pos="l" depth="2" NCoef="0" IVar="-1" Cut="0.0000000000000000e+00" cType="1" res="-1.9541200250387192e-02" rms="4.3573492765426636e-01" purity="3.6357077956199646e-01" nType="-99"/>
          <Node pos="r" depth="2" NCoef="0" IVar="-1" Cut="0.0000000000000000e+00" cType="1" res="-6.8493761122226715e-02" rms="3.3459264039993286e-01" purity="1.5130569040775299e-01" nType="-99"/>
        </Node>
      </Node>
    </BinaryTree>
    <BinaryTree type="DecisionTree" boostWeight="1.0000000000000000e+00" itree="29">
      <Node pos="s" depth="0" NCoef="0" IVar="5" Cut="-2.5919705629348755e-01" cType="0" res="1.3748022727668285e-02" rms="3.5791319608688354e-01" purity="7.8445631265640259e-01" nType="0">
        <Node pos="l" depth="1" NCoef="0" IVar="-1" Cut="0.0000000000000000e+00" cType="1" res="1.3289559632539749e-02" rms="3.3749607205390930e-01" purity="8.2273310422897339e-01" nType="-99"/>
        <Node pos="r" depth="1" NCoef="0" IVar="1" Cut="1.2671905517578125e+03" cType="0" res="-5.6010361760854721e-02" rms="3.9773973822593689e-01" purity="6.8514841794967651e-01" nType="0">
          <Node pos="l" depth="2" NCoef="0" IVar="-1" Cut="0.0000000000000000e+00" cType="1" res="-1.0056701488792896e-02" rms="3.9383679628372192e-01" purity="7.3489296436309814e-01" nType="-99"/>
          <Node pos="r" depth="2" NCoef="0" IVar="-1" Cut="0.0000000000000000e+00" cType="1" res="-5.6868296116590500e-02" rms="3.8824066519737244e-01" purity="3.5940894484519958e-01" nType="-99"/>
        </Node>
      </Node>
    </BinaryTree>
    <BinaryTree type="DecisionTree" boostWeight="1.0000000000000000e+00" itree="30">
      <Node pos="s" depth="0" NCoef="0" IVar="25" Cut="2.5296042480468750e+03" cType="0" res="1.3116258196532726e-02" rms="3.5623928904533386e-01" purity="7.8532975912094116e-01" nType="0">
        <Node pos="l" depth="1" NCoef="0" IVar="-1" Cut="0.0000000000000000e+00" cType="1" res="2.0335156470537186e-02" rms="3.2049116492271423e-01" purity="8.3632165193557739e-01" nType="-99"/>
        <Node pos="r" depth="1" NCoef="0" IVar="3" Cut="3.8281916503906250e+03" cType="1" res="-1.7326977103948593e-02" rms="3.7252148985862732e-01" purity="7.5507301092147827e-01" nType="0">
          <Node pos="l" depth="2" NCoef="0" IVar="-1" Cut="0.0000000000000000e+00" cType="1" res="6.3769315602257848e-04" rms="3.5804629325866699e-01" purity="7.7961802482604980e-01" nType="-99"/>
          <Node pos="r" depth="2" NCoef="0" IVar="-1" Cut="0.0000000000000000e+00" cType="1" res="-5.6730248034000397e-02" rms="4.4901555776596069e-01" purity="5.2689164876937866e-01" nType="-99"/>
        </Node>
      </Node>
    </BinaryTree>
    <BinaryTree type="DecisionTree" boostWeight="1.0000000000000000e+00" itree="31">
      <Node pos="s" depth="0" NCoef="0" IVar="0" Cut="6.5714287757873535e+00" cType="1" res="1.0183242149651051e-02" rms="3.5689488053321838e-01" purity="7.8305965662002563e-01" nType="0">
        <Node pos="l" depth="1" NCoef="0" IVar="-1" Cut="0.0000000000000000e+00" cType="1" res="1.7407149076461792e-02" rms="2.9919168353080750e-01" purity="8.9622980356216431e-01" nType="-99"/>
        <Node pos="r" depth="1" NCoef="0" IVar="13" Cut="2.3568193359375000e+03" cType="0" res="-3.1158573925495148e-02" rms="4.1376557946205139e-01" purity="6.4281231164932251e-01" nType="0">
          <Node pos="l" depth="2" NCoef="0" IVar="-1" Cut="0.0000000000000000e+00" cType="1" res="5.7451189495623112e-03" rms="3.8707485795021057e-01" purity="7.1078342199325562e-01" nType="-99"/>
          <Node pos="r" depth="2" NCoef="0" IVar="-1" Cut="0.0000000000000000e+00" cType="1" res="-2.6765869930386543e-02" rms="4.3802422285079956e-01" purity="5.4746824502944946e-01" nType="-99"/>
        </Node>
      </Node>
    </BinaryTree>
    <BinaryTree type="DecisionTree" boostWeight="1.0000000000000000e+00" itree="32">
      <Node pos="s" depth="0" NCoef="0" IVar="25" Cut="2.5671064453125000e+03" cType="0" res="1.1054134927690029e-02" rms="3.5424187779426575e-01" purity="7.8566253185272217e-01" nType="0">
        <Node pos="l" depth="1" NCoef="0" IVar="-1" Cut="0.0000000000000000e+00" cType="1" res="1.9036563113331795e-02" rms="3.1908422708511353e-01" purity="8.3698749542236328e-01" nType="-99"/>
        <Node pos="r" depth="1" NCoef="0" IVar="12" Cut="-2.1863058471679688e+02" cType="1" res="-1.5377073548734188e-02" rms="3.6961245536804199e-01" purity="7.5728565454483032e-01" nType="0">
          <Node pos="l" depth="2" NCoef="0" IVar="-1" Cut="0.0000000000000000e+00" cType="1" res="2.2983672097325325e-02" rms="2.8921377658843994e-01" purity="8.7447750568389893e-01" nType="-99"/>
          <Node pos="r" depth="2" NCoef="0" IVar="-1" Cut="0.0000000000000000e+00" cType="1" res="-1.5623447485268116e-02" rms="3.9341163635253906e-01" purity="7.0871776342391968e-01" nType="-99"/>
        </Node>
      </Node>
    </BinaryTree>
    <BinaryTree type="DecisionTree" boostWeight="1.0000000000000000e+00" itree="33">
      <Node pos="s" depth="0" NCoef="0" IVar="1" Cut="2.0589724121093750e+03" cType="1" res="9.7733344882726669e-03" rms="3.5382351279258728e-01" purity="7.8540492057800293e-01" nType="0">
        <Node pos="l" depth="1" NCoef="0" IVar="-1" Cut="0.0000000000000000e+00" cType="1" res="9.9688908085227013e-03" rms="3.4005254507064819e-01" purity="8.0168104171752930e-01" nType="-99"/>
        <Node pos="r" depth="1" NCoef="0" IVar="9" Cut="1.0409300537109375e+03" cType="0" res="-5.6327018886804581e-02" rms="3.8693216443061829e-01" purity="7.3383802175521851e-01" nType="0">
          <Node pos="l" depth="2" NCoef="0" IVar="-1" Cut="0.0000000000000000e+00" cType="1" res="3.7112154066562653e-02" rms="2.3420345783233643e-01" purity="9.4203764200210571e-01" nType="-99"/>
          <Node pos="r" depth="2" NCoef="0" IVar="-1" Cut="0.0000000000000000e+00" cType="1" res="-5.4668493568897247e-02" rms="4.4003441929817200e-01" purity="5.6455725431442261e-01" nType="-99"/>
        </Node>
      </Node>
    </BinaryTree>
    <BinaryTree type="DecisionTree" boostWeight="1.0000000000000000e+00" itree="34">
      <Node pos="s" depth="0" NCoef="0" IVar="1" Cut="1.0361654052734375e+03" cType="0" res="7.7352435328066349e-03" rms="3.5281020402908325e-01" purity="7.8386640548706055e-01" nType="0">
        <Node pos="l" depth="1" NCoef="0" IVar="-1" Cut="0.0000000000000000e+00" cType="1" res="4.3995622545480728e-03" rms="3.5231569409370422e-01" purity="7.9936861991882324e-01" nType="-99"/>
        <Node pos="r" depth="1" NCoef="0" IVar="0" Cut="1.0285714149475098e+01" cType="1" res="-2.3906570672988892e-01" rms="2.7905434370040894e-01" purity="8.7518461048603058e-02" nType="0">
          <Node pos="l" depth="2" NCoef="0" IVar="-1" Cut="0.0000000000000000e+00" cType="1" res="-7.1970164775848389e-02" rms="3.3525231480598450e-01" purity="1.4541213214397430e-01" nType="-99"/>
          <Node pos="r" depth="2" NCoef="0" IVar="-1" Cut="0.0000000000000000e+00" cType="1" res="-5.2364248782396317e-02" rms="1.8534186482429504e-01" purity="3.5161744803190231e-02" nType="-99"/>
        </Node>
      </Node>
    </BinaryTree>
    <BinaryTree type="DecisionTree" boostWeight="1.0000000000000000e+00" itree="35">
      <Node pos="s" depth="0" NCoef="0" IVar="2" Cut="4.7613013535737991e-02" cType="1" res="8.7665310129523277e-03" rms="3.5133045911788940e-01" purity="7.8597271442413330e-01" nType="0">
        <Node pos="l" depth="1" NCoef="0" IVar="-1" Cut="0.0000000000000000e+00" cType="1" res="1.4746512286365032e-02" rms="3.0822938680648804e-01" purity="8.6760836839675903e-01" nType="-99"/>
        <Node pos="r" depth="1" NCoef="0" IVar="25" Cut="2.0347781982421875e+03" cType="0" res="-3.2168049365282059e-02" rms="3.9843326807022095e-01" purity="6.7616683244705200e-01" nType="0">
          <Node pos="l" depth="2" NCoef="0" IVar="-1" Cut="0.0000000000000000e+00" cType="1" res="2.0892301108688116e-03" rms="3.7858998775482178e-01" purity="7.2799861431121826e-01" nType="-99"/>
          <Node pos="r" depth="2" NCoef="0" IVar="-1" Cut="0.0000000000000000e+00" cType="1" res="-2.9610704630613327e-02" rms="4.2252719402313232e-01" purity="5.8367818593978882e-01" nType="-99"/>
        </Node>
      </Node>
    </BinaryTree>
    <BinaryTree type="DecisionTree" boostWeight="1.0000000000000000e+00" itree="36">
      <Node pos="s" depth="0" NCoef="0" IVar="1" Cut="1.0361654052734375e+03" cType="0" res="6.9727832451462746e-03" rms="3.5186374187469482e-01" purity="7.8453284502029419e-01" nType="0">
        <Node pos="l" depth="1" NCoef="0" IVar="-1" Cut="0.0000000000000000e+00" cType="1" res="4.0511847473680973e-03" rms="3.5178920626640320e-01" purity="8.0042904615402222e-01" nType="-99"/>
        <Node pos="r" depth="1" NCoef="0" IVar="0" Cut="1.0285714149475098e+01" cType="1" res="-2.1639174222946167e-01" rms="2.7402117848396301e-01" purity="8.5673145949840546e-02" nType="0">
          <Node pos="l" depth="2" NCoef="0" IVar="-1" Cut="0.0000000000000000e+00" cType="1" res="-6.5689995884895325e-02" rms="3.3359217643737793e-01" purity="1.4360508322715759e-01" nType="-99"/>
          <Node pos="r" depth="2" NCoef="0" IVar="-1" Cut="0.0000000000000000e+00" cType="1" res="-5.1119238138198853e-02" rms="1.7730589210987091e-01" purity="3.1922277063131332e-02" nType="-99"/>
        </Node>
      </Node>
    </BinaryTree>
    <BinaryTree type="DecisionTree" boostWeight="1.0000000000000000e+00" itree="37">
      <Node pos="s" depth="0" NCoef="0" IVar="1" Cut="1.1206236572265625e+03" cType="0" res="7.1624075062572956e-03" rms="3.5015150904655457e-01" purity="7.8601485490798950e-01" nType="0">
        <Node pos="l" depth="1" NCoef="0" IVar="-1" Cut="0.0000000000000000e+00" cType="1" res="5.0618057139217854e-03" rms="3.4784042835235596e-01" purity="8.0815148353576660e-01" nType="-99"/>
        <Node pos="r" depth="1" NCoef="0" IVar="9" Cut="2.6768801879882812e+02" cType="1" res="-1.9589540362358093e-01" rms="3.4938192367553711e-01" purity="2.0598514378070831e-01" nType="0">
          <Node pos="l" depth="2" NCoef="0" IVar="-1" Cut="0.0000000000000000e+00" cType="1" res="-4.4221043586730957e-02" rms="3.4548595547676086e-01" purity="2.2831666469573975e-01" nType="-99"/>
          <Node pos="r" depth="2" NCoef="0" IVar="-1" Cut="0.0000000000000000e+00" cType="1" res="-8.9003928005695343e-02" rms="3.2916423678398132e-01" purity="1.1174458265304565e-01" nType="-99"/>
        </Node>
      </Node>
    </BinaryTree>
    <BinaryTree type="DecisionTree" boostWeight="1.0000000000000000e+00" itree="38">
      <Node pos="s" depth="0" NCoef="0" IVar="0" Cut="8.4285717010498047e+00" cType="1" res="5.3599174134433270e-03" rms="3.5075116157531738e-01" purity="7.8479522466659546e-01" nType="0">
        <Node pos="l" depth="1" NCoef="0" IVar="-1" Cut="0.0000000000000000e+00" cType="1" res="9.5919724553823471e-03" rms="3.1777930259704590e-01" purity="8.7305045127868652e-01" nType="-99"/>
        <Node pos="r" depth="1" NCoef="0" IVar="9" Cut="6.9142242431640625e+02" cType="0" res="-5.2366517484188080e-02" rms="4.3178182840347290e-01" purity="5.1323741674423218e-01" nType="0">
          <Node pos="l" depth="2" NCoef="0" IVar="-1" Cut="0.0000000000000000e+00" cType="1" res="3.4642022103071213e-02" rms="3.6617645621299744e-01" purity="8.2519489526748657e-01" nType="-99"/>
          <Node pos="r" depth="2" NCoef="0" IVar="-1" Cut="0.0000000000000000e+00" cType="1" res="-1.6096763312816620e-02" rms="4.3270686268806458e-01" purity="4.8609277606010437e-01" nType="-99"/>
        </Node>
      </Node>
    </BinaryTree>
    <BinaryTree type="DecisionTree" boostWeight="1.0000000000000000e+00" itree="39">
      <Node pos="s" depth="0" NCoef="0" IVar="1" Cut="2.3031530761718750e+03" cType="1" res="6.0792537406086922e-03" rms="3.4954044222831726e-01" purity="7.8605753183364868e-01" nType="0">
        <Node pos="l" depth="1" NCoef="0" IVar="-1" Cut="0.0000000000000000e+00" cType="1" res="6.6214087419211864e-03" rms="3.4193098545074463e-01" purity="7.9622209072113037e-01" nType="-99"/>
        <Node pos="r" depth="1" NCoef="0" IVar="9" Cut="8.8852008056640625e+02" cType="0" res="-6.6440545022487640e-02" rms="3.7963032722473145e-01" purity="7.3161649703979492e-01" nType="0">
          <Node pos="l" depth="2" NCoef="0" IVar="-1" Cut="0.0000000000000000e+00" cType="1" res="2.7357541024684906e-02" rms="2.5822684168815613e-01" purity="9.2594033479690552e-01" nType="-99"/>
          <Node pos="r" depth="2" NCoef="0" IVar="-1" Cut="0.0000000000000000e+00" cType="1" res="-8.6368232965469360e-02" rms="4.4485229253768921e-01" purity="3.6297827959060669e-01" nType="-99"/>
        </Node>
      </Node>
    </BinaryTree>
    <BinaryTree type="DecisionTree" boostWeight="1.0000000000000000e+00" itree="40">
      <Node pos="s" depth="0" NCoef="0" IVar="5" Cut="-2.5919705629348755e-01" cType="0" res="3.9596348069608212e-03" rms="3.4936848282814026e-01" purity="7.8383958339691162e-01" nType="0">
        <Node pos="l" depth="1" NCoef="0" IVar="-1" Cut="0.0000000000000000e+00" cType="1" res="9.8006604239344597e-03" rms="3.2995441555976868e-01" purity="8.2299560308456421e-01" nType="-99"/>
        <Node pos="r" depth="1" NCoef="0" IVar="25" Cut="2.5691481933593750e+03" cType="0" res="-5.7476639747619629e-02" rms="3.8833656907081604e-01" purity="6.8293595314025879e-01" nType="0">
          <Node pos="l" depth="2" NCoef="0" IVar="-1" Cut="0.0000000000000000e+00" cType="1" res="2.0446924027055502e-03" rms="3.4945929050445557e-01" purity="7.7028942108154297e-01" nType="-99"/>
          <Node pos="r" depth="2" NCoef="0" IVar="-1" Cut="0.0000000000000000e+00" cType="1" res="-3.1595915555953979e-02" rms="4.0703177452087402e-01" purity="6.2349134683609009e-01" nType="-99"/>
        </Node>
      </Node>
    </BinaryTree>
    <BinaryTree type="DecisionTree" boostWeight="1.0000000000000000e+00" itree="41">
      <Node pos="s" depth="0" NCoef="0" IVar="25" Cut="1.3154337158203125e+03" cType="0" res="4.8937816172838211e-03" rms="3.4736579656600952e-01" purity="7.8502291440963745e-01" nType="0">
        <Node pos="l" depth="1" NCoef="0" IVar="-1" Cut="0.0000000000000000e+00" cType="1" res="4.9907872453331947e-03" rms="3.3986786007881165e-01" purity="7.9076361656188965e-01" nType="-99"/>
        <Node pos="r" depth="1" NCoef="0" IVar="3" Cut="2.7548645019531250e+03" cType="1" res="-9.3174964189529419e-02" rms="4.0230858325958252e-01" purity="7.2735339403152466e-01" nType="0">
          <Node pos="l" depth="2" NCoef="0" IVar="-1" Cut="0.0000000000000000e+00" cType="1" res="-1.8873643130064011e-02" rms="3.7404909729957581e-01" purity="7.7876365184783936e-01" nType="-99"/>
          <Node pos="r" depth="2" NCoef="0" IVar="-1" Cut="0.0000000000000000e+00" cType="1" res="-1.6899706423282623e-01" rms="3.9965984225273132e-01" purity="2.0788177847862244e-01" nType="-99"/>
        </Node>
      </Node>
    </BinaryTree>
    <BinaryTree type="DecisionTree" boostWeight="1.0000000000000000e+00" itree="42">
      <Node pos="s" depth="0" NCoef="0" IVar="1" Cut="1.1410792236328125e+03" cType="0" res="3.3155677374452353e-03" rms="3.4776175022125244e-01" purity="7.8485006093978882e-01" nType="0">
        <Node pos="l" depth="1" NCoef="0" IVar="-1" Cut="0.0000000000000000e+00" cType="1" res="3.6770976148545742e-03" rms="3.4551954269409180e-01" purity="8.0785161256790161e-01" nType="-99"/>
        <Node pos="r" depth="1" NCoef="0" IVar="9" Cut="3.3160260009765625e+02" cType="1" res="-1.6613242030143738e-01" rms="3.5679703950881958e-01" purity="2.4760602414608002e-01" nType="0">
          <Node pos="l" depth="2" NCoef="0" IVar="-1" Cut="0.0000000000000000e+00" cType="1" res="-4.0521252900362015e-02" rms="3.5254004597663879e-01" purity="2.6225647330284119e-01" nType="-99"/>
          <Node pos="r" depth="2" NCoef="0" IVar="-1" Cut="0.0000000000000000e+00" cType="1" res="-9.5834307372570038e-02" rms="3.3802148699760437e-01" purity="9.4170406460762024e-02" nType="-99"/>
        </Node>
      </Node>
    </BinaryTree>
    <BinaryTree type="DecisionTree" boostWeight="1.0000000000000000e+00" itree="43">
      <Node pos="s" depth="0" NCoef="0" IVar="0" Cut="1.4000000000000000e+01" cType="1" res="2.9629995115101337e-03" rms="3.4664121270179749e-01" purity="7.8471952676773071e-01" nType="0">
        <Node pos="l" depth="1" NCoef="0" IVar="-1" Cut="0.0000000000000000e+00" cType="1" res="3.6437923554331064e-03" rms="3.4073606133460999e-01" purity="8.1208473443984985e-01" nType="-99"/>
        <Node pos="r" depth="1" NCoef="0" IVar="0" Cut="2.2142856597900391e+01" cType="1" res="-1.1958921700716019e-01" rms="4.1571450233459473e-01" purity="3.2246011495590210e-01" nType="0">
          <Node pos="l" depth="2" NCoef="0" IVar="-1" Cut="0.0000000000000000e+00" cType="1" res="-1.9149389117956161e-02" rms="4.2255705595016479e-01" purity="3.5829350352287292e-01" nType="-99"/>
          <Node pos="r" depth="2" NCoef="0" IVar="-1" Cut="0.0000000000000000e+00" cType="1" res="-6.0851119458675385e-02" rms="3.4357997775077820e-01" purity="1.6793893277645111e-01" nType="-99"/>
        </Node>
      </Node>
    </BinaryTree>
    <BinaryTree type="DecisionTree" boostWeight="1.0000000000000000e+00" itree="44">
      <Node pos="s" depth="0" NCoef="0" IVar="5" Cut="-2.5919705629348755e-01" cType="0" res="1.9610922317951918e-03" rms="3.4738677740097046e-01" purity="7.8361123800277710e-01" nType="0">
        <Node pos="l" depth="1" NCoef="0" IVar="-1" Cut="0.0000000000000000e+00" cType="1" res="7.9969391226768494e-03" rms="3.3015677332878113e-01" purity="8.2169133424758911e-01" nType="-99"/>
        <Node pos="r" depth="1" NCoef="0" IVar="25" Cut="2.5691481933593750e+03" cType="0" res="-5.0501685589551926e-02" rms="3.8348791003227234e-01" purity="6.8509548902511597e-01" nType="0">
          <Node pos="l" depth="2" NCoef="0" IVar="-1" Cut="0.0000000000000000e+00" cType="1" res="2.0779282785952091e-03" rms="3.4628698229789734e-01" purity="7.7241575717926025e-01" nType="-99"/>
          <Node pos="r" depth="2" NCoef="0" IVar="-1" Cut="0.0000000000000000e+00" cType="1" res="-2.7469918131828308e-02" rms="4.0224036574363708e-01" purity="6.2590730190277100e-01" nType="-99"/>
        </Node>
      </Node>
    </BinaryTree>
    <BinaryTree type="DecisionTree" boostWeight="1.0000000000000000e+00" itree="45">
      <Node pos="s" depth="0" NCoef="0" IVar="1" Cut="2.1080749511718750e+03" cType="1" res="4.1632633656263351e-03" rms="3.4489664435386658e-01" purity="7.8634488582611084e-01" nType="0">
        <Node pos="l" depth="1" NCoef="0" IVar="-1" Cut="0.0000000000000000e+00" cType="1" res="7.5570396147668362e-03" rms="3.3471190929412842e-01" purity="8.0218946933746338e-01" nType="-99"/>
        <Node pos="r" depth="1" NCoef="0" IVar="9" Cut="1.0446053466796875e+03" cType="0" res="-5.9187781065702438e-02" rms="3.7226036190986633e-01" purity="7.2966718673706055e-01" nType="0">
          <Node pos="l" depth="2" NCoef="0" IVar="-1" Cut="0.0000000000000000e+00" cType="1" res="3.1632702797651291e-02" rms="2.3014979064464569e-01" purity="9.4364786148071289e-01" nType="-99"/>
          <Node pos="r" depth="2" NCoef="0" IVar="-1" Cut="0.0000000000000000e+00" cType="1" res="-5.1120005548000336e-02" rms="4.3425020575523376e-01" purity="5.3487718105316162e-01" nType="-99"/>
        </Node>
      </Node>
    </BinaryTree>
    <BinaryTree type="DecisionTree" boostWeight="1.0000000000000000e+00" itree="46">
      <Node pos="s" depth="0" NCoef="0" IVar="1" Cut="1.1042562255859375e+03" cType="0" res="2.8040870092809200e-03" rms="3.4465160965919495e-01" purity="7.8503775596618652e-01" nType="0">
        <Node pos="l" depth="1" NCoef="0" IVar="-1" Cut="0.0000000000000000e+00" cType="1" res="2.9713900294154882e-03" rms="3.4355190396308899e-01" purity="8.0577886104583740e-01" nType="-99"/>
        <Node pos="r" depth="1" NCoef="0" IVar="9" Cut="1.4498803710937500e+02" cType="1" res="-1.5968365967273712e-01" rms="3.3658233284950256e-01" purity="1.8702107667922974e-01" nType="0">
          <Node pos="l" depth="2" NCoef="0" IVar="-1" Cut="0.0000000000000000e+00" cType="1" res="-3.1623567920178175e-03" rms="3.7077876925468445e-01" purity="3.2278481125831604e-01" nType="-99"/>
          <Node pos="r" depth="2" NCoef="0" IVar="-1" Cut="0.0000000000000000e+00" cType="1" res="-5.3116042166948318e-02" rms="3.2300227880477905e-01" purity="1.6281038522720337e-01" nType="-99"/>
        </Node>
      </Node>
    </BinaryTree>
    <BinaryTree type="DecisionTree" boostWeight="1.0000000000000000e+00" itree="47">
      <Node pos="s" depth="0" NCoef="0" IVar="25" Cut="1.3281748046875000e+03" cType="0" res="2.4026590399444103e-03" rms="3.4490770101547241e-01" purity="7.8568345308303833e-01" nType="0">
        <Node pos="l" depth="1" NCoef="0" IVar="-1" Cut="0.0000000000000000e+00" cType="1" res="4.1169268079102039e-03" rms="3.3753475546836853e-01" purity="7.9206633567810059e-01" nType="-99"/>
        <Node pos="r" depth="1" NCoef="0" IVar="3" Cut="2.7638183593750000e+03" cType="1" res="-8.7602615356445312e-02" rms="3.9777496457099915e-01" purity="7.2452604770660400e-01" nType="0">
          <Node pos="l" depth="2" NCoef="0" IVar="-1" Cut="0.0000000000000000e+00" cType="1" res="-1.8611386418342590e-02" rms="3.7627923488616943e-01" purity="7.7682322263717651e-01" nType="-99"/>
          <Node pos="r" depth="2" NCoef="0" IVar="-1" Cut="0.0000000000000000e+00" cType="1" res="-1.2561924755573273e-01" rms="4.0047314763069153e-01" purity="2.1860885620117188e-01" nType="-99"/>
        </Node>
      </Node>
    </BinaryTree>
    <BinaryTree type="DecisionTree" boostWeight="1.0000000000000000e+00" itree="48">
      <Node pos="s" depth="0" NCoef="0" IVar="0" Cut="4.7142858505249023e+00" cType="1" res="1.6794287366792560e-03" rms="3.4490549564361572e-01" purity="7.8438740968704224e-01" nType="0">
        <Node pos="l" depth="1" NCoef="0" IVar="-1" Cut="0.0000000000000000e+00" cType="1" res="2.0780561491847038e-02" rms="2.6320600509643555e-01" purity="9.1743499040603638e-01" nType="-99"/>
        <Node pos="r" depth="1" NCoef="0" IVar="25" Cut="1.7309326171875000e+03" cType="0" res="-1.8023690208792686e-02" rms="3.7396511435508728e-01" purity="7.2507286071777344e-01" nType="0">
          <Node pos="l" depth="2" NCoef="0" IVar="-1" Cut="0.0000000000000000e+00" cType="1" res="2.1269940771162510e-03" rms="3.5686534643173218e-01" purity="7.6246088743209839e-01" nType="-99"/>
          <Node pos="r" depth="2" NCoef="0" IVar="-1" Cut="0.0000000000000000e+00" cType="1" res="-3.5786062479019165e-02" rms="4.2272651195526123e-01" purity="5.7038891315460205e-01" nType="-99"/>
        </Node>
      </Node>
    </BinaryTree>
    <BinaryTree type="DecisionTree" boostWeight="1.0000000000000000e+00" itree="49">
      <Node pos="s" depth="0" NCoef="0" IVar="1" Cut="2.0589724121093750e+03" cType="1" res="6.6199648426845670e-04" rms="3.4430855512619019e-01" purity="7.8413093090057373e-01" nType="0">
        <Node pos="l" depth="1" NCoef="0" IVar="-1" Cut="0.0000000000000000e+00" cType="1" res="6.1754193156957626e-03" rms="3.3518597483634949e-01" purity="8.0020767450332642e-01" nType="-99"/>
        <Node pos="r" depth="1" NCoef="0" IVar="9" Cut="5.5640527343750000e+02" cType="0" res="-5.2555549889802933e-02" rms="3.6644336581230164e-01" purity="7.3364394903182983e-01" nType="0">
          <Node pos="l" depth="2" NCoef="0" IVar="-1" Cut="0.0000000000000000e+00" cType="1" res="7.5227343477308750e-03" rms="3.0673769116401672e-01" purity="8.6993843317031860e-01" nType="-99"/>
          <Node pos="r" depth="2" NCoef="0" IVar="-1" Cut="0.0000000000000000e+00" cType="1" res="-5.5743083357810974e-02" rms="4.3322232365608215e-01" purity="4.3557110428810120e-01" nType="-99"/>
        </Node>
      </Node>
    </BinaryTree>
    <BinaryTree type="DecisionTree" boostWeight="1.0000000000000000e+00" itree="50">
      <Node pos="s" depth="0" NCoef="0" IVar="0" Cut="1.4000000000000000e+01" cType="1" res="6.4749736338853836e-04" rms="3.4298843145370483e-01" purity="7.8326070308685303e-01" nType="0">
        <Node pos="l" depth="1" NCoef="0" IVar="-1" Cut="0.0000000000000000e+00" cType="1" res="2.4777250364422798e-03" rms="3.3754655718803406e-01" purity="8.1026232242584229e-01" nType="-99"/>
        <Node pos="r" depth="1" NCoef="0" IVar="12" Cut="-4.4936397552490234e+01" cType="1" res="-1.0334341228008270e-01" rms="4.1089776158332825e-01" purity="3.2648074626922607e-01" nType="0">
          <Node pos="l" depth="2" NCoef="0" IVar="-1" Cut="0.0000000000000000e+00" cType="1" res="4.0287966839969158e-03" rms="4.1536235809326172e-01" purity="4.4633641839027405e-01" nType="-99"/>
          <Node pos="r" depth="2" NCoef="0" IVar="-1" Cut="0.0000000000000000e+00" cType="1" res="-3.4359190613031387e-02" rms="3.9962106943130493e-01" purity="2.8019130229949951e-01" nType="-99"/>
        </Node>
      </Node>
    </BinaryTree>
    <BinaryTree type="DecisionTree" boostWeight="1.0000000000000000e+00" itree="51">
      <Node pos="s" depth="0" NCoef="0" IVar="2" Cut="2.3806506767868996e-02" cType="1" res="3.1096214661374688e-04" rms="3.4277737140655518e-01" purity="7.8302979469299316e-01" nType="0">
        <Node pos="l" depth="1" NCoef="0" IVar="-1" Cut="0.0000000000000000e+00" cType="1" res="1.2519767507910728e-02" rms="2.9369828104972839e-01" purity="8.7871211767196655e-01" nType="-99"/>
        <Node pos="r" depth="1" NCoef="0" IVar="25" Cut="2.0347781982421875e+03" cType="0" res="-2.7581924572587013e-02" rms="3.8148304820060730e-01" purity="6.9226807355880737e-01" nType="0">
          <Node pos="l" depth="2" NCoef="0" IVar="-1" Cut="0.0000000000000000e+00" cType="1" res="1.1070810724049807e-03" rms="3.6333703994750977e-01" purity="7.4194103479385376e-01" nType="-99"/>
          <Node pos="r" depth="2" NCoef="0" IVar="-1" Cut="0.0000000000000000e+00" cType="1" res="-2.4686001241207123e-02" rms="4.0551888942718506e-01" purity="6.0573136806488037e-01" nType="-99"/>
        </Node>
      </Node>
    </BinaryTree>
    <BinaryTree type="DecisionTree" boostWeight="1.0000000000000000e+00" itree="52">
      <Node pos="s" depth="0" NCoef="0" IVar="5" Cut="-2.5919705629348755e-01" cType="0" res="2.5733120273798704e-03" rms="3.4073814749717712e-01" purity="7.8602278232574463e-01" nType="0">
        <Node pos="l" depth="1" NCoef="0" IVar="-1" Cut="0.0000000000000000e+00" cType="1" res="7.6314029283821583e-03" rms="3.2415670156478882e-01" purity="8.2423424720764160e-01" nType="-99"/>
        <Node pos="r" depth="1" NCoef="0" IVar="1" Cut="1.2671905517578125e+03" cType="0" res="-4.3807841837406158e-02" rms="3.7642478942871094e-01" purity="6.8698638677597046e-01" nType="0">
          <Node pos="l" depth="2" NCoef="0" IVar="-1" Cut="0.0000000000000000e+00" cType="1" res="-8.4734717383980751e-03" rms="3.7313193082809448e-01" purity="7.3658943176269531e-01" nType="-99"/>
          <Node pos="r" depth="2" NCoef="0" IVar="-1" Cut="0.0000000000000000e+00" cType="1" res="-4.6694833785295486e-02" rms="3.7662586569786072e-01" purity="3.5253405570983887e-01" nType="-99"/>
        </Node>
      </Node>
    </BinaryTree>
    <BinaryTree type="DecisionTree" boostWeight="1.0000000000000000e+00" itree="53">
      <Node pos="s" depth="0" NCoef="0" IVar="1" Cut="1.1410792236328125e+03" cType="0" res="1.4500317629426718e-03" rms="3.4101662039756775e-01" purity="7.8462332487106323e-01" nType="0">
        <Node pos="l" depth="1" NCoef="0" IVar="-1" Cut="0.0000000000000000e+00" cType="1" res="2.7359926607459784e-03" rms="3.3941853046417236e-01" purity="8.0837732553482056e-01" nType="-99"/>
        <Node pos="r" depth="1" NCoef="0" IVar="9" Cut="2.0377345275878906e+02" cType="1" res="-1.4105083048343658e-01" rms="3.4697172045707703e-01" purity="2.3244929313659668e-01" nType="0">
          <Node pos="l" depth="2" NCoef="0" IVar="-1" Cut="0.0000000000000000e+00" cType="1" res="-2.6465209200978279e-02" rms="3.4961876273155212e-01" purity="2.7803894877433777e-01" nType="-99"/>
          <Node pos="r" depth="2" NCoef="0" IVar="-1" Cut="0.0000000000000000e+00" cType="1" res="-5.9702586382627487e-02" rms="3.3065319061279297e-01" purity="1.6930232942104340e-01" nType="-99"/>
        </Node>
      </Node>
    </BinaryTree>
    <BinaryTree type="DecisionTree" boostWeight="1.0000000000000000e+00" itree="54">
      <Node pos="s" depth="0" NCoef="0" IVar="13" Cut="3.5594628906250000e+03" cType="0" res="1.3775537954643369e-03" rms="3.4060913324356079e-01" purity="7.8473812341690063e-01" nType="0">
        <Node pos="l" depth="1" NCoef="0" IVar="-1" Cut="0.0000000000000000e+00" cType="1" res="1.8643081188201904e-02" rms="3.0166709423065186e-01" purity="8.4361660480499268e-01" nType="-99"/>
        <Node pos="r" depth="1" NCoef="0" IVar="0" Cut="4.7142858505249023e+00" cType="1" res="-1.5277670696377754e-02" rms="3.5093098878860474e-01" purity="7.6530361175537109e-01" nType="0">
          <Node pos="l" depth="2" NCoef="0" IVar="-1" Cut="0.0000000000000000e+00" cType="1" res="1.5311837196350098e-02" rms="2.7147573232650757e-01" purity="9.1085475683212280e-01" nType="-99"/>
          <Node pos="r" depth="2" NCoef="0" IVar="-1" Cut="0.0000000000000000e+00" cType="1" res="-1.2671330943703651e-02" rms="3.8369509577751160e-01" purity="6.8922084569931030e-01" nType="-99"/>
        </Node>
      </Node>
    </BinaryTree>
    <BinaryTree type="DecisionTree" boostWeight="1.0000000000000000e+00" itree="55">
      <Node pos="s" depth="0" NCoef="0" IVar="25" Cut="2.5442346191406250e+03" cType="0" res="8.8277779286727309e-04" rms="3.4124436974525452e-01" purity="7.8484815359115601e-01" nType="0">
        <Node pos="l" depth="1" NCoef="0" IVar="-1" Cut="0.0000000000000000e+00" cType="1" res="1.3209084048867226e-02" rms="3.0942723155021667e-01" purity="8.3758586645126343e-01" nType="-99"/>
        <Node pos="r" depth="1" NCoef="0" IVar="3" Cut="3.8294990234375000e+03" cType="1" res="-1.9461560994386673e-02" rms="3.5688319802284241e-01" purity="7.5416904687881470e-01" nType="0">
          <Node pos="l" depth="2" NCoef="0" IVar="-1" Cut="0.0000000000000000e+00" cType="1" res="-2.4711729492992163e-03" rms="3.4473049640655518e-01" purity="7.7846801280975342e-01" nType="-99"/>
          <Node pos="r" depth="2" NCoef="0" IVar="-1" Cut="0.0000000000000000e+00" cType="1" res="-3.7752479314804077e-02" rms="4.3516868352890015e-01" purity="5.3656387329101562e-01" nType="-99"/>
        </Node>
      </Node>
    </BinaryTree>
    <BinaryTree type="DecisionTree" boostWeight="1.0000000000000000e+00" itree="56">
      <Node pos="s" depth="0" NCoef="0" IVar="1" Cut="2.1080749511718750e+03" cType="1" res="1.3902845093980432e-03" rms="3.3988574147224426e-01" purity="7.8562766313552856e-01" nType="0">
        <Node pos="l" depth="1" NCoef="0" IVar="-1" Cut="0.0000000000000000e+00" cType="1" res="5.4957251995801926e-03" rms="3.3280575275421143e-01" purity="8.0052900314331055e-01" nType="-99"/>
        <Node pos="r" depth="1" NCoef="0" IVar="9" Cut="1.0446053466796875e+03" cType="0" res="-4.8126861453056335e-02" rms="3.5961580276489258e-01" purity="7.3261815309524536e-01" nType="0">
          <Node pos="l" depth="2" NCoef="0" IVar="-1" Cut="0.0000000000000000e+00" cType="1" res="2.6927769184112549e-02" rms="2.3080307245254517e-01" purity="9.4300717115402222e-01" nType="-99"/>
          <Node pos="r" depth="2" NCoef="0" IVar="-1" Cut="0.0000000000000000e+00" cType="1" res="-3.9872281253337860e-02" rms="4.2703229188919067e-01" purity="5.3750616312026978e-01" nType="-99"/>
        </Node>
      </Node>
    </BinaryTree>
    <BinaryTree type="DecisionTree" boostWeight="1.0000000000000000e+00" itree="57">
      <Node pos="s" depth="0" NCoef="0" IVar="13" Cut="3.5594606933593750e+03" cType="0" res="4.3065831414423883e-04" rms="3.3980038762092590e-01" purity="7.8453594446182251e-01" nType="0">
        <Node pos="l" depth="1" NCoef="0" IVar="-1" Cut="0.0000000000000000e+00" cType="1" res="1.6489218920469284e-02" rms="3.0312794446945190e-01" purity="8.4313088655471802e-01" nType="-99"/>
        <Node pos="r" depth="1" NCoef="0" IVar="25" Cut="1.8842517089843750e+03" cType="0" res="-1.4078919775784016e-02" rms="3.4980198740959167e-01" purity="7.6528000831604004e-01" nType="0">
          <Node pos="l" depth="2" NCoef="0" IVar="-1" Cut="0.0000000000000000e+00" cType="1" res="3.5309065133333206e-03" rms="3.3222123980522156e-01" purity="7.9725027084350586e-01" nType="-99"/>
          <Node pos="r" depth="2" NCoef="0" IVar="-1" Cut="0.0000000000000000e+00" cType="1" res="-2.0011698827147484e-02" rms="3.7535011768341064e-01" purity="7.0840120315551758e-01" nType="-99"/>
        </Node>
      </Node>
    </BinaryTree>
    <BinaryTree type="DecisionTree" boostWeight="1.0000000000000000e+00" itree="58">
      <Node pos="s" depth="0" NCoef="0" IVar="0" Cut="1.4000000000000000e+01" cType="1" res="7.8617484541609883e-04" rms="3.3845609426498413e-01" purity="7.8503477573394775e-01" nType="0">
        <Node pos="l" depth="1" NCoef="0" IVar="-1" Cut="0.0000000000000000e+00" cType="1" res="2.3036769125610590e-03" rms="3.3326861262321472e-01" purity="8.1184136867523193e-01" nType="-99"/>
        <Node pos="r" depth="1" NCoef="0" IVar="12" Cut="-4.4936397552490234e+01" cType="1" res="-9.0987831354141235e-02" rms="4.0630963444709778e-01" purity="3.2767871022224426e-01" nType="0">
          <Node pos="l" depth="2" NCoef="0" IVar="-1" Cut="0.0000000000000000e+00" cType="1" res="6.6701709292829037e-03" rms="4.1706344485282898e-01" purity="4.6793851256370544e-01" nType="-99"/>
          <Node pos="r" depth="2" NCoef="0" IVar="-1" Cut="0.0000000000000000e+00" cType="1" res="-3.2314181327819824e-02" rms="3.9304259419441223e-01" purity="2.7485030889511108e-01" nType="-99"/>
        </Node>
      </Node>
    </BinaryTree>
    <BinaryTree type="DecisionTree" boostWeight="1.0000000000000000e+00" itree="59">
      <Node pos="s" depth="0" NCoef="0" IVar="5" Cut="-2.5919705629348755e-01" cType="0" res="3.2749207457527518e-04" rms="3.3933591842651367e-01" purity="7.8413468599319458e-01" nType="0">
        <Node pos="l" depth="1" NCoef="0" IVar="-1" Cut="0.0000000000000000e+00" cType="1" res="5.9552663005888462e-03" rms="3.2394891977310181e-01" purity="8.2104033231735229e-01" nType="-99"/>
        <Node pos="r" depth="1" NCoef="0" IVar="5" Cut="-1.1319683790206909e+00" cType="0" res="-3.9533723145723343e-02" rms="3.7351572513580322e-01" purity="6.8807500600814819e-01" nType="0">
          <Node pos="l" depth="2" NCoef="0" IVar="-1" Cut="0.0000000000000000e+00" cType="1" res="-7.0164497010409832e-03" rms="3.6616599559783936e-01" purity="7.0906859636306763e-01" nType="-99"/>
          <Node pos="r" depth="2" NCoef="0" IVar="-1" Cut="0.0000000000000000e+00" cType="1" res="-4.4639989733695984e-02" rms="3.9767250418663025e-01" purity="5.6983882188796997e-01" nType="-99"/>
        </Node>
      </Node>
    </BinaryTree>
    <BinaryTree type="DecisionTree" boostWeight="1.0000000000000000e+00" itree="60">
      <Node pos="s" depth="0" NCoef="0" IVar="1" Cut="1.3090535888671875e+03" cType="0" res="2.4809042224660516e-04" rms="3.3885911107063293e-01" purity="7.8422647714614868e-01" nType="0">
        <Node pos="l" depth="1" NCoef="0" IVar="-1" Cut="0.0000000000000000e+00" cType="1" res="3.7983132060617208e-03" rms="3.3212241530418396e-01" purity="8.1569808721542358e-01" nType="-99"/>
        <Node pos="r" depth="1" NCoef="0" IVar="9" Cut="3.6677783203125000e+02" cType="1" res="-7.0320852100849152e-02" rms="3.7576422095298767e-01" purity="5.6104218959808350e-01" nType="0">
          <Node pos="l" depth="2" NCoef="0" IVar="-1" Cut="0.0000000000000000e+00" cType="1" res="-1.4560375362634659e-02" rms="3.6343002319335938e-01" purity="5.8379435539245605e-01" nType="-99"/>
          <Node pos="r" depth="2" NCoef="0" IVar="-1" Cut="0.0000000000000000e+00" cType="1" res="-1.0919351130723953e-01" rms="3.9735260605812073e-01" purity="2.6888489723205566e-01" nType="-99"/>
        </Node>
      </Node>
    </BinaryTree>
    <BinaryTree type="DecisionTree" boostWeight="1.0000000000000000e+00" itree="61">
      <Node pos="s" depth="0" NCoef="0" IVar="25" Cut="2.0576499023437500e+03" cType="0" res="3.7283403798937798e-05" rms="3.3889895677566528e-01" purity="7.8365540504455566e-01" nType="0">
        <Node pos="l" depth="1" NCoef="0" IVar="-1" Cut="0.0000000000000000e+00" cType="1" res="8.2989763468503952e-03" rms="3.1710383296012878e-01" purity="8.1935322284698486e-01" nType="-99"/>
        <Node pos="r" depth="1" NCoef="0" IVar="3" Cut="3.3801066894531250e+03" cType="1" res="-3.0723787844181061e-02" rms="3.6461246013641357e-01" purity="7.3441427946090698e-01" nType="0">
          <Node pos="l" depth="2" NCoef="0" IVar="-1" Cut="0.0000000000000000e+00" cType="1" res="-1.5178665053099394e-03" rms="3.4522834420204163e-01" purity="7.7778011560440063e-01" nType="-99"/>
          <Node pos="r" depth="2" NCoef="0" IVar="-1" Cut="0.0000000000000000e+00" cType="1" res="-7.3855549097061157e-02" rms="4.3937355279922485e-01" purity="3.6072474718093872e-01" nType="-99"/>
        </Node>
      </Node>
    </BinaryTree>
    <BinaryTree type="DecisionTree" boostWeight="1.0000000000000000e+00" itree="62">
      <Node pos="s" depth="0" NCoef="0" IVar="25" Cut="1.3281748046875000e+03" cType="0" res="1.2617963366210461e-03" rms="3.3670470118522644e-01" purity="7.8487634658813477e-01" nType="0">
        <Node pos="l" depth="1" NCoef="0" IVar="-1" Cut="0.0000000000000000e+00" cType="1" res="3.3879063557833433e-03" rms="3.3047208189964294e-01" purity="7.9130095243453979e-01" nType="-99"/>
        <Node pos="r" depth="1" NCoef="0" IVar="0" Cut="5.2857141494750977e+00" cType="1" res="-7.5715094804763794e-02" rms="3.8308545947074890e-01" purity="7.2318780422210693e-01" nType="0">
          <Node pos="l" depth="2" NCoef="0" IVar="-1" Cut="0.0000000000000000e+00" cType="1" res="-7.9343430697917938e-03" rms="3.4862765669822693e-01" purity="8.2926040887832642e-01" nType="-99"/>
          <Node pos="r" depth="2" NCoef="0" IVar="-1" Cut="0.0000000000000000e+00" cType="1" res="-7.5786486268043518e-02" rms="4.3034169077873230e-01" purity="3.3804476261138916e-01" nType="-99"/>
        </Node>
      </Node>
    </BinaryTree>
    <BinaryTree type="DecisionTree" boostWeight="1.0000000000000000e+00" itree="63">
      <Node pos="s" depth="0" NCoef="0" IVar="25" Cut="1.3395092773437500e+03" cType="0" res="9.7601354354992509e-04" rms="3.3633342385292053e-01" purity="7.8400176763534546e-01" nType="0">
        <Node pos="l" depth="1" NCoef="0" IVar="-1" Cut="0.0000000000000000e+00" cType="1" res="3.3528336789458990e-03" rms="3.2966294884681702e-01" purity="7.9151618480682373e-01" nType="-99"/>
        <Node pos="r" depth="1" NCoef="0" IVar="3" Cut="2.7654526367187500e+03" cType="1" res="-7.3833726346492767e-02" rms="3.8401618599891663e-01" purity="7.1539962291717529e-01" nType="0">
          <Node pos="l" depth="2" NCoef="0" IVar="-1" Cut="0.0000000000000000e+00" cType="1" res="-1.6445998102426529e-02" rms="3.6908569931983948e-01" purity="7.6672935485839844e-01" nType="-99"/>
          <Node pos="r" depth="2" NCoef="0" IVar="-1" Cut="0.0000000000000000e+00" cType="1" res="-9.1573312878608704e-02" rms="4.0153419971466064e-01" purity="2.1671018004417419e-01" nType="-99"/>
        </Node>
      </Node>
    </BinaryTree>
    <BinaryTree type="DecisionTree" boostWeight="1.0000000000000000e+00" itree="64">
      <Node pos="s" depth="0" NCoef="0" IVar="0" Cut="1.2142857551574707e+01" cType="1" res="1.5967274084687233e-03" rms="3.3516481518745422e-01" purity="7.8575849533081055e-01" nType="0">
        <Node pos="l" depth="1" NCoef="0" IVar="-1" Cut="0.0000000000000000e+00" cType="1" res="3.5345577634871006e-03" rms="3.2614034414291382e-01" purity="8.2608962059020996e-01" nType="-99"/>
        <Node pos="r" depth="1" NCoef="0" IVar="12" Cut="-1.3716753005981445e+01" cType="1" res="-7.5975947082042694e-02" rms="4.0848371386528015e-01" purity="3.7265172600746155e-01" nType="0">
          <Node pos="l" depth="2" NCoef="0" IVar="-1" Cut="0.0000000000000000e+00" cType="1" res="-6.9222198799252510e-03" rms="4.1214683651924133e-01" purity="4.3635320663452148e-01" nType="-99"/>
          <Node pos="r" depth="2" NCoef="0" IVar="-1" Cut="0.0000000000000000e+00" cType="1" res="-3.7266712635755539e-02" rms="3.8900631666183472e-01" purity="2.6416015625000000e-01" nType="-99"/>
        </Node>
      </Node>
    </BinaryTree>
    <BinaryTree type="DecisionTree" boostWeight="1.0000000000000000e+00" itree="65">
      <Node pos="s" depth="0" NCoef="0" IVar="2" Cut="2.3806506767868996e-02" cType="1" res="5.9540441725403070e-04" rms="3.3587846159934998e-01" purity="7.8460353612899780e-01" nType="0">
        <Node pos="l" depth="1" NCoef="0" IVar="-1" Cut="0.0000000000000000e+00" cType="1" res="1.1536105535924435e-02" rms="2.8726175427436829e-01" purity="8.8131487369537354e-01" nType="-99"/>
        <Node pos="r" depth="1" NCoef="0" IVar="13" Cut="2.5363149414062500e+03" cType="0" res="-2.3564692586660385e-02" rms="3.7474325299263000e-01" purity="6.9261509180068970e-01" nType="0">
          <Node pos="l" depth="2" NCoef="0" IVar="-1" Cut="0.0000000000000000e+00" cType="1" res="3.0624975915998220e-03" rms="3.5888019204139709e-01" purity="7.4240088462829590e-01" nType="-99"/>
          <Node pos="r" depth="2" NCoef="0" IVar="-1" Cut="0.0000000000000000e+00" cType="1" res="-1.6506737098097801e-02" rms="3.8581782579421997e-01" purity="6.4878880977630615e-01" nType="-99"/>
        </Node>
      </Node>
    </BinaryTree>
    <BinaryTree type="DecisionTree" boostWeight="1.0000000000000000e+00" itree="66">
      <Node pos="s" depth="0" NCoef="0" IVar="0" Cut="2.1428571701049805e+01" cType="1" res="1.4462064427789301e-04" rms="3.3630627393722534e-01" purity="7.8461748361587524e-01" nType="0">
        <Node pos="l" depth="1" NCoef="0" IVar="-1" Cut="0.0000000000000000e+00" cType="1" res="1.0624959832057357e-03" rms="3.3542355895042419e-01" purity="7.9267716407775879e-01" nType="-99"/>
        <Node pos="r" depth="1" NCoef="0" IVar="7" Cut="1.1517434082031250e+03" cType="0" res="-2.0338994264602661e-01" rms="3.3984342217445374e-01" purity="1.8148599565029144e-01" nType="0">
          <Node pos="l" depth="2" NCoef="0" IVar="-1" Cut="0.0000000000000000e+00" cType="1" res="-2.4297799915075302e-02" rms="3.9204424619674683e-01" purity="3.1264108419418335e-01" nType="-99"/>
          <Node pos="r" depth="2" NCoef="0" IVar="-1" Cut="0.0000000000000000e+00" cType="1" res="-7.9090751707553864e-02" rms="2.1233642101287842e-01" purity="2.7777777984738350e-02" nType="-99"/>
        </Node>
      </Node>
    </BinaryTree>
    <BinaryTree type="DecisionTree" boostWeight="1.0000000000000000e+00" itree="67">
      <Node pos="s" depth="0" NCoef="0" IVar="0" Cut="6.5714287757873535e+00" cType="1" res="1.1674987763399258e-04" rms="3.3578547835350037e-01" purity="7.8391945362091064e-01" nType="0">
        <Node pos="l" depth="1" NCoef="0" IVar="-1" Cut="0.0000000000000000e+00" cType="1" res="9.7686583176255226e-03" rms="2.8391095995903015e-01" purity="8.9632296562194824e-01" nType="-99"/>
        <Node pos="r" depth="1" NCoef="0" IVar="13" Cut="2.3568193359375000e+03" cType="0" res="-2.5076093152165413e-02" rms="3.8896068930625916e-01" purity="6.4514857530593872e-01" nType="0">
          <Node pos="l" depth="2" NCoef="0" IVar="-1" Cut="0.0000000000000000e+00" cType="1" res="2.8926571831107140e-03" rms="3.6760839819908142e-01" purity="7.1278589963912964e-01" nType="-99"/>
          <Node pos="r" depth="2" NCoef="0" IVar="-1" Cut="0.0000000000000000e+00" cType="1" res="-2.0178349688649178e-02" rms="4.1217356920242310e-01" purity="5.5027341842651367e-01" nType="-99"/>
        </Node>
      </Node>
    </BinaryTree>
    <BinaryTree type="DecisionTree" boostWeight="1.0000000000000000e+00" itree="68">
      <Node pos="s" depth="0" NCoef="0" IVar="1" Cut="1.1410792236328125e+03" cType="0" res="-7.9034513328224421e-04" rms="3.3521574735641479e-01" purity="7.8347992897033691e-01" nType="0">
        <Node pos="l" depth="1" NCoef="0" IVar="-1" Cut="0.0000000000000000e+00" cType="1" res="1.6494847368448973e-03" rms="3.3400490880012512e-01" purity="8.0688506364822388e-01" nType="-99"/>
        <Node pos="r" depth="1" NCoef="0" IVar="9" Cut="1.7181616210937500e+02" cType="1" res="-1.2214300781488419e-01" rms="3.4051686525344849e-01" purity="2.3646667599678040e-01" nType="0">
          <Node pos="l" depth="2" NCoef="0" IVar="-1" Cut="0.0000000000000000e+00" cType="1" res="-1.6019977629184723e-02" rms="3.5243201255798340e-01" purity="2.9930517077445984e-01" nType="-99"/>
          <Node pos="r" depth="2" NCoef="0" IVar="-1" Cut="0.0000000000000000e+00" cType="1" res="-4.7511916607618332e-02" rms="3.2680472731590271e-01" purity="2.0024645328521729e-01" nType="-99"/>
        </Node>
      </Node>
    </BinaryTree>
    <BinaryTree type="DecisionTree" boostWeight="1.0000000000000000e+00" itree="69">
      <Node pos="s" depth="0" NCoef="0" IVar="1" Cut="2.1080749511718750e+03" cType="1" res="6.5802404424175620e-04" rms="3.3454030752182007e-01" purity="7.8467410802841187e-01" nType="0">
        <Node pos="l" depth="1" NCoef="0" IVar="-1" Cut="0.0000000000000000e+00" cType="1" res="4.5286403037607670e-03" rms="3.2919642329216003e-01" purity="7.9850322008132935e-01" nType="-99"/>
        <Node pos="r" depth="1" NCoef="0" IVar="9" Cut="1.0446053466796875e+03" cType="0" res="-4.0159236639738083e-02" rms="3.4968578815460205e-01" purity="7.3593121767044067e-01" nType="0">
          <Node pos="l" depth="2" NCoef="0" IVar="-1" Cut="0.0000000000000000e+00" cType="1" res="2.3763544857501984e-02" rms="2.2876502573490143e-01" purity="9.4362598657608032e-01" nType="-99"/>
          <Node pos="r" depth="2" NCoef="0" IVar="-1" Cut="0.0000000000000000e+00" cType="1" res="-3.2878618687391281e-02" rms="4.1920873522758484e-01" purity="5.4211968183517456e-01" nType="-99"/>
        </Node>
      </Node>
    </BinaryTree>
    <BinaryTree type="DecisionTree" boostWeight="1.0000000000000000e+00" itree="70">
      <Node pos="s" depth="0" NCoef="0" IVar="1" Cut="1.8524174804687500e+03" cType="1" res="1.1110143968835473e-03" rms="3.3366549015045166e-01" purity="7.8503817319869995e-01" nType="0">
        <Node pos="l" depth="1" NCoef="0" IVar="-1" Cut="0.0000000000000000e+00" cType="1" res="6.6485907882452011e-03" rms="3.2607024908065796e-01" purity="7.9879164695739746e-01" nType="-99"/>
        <Node pos="r" depth="1" NCoef="0" IVar="9" Cut="4.6815942382812500e+02" cType="0" res="-2.9014050960540771e-02" rms="3.4465819597244263e-01" purity="7.6067465543746948e-01" nType="0">
          <Node pos="l" depth="2" NCoef="0" IVar="-1" Cut="0.0000000000000000e+00" cType="1" res="1.0493161156773567e-02" rms="2.9000633955001831e-01" purity="8.7532782554626465e-01" nType="-99"/>
          <Node pos="r" depth="2" NCoef="0" IVar="-1" Cut="0.0000000000000000e+00" cType="1" res="-4.7741681337356567e-02" rms="4.2725738883018494e-01" purity="4.6408620476722717e-01" nType="-99"/>
        </Node>
      </Node>
    </BinaryTree>
    <BinaryTree type="DecisionTree" boostWeight="1.0000000000000000e+00" itree="71">
      <Node pos="s" depth="0" NCoef="0" IVar="1" Cut="1.1206236572265625e+03" cType="0" res="1.2671834556385875e-03" rms="3.3285278081893921e-01" purity="7.8577440977096558e-01" nType="0">
        <Node pos="l" depth="1" NCoef="0" IVar="-1" Cut="0.0000000000000000e+00" cType="1" res="2.1493548993021250e-03" rms="3.3206588029861450e-01" purity="8.0811709165573120e-01" nType="-99"/>
        <Node pos="r" depth="1" NCoef="0" IVar="5" Cut="1.7466105222702026e+00" cType="0" res="-1.1318291723728180e-01" rms="3.3276808261871338e-01" purity="2.0724606513977051e-01" nType="0">
          <Node pos="l" depth="2" NCoef="0" IVar="-1" Cut="0.0000000000000000e+00" cType="1" res="6.8525530397891998e-02" rms="3.0448141694068909e-01" purity="9.1250002384185791e-01" nType="-99"/>
          <Node pos="r" depth="2" NCoef="0" IVar="-1" Cut="0.0000000000000000e+00" cType="1" res="-3.6757130175828934e-02" rms="3.2919523119926453e-01" purity="1.9486504793167114e-01" nType="-99"/>
        </Node>
      </Node>
    </BinaryTree>
    <BinaryTree type="DecisionTree" boostWeight="1.0000000000000000e+00" itree="72">
      <Node pos="s" depth="0" NCoef="0" IVar="25" Cut="1.3000334472656250e+03" cType="0" res="2.9630979406647384e-04" rms="3.3310464024543762e-01" purity="7.8457558155059814e-01" nType="0">
        <Node pos="l" depth="1" NCoef="0" IVar="-1" Cut="0.0000000000000000e+00" cType="1" res="2.4682621005922556e-03" rms="3.2793983817100525e-01" purity="7.9016268253326416e-01" nType="-99"/>
        <Node pos="r" depth="1" NCoef="0" IVar="0" Cut="5.2857141494750977e+00" cType="1" res="-6.5741091966629028e-02" rms="3.7706014513969421e-01" purity="7.2567933797836304e-01" nType="0">
          <Node pos="l" depth="2" NCoef="0" IVar="-1" Cut="0.0000000000000000e+00" cType="1" res="-9.4182379543781281e-03" rms="3.5120737552642822e-01" purity="8.2202214002609253e-01" nType="-99"/>
          <Node pos="r" depth="2" NCoef="0" IVar="-1" Cut="0.0000000000000000e+00" cType="1" res="-6.4158000051975250e-02" rms="4.2602488398551941e-01" purity="3.3176025748252869e-01" nType="-99"/>
        </Node>
      </Node>
    </BinaryTree>
    <BinaryTree type="DecisionTree" boostWeight="1.0000000000000000e+00" itree="73">
      <Node pos="s" depth="0" NCoef="0" IVar="13" Cut="3.5594628906250000e+03" cType="0" res="1.0174715425819159e-03" rms="3.3185741305351257e-01" purity="7.8574413061141968e-01" nType="0">
        <Node pos="l" depth="1" NCoef="0" IVar="-1" Cut="0.0000000000000000e+00" cType="1" res="1.5355778858065605e-02" rms="2.9537400603294373e-01" purity="8.4736943244934082e-01" nType="-99"/>
        <Node pos="r" depth="1" NCoef="0" IVar="0" Cut="4.7142858505249023e+00" cType="1" res="-1.1489531956613064e-02" rms="3.4205254912376404e-01" purity="7.6553571224212646e-01" nType="0">
          <Node pos="l" depth="2" NCoef="0" IVar="-1" Cut="0.0000000000000000e+00" cType="1" res="1.3199603185057640e-02" rms="2.6508030295372009e-01" purity="9.1165196895599365e-01" nType="-99"/>
          <Node pos="r" depth="2" NCoef="0" IVar="-1" Cut="0.0000000000000000e+00" cType="1" res="-1.0010321624577045e-02" rms="3.7444457411766052e-01" purity="6.8953722715377808e-01" nType="-99"/>
        </Node>
      </Node>
    </BinaryTree>
    <BinaryTree type="DecisionTree" boostWeight="1.0000000000000000e+00" itree="74">
      <Node pos="s" depth="0" NCoef="0" IVar="25" Cut="1.3656353759765625e+03" cType="0" res="3.5153553471900523e-04" rms="3.3318647742271423e-01" purity="7.8434896469116211e-01" nType="0">
        <Node pos="l" depth="1" NCoef="0" IVar="-1" Cut="0.0000000000000000e+00" cType="1" res="2.8632441535592079e-03" rms="3.2757303118705750e-01" purity="7.9198235273361206e-01" nType="-99"/>
        <Node pos="r" depth="1" NCoef="0" IVar="3" Cut="2.7654526367187500e+03" cType="1" res="-6.0303766280412674e-02" rms="3.7154641747474670e-01" purity="7.2024124860763550e-01" nType="0">
          <Node pos="l" depth="2" NCoef="0" IVar="-1" Cut="0.0000000000000000e+00" cType="1" res="-1.1823696084320545e-02" rms="3.5710659623146057e-01" purity="7.7655649185180664e-01" nType="-99"/>
          <Node pos="r" depth="2" NCoef="0" IVar="-1" Cut="0.0000000000000000e+00" cType="1" res="-8.1106729805469513e-02" rms="3.9411303400993347e-01" purity="2.2197476029396057e-01" nType="-99"/>
        </Node>
      </Node>
    </BinaryTree>
    <BinaryTree type="DecisionTree" boostWeight="1.0000000000000000e+00" itree="75">
      <Node pos="s" depth="0" NCoef="0" IVar="25" Cut="2.5442346191406250e+03" cType="0" res="-4.2435899376869202e-04" rms="3.3240789175033569e-01" purity="7.8400856256484985e-01" nType="0">
        <Node pos="l" depth="1" NCoef="0" IVar="-1" Cut="0.0000000000000000e+00" cType="1" res="1.0736411437392235e-02" rms="3.0245813727378845e-01" purity="8.3815926313400269e-01" nType="-99"/>
        <Node pos="r" depth="1" NCoef="0" IVar="10" Cut="1.4014577865600586e+00" cType="0" res="-1.6207013279199600e-02" rms="3.4751400351524353e-01" purity="7.5281661748886108e-01" nType="0">
          <Node pos="l" depth="2" NCoef="0" IVar="-1" Cut="0.0000000000000000e+00" cType="1" res="1.4595100656151772e-02" rms="2.8890296816825867e-01" purity="8.8069373369216919e-01" nType="-99"/>
          <Node pos="r" depth="2" NCoef="0" IVar="-1" Cut="0.0000000000000000e+00" cType="1" res="-1.2175855226814747e-02" rms="3.6565724015235901e-01" purity="7.0396333932876587e-01" nType="-99"/>
        </Node>
      </Node>
    </BinaryTree>
    <BinaryTree type="DecisionTree" boostWeight="1.0000000000000000e+00" itree="76">
      <Node pos="s" depth="0" NCoef="0" IVar="0" Cut="2.1428571701049805e+01" cType="1" res="-9.7271346021443605e-05" rms="3.3212912082672119e-01" purity="7.8412955999374390e-01" nType="0">
        <Node pos="l" depth="1" NCoef="0" IVar="-1" Cut="0.0000000000000000e+00" cType="1" res="8.4649206837639213e-04" rms="3.3143755793571472e-01" purity="7.9221409559249878e-01" nType="-99"/>
        <Node pos="r" depth="1" NCoef="0" IVar="23" Cut="5.7857456054687500e+03" cType="0" res="-1.7063200473785400e-01" rms="3.3848464488983154e-01" purity="1.8973746895790100e-01" nType="0">
          <Node pos="l" depth="2" NCoef="0" IVar="-1" Cut="0.0000000000000000e+00" cType="1" res="4.1017038747668266e-03" rms="4.1344806551933289e-01" purity="4.6947368979454041e-01" nType="-99"/>
          <Node pos="r" depth="2" NCoef="0" IVar="-1" Cut="0.0000000000000000e+00" cType="1" res="-6.3815355300903320e-02" rms="2.6978728175163269e-01" purity="7.9100750386714935e-02" nType="-99"/>
        </Node>
      </Node>
    </BinaryTree>
    <BinaryTree type="DecisionTree" boostWeight="1.0000000000000000e+00" itree="77">
      <Node pos="s" depth="0" NCoef="0" IVar="1" Cut="2.1080749511718750e+03" cType="1" res="1.1502525303512812e-03" rms="3.3111953735351562e-01" purity="7.8499132394790649e-01" nType="0">
        <Node pos="l" depth="1" NCoef="0" IVar="-1" Cut="0.0000000000000000e+00" cType="1" res="4.4227968901395798e-03" rms="3.2565623521804810e-01" purity="8.0024981498718262e-01" nType="-99"/>
        <Node pos="r" depth="1" NCoef="0" IVar="9" Cut="8.9851885986328125e+02" cType="0" res="-3.6312606185674667e-02" rms="3.4716495871543884e-01" purity="7.3105412721633911e-01" nType="0">
          <Node pos="l" depth="2" NCoef="0" IVar="-1" Cut="0.0000000000000000e+00" cType="1" res="1.9731538370251656e-02" rms="2.4729186296463013e-01" purity="9.3127125501632690e-01" nType="-99"/>
          <Node pos="r" depth="2" NCoef="0" IVar="-1" Cut="0.0000000000000000e+00" cType="1" res="-3.5304676741361618e-02" rms="4.2794904112815857e-01" purity="4.6718537807464600e-01" nType="-99"/>
        </Node>
      </Node>
    </BinaryTree>
    <BinaryTree type="DecisionTree" boostWeight="1.0000000000000000e+00" itree="78">
      <Node pos="s" depth="0" NCoef="0" IVar="0" Cut="4.7142858505249023e+00" cType="1" res="-5.0224066944792867e-04" rms="3.3167889714241028e-01" purity="7.8422540426254272e-01" nType="0">
        <Node pos="l" depth="1" NCoef="0" IVar="-1" Cut="0.0000000000000000e+00" cType="1" res="1.4586493372917175e-02" rms="2.5715079903602600e-01" purity="9.1722732782363892e-01" nType="-99"/>
        <Node pos="r" depth="1" NCoef="0" IVar="25" Cut="1.5973321533203125e+03" cType="0" res="-1.2957816943526268e-02" rms="3.5920721292495728e-01" purity="7.2505682706832886e-01" nType="0">
          <Node pos="l" depth="2" NCoef="0" IVar="-1" Cut="0.0000000000000000e+00" cType="1" res="6.5224361605942249e-04" rms="3.4835481643676758e-01" purity="7.5285524129867554e-01" nType="-99"/>
          <Node pos="r" depth="2" NCoef="0" IVar="-1" Cut="0.0000000000000000e+00" cType="1" res="-3.2189600169658661e-02" rms="4.0973943471908569e-01" purity="5.4622280597686768e-01" nType="-99"/>
        </Node>
      </Node>
    </BinaryTree>
    <BinaryTree type="DecisionTree" boostWeight="1.0000000000000000e+00" itree="79">
      <Node pos="s" depth="0" NCoef="0" IVar="13" Cut="3.5594606933593750e+03" cType="0" res="-8.6927169468253851e-04" rms="3.3113652467727661e-01" purity="7.8376340866088867e-01" nType="0">
        <Node pos="l" depth="1" NCoef="0" IVar="-1" Cut="0.0000000000000000e+00" cType="1" res="1.3431767933070660e-02" rms="2.9638713598251343e-01" purity="8.4664797782897949e-01" nType="-99"/>
        <Node pos="r" depth="1" NCoef="0" IVar="4" Cut="4.7617387771606445e+00" cType="0" res="-1.2008979916572571e-02" rms="3.4094938635826111e-01" purity="7.6328754425048828e-01" nType="0">
          <Node pos="l" depth="2" NCoef="0" IVar="-1" Cut="0.0000000000000000e+00" cType="1" res="1.0848104953765869e-02" rms="2.8670489788055420e-01" purity="8.8123327493667603e-01" nType="-99"/>
          <Node pos="r" depth="2" NCoef="0" IVar="-1" Cut="0.0000000000000000e+00" cType="1" res="-9.3086641281843185e-03" rms="3.6006066203117371e-01" purity="7.1431362628936768e-01" nType="-99"/>
        </Node>
      </Node>
    </BinaryTree>
    <BinaryTree type="DecisionTree" boostWeight="1.0000000000000000e+00" itree="80">
      <Node pos="s" depth="0" NCoef="0" IVar="25" Cut="2.5296042480468750e+03" cType="0" res="1.2243669480085373e-03" rms="3.2950073480606079e-01" purity="7.8526335954666138e-01" nType="0">
        <Node pos="l" depth="1" NCoef="0" IVar="-1" Cut="0.0000000000000000e+00" cType="1" res="1.0179988108575344e-02" rms="3.0075195431709290e-01" purity="8.3950453996658325e-01" nType="-99"/>
        <Node pos="r" depth="1" NCoef="0" IVar="0" Cut="9.8095235824584961e+00" cType="1" res="-1.2797439470887184e-02" rms="3.4450024366378784e-01" purity="7.5340813398361206e-01" nType="0">
          <Node pos="l" depth="2" NCoef="0" IVar="-1" Cut="0.0000000000000000e+00" cType="1" res="-4.0889758383855224e-04" rms="3.3282548189163208e-01" purity="8.2786458730697632e-01" nType="-99"/>
          <Node pos="r" depth="2" NCoef="0" IVar="-1" Cut="0.0000000000000000e+00" cType="1" res="-2.0923251286149025e-02" rms="3.9915245771408081e-01" purity="3.1860485672950745e-01" nType="-99"/>
        </Node>
      </Node>
    </BinaryTree>
    <BinaryTree type="DecisionTree" boostWeight="1.0000000000000000e+00" itree="81">
      <Node pos="s" depth="0" NCoef="0" IVar="2" Cut="4.7613013535737991e-02" cType="1" res="-3.5062126698903739e-04" rms="3.3052825927734375e-01" purity="7.8407907485961914e-01" nType="0">
        <Node pos="l" depth="1" NCoef="0" IVar="-1" Cut="0.0000000000000000e+00" cType="1" res="7.4832858517765999e-03" rms="2.9250526428222656e-01" purity="8.6689883470535278e-01" nType="-99"/>
        <Node pos="r" depth="1" NCoef="0" IVar="5" Cut="-1.3250854015350342e+00" cType="0" res="-2.3147167637944221e-02" rms="3.7470966577529907e-01" purity="6.7198896408081055e-01" nType="0">
          <Node pos="l" depth="2" NCoef="0" IVar="-1" Cut="0.0000000000000000e+00" cType="1" res="-5.3147641010582447e-03" rms="3.7274694442749023e-01" purity="6.8263846635818481e-01" nType="-99"/>
          <Node pos="r" depth="2" NCoef="0" IVar="-1" Cut="0.0000000000000000e+00" cType="1" res="-5.5548548698425293e-02" rms="3.8621807098388672e-01" purity="3.9397037029266357e-01" nType="-99"/>
        </Node>
      </Node>
    </BinaryTree>
    <BinaryTree type="DecisionTree" boostWeight="1.0000000000000000e+00" itree="82">
      <Node pos="s" depth="0" NCoef="0" IVar="1" Cut="2.3031530761718750e+03" cType="1" res="-7.2271138196811080e-04" rms="3.3080330491065979e-01" purity="7.8373122215270996e-01" nType="0">
        <Node pos="l" depth="1" NCoef="0" IVar="-1" Cut="0.0000000000000000e+00" cType="1" res="3.2477711793035269e-03" rms="3.2827377319335938e-01" purity="7.9472714662551880e-01" nType="-99"/>
        <Node pos="r" depth="1" NCoef="0" IVar="9" Cut="8.8852008056640625e+02" cType="0" res="-4.9950778484344482e-02" rms="3.3964893221855164e-01" purity="7.2560852766036987e-01" nType="0">
          <Node pos="l" depth="2" NCoef="0" IVar="-1" Cut="0.0000000000000000e+00" cType="1" res="9.6510332077741623e-03" rms="2.5531518459320068e-01" purity="9.2402130365371704e-01" nType="-99"/>
          <Node pos="r" depth="2" NCoef="0" IVar="-1" Cut="0.0000000000000000e+00" cType="1" res="-4.4468268752098083e-02" rms="4.3152830004692078e-01" purity="3.5496899485588074e-01" nType="-99"/>
        </Node>
      </Node>
    </BinaryTree>
    <BinaryTree type="DecisionTree" boostWeight="1.0000000000000000e+00" itree="83">
      <Node pos="s" depth="0" NCoef="0" IVar="5" Cut="-2.5919705629348755e-01" cType="0" res="1.0511493746889755e-04" rms="3.2969802618026733e-01" purity="7.8457754850387573e-01" nType="0">
        <Node pos="l" depth="1" NCoef="0" IVar="-1" Cut="0.0000000000000000e+00" cType="1" res="5.0040842033922672e-03" rms="3.1527063250541687e-01" purity="8.2265931367874146e-01" nType="-99"/>
        <Node pos="r" depth="1" NCoef="0" IVar="12" Cut="-1.0038172607421875e+03" cType="1" res="-3.1353142112493515e-02" rms="3.6256226897239685e-01" purity="6.8585783243179321e-01" nType="0">
          <Node pos="l" depth="2" NCoef="0" IVar="-1" Cut="0.0000000000000000e+00" cType="1" res="3.3723589032888412e-02" rms="2.2171266376972198e-01" purity="9.2006564140319824e-01" nType="-99"/>
          <Node pos="r" depth="2" NCoef="0" IVar="-1" Cut="0.0000000000000000e+00" cType="1" res="-1.5197656117379665e-02" rms="3.7565913796424866e-01" purity="6.5295708179473877e-01" nType="-99"/>
        </Node>
      </Node>
    </BinaryTree>
    <BinaryTree type="DecisionTree" boostWeight="1.0000000000000000e+00" itree="84">
      <Node pos="s" depth="0" NCoef="0" IVar="27" Cut="9.3818468750000000e+04" cType="0" res="-7.3654699372127652e-04" rms="3.2986071705818176e-01" purity="7.8400254249572754e-01" nType="0">
        <Node pos="l" depth="1" NCoef="0" IVar="-1" Cut="0.0000000000000000e+00" cType="1" res="-1.6560582444071770e-02" rms="3.4269961714744568e-01" purity="7.8413087129592896e-01" nType="-99"/>
        <Node pos="r" depth="1" NCoef="0" IVar="1" Cut="1.2762609863281250e+03" cType="0" res="7.8604649752378464e-03" rms="3.2631325721740723e-01" purity="7.8397399187088013e-01" nType="0">
          <Node pos="l" depth="2" NCoef="0" IVar="-1" Cut="0.0000000000000000e+00" cType="1" res="6.7287222482264042e-03" rms="3.1901332736015320e-01" purity="8.1720125675201416e-01" nType="-99"/>
          <Node pos="r" depth="2" NCoef="0" IVar="-1" Cut="0.0000000000000000e+00" cType="1" res="-2.2375060245394707e-02" rms="3.7260654568672180e-01" purity="5.0672274827957153e-01" nType="-99"/>
        </Node>
      </Node>
    </BinaryTree>
    <BinaryTree type="DecisionTree" boostWeight="1.0000000000000000e+00" itree="85">
      <Node pos="s" depth="0" NCoef="0" IVar="12" Cut="-1.7050732421875000e+03" cType="1" res="1.5262146480381489e-03" rms="3.2741960883140564e-01" purity="7.8612774610519409e-01" nType="0">
        <Node pos="l" depth="1" NCoef="0" IVar="-1" Cut="0.0000000000000000e+00" cType="1" res="4.0287896990776062e-02" rms="1.7153742909431458e-01" purity="9.5823282003402710e-01" nType="-99"/>
        <Node pos="r" depth="1" NCoef="0" IVar="12" Cut="-4.0624322509765625e+02" cType="1" res="-3.5206014290452003e-03" rms="3.3469098806381226e-01" purity="7.7457827329635620e-01" nType="0">
          <Node pos="l" depth="2" NCoef="0" IVar="-1" Cut="0.0000000000000000e+00" cType="1" res="2.6509856805205345e-02" rms="2.4189436435699463e-01" purity="9.1113024950027466e-01" nType="-99"/>
          <Node pos="r" depth="2" NCoef="0" IVar="-1" Cut="0.0000000000000000e+00" cType="1" res="-5.8056032285094261e-03" rms="3.4920305013656616e-01" purity="7.4695795774459839e-01" nType="-99"/>
        </Node>
      </Node>
    </BinaryTree>
    <BinaryTree type="DecisionTree" boostWeight="1.0000000000000000e+00" itree="86">
      <Node pos="s" depth="0" NCoef="0" IVar="1" Cut="1.1410792236328125e+03" cType="0" res="7.5069017475470901e-04" rms="3.2807871699333191e-01" purity="7.8593456745147705e-01" nType="0">
        <Node pos="l" depth="1" NCoef="0" IVar="-1" Cut="0.0000000000000000e+00" cType="1" res="1.9497548928484321e-03" rms="3.2696107029914856e-01" purity="8.0961412191390991e-01" nType="-99"/>
        <Node pos="r" depth="1" NCoef="0" IVar="9" Cut="2.6768801879882812e+02" cType="1" res="-9.6519701182842255e-02" rms="3.3859872817993164e-01" purity="2.3978412151336670e-01" nType="0">
          <Node pos="l" depth="2" NCoef="0" IVar="-1" Cut="0.0000000000000000e+00" cType="1" res="-2.2858312353491783e-02" rms="3.3833709359169006e-01" purity="2.6649138331413269e-01" nType="-99"/>
          <Node pos="r" depth="2" NCoef="0" IVar="-1" Cut="0.0000000000000000e+00" cType="1" res="-5.9341948479413986e-02" rms="3.2185092568397522e-01" purity="1.2848605215549469e-01" nType="-99"/>
        </Node>
      </Node>
    </BinaryTree>
    <BinaryTree type="DecisionTree" boostWeight="1.0000000000000000e+00" itree="87">
      <Node pos="s" depth="0" NCoef="0" IVar="0" Cut="2.1428571701049805e+01" cType="1" res="-2.5202307369909249e-06" rms="3.2905352115631104e-01" purity="7.8497344255447388e-01" nType="0">
        <Node pos="l" depth="1" NCoef="0" IVar="-1" Cut="0.0000000000000000e+00" cType="1" res="7.8660302096977830e-04" rms="3.2856094837188721e-01" purity="7.9290145635604858e-01" nType="-99"/>
        <Node pos="r" depth="1" NCoef="0" IVar="25" Cut="8.8291650390625000e+03" cType="0" res="-1.5238969027996063e-01" rms="3.3054861426353455e-01" purity="1.8495684862136841e-01" nType="0">
          <Node pos="l" depth="2" NCoef="0" IVar="-1" Cut="0.0000000000000000e+00" cType="1" res="6.4002752304077148e-02" rms="2.4574176967144012e-01" purity="8.6206895112991333e-01" nType="-99"/>
          <Node pos="r" depth="2" NCoef="0" IVar="-1" Cut="0.0000000000000000e+00" cType="1" res="-4.5631986111402512e-02" rms="3.2157137989997864e-01" purity="1.5984654426574707e-01" nType="-99"/>
        </Node>
      </Node>
    </BinaryTree>
    <BinaryTree type="DecisionTree" boostWeight="1.0000000000000000e+00" itree="88">
      <Node pos="s" depth="0" NCoef="0" IVar="13" Cut="2.0681813964843750e+03" cType="0" res="6.0698681045323610e-04" rms="3.2771056890487671e-01" purity="7.8547674417495728e-01" nType="0">
        <Node pos="l" depth="1" NCoef="0" IVar="-1" Cut="0.0000000000000000e+00" cType="1" res="5.9452317655086517e-03" rms="3.1986275315284729e-01" purity="8.0083537101745605e-01" nType="-99"/>
        <Node pos="r" depth="1" NCoef="0" IVar="0" Cut="4.5238094329833984e+00" cType="1" res="-2.1346630528569221e-02" rms="3.3777394890785217e-01" purity="7.6279449462890625e-01" nType="0">
          <Node pos="l" depth="2" NCoef="0" IVar="-1" Cut="0.0000000000000000e+00" cType="1" res="8.9726625010371208e-03" rms="2.6643252372741699e-01" purity="9.0945070981979370e-01" nType="-99"/>
          <Node pos="r" depth="2" NCoef="0" IVar="-1" Cut="0.0000000000000000e+00" cType="1" res="-1.6986964270472527e-02" rms="3.8414475321769714e-01" purity="6.4160335063934326e-01" nType="-99"/>
        </Node>
      </Node>
    </BinaryTree>
    <BinaryTree type="DecisionTree" boostWeight="1.0000000000000000e+00" itree="89">
      <Node pos="s" depth="0" NCoef="0" IVar="1" Cut="2.0589724121093750e+03" cType="1" res="-4.6533151180483401e-04" rms="3.2854259014129639e-01" purity="7.8362041711807251e-01" nType="0">
        <Node pos="l" depth="1" NCoef="0" IVar="-1" Cut="0.0000000000000000e+00" cType="1" res="3.5982653498649597e-03" rms="3.2397961616516113e-01" purity="7.9944998025894165e-01" nType="-99"/>
        <Node pos="r" depth="1" NCoef="0" IVar="12" Cut="-2.7710378646850586e+01" cType="1" res="-3.1826093792915344e-02" rms="3.4092137217521667e-01" purity="7.3270750045776367e-01" nType="0">
          <Node pos="l" depth="2" NCoef="0" IVar="-1" Cut="0.0000000000000000e+00" cType="1" res="5.7438788935542107e-03" rms="3.1767413020133972e-01" purity="8.2637947797775269e-01" nType="-99"/>
          <Node pos="r" depth="2" NCoef="0" IVar="-1" Cut="0.0000000000000000e+00" cType="1" res="-4.1366659104824066e-02" rms="3.6560550332069397e-01" purity="5.5888897180557251e-01" nType="-99"/>
        </Node>
      </Node>
    </BinaryTree>
    <BinaryTree type="DecisionTree" boostWeight="1.0000000000000000e+00" itree="90">
      <Node pos="s" depth="0" NCoef="0" IVar="19" Cut="1.4421093750000000e+05" cType="1" res="4.1998482629423961e-05" rms="3.2740375399589539e-01" purity="7.8415155410766602e-01" nType="0">
        <Node pos="l" depth="1" NCoef="0" IVar="-1" Cut="0.0000000000000000e+00" cType="1" res="3.1373100355267525e-03" rms="3.2275655865669250e-01" purity="7.8831183910369873e-01" nType="-99"/>
        <Node pos="r" depth="1" NCoef="0" IVar="9" Cut="4.2636135864257812e+02" cType="0" res="-3.7894800305366516e-02" rms="3.4600144624710083e-01" purity="7.6450592279434204e-01" nType="0">
          <Node pos="l" depth="2" NCoef="0" IVar="-1" Cut="0.0000000000000000e+00" cType="1" res="5.2561569027602673e-03" rms="2.9692345857620239e-01" purity="8.7454599142074585e-01" nType="-99"/>
          <Node pos="r" depth="2" NCoef="0" IVar="-1" Cut="0.0000000000000000e+00" cType="1" res="-2.8579330071806908e-02" rms="3.7880471348762512e-01" purity="6.6770291328430176e-01" nType="-99"/>
        </Node>
      </Node>
    </BinaryTree>
    <BinaryTree type="DecisionTree" boostWeight="1.0000000000000000e+00" itree="91">
      <Node pos="s" depth="0" NCoef="0" IVar="25" Cut="1.3673316650390625e+03" cType="0" res="1.3659279793500900e-03" rms="3.2683008909225464e-01" purity="7.8525662422180176e-01" nType="0">
        <Node pos="l" depth="1" NCoef="0" IVar="-1" Cut="0.0000000000000000e+00" cType="1" res="2.9312993865460157e-03" rms="3.2154622673988342e-01" purity="7.9301005601882935e-01" nType="-99"/>
        <Node pos="r" depth="1" NCoef="0" IVar="3" Cut="2.7005576171875000e+03" cType="1" res="-4.9121707677841187e-02" rms="3.6379414796829224e-01" purity="7.2101694345474243e-01" nType="0">
          <Node pos="l" depth="2" NCoef="0" IVar="-1" Cut="0.0000000000000000e+00" cType="1" res="-8.4037939086556435e-03" rms="3.4964030981063843e-01" purity="7.8406763076782227e-01" nType="-99"/>
          <Node pos="r" depth="2" NCoef="0" IVar="-1" Cut="0.0000000000000000e+00" cType="1" res="-6.4199432730674744e-02" rms="4.0034186840057373e-01" purity="2.8689005970954895e-01" nType="-99"/>
        </Node>
      </Node>
    </BinaryTree>
    <BinaryTree type="DecisionTree" boostWeight="1.0000000000000000e+00" itree="92">
      <Node pos="s" depth="0" NCoef="0" IVar="1" Cut="9.5094628906250000e+02" cType="0" res="-2.7761759702116251e-04" rms="3.2717755436897278e-01" purity="7.8483557701110840e-01" nType="0">
        <Node pos="l" depth="1" NCoef="0" IVar="-1" Cut="0.0000000000000000e+00" cType="1" res="6.6796632017940283e-04" rms="3.2819977402687073e-01" purity="7.9547244310379028e-01" nType="-99"/>
        <Node pos="r" depth="1" NCoef="0" IVar="0" Cut="8.1428575515747070e+00" cType="1" res="-1.4093948900699615e-01" rms="1.9858473539352417e-01" purity="2.9953917488455772e-02" nType="0">
          <Node pos="l" depth="2" NCoef="0" IVar="-1" Cut="0.0000000000000000e+00" cType="1" res="-6.8792082369327545e-02" rms="2.4303919076919556e-01" purity="6.0185186564922333e-02" nType="-99"/>
          <Node pos="r" depth="2" NCoef="0" IVar="-1" Cut="0.0000000000000000e+00" cType="1" res="-4.7808103263378143e-02" rms="1.4793933928012848e-01" purity="1.9938649609684944e-02" nType="-99"/>
        </Node>
      </Node>
    </BinaryTree>
    <BinaryTree type="DecisionTree" boostWeight="1.0000000000000000e+00" itree="93">
      <Node pos="s" depth="0" NCoef="0" IVar="5" Cut="-2.5919705629348755e-01" cType="0" res="4.1815597796812654e-04" rms="3.2681399583816528e-01" purity="7.8519576787948608e-01" nType="0">
        <Node pos="l" depth="1" NCoef="0" IVar="-1" Cut="0.0000000000000000e+00" cType="1" res="4.8051681369543076e-03" rms="3.1287956237792969e-01" purity="8.2358902692794800e-01" nType="-99"/>
        <Node pos="r" depth="1" NCoef="0" IVar="9" Cut="2.1282218933105469e+02" cType="0" res="-2.8205906972289085e-02" rms="3.5861942172050476e-01" purity="6.8639647960662842e-01" nType="0">
          <Node pos="l" depth="2" NCoef="0" IVar="-1" Cut="0.0000000000000000e+00" cType="1" res="-3.3798420336097479e-03" rms="3.4466677904129028e-01" purity="7.3913836479187012e-01" nType="-99"/>
          <Node pos="r" depth="2" NCoef="0" IVar="-1" Cut="0.0000000000000000e+00" cType="1" res="-2.8870880603790283e-02" rms="3.9876168966293335e-01" purity="4.8990926146507263e-01" nType="-99"/>
        </Node>
      </Node>
    </BinaryTree>
    <BinaryTree type="DecisionTree" boostWeight="1.0000000000000000e+00" itree="94">
      <Node pos="s" depth="0" NCoef="0" IVar="13" Cut="3.5594606933593750e+03" cType="0" res="-4.5162843889556825e-04" rms="3.2799950242042542e-01" purity="7.8399556875228882e-01" nType="0">
        <Node pos="l" depth="1" NCoef="0" IVar="-1" Cut="0.0000000000000000e+00" cType="1" res="1.1608098633587360e-02" rms="2.9595631361007690e-01" purity="8.4365993738174438e-01" nType="-99"/>
        <Node pos="r" depth="1" NCoef="0" IVar="25" Cut="1.8988819580078125e+03" cType="0" res="-9.6945296972990036e-03" rms="3.3735796809196472e-01" purity="7.6438337564468384e-01" nType="0">
          <Node pos="l" depth="2" NCoef="0" IVar="-1" Cut="0.0000000000000000e+00" cType="1" res="2.9739451128989458e-03" rms="3.2175672054290771e-01" purity="7.9794448614120483e-01" nType="-99"/>
          <Node pos="r" depth="2" NCoef="0" IVar="-1" Cut="0.0000000000000000e+00" cType="1" res="-1.4493320137262344e-02" rms="3.6075493693351746e-01" purity="7.0651698112487793e-01" nType="-99"/>
        </Node>
      </Node>
    </BinaryTree>
    <BinaryTree type="DecisionTree" boostWeight="1.0000000000000000e+00" itree="95">
      <Node pos="s" depth="0" NCoef="0" IVar="5" Cut="5.7931953668594360e-01" cType="0" res="-5.5048963076842483e-06" rms="3.2652473449707031e-01" purity="7.8470110893249512e-01" nType="0">
        <Node pos="l" depth="1" NCoef="0" IVar="-1" Cut="0.0000000000000000e+00" cType="1" res="1.4871129766106606e-02" rms="2.7119675278663635e-01" purity="8.9609980583190918e-01" nType="-99"/>
        <Node pos="r" depth="1" NCoef="0" IVar="5" Cut="-1.0749596357345581e+00" cType="0" res="-1.0398456826806068e-02" rms="3.4269636869430542e-01" purity="7.4681222438812256e-01" nType="0">
          <Node pos="l" depth="2" NCoef="0" IVar="-1" Cut="0.0000000000000000e+00" cType="1" res="-1.6324695898219943e-03" rms="3.3969572186470032e-01" purity="7.5814688205718994e-01" nType="-99"/>
          <Node pos="r" depth="2" NCoef="0" IVar="-1" Cut="0.0000000000000000e+00" cType="1" res="-3.2052692025899887e-02" rms="3.7296685576438904e-01" purity="5.8160883188247681e-01" nType="-99"/>
        </Node>
      </Node>
    </BinaryTree>
    <BinaryTree type="DecisionTree" boostWeight="1.0000000000000000e+00" itree="96">
      <Node pos="s" depth="0" NCoef="0" IVar="1" Cut="1.8524174804687500e+03" cType="1" res="4.0276360232383013e-04" rms="3.2561671733856201e-01" purity="7.8472411632537842e-01" nType="0">
        <Node pos="l" depth="1" NCoef="0" IVar="-1" Cut="0.0000000000000000e+00" cType="1" res="5.4902373813092709e-03" rms="3.2065150141716003e-01" purity="7.9892539978027344e-01" nType="-99"/>
        <Node pos="r" depth="1" NCoef="0" IVar="9" Cut="4.6815942382812500e+02" cType="0" res="-2.4018405005335808e-02" rms="3.3285558223724365e-01" purity="7.5950324535369873e-01" nType="0">
          <Node pos="l" depth="2" NCoef="0" IVar="-1" Cut="0.0000000000000000e+00" cType="1" res="7.8867468982934952e-03" rms="2.8260368108749390e-01" purity="8.7585204839706421e-01" nType="-99"/>
          <Node pos="r" depth="2" NCoef="0" IVar="-1" Cut="0.0000000000000000e+00" cType="1" res="-3.7639509886503220e-02" rms="4.1848191618919373e-01" purity="4.6092072129249573e-01" nType="-99"/>
        </Node>
      </Node>
    </BinaryTree>
    <BinaryTree type="DecisionTree" boostWeight="1.0000000000000000e+00" itree="97">
      <Node pos="s" depth="0" NCoef="0" IVar="0" Cut="1.4000000000000000e+01" cType="1" res="6.8124913377687335e-04" rms="3.2521560788154602e-01" purity="7.8504782915115356e-01" nType="0">
        <Node pos="l" depth="1" NCoef="0" IVar="-1" Cut="0.0000000000000000e+00" cType="1" res="1.5757785877212882e-03" rms="3.2046696543693542e-01" purity="8.1217092275619507e-01" nType="-99"/>
        <Node pos="r" depth="1" NCoef="0" IVar="22" Cut="-4.6401176452636719e+01" cType="1" res="-5.3226504474878311e-02" rms="3.9300841093063354e-01" purity="3.2710012793540955e-01" nType="0">
          <Node pos="l" depth="2" NCoef="0" IVar="-1" Cut="0.0000000000000000e+00" cType="1" res="7.2038732469081879e-02" rms="2.7065792679786682e-01" purity="8.3116883039474487e-01" nType="-99"/>
          <Node pos="r" depth="2" NCoef="0" IVar="-1" Cut="0.0000000000000000e+00" cType="1" res="-1.6162047162652016e-02" rms="3.9186581969261169e-01" purity="3.1568107008934021e-01" nType="-99"/>
        </Node>
      </Node>
    </BinaryTree>
    <BinaryTree type="DecisionTree" boostWeight="1.0000000000000000e+00" itree="98">
      <Node pos="s" depth="0" NCoef="0" IVar="13" Cut="2.0683151855468750e+03" cType="0" res="-5.7668797671794891e-04" rms="3.2579085230827332e-01" purity="7.8460991382598877e-01" nType="0">
        <Node pos="l" depth="1" NCoef="0" IVar="-1" Cut="0.0000000000000000e+00" cType="1" res="4.9183135852217674e-03" rms="3.1763792037963867e-01" purity="7.9980629682540894e-01" nType="-99"/>
        <Node pos="r" depth="1" NCoef="0" IVar="0" Cut="4.5238094329833984e+00" cType="1" res="-2.0083867013454437e-02" rms="3.3661010861396790e-01" purity="7.6200574636459351e-01" nType="0">
          <Node pos="l" depth="2" NCoef="0" IVar="-1" Cut="0.0000000000000000e+00" cType="1" res="8.0150952562689781e-03" rms="2.6482701301574707e-01" purity="9.0926724672317505e-01" nType="-99"/>
          <Node pos="r" depth="2" NCoef="0" IVar="-1" Cut="0.0000000000000000e+00" cType="1" res="-1.5767933800816536e-02" rms="3.8391742110252380e-01" purity="6.3962775468826294e-01" nType="-99"/>
        </Node>
      </Node>
    </BinaryTree>
    <BinaryTree type="DecisionTree" boostWeight="1.0000000000000000e+00" itree="99">
      <Node pos="s" depth="0" NCoef="0" IVar="1" Cut="2.5785598144531250e+03" cType="1" res="4.7725153854116797e-04" rms="3.2551598548889160e-01" purity="7.8508263826370239e-01" nType="0">
        <Node pos="l" depth="1" NCoef="0" IVar="-1" Cut="0.0000000000000000e+00" cType="1" res="2.2534125018864870e-03" rms="3.2474008202552795e-01" purity="7.8932189941406250e-01" nType="-99"/>
        <Node pos="r" depth="1" NCoef="0" IVar="9" Cut="1.0591737060546875e+03" cType="0" res="-4.6265780925750732e-02" rms="3.2857531309127808e-01" purity="7.4782198667526245e-01" nType="0">
          <Node pos="l" depth="2" NCoef="0" IVar="-1" Cut="0.0000000000000000e+00" cType="1" res="3.1230696476995945e-03" rms="2.5021234154701233e-01" purity="9.2982459068298340e-01" nType="-99"/>
          <Node pos="r" depth="2" NCoef="0" IVar="-1" Cut="0.0000000000000000e+00" cType="1" res="-4.1987057775259018e-02" rms="4.3622374534606934e-01" purity="3.4468835592269897e-01" nType="-99"/>
        </Node>
      </Node>
    </BinaryTree>
    <BinaryTree type="DecisionTree" boostWeight="1.0000000000000000e+00" itree="100">
      <Node pos="s" depth="0" NCoef="0" IVar="1" Cut="9.5094628906250000e+02" cType="0" res="-6.4165353251155466e-05" rms="3.2582169771194458e-01" purity="7.8462499380111694e-01" nType="0">
        <Node pos="l" depth="1" NCoef="0" IVar="-1" Cut="0.0000000000000000e+00" cType="1" res="6.9820391945540905e-04" rms="3.2700726389884949e-01" purity="7.9534292221069336e-01" nType="-99"/>
        <Node pos="r" depth="1" NCoef="0" IVar="0" Cut="8.1428575515747070e+00" cType="1" res="-1.2835524976253510e-01" rms="1.8719165027141571e-01" purity="3.0927835032343864e-02" nType="0">
          <Node pos="l" depth="2" NCoef="0" IVar="-1" Cut="0.0000000000000000e+00" cType="1" res="-5.9734046459197998e-02" rms="2.6284161210060120e-01" purity="7.7777780592441559e-02" nType="-99"/>
          <Node pos="r" depth="2" NCoef="0" IVar="-1" Cut="0.0000000000000000e+00" cType="1" res="-4.9573805183172226e-02" rms="1.2836331129074097e-01" purity="1.4660493470728397e-02" nType="-99"/>
        </Node>
      </Node>
    </BinaryTree>
    <BinaryTree type="DecisionTree" boostWeight="1.0000000000000000e+00" itree="101">
      <Node pos="s" depth="0" NCoef="0" IVar="25" Cut="1.3281748046875000e+03" cType="0" res="-7.8429065979435109e-06" rms="3.2541304826736450e-01" purity="7.8458124399185181e-01" nType="0">
        <Node pos="l" depth="1" NCoef="0" IVar="-1" Cut="0.0000000000000000e+00" cType="1" res="2.0095049403607845e-03" rms="3.2097974419593811e-01" purity="7.9131513833999634e-01" nType="-99"/>
        <Node pos="r" depth="1" NCoef="0" IVar="0" Cut="5.2857141494750977e+00" cType="1" res="-4.7610618174076080e-02" rms="3.6127907037734985e-01" purity="7.2081899642944336e-01" nType="0">
          <Node pos="l" depth="2" NCoef="0" IVar="-1" Cut="0.0000000000000000e+00" cType="1" res="-6.1431764625012875e-03" rms="3.3512148261070251e-01" purity="8.2655477523803711e-01" nType="-99"/>
          <Node pos="r" depth="2" NCoef="0" IVar="-1" Cut="0.0000000000000000e+00" cType="1" res="-4.4184438884258270e-02" rms="4.2144417762756348e-01" purity="3.4616851806640625e-01" nType="-99"/>
        </Node>
      </Node>
    </BinaryTree>
    <BinaryTree type="DecisionTree" boostWeight="1.0000000000000000e+00" itree="102">
      <Node pos="s" depth="0" NCoef="0" IVar="0" Cut="1.9571428298950195e+01" cType="1" res="6.9064297713339329e-04" rms="3.2491719722747803e-01" purity="7.8486472368240356e-01" nType="0">
        <Node pos="l" depth="1" NCoef="0" IVar="-1" Cut="0.0000000000000000e+00" cType="1" res="1.1612827656790614e-03" rms="3.2430347800254822e-01" purity="7.9577833414077759e-01" nType="-99"/>
        <Node pos="r" depth="1" NCoef="0" IVar="23" Cut="6.5721806640625000e+03" cType="0" res="-1.1552069336175919e-01" rms="3.3587425947189331e-01" purity="2.0961454510688782e-01" nType="0">
          <Node pos="l" depth="2" NCoef="0" IVar="-1" Cut="0.0000000000000000e+00" cType="1" res="7.1875429712235928e-03" rms="3.9378127455711365e-01" purity="5.3174602985382080e-01" nType="-99"/>
          <Node pos="r" depth="2" NCoef="0" IVar="-1" Cut="0.0000000000000000e+00" cType="1" res="-4.6044245362281799e-02" rms="3.0577662587165833e-01" purity="1.1966758966445923e-01" nType="-99"/>
        </Node>
      </Node>
    </BinaryTree>
    <BinaryTree type="DecisionTree" boostWeight="1.0000000000000000e+00" itree="103">
      <Node pos="s" depth="0" NCoef="0" IVar="1" Cut="1.1247116699218750e+03" cType="0" res="9.6941739320755005e-04" rms="3.2419049739837646e-01" purity="7.8537952899932861e-01" nType="0">
        <Node pos="l" depth="1" NCoef="0" IVar="-1" Cut="0.0000000000000000e+00" cType="1" res="1.7239869339391589e-03" rms="3.2381796836853027e-01" purity="8.0791848897933960e-01" nType="-99"/>
        <Node pos="r" depth="1" NCoef="0" IVar="9" Cut="1.3985887145996094e+02" cType="1" res="-8.4642335772514343e-02" rms="3.2203468680381775e-01" purity="2.0456995069980621e-01" nType="0">
          <Node pos="l" depth="2" NCoef="0" IVar="-1" Cut="0.0000000000000000e+00" cType="1" res="2.1042933687567711e-02" rms="3.6025807261466980e-01" purity="3.7131631374359131e-01" nType="-99"/>
          <Node pos="r" depth="2" NCoef="0" IVar="-1" Cut="0.0000000000000000e+00" cType="1" res="-3.5003818571567535e-02" rms="3.1196931004524231e-01" purity="1.8401937186717987e-01" nType="-99"/>
        </Node>
      </Node>
    </BinaryTree>
    <BinaryTree type="DecisionTree" boostWeight="1.0000000000000000e+00" itree="104">
      <Node pos="s" depth="0" NCoef="0" IVar="0" Cut="1.0285714149475098e+01" cType="1" res="-1.4207625063136220e-03" rms="3.2600101828575134e-01" purity="7.8342682123184204e-01" nType="0">
        <Node pos="l" depth="1" NCoef="0" IVar="-1" Cut="0.0000000000000000e+00" cType="1" res="2.0829141139984131e-03" rms="3.1100499629974365e-01" purity="8.4444713592529297e-01" nType="-99"/>
        <Node pos="r" depth="1" NCoef="0" IVar="9" Cut="3.1423666381835938e+02" cType="0" res="-3.7690766155719757e-02" rms="4.0113279223442078e-01" purity="4.2462116479873657e-01" nType="0">
          <Node pos="l" depth="2" NCoef="0" IVar="-1" Cut="0.0000000000000000e+00" cType="1" res="3.2991978805512190e-03" rms="3.9904391765594482e-01" purity="5.5658650398254395e-01" nType="-99"/>
          <Node pos="r" depth="2" NCoef="0" IVar="-1" Cut="0.0000000000000000e+00" cType="1" res="-2.1328661590814590e-02" rms="3.9800065755844116e-01" purity="3.1533718109130859e-01" nType="-99"/>
        </Node>
      </Node>
    </BinaryTree>
    <BinaryTree type="DecisionTree" boostWeight="1.0000000000000000e+00" itree="105">
      <Node pos="s" depth="0" NCoef="0" IVar="27" Cut="9.0896242187500000e+04" cType="0" res="2.0715930077130906e-05" rms="3.2516261935234070e-01" purity="7.8510415554046631e-01" nType="0">
        <Node pos="l" depth="1" NCoef="0" IVar="-1" Cut="0.0000000000000000e+00" cType="1" res="-1.3457284308969975e-02" rms="3.3946561813354492e-01" purity="7.8669095039367676e-01" nType="-99"/>
        <Node pos="r" depth="1" NCoef="0" IVar="1" Cut="1.2285875244140625e+03" cType="0" res="7.6512042433023453e-03" rms="3.2115581631660461e-01" purity="7.8472197055816650e-01" nType="0">
          <Node pos="l" depth="2" NCoef="0" IVar="-1" Cut="0.0000000000000000e+00" cType="1" res="5.5830171331763268e-03" rms="3.1685298681259155e-01" purity="8.1532680988311768e-01" nType="-99"/>
          <Node pos="r" depth="2" NCoef="0" IVar="-1" Cut="0.0000000000000000e+00" cType="1" res="-2.1476123481988907e-02" rms="3.6013576388359070e-01" purity="4.2329326272010803e-01" nType="-99"/>
        </Node>
      </Node>
    </BinaryTree>
    <BinaryTree type="DecisionTree" boostWeight="1.0000000000000000e+00" itree="106">
      <Node pos="s" depth="0" NCoef="0" IVar="1" Cut="2.1553088378906250e+03" cType="1" res="1.4846571139059961e-04" rms="3.2428380846977234e-01" purity="7.8481721878051758e-01" nType="0">
        <Node pos="l" depth="1" NCoef="0" IVar="-1" Cut="0.0000000000000000e+00" cType="1" res="3.1301192939281464e-03" rms="3.2145673036575317e-01" purity="7.9858112335205078e-01" nType="-99"/>
        <Node pos="r" depth="1" NCoef="0" IVar="9" Cut="8.2446527099609375e+02" cType="0" res="-3.0073259025812149e-02" rms="3.3340084552764893e-01" purity="7.3096305131912231e-01" nType="0">
          <Node pos="l" depth="2" NCoef="0" IVar="-1" Cut="0.0000000000000000e+00" cType="1" res="1.2944804504513741e-02" rms="2.5251409411430359e-01" purity="9.2487144470214844e-01" nType="-99"/>
          <Node pos="r" depth="2" NCoef="0" IVar="-1" Cut="0.0000000000000000e+00" cType="1" res="-3.1405605375766754e-02" rms="4.2334711551666260e-01" purity="4.0382987260818481e-01" nType="-99"/>
        </Node>
      </Node>
    </BinaryTree>
    <BinaryTree type="DecisionTree" boostWeight="1.0000000000000000e+00" itree="107">
      <Node pos="s" depth="0" NCoef="0" IVar="25" Cut="2.0201478271484375e+03" cType="0" res="-8.4202102152630687e-04" rms="3.2496178150177002e-01" purity="7.8310102224349976e-01" nType="0">
        <Node pos="l" depth="1" NCoef="0" IVar="-1" Cut="0.0000000000000000e+00" cType="1" res="5.8770948089659214e-03" rms="3.0683287978172302e-01" purity="8.1894564628601074e-01" nType="-99"/>
        <Node pos="r" depth="1" NCoef="0" IVar="3" Cut="3.3546293945312500e+03" cType="1" res="-2.2963920608162880e-02" rms="3.4897825121879578e-01" purity="7.2988480329513550e-01" nType="0">
          <Node pos="l" depth="2" NCoef="0" IVar="-1" Cut="0.0000000000000000e+00" cType="1" res="-1.8710691947489977e-03" rms="3.3268895745277405e-01" purity="7.7394974231719971e-01" nType="-99"/>
          <Node pos="r" depth="2" NCoef="0" IVar="-1" Cut="0.0000000000000000e+00" cType="1" res="-5.4079677909612656e-02" rms="4.3618157505989075e-01" purity="3.4834489226341248e-01" nType="-99"/>
        </Node>
      </Node>
    </BinaryTree>
    <BinaryTree type="DecisionTree" boostWeight="1.0000000000000000e+00" itree="108">
      <Node pos="s" depth="0" NCoef="0" IVar="2" Cut="2.3806506767868996e-02" cType="1" res="1.7914480995386839e-03" rms="3.2293209433555603e-01" purity="7.8606361150741577e-01" nType="0">
        <Node pos="l" depth="1" NCoef="0" IVar="-1" Cut="0.0000000000000000e+00" cType="1" res="8.0901999026536942e-03" rms="2.7903240919113159e-01" purity="8.8173842430114746e-01" nType="-99"/>
        <Node pos="r" depth="1" NCoef="0" IVar="5" Cut="-1.3250854015350342e+00" cType="0" res="-1.1870195157825947e-02" rms="3.5930991172790527e-01" purity="6.9482469558715820e-01" nType="0">
          <Node pos="l" depth="2" NCoef="0" IVar="-1" Cut="0.0000000000000000e+00" cType="1" res="-2.5318388361483812e-03" rms="3.5785609483718872e-01" purity="7.0470058917999268e-01" nType="-99"/>
          <Node pos="r" depth="2" NCoef="0" IVar="-1" Cut="0.0000000000000000e+00" cType="1" res="-3.9179038256406784e-02" rms="3.7716689705848694e-01" purity="4.3270060420036316e-01" nType="-99"/>
        </Node>
      </Node>
    </BinaryTree>
    <BinaryTree type="DecisionTree" boostWeight="1.0000000000000000e+00" itree="109">
      <Node pos="s" depth="0" NCoef="0" IVar="19" Cut="1.4395928125000000e+05" cType="1" res="6.7469396162778139e-04" rms="3.2291868329048157e-01" purity="7.8538858890533447e-01" nType="0">
        <Node pos="l" depth="1" NCoef="0" IVar="-1" Cut="0.0000000000000000e+00" cType="1" res="2.8941268101334572e-03" rms="3.1878051161766052e-01" purity="7.8935194015502930e-01" nType="-99"/>
        <Node pos="r" depth="1" NCoef="0" IVar="23" Cut="8.6770439453125000e+03" cType="0" res="-2.9432710260152817e-02" rms="3.3985117077827454e-01" purity="7.6699423789978027e-01" nType="0">
          <Node pos="l" depth="2" NCoef="0" IVar="-1" Cut="0.0000000000000000e+00" cType="1" res="4.9515436403453350e-03" rms="3.0583298206329346e-01" purity="8.3577680587768555e-01" nType="-99"/>
          <Node pos="r" depth="2" NCoef="0" IVar="-1" Cut="0.0000000000000000e+00" cType="1" res="-2.3536404594779015e-02" rms="3.6029407382011414e-01" purity="7.1523809432983398e-01" nType="-99"/>
        </Node>
      </Node>
    </BinaryTree>
    <BinaryTree type="DecisionTree" boostWeight="1.0000000000000000e+00" itree="110">
      <Node pos="s" depth="0" NCoef="0" IVar="1" Cut="1.3277597656250000e+03" cType="0" res="2.3869200958870351e-04" rms="3.2350045442581177e-01" purity="7.8494936227798462e-01" nType="0">
        <Node pos="l" depth="1" NCoef="0" IVar="-1" Cut="0.0000000000000000e+00" cType="1" res="2.6175936218351126e-03" rms="3.1656134128570557e-01" purity="8.1612813472747803e-01" nType="-99"/>
        <Node pos="r" depth="1" NCoef="0" IVar="9" Cut="4.0225262451171875e+02" cType="1" res="-3.7648543715476990e-02" rms="3.6178526282310486e-01" purity="5.8909302949905396e-01" nType="0">
          <Node pos="l" depth="2" NCoef="0" IVar="-1" Cut="0.0000000000000000e+00" cType="1" res="-7.1975542232394218e-03" rms="3.5189321637153625e-01" purity="6.0525190830230713e-01" nType="-99"/>
          <Node pos="r" depth="2" NCoef="0" IVar="-1" Cut="0.0000000000000000e+00" cType="1" res="-1.1272188276052475e-01" rms="3.8879001140594482e-01" purity="2.4545454978942871e-01" nType="-99"/>
        </Node>
      </Node>
    </BinaryTree>
    <BinaryTree type="DecisionTree" boostWeight="1.0000000000000000e+00" itree="111">
      <Node pos="s" depth="0" NCoef="0" IVar="25" Cut="1.3571992187500000e+03" cType="0" res="-4.9496989231556654e-04" rms="3.2390961050987244e-01" purity="7.8420329093933105e-01" nType="0">
        <Node pos="l" depth="1" NCoef="0" IVar="-1" Cut="0.0000000000000000e+00" cType="1" res="1.9579946529120207e-03" rms="3.1905916333198547e-01" purity="7.9170507192611694e-01" nType="-99"/>
        <Node pos="r" depth="1" NCoef="0" IVar="0" Cut="5.2857141494750977e+00" cType="1" res="-4.5905690640211105e-02" rms="3.5971796512603760e-01" purity="7.1978193521499634e-01" nType="0">
          <Node pos="l" depth="2" NCoef="0" IVar="-1" Cut="0.0000000000000000e+00" cType="1" res="-6.1028157360851765e-03" rms="3.3667171001434326e-01" purity="8.2806420326232910e-01" nType="-99"/>
          <Node pos="r" depth="2" NCoef="0" IVar="-1" Cut="0.0000000000000000e+00" cType="1" res="-4.1798088699579239e-02" rms="4.1064763069152832e-01" purity="3.5726210474967957e-01" nType="-99"/>
        </Node>
      </Node>
    </BinaryTree>
    <BinaryTree type="DecisionTree" boostWeight="1.0000000000000000e+00" itree="112">
      <Node pos="s" depth="0" NCoef="0" IVar="1" Cut="1.8524174804687500e+03" cType="1" res="-1.5447447367478162e-04" rms="3.2283458113670349e-01" purity="7.8414618968963623e-01" nType="0">
        <Node pos="l" depth="1" NCoef="0" IVar="-1" Cut="0.0000000000000000e+00" cType="1" res="4.4339671730995178e-03" rms="3.1899318099021912e-01" purity="7.9688167572021484e-01" nType="-99"/>
        <Node pos="r" depth="1" NCoef="0" IVar="9" Cut="4.6815942382812500e+02" cType="0" res="-2.0311400294303894e-02" rms="3.2862433791160583e-01" purity="7.6139008998870850e-01" nType="0">
          <Node pos="l" depth="2" NCoef="0" IVar="-1" Cut="0.0000000000000000e+00" cType="1" res="6.5128114074468613e-03" rms="2.7896484732627869e-01" purity="8.7596875429153442e-01" nType="-99"/>
          <Node pos="r" depth="2" NCoef="0" IVar="-1" Cut="0.0000000000000000e+00" cType="1" res="-3.1648375093936920e-02" rms="4.1939425468444824e-01" purity="4.6403861045837402e-01" nType="-99"/>
        </Node>
      </Node>
    </BinaryTree>
    <BinaryTree type="DecisionTree" boostWeight="1.0000000000000000e+00" itree="113">
      <Node pos="s" depth="0" NCoef="0" IVar="0" Cut="2.7000000000000000e+01" cType="1" res="4.8087307368405163e-04" rms="3.2199591398239136e-01" purity="7.8570342063903809e-01" nType="0">
        <Node pos="l" depth="1" NCoef="0" IVar="-1" Cut="0.0000000000000000e+00" cType="1" res="5.6302308803424239e-04" rms="3.2196038961410522e-01" purity="7.8855681419372559e-01" nType="-99"/>
        <Node pos="r" depth="1" NCoef="0" IVar="23" Cut="6.7556987304687500e+03" cType="0" res="-2.2463034093379974e-01" rms="2.4190878868103027e-01" purity="7.2289153933525085e-02" nType="0">
          <Node pos="l" depth="2" NCoef="0" IVar="-1" Cut="0.0000000000000000e+00" cType="1" res="8.1435814499855042e-03" rms="3.6983910202980042e-01" purity="4.6969696879386902e-01" nType="-99"/>
          <Node pos="r" depth="2" NCoef="0" IVar="-1" Cut="0.0000000000000000e+00" cType="1" res="-7.7269859611988068e-02" rms="1.8721947073936462e-01" purity="1.1574073694646358e-02" nType="-99"/>
        </Node>
      </Node>
    </BinaryTree>
    <BinaryTree type="DecisionTree" boostWeight="1.0000000000000000e+00" itree="114">
      <Node pos="s" depth="0" NCoef="0" IVar="13" Cut="2.0681789550781250e+03" cType="0" res="-5.0249823834747076e-04" rms="3.2331019639968872e-01" purity="7.8411591053009033e-01" nType="0">
        <Node pos="l" depth="1" NCoef="0" IVar="-1" Cut="0.0000000000000000e+00" cType="1" res="4.8597948625683784e-03" rms="3.1626236438751221e-01" purity="8.0093896389007568e-01" nType="-99"/>
        <Node pos="r" depth="1" NCoef="0" IVar="4" Cut="2.3809092044830322e+00" cType="0" res="-1.9108634442090988e-02" rms="3.3263689279556274e-01" purity="7.5912159681320190e-01" nType="0">
          <Node pos="l" depth="2" NCoef="0" IVar="-1" Cut="0.0000000000000000e+00" cType="1" res="3.3767542336136103e-03" rms="2.9555222392082214e-01" purity="8.4816998243331909e-01" nType="-99"/>
          <Node pos="r" depth="2" NCoef="0" IVar="-1" Cut="0.0000000000000000e+00" cType="1" res="-1.8207792192697525e-02" rms="3.7085977196693420e-01" purity="6.4907133579254150e-01" nType="-99"/>
        </Node>
      </Node>
    </BinaryTree>
    <BinaryTree type="DecisionTree" boostWeight="1.0000000000000000e+00" itree="115">
      <Node pos="s" depth="0" NCoef="0" IVar="0" Cut="2.3285715103149414e+01" cType="1" res="-7.7326979953795671e-04" rms="3.2274088263511658e-01" purity="7.8422832489013672e-01" nType="0">
        <Node pos="l" depth="1" NCoef="0" IVar="-1" Cut="0.0000000000000000e+00" cType="1" res="2.1719338838011026e-04" rms="3.2273051142692566e-01" purity="7.9006588459014893e-01" nType="-99"/>
        <Node pos="r" depth="1" NCoef="0" IVar="12" Cut="-2.0124330520629883e+01" cType="1" res="-1.4336773753166199e-01" rms="2.9047206044197083e-01" purity="1.4627659320831299e-01" nType="0">
          <Node pos="l" depth="2" NCoef="0" IVar="-1" Cut="0.0000000000000000e+00" cType="1" res="-6.3289669342339039e-03" rms="3.6922839283943176e-01" purity="3.4615385532379150e-01" nType="-99"/>
          <Node pos="r" depth="2" NCoef="0" IVar="-1" Cut="0.0000000000000000e+00" cType="1" res="-6.5839856863021851e-02" rms="2.1332322061061859e-01" purity="4.0650404989719391e-02" nType="-99"/>
        </Node>
      </Node>
    </BinaryTree>
    <BinaryTree type="DecisionTree" boostWeight="1.0000000000000000e+00" itree="116">
      <Node pos="s" depth="0" NCoef="0" IVar="27" Cut="5.0438632812500000e+04" cType="0" res="-3.0330382287502289e-04" rms="3.2269698381423950e-01" purity="7.8410738706588745e-01" nType="0">
        <Node pos="l" depth="1" NCoef="0" IVar="-1" Cut="0.0000000000000000e+00" cType="1" res="-5.7196924462914467e-03" rms="3.2241842150688171e-01" purity="7.9564803838729858e-01" nType="-99"/>
        <Node pos="r" depth="1" NCoef="0" IVar="1" Cut="1.2660334472656250e+03" cType="0" res="1.3409105129539967e-02" rms="3.2241740822792053e-01" purity="7.7205449342727661e-01" nType="0">
          <Node pos="l" depth="2" NCoef="0" IVar="-1" Cut="0.0000000000000000e+00" cType="1" res="8.2899639382958412e-03" rms="3.1646353006362915e-01" purity="8.0918926000595093e-01" nType="-99"/>
          <Node pos="r" depth="2" NCoef="0" IVar="-1" Cut="0.0000000000000000e+00" cType="1" res="-1.4493523165583611e-02" rms="3.6012554168701172e-01" purity="4.8476612567901611e-01" nType="-99"/>
        </Node>
      </Node>
    </BinaryTree>
    <BinaryTree type="DecisionTree" boostWeight="1.0000000000000000e+00" itree="117">
      <Node pos="s" depth="0" NCoef="0" IVar="25" Cut="2.5442346191406250e+03" cType="0" res="6.0134113300591707e-04" rms="3.2241675257682800e-01" purity="7.8469473123550415e-01" nType="0">
        <Node pos="l" depth="1" NCoef="0" IVar="-1" Cut="0.0000000000000000e+00" cType="1" res="8.3477590233087540e-03" rms="2.9546573758125305e-01" purity="8.3726388216018677e-01" nType="-99"/>
        <Node pos="r" depth="1" NCoef="0" IVar="12" Cut="-1.2099218750000000e+02" cType="1" res="-1.0002287104725838e-02" rms="3.3647173643112183e-01" purity="7.5448769330978394e-01" nType="0">
          <Node pos="l" depth="2" NCoef="0" IVar="-1" Cut="0.0000000000000000e+00" cType="1" res="1.2579318135976791e-02" rms="2.8716990351676941e-01" purity="8.5204523801803589e-01" nType="-99"/>
          <Node pos="r" depth="2" NCoef="0" IVar="-1" Cut="0.0000000000000000e+00" cType="1" res="-1.2681451626121998e-02" rms="3.6248511075973511e-01" purity="6.9183313846588135e-01" nType="-99"/>
        </Node>
      </Node>
    </BinaryTree>
    <BinaryTree type="DecisionTree" boostWeight="1.0000000000000000e+00" itree="118">
      <Node pos="s" depth="0" NCoef="0" IVar="1" Cut="1.8524174804687500e+03" cType="1" res="-5.8013910893350840e-04" rms="3.2201901078224182e-01" purity="7.8360396623611450e-01" nType="0">
        <Node pos="l" depth="1" NCoef="0" IVar="-1" Cut="0.0000000000000000e+00" cType="1" res="4.0527149103581905e-03" rms="3.1811264157295227e-01" purity="7.9692786931991577e-01" nType="-99"/>
        <Node pos="r" depth="1" NCoef="0" IVar="12" Cut="-2.7710378646850586e+01" cType="1" res="-1.9395899027585983e-02" rms="3.2794576883316040e-01" purity="7.6012152433395386e-01" nType="0">
          <Node pos="l" depth="2" NCoef="0" IVar="-1" Cut="0.0000000000000000e+00" cType="1" res="7.6561211608350277e-03" rms="3.0231675505638123e-01" purity="8.4501892328262329e-01" nType="-99"/>
          <Node pos="r" depth="2" NCoef="0" IVar="-1" Cut="0.0000000000000000e+00" cType="1" res="-3.3316798508167267e-02" rms="3.6263638734817505e-01" purity="5.9441065788269043e-01" nType="-99"/>
        </Node>
      </Node>
    </BinaryTree>
    <BinaryTree type="DecisionTree" boostWeight="1.0000000000000000e+00" itree="119">
      <Node pos="s" depth="0" NCoef="0" IVar="5" Cut="-5.2763158082962036e-01" cType="0" res="7.8721379395574331e-04" rms="3.2178464531898499e-01" purity="7.8509593009948730e-01" nType="0">
        <Node pos="l" depth="1" NCoef="0" IVar="-1" Cut="0.0000000000000000e+00" cType="1" res="3.6516773980110884e-03" rms="3.1419473886489868e-01" purity="8.0908340215682983e-01" nType="-99"/>
        <Node pos="r" depth="1" NCoef="0" IVar="9" Cut="2.4336447143554688e+02" cType="0" res="-4.2604174464941025e-02" rms="3.5775244235992432e-01" purity="6.5258586406707764e-01" nType="0">
          <Node pos="l" depth="2" NCoef="0" IVar="-1" Cut="0.0000000000000000e+00" cType="1" res="-7.2410134598612785e-03" rms="3.4098768234252930e-01" purity="7.3329794406890869e-01" nType="-99"/>
          <Node pos="r" depth="2" NCoef="0" IVar="-1" Cut="0.0000000000000000e+00" cType="1" res="-2.8467135503888130e-02" rms="3.8767597079277039e-01" purity="4.7270575165748596e-01" nType="-99"/>
        </Node>
      </Node>
    </BinaryTree>
    <BinaryTree type="DecisionTree" boostWeight="1.0000000000000000e+00" itree="120">
      <Node pos="s" depth="0" NCoef="0" IVar="23" Cut="5.3690258789062500e+03" cType="0" res="6.3968478934839368e-04" rms="3.2110905647277832e-01" purity="7.8566616773605347e-01" nType="0">
        <Node pos="l" depth="1" NCoef="0" IVar="-1" Cut="0.0000000000000000e+00" cType="1" res="5.8973617851734161e-03" rms="3.0488526821136475e-01" purity="8.3065629005432129e-01" nType="-99"/>
        <Node pos="r" depth="1" NCoef="0" IVar="12" Cut="-4.5281771850585938e+02" cType="1" res="-1.1872204951941967e-02" rms="3.3545070886611938e-01" purity="7.4253660440444946e-01" nType="0">
          <Node pos="l" depth="2" NCoef="0" IVar="-1" Cut="0.0000000000000000e+00" cType="1" res="2.3548670113086700e-02" rms="2.3632174730300903e-01" purity="9.1511738300323486e-01" nType="-99"/>
          <Node pos="r" depth="2" NCoef="0" IVar="-1" Cut="0.0000000000000000e+00" cType="1" res="-8.6240358650684357e-03" rms="3.5094943642616272e-01" purity="7.0785373449325562e-01" nType="-99"/>
        </Node>
      </Node>
    </BinaryTree>
    <BinaryTree type="DecisionTree" boostWeight="1.0000000000000000e+00" itree="121">
      <Node pos="s" depth="0" NCoef="0" IVar="27" Cut="1.3640885937500000e+05" cType="1" res="-1.7305304936598986e-04" rms="3.2143348455429077e-01" purity="7.8426116704940796e-01" nType="0">
        <Node pos="l" depth="1" NCoef="0" IVar="-1" Cut="0.0000000000000000e+00" cType="1" res="1.4632915845140815e-03" rms="3.1871235370635986e-01" purity="7.8531652688980103e-01" nType="-99"/>
        <Node pos="r" depth="1" NCoef="0" IVar="12" Cut="-1.5432958984375000e+02" cType="1" res="-4.7298282384872437e-02" rms="3.5046660900115967e-01" purity="7.7098989486694336e-01" nType="0">
          <Node pos="l" depth="2" NCoef="0" IVar="-1" Cut="0.0000000000000000e+00" cType="1" res="7.1793263778090477e-03" rms="2.7570188045501709e-01" purity="8.8915252685546875e-01" nType="-99"/>
          <Node pos="r" depth="2" NCoef="0" IVar="-1" Cut="0.0000000000000000e+00" cType="1" res="-2.9603442177176476e-02" rms="3.7736859917640686e-01" purity="7.1506500244140625e-01" nType="-99"/>
        </Node>
      </Node>
    </BinaryTree>
    <BinaryTree type="DecisionTree" boostWeight="1.0000000000000000e+00" itree="122">
      <Node pos="s" depth="0" NCoef="0" IVar="23" Cut="5.3690258789062500e+03" cType="0" res="-5.0712708616629243e-04" rms="3.2140764594078064e-01" purity="7.8375297784805298e-01" nType="0">
        <Node pos="l" depth="1" NCoef="0" IVar="-1" Cut="0.0000000000000000e+00" cType="1" res="5.5320803076028824e-03" rms="3.0457016825675964e-01" purity="8.2981806993484497e-01" nType="-99"/>
        <Node pos="r" depth="1" NCoef="0" IVar="12" Cut="-3.3176058959960938e+02" cType="1" res="-1.3169971294701099e-02" rms="3.3614790439605713e-01" purity="7.3995333909988403e-01" nType="0">
          <Node pos="l" depth="2" NCoef="0" IVar="-1" Cut="0.0000000000000000e+00" cType="1" res="2.0845249295234680e-02" rms="2.4760393798351288e-01" purity="9.0513980388641357e-01" nType="-99"/>
          <Node pos="r" depth="2" NCoef="0" IVar="-1" Cut="0.0000000000000000e+00" cType="1" res="-1.0031998157501221e-02" rms="3.5480678081512451e-01" purity="6.9571352005004883e-01" nType="-99"/>
        </Node>
      </Node>
    </BinaryTree>
    <BinaryTree type="DecisionTree" boostWeight="1.0000000000000000e+00" itree="123">
      <Node pos="s" depth="0" NCoef="0" IVar="27" Cut="4.9766964843750000e+04" cType="0" res="2.1130878303665668e-04" rms="3.2101145386695862e-01" purity="7.8395080566406250e-01" nType="0">
        <Node pos="l" depth="1" NCoef="0" IVar="-1" Cut="0.0000000000000000e+00" cType="1" res="-5.4044667631387711e-03" rms="3.2187652587890625e-01" purity="7.9393762350082397e-01" nType="-99"/>
        <Node pos="r" depth="1" NCoef="0" IVar="5" Cut="-8.9504355192184448e-01" cType="0" res="1.4191585592925549e-02" rms="3.1948423385620117e-01" purity="7.7313631772994995e-01" nType="0">
          <Node pos="l" depth="2" NCoef="0" IVar="-1" Cut="0.0000000000000000e+00" cType="1" res="7.7351285144686699e-03" rms="3.1562745571136475e-01" purity="7.8624218702316284e-01" nType="-99"/>
          <Node pos="r" depth="2" NCoef="0" IVar="-1" Cut="0.0000000000000000e+00" cType="1" res="-2.1711850538849831e-02" rms="3.6540970206260681e-01" purity="5.6861656904220581e-01" nType="-99"/>
        </Node>
      </Node>
    </BinaryTree>
    <BinaryTree type="DecisionTree" boostWeight="1.0000000000000000e+00" itree="124">
      <Node pos="s" depth="0" NCoef="0" IVar="2" Cut="2.3806506767868996e-02" cType="1" res="9.0383761562407017e-04" rms="3.2016801834106445e-01" purity="7.8561103343963623e-01" nType="0">
        <Node pos="l" depth="1" NCoef="0" IVar="-1" Cut="0.0000000000000000e+00" cType="1" res="6.9126719608902931e-03" rms="2.7704659104347229e-01" purity="8.8099074363708496e-01" nType="-99"/>
        <Node pos="r" depth="1" NCoef="0" IVar="5" Cut="1.7398816347122192e-01" cType="0" res="-1.1066905222833157e-02" rms="3.5607779026031494e-01" purity="6.9458484649658203e-01" nType="0">
          <Node pos="l" depth="2" NCoef="0" IVar="-1" Cut="0.0000000000000000e+00" cType="1" res="5.5857044644653797e-03" rms="3.2988873124122620e-01" purity="8.0723214149475098e-01" nType="-99"/>
          <Node pos="r" depth="2" NCoef="0" IVar="-1" Cut="0.0000000000000000e+00" cType="1" res="-8.0571742728352547e-03" rms="3.6863356828689575e-01" purity="6.3419806957244873e-01" nType="-99"/>
        </Node>
      </Node>
    </BinaryTree>
    <BinaryTree type="DecisionTree" boostWeight="1.0000000000000000e+00" itree="125">
      <Node pos="s" depth="0" NCoef="0" IVar="25" Cut="2.5296042480468750e+03" cType="0" res="-1.2240540236234665e-03" rms="3.2097217440605164e-01" purity="7.8371727466583252e-01" nType="0">
        <Node pos="l" depth="1" NCoef="0" IVar="-1" Cut="0.0000000000000000e+00" cType="1" res="6.8220240063965321e-03" rms="2.9508775472640991e-01" purity="8.3645534515380859e-01" nType="-99"/>
        <Node pos="r" depth="1" NCoef="0" IVar="27" Cut="5.0438632812500000e+04" cType="0" res="-1.1041095480322838e-02" rms="3.3503365516662598e-01" purity="7.5235545635223389e-01" nType="0">
          <Node pos="l" depth="2" NCoef="0" IVar="-1" Cut="0.0000000000000000e+00" cType="1" res="-1.4601103961467743e-02" rms="3.4164795279502869e-01" purity="7.5390672683715820e-01" nType="-99"/>
          <Node pos="r" depth="2" NCoef="0" IVar="-1" Cut="0.0000000000000000e+00" cType="1" res="2.9474159236997366e-03" rms="3.2872876524925232e-01" purity="7.5118595361709595e-01" nType="-99"/>
        </Node>
      </Node>
    </BinaryTree>
    <BinaryTree type="DecisionTree" boostWeight="1.0000000000000000e+00" itree="126">
      <Node pos="s" depth="0" NCoef="0" IVar="23" Cut="8.0181083984375000e+03" cType="0" res="1.2882101873401552e-04" rms="3.2052490115165710e-01" purity="7.8475600481033325e-01" nType="0">
        <Node pos="l" depth="1" NCoef="0" IVar="-1" Cut="0.0000000000000000e+00" cType="1" res="1.0865731164813042e-02" rms="2.9136702418327332e-01" purity="8.5981732606887817e-01" nType="-99"/>
        <Node pos="r" depth="1" NCoef="0" IVar="27" Cut="2.8016853515625000e+04" cType="0" res="-6.2355254776775837e-03" rms="3.2756769657135010e-01" purity="7.6474350690841675e-01" nType="0">
          <Node pos="l" depth="2" NCoef="0" IVar="-1" Cut="0.0000000000000000e+00" cType="1" res="-6.1926660127937794e-03" rms="3.2790461182594299e-01" purity="7.6773220300674438e-01" nType="-99"/>
          <Node pos="r" depth="2" NCoef="0" IVar="-1" Cut="0.0000000000000000e+00" cType="1" res="1.2806677259504795e-02" rms="3.2292217016220093e-01" purity="7.5106108188629150e-01" nType="-99"/>
        </Node>
      </Node>
    </BinaryTree>
    <BinaryTree type="DecisionTree" boostWeight="1.0000000000000000e+00" itree="127">
      <Node pos="s" depth="0" NCoef="0" IVar="5" Cut="5.7931953668594360e-01" cType="0" res="-7.4347003828734159e-04" rms="3.2068368792533875e-01" purity="7.8441786766052246e-01" nType="0">
        <Node pos="l" depth="1" NCoef="0" IVar="-1" Cut="0.0000000000000000e+00" cType="1" res="1.1722704395651817e-02" rms="2.6652067899703979e-01" purity="8.9583462476730347e-01" nType="-99"/>
        <Node pos="r" depth="1" NCoef="0" IVar="1" Cut="1.2809312744140625e+03" cType="0" res="-8.5776271298527718e-03" rms="3.3678099513053894e-01" purity="7.4649596214294434e-01" nType="0">
          <Node pos="l" depth="2" NCoef="0" IVar="-1" Cut="0.0000000000000000e+00" cType="1" res="-3.0696080648340285e-04" rms="3.3135125041007996e-01" purity="7.8469574451446533e-01" nType="-99"/>
          <Node pos="r" depth="2" NCoef="0" IVar="-1" Cut="0.0000000000000000e+00" cType="1" res="-2.1579734981060028e-02" rms="3.6970898509025574e-01" purity="4.6095031499862671e-01" nType="-99"/>
        </Node>
      </Node>
    </BinaryTree>
    <BinaryTree type="DecisionTree" boostWeight="1.0000000000000000e+00" itree="128">
      <Node pos="s" depth="0" NCoef="0" IVar="1" Cut="1.1909826660156250e+03" cType="0" res="3.1838679569773376e-04" rms="3.2037481665611267e-01" purity="7.8459292650222778e-01" nType="0">
        <Node pos="l" depth="1" NCoef="0" IVar="-1" Cut="0.0000000000000000e+00" cType="1" res="1.8427857430651784e-03" rms="3.1766131520271301e-01" purity="8.1164360046386719e-01" nType="-99"/>
        <Node pos="r" depth="1" NCoef="0" IVar="9" Cut="2.7068191528320312e+02" cType="1" res="-6.7456938326358795e-02" rms="3.5573363304138184e-01" purity="3.3498162031173706e-01" nType="0">
          <Node pos="l" depth="2" NCoef="0" IVar="-1" Cut="0.0000000000000000e+00" cType="1" res="-1.0572760365903378e-02" rms="3.4532186388969421e-01" purity="3.7019997835159302e-01" nType="-99"/>
          <Node pos="r" depth="2" NCoef="0" IVar="-1" Cut="0.0000000000000000e+00" cType="1" res="-6.5732635557651520e-02" rms="3.6081042885780334e-01" purity="1.9551506638526917e-01" nType="-99"/>
        </Node>
      </Node>
    </BinaryTree>
    <BinaryTree type="DecisionTree" boostWeight="1.0000000000000000e+00" itree="129">
      <Node pos="s" depth="0" NCoef="0" IVar="27" Cut="1.3202553125000000e+05" cType="1" res="3.7341909774113446e-05" rms="3.1975269317626953e-01" purity="7.8543043136596680e-01" nType="0">
        <Node pos="l" depth="1" NCoef="0" IVar="-1" Cut="0.0000000000000000e+00" cType="1" res="1.5061906306073070e-03" rms="3.1700441241264343e-01" purity="7.8661352396011353e-01" nType="-99"/>
        <Node pos="r" depth="1" NCoef="0" IVar="9" Cut="4.9940457153320312e+02" cType="0" res="-4.1877165436744690e-02" rms="3.4743013978004456e-01" purity="7.7165675163269043e-01" nType="0">
          <Node pos="l" depth="2" NCoef="0" IVar="-1" Cut="0.0000000000000000e+00" cType="1" res="-2.7280852664262056e-03" rms="2.9835334420204163e-01" purity="8.6978262662887573e-01" nType="-99"/>
          <Node pos="r" depth="2" NCoef="0" IVar="-1" Cut="0.0000000000000000e+00" cType="1" res="-2.7071913704276085e-02" rms="3.8219884037971497e-01" purity="6.8637824058532715e-01" nType="-99"/>
        </Node>
      </Node>
    </BinaryTree>
    <BinaryTree type="DecisionTree" boostWeight="1.0000000000000000e+00" itree="130">
      <Node pos="s" depth="0" NCoef="0" IVar="0" Cut="4.7142858505249023e+00" cType="1" res="2.7388540911488235e-04" rms="3.2013589143753052e-01" purity="7.8363227844238281e-01" nType="0">
        <Node pos="l" depth="1" NCoef="0" IVar="-1" Cut="0.0000000000000000e+00" cType="1" res="1.1137806810438633e-02" rms="2.4977801740169525e-01" purity="9.1815692186355591e-01" nType="-99"/>
        <Node pos="r" depth="1" NCoef="0" IVar="25" Cut="1.5973321533203125e+03" cType="0" res="-7.8628286719322205e-03" rms="3.4653049707412720e-01" purity="7.2387599945068359e-01" nType="0">
          <Node pos="l" depth="2" NCoef="0" IVar="-1" Cut="0.0000000000000000e+00" cType="1" res="6.6376203903928399e-04" rms="3.3737400174140930e-01" purity="7.5150775909423828e-01" nType="-99"/>
          <Node pos="r" depth="2" NCoef="0" IVar="-1" Cut="0.0000000000000000e+00" cType="1" res="-2.1053634583950043e-02" rms="3.9414998888969421e-01" purity="5.4930412769317627e-01" nType="-99"/>
        </Node>
      </Node>
    </BinaryTree>
    <BinaryTree type="DecisionTree" boostWeight="1.0000000000000000e+00" itree="131">
      <Node pos="s" depth="0" NCoef="0" IVar="1" Cut="1.8524174804687500e+03" cType="1" res="7.0337025681510568e-04" rms="3.1916654109954834e-01" purity="7.8563624620437622e-01" nType="0">
        <Node pos="l" depth="1" NCoef="0" IVar="-1" Cut="0.0000000000000000e+00" cType="1" res="4.0970160625874996e-03" rms="3.1645682454109192e-01" purity="7.9823952913284302e-01" nType="-99"/>
        <Node pos="r" depth="1" NCoef="0" IVar="9" Cut="4.6815942382812500e+02" cType="0" res="-1.5842258930206299e-02" rms="3.2326200604438782e-01" purity="7.6325237751007080e-01" nType="0">
          <Node pos="l" depth="2" NCoef="0" IVar="-1" Cut="0.0000000000000000e+00" cType="1" res="6.2431674450635910e-03" rms="2.7581110596656799e-01" purity="8.7730211019515991e-01" nType="-99"/>
          <Node pos="r" depth="2" NCoef="0" IVar="-1" Cut="0.0000000000000000e+00" cType="1" res="-2.6803232729434967e-02" rms="4.1427686810493469e-01" purity="4.6390753984451294e-01" nType="-99"/>
        </Node>
      </Node>
    </BinaryTree>
    <BinaryTree type="DecisionTree" boostWeight="1.0000000000000000e+00" itree="132">
      <Node pos="s" depth="0" NCoef="0" IVar="0" Cut="6.5714287757873535e+00" cType="1" res="4.4421216443879530e-05" rms="3.1847926974296570e-01" purity="7.8476285934448242e-01" nType="0">
        <Node pos="l" depth="1" NCoef="0" IVar="-1" Cut="0.0000000000000000e+00" cType="1" res="6.0176900587975979e-03" rms="2.7018660306930542e-01" purity="8.9731222391128540e-01" nType="-99"/>
        <Node pos="r" depth="1" NCoef="0" IVar="14" Cut="6.8047924804687500e+02" cType="1" res="-1.3456913642585278e-02" rms="3.6942261457443237e-01" purity="6.4471954107284546e-01" nType="0">
          <Node pos="l" depth="2" NCoef="0" IVar="-1" Cut="0.0000000000000000e+00" cType="1" res="-2.0933977793902159e-03" rms="3.6696043610572815e-01" purity="6.4955884218215942e-01" nType="-99"/>
          <Node pos="r" depth="2" NCoef="0" IVar="-1" Cut="0.0000000000000000e+00" cType="1" res="-4.8290736973285675e-02" rms="3.9107105135917664e-01" purity="5.5336678028106689e-01" nType="-99"/>
        </Node>
      </Node>
    </BinaryTree>
    <BinaryTree type="DecisionTree" boostWeight="1.0000000000000000e+00" itree="133">
      <Node pos="s" depth="0" NCoef="0" IVar="1" Cut="2.6440297851562500e+03" cType="1" res="5.1109254127368331e-04" rms="3.1928455829620361e-01" purity="7.8511339426040649e-01" nType="0">
        <Node pos="l" depth="1" NCoef="0" IVar="-1" Cut="0.0000000000000000e+00" cType="1" res="1.8287916900590062e-03" rms="3.1864464282989502e-01" purity="7.8872370719909668e-01" nType="-99"/>
        <Node pos="r" depth="1" NCoef="0" IVar="9" Cut="1.3165062255859375e+03" cType="0" res="-3.9024394005537033e-02" rms="3.2294735312461853e-01" purity="7.4909955263137817e-01" nType="0">
          <Node pos="l" depth="2" NCoef="0" IVar="-1" Cut="0.0000000000000000e+00" cType="1" res="1.2008604593575001e-02" rms="2.1279940009117126e-01" purity="9.5128738880157471e-01" nType="-99"/>
          <Node pos="r" depth="2" NCoef="0" IVar="-1" Cut="0.0000000000000000e+00" cType="1" res="-4.0240582078695297e-02" rms="4.3861147761344910e-01" purity="4.0304908156394958e-01" nType="-99"/>
        </Node>
      </Node>
    </BinaryTree>
    <BinaryTree type="DecisionTree" boostWeight="1.0000000000000000e+00" itree="134">
      <Node pos="s" depth="0" NCoef="0" IVar="12" Cut="-1.6228962402343750e+03" cType="1" res="7.8755401773378253e-05" rms="3.1932136416435242e-01" purity="7.8490674495697021e-01" nType="0">
        <Node pos="l" depth="1" NCoef="0" IVar="-1" Cut="0.0000000000000000e+00" cType="1" res="3.4152194857597351e-02" rms="1.7551112174987793e-01" purity="9.5653247833251953e-01" nType="-99"/>
        <Node pos="r" depth="1" NCoef="0" IVar="12" Cut="-7.6583053588867188e+01" cType="1" res="-3.5405212547630072e-03" rms="3.2667046785354614e-01" purity="7.7297115325927734e-01" nType="0">
          <Node pos="l" depth="2" NCoef="0" IVar="-1" Cut="0.0000000000000000e+00" cType="1" res="1.3098409399390221e-02" rms="2.8098782896995544e-01" purity="8.6134093999862671e-01" nType="-99"/>
          <Node pos="r" depth="2" NCoef="0" IVar="-1" Cut="0.0000000000000000e+00" cType="1" res="-1.1454628780484200e-02" rms="3.5962209105491638e-01" purity="6.9577074050903320e-01" nType="-99"/>
        </Node>
      </Node>
    </BinaryTree>
    <BinaryTree type="DecisionTree" boostWeight="1.0000000000000000e+00" itree="135">
      <Node pos="s" depth="0" NCoef="0" IVar="1" Cut="9.5094628906250000e+02" cType="0" res="-3.0788997537456453e-04" rms="3.1903472542762756e-01" purity="7.8453040122985840e-01" nType="0">
        <Node pos="l" depth="1" NCoef="0" IVar="-1" Cut="0.0000000000000000e+00" cType="1" res="4.3788444600068033e-04" rms="3.2030773162841797e-01" purity="7.9497033357620239e-01" nType="-99"/>
        <Node pos="r" depth="1" NCoef="0" IVar="0" Cut="8.1428575515747070e+00" cType="1" res="-9.8296277225017548e-02" rms="1.8204043805599213e-01" purity="2.8874484822154045e-02" nType="0">
          <Node pos="l" depth="2" NCoef="0" IVar="-1" Cut="0.0000000000000000e+00" cType="1" res="-5.6289665400981903e-02" rms="2.4020680785179138e-01" purity="6.1904761940240860e-02" nType="-99"/>
          <Node pos="r" depth="2" NCoef="0" IVar="-1" Cut="0.0000000000000000e+00" cType="1" res="-4.4202264398336411e-02" rms="1.4112228155136108e-01" purity="1.8010962754487991e-02" nType="-99"/>
        </Node>
      </Node>
    </BinaryTree>
    <BinaryTree type="DecisionTree" boostWeight="1.0000000000000000e+00" itree="136">
      <Node pos="s" depth="0" NCoef="0" IVar="23" Cut="5.3690258789062500e+03" cType="0" res="-5.9998285723850131e-04" rms="3.1921705603599548e-01" purity="7.8442919254302979e-01" nType="0">
        <Node pos="l" depth="1" NCoef="0" IVar="-1" Cut="0.0000000000000000e+00" cType="1" res="5.1940963603556156e-03" rms="3.0319517850875854e-01" purity="8.3009755611419678e-01" nType="-99"/>
        <Node pos="r" depth="1" NCoef="0" IVar="19" Cut="5.9074621093750000e+04" cType="1" res="-1.2325217947363853e-02" rms="3.3331289887428284e-01" purity="7.4101465940475464e-01" nType="0">
          <Node pos="l" depth="2" NCoef="0" IVar="-1" Cut="0.0000000000000000e+00" cType="1" res="4.8186532221734524e-03" rms="3.1774276494979858e-01" purity="7.7713054418563843e-01" nType="-99"/>
          <Node pos="r" depth="2" NCoef="0" IVar="-1" Cut="0.0000000000000000e+00" cType="1" res="-1.0808993130922318e-02" rms="3.4212142229080200e-01" purity="7.1766161918640137e-01" nType="-99"/>
        </Node>
      </Node>
    </BinaryTree>
    <BinaryTree type="DecisionTree" boostWeight="1.0000000000000000e+00" itree="137">
      <Node pos="s" depth="0" NCoef="0" IVar="13" Cut="2.0681789550781250e+03" cType="0" res="-1.7255301645491272e-04" rms="3.1888714432716370e-01" purity="7.8452444076538086e-01" nType="0">
        <Node pos="l" depth="1" NCoef="0" IVar="-1" Cut="0.0000000000000000e+00" cType="1" res="4.1744769550859928e-03" rms="3.1203478574752808e-01" purity="8.0110764503479004e-01" nType="-99"/>
        <Node pos="r" depth="1" NCoef="0" IVar="13" Cut="5.9634674072265625e+02" cType="1" res="-1.5228947624564171e-02" rms="3.2824283838272095e-01" purity="7.5984752178192139e-01" nType="0">
          <Node pos="l" depth="2" NCoef="0" IVar="-1" Cut="0.0000000000000000e+00" cType="1" res="1.5378477983176708e-02" rms="2.6462948322296143e-01" purity="9.0264242887496948e-01" nType="-99"/>
          <Node pos="r" depth="2" NCoef="0" IVar="-1" Cut="0.0000000000000000e+00" cType="1" res="-1.0775945149362087e-02" rms="3.4246116876602173e-01" purity="7.2121089696884155e-01" nType="-99"/>
        </Node>
      </Node>
    </BinaryTree>
    <BinaryTree type="DecisionTree" boostWeight="1.0000000000000000e+00" itree="138">
      <Node pos="s" depth="0" NCoef="0" IVar="1" Cut="1.8524174804687500e+03" cType="1" res="2.7735033654607832e-05" rms="3.1835207343101501e-01" purity="7.8528356552124023e-01" nType="0">
        <Node pos="l" depth="1" NCoef="0" IVar="-1" Cut="0.0000000000000000e+00" cType="1" res="3.8345665670931339e-03" rms="3.1567999720573425e-01" purity="7.9924279451370239e-01" nType="-99"/>
        <Node pos="r" depth="1" NCoef="0" IVar="9" Cut="4.6815942382812500e+02" cType="0" res="-1.6500262543559074e-02" rms="3.2241508364677429e-01" purity="7.6032280921936035e-01" nType="0">
          <Node pos="l" depth="2" NCoef="0" IVar="-1" Cut="0.0000000000000000e+00" cType="1" res="4.9218316562473774e-03" rms="2.7757611870765686e-01" purity="8.7524455785751343e-01" nType="-99"/>
          <Node pos="r" depth="2" NCoef="0" IVar="-1" Cut="0.0000000000000000e+00" cType="1" res="-2.5381449609994888e-02" rms="4.0921241044998169e-01" purity="4.6217066049575806e-01" nType="-99"/>
        </Node>
      </Node>
    </BinaryTree>
    <BinaryTree type="DecisionTree" boostWeight="1.0000000000000000e+00" itree="139">
      <Node pos="s" depth="0" NCoef="0" IVar="1" Cut="1.3277597656250000e+03" cType="0" res="1.2990309624001384e-03" rms="3.1709432601928711e-01" purity="7.8594398498535156e-01" nType="0">
        <Node pos="l" depth="1" NCoef="0" IVar="-1" Cut="0.0000000000000000e+00" cType="1" res="2.5606178678572178e-03" rms="3.1041949987411499e-01" purity="8.1708407402038574e-01" nType="-99"/>
        <Node pos="r" depth="1" NCoef="0" IVar="9" Cut="3.9558242797851562e+02" cType="1" res="-2.7189711108803749e-02" rms="3.5467097163200378e-01" purity="5.9127652645111084e-01" nType="0">
          <Node pos="l" depth="2" NCoef="0" IVar="-1" Cut="0.0000000000000000e+00" cType="1" res="-3.8680385332554579e-03" rms="3.4564727544784546e-01" purity="6.1015909910202026e-01" nType="-99"/>
          <Node pos="r" depth="2" NCoef="0" IVar="-1" Cut="0.0000000000000000e+00" cType="1" res="-9.6595734357833862e-02" rms="3.8277858495712280e-01" purity="2.3040935397148132e-01" nType="-99"/>
        </Node>
      </Node>
    </BinaryTree>
    <BinaryTree type="DecisionTree" boostWeight="1.0000000000000000e+00" itree="140">
      <Node pos="s" depth="0" NCoef="0" IVar="0" Cut="2.8857143402099609e+01" cType="1" res="4.8926321323961020e-04" rms="3.1710952520370483e-01" purity="7.8603470325469971e-01" nType="0">
        <Node pos="l" depth="1" NCoef="0" IVar="-1" Cut="0.0000000000000000e+00" cType="1" res="5.2678980864584446e-04" rms="3.1714192032814026e-01" purity="7.8870981931686401e-01" nType="-99"/>
        <Node pos="r" depth="1" NCoef="0" IVar="5" Cut="-2.9409626126289368e-01" cType="1" res="-2.0273596048355103e-01" rms="2.3147492110729218e-01" purity="6.7099563777446747e-02" nType="0">
          <Node pos="l" depth="2" NCoef="0" IVar="-1" Cut="0.0000000000000000e+00" cType="1" res="-2.5091217830777168e-02" rms="1.9737255573272705e-01" purity="1.4102564752101898e-01" nType="-99"/>
          <Node pos="r" depth="2" NCoef="0" IVar="-1" Cut="0.0000000000000000e+00" cType="1" res="-7.7161706984043121e-02" rms="2.1369154751300812e-01" purity="2.9411764815449715e-02" nType="-99"/>
        </Node>
      </Node>
    </BinaryTree>
    <BinaryTree type="DecisionTree" boostWeight="1.0000000000000000e+00" itree="141">
      <Node pos="s" depth="0" NCoef="0" IVar="5" Cut="-1.7366113662719727e+00" cType="0" res="-6.1565951909869909e-04" rms="3.1847715377807617e-01" purity="7.8413730859756470e-01" nType="0">
        <Node pos="l" depth="1" NCoef="0" IVar="-1" Cut="0.0000000000000000e+00" cType="1" res="3.3034165971912444e-04" rms="3.1732138991355896e-01" purity="7.8742510080337524e-01" nType="-99"/>
        <Node pos="r" depth="1" NCoef="0" IVar="22" Cut="-6.4462988281250000e+02" cType="1" res="-1.0364344716072083e-01" rms="3.8069570064544678e-01" purity="5.4136693477630615e-01" nType="0">
          <Node pos="l" depth="2" NCoef="0" IVar="-1" Cut="0.0000000000000000e+00" cType="1" res="4.8007279634475708e-02" rms="2.5272199511528015e-01" purity="9.4067794084548950e-01" nType="-99"/>
          <Node pos="r" depth="2" NCoef="0" IVar="-1" Cut="0.0000000000000000e+00" cType="1" res="-3.8883704692125320e-02" rms="3.8436648249626160e-01" purity="5.1096773147583008e-01" nType="-99"/>
        </Node>
      </Node>
    </BinaryTree>
    <BinaryTree type="DecisionTree" boostWeight="1.0000000000000000e+00" itree="142">
      <Node pos="s" depth="0" NCoef="0" IVar="1" Cut="2.3749426269531250e+03" cType="1" res="4.4186657760292292e-04" rms="3.1803974509239197e-01" purity="7.8582394123077393e-01" nType="0">
        <Node pos="l" depth="1" NCoef="0" IVar="-1" Cut="0.0000000000000000e+00" cType="1" res="2.2058410104364157e-03" rms="3.1725451350212097e-01" purity="7.9502153396606445e-01" nType="-99"/>
        <Node pos="r" depth="1" NCoef="0" IVar="9" Cut="1.2931496582031250e+03" cType="0" res="-2.9626687988638878e-02" rms="3.2119110226631165e-01" purity="7.2929829359054565e-01" nType="0">
          <Node pos="l" depth="2" NCoef="0" IVar="-1" Cut="0.0000000000000000e+00" cType="1" res="1.2291956692934036e-02" rms="2.0954303443431854e-01" purity="9.5272684097290039e-01" nType="-99"/>
          <Node pos="r" depth="2" NCoef="0" IVar="-1" Cut="0.0000000000000000e+00" cType="1" res="-2.4133877828717232e-02" rms="3.9778926968574524e-01" purity="5.0760781764984131e-01" nType="-99"/>
        </Node>
      </Node>
    </BinaryTree>
    <BinaryTree type="DecisionTree" boostWeight="1.0000000000000000e+00" itree="143">
      <Node pos="s" depth="0" NCoef="0" IVar="25" Cut="1.3000334472656250e+03" cType="0" res="-7.1739626582711935e-04" rms="3.1744125485420227e-01" purity="7.8522413969039917e-01" nType="0">
        <Node pos="l" depth="1" NCoef="0" IVar="-1" Cut="0.0000000000000000e+00" cType="1" res="1.0641412809491158e-03" rms="3.1404781341552734e-01" purity="7.9037892818450928e-01" nType="-99"/>
        <Node pos="r" depth="1" NCoef="0" IVar="3" Cut="2.6804233398437500e+03" cType="1" res="-3.4816358238458633e-02" rms="3.4972760081291199e-01" purity="7.3034864664077759e-01" nType="0">
          <Node pos="l" depth="2" NCoef="0" IVar="-1" Cut="0.0000000000000000e+00" cType="1" res="-7.2082532569766045e-03" rms="3.4172436594963074e-01" purity="7.8639668226242065e-01" nType="-99"/>
          <Node pos="r" depth="2" NCoef="0" IVar="-1" Cut="0.0000000000000000e+00" cType="1" res="-5.3260412067174911e-02" rms="3.8201108574867249e-01" purity="2.2544434666633606e-01" nType="-99"/>
        </Node>
      </Node>
    </BinaryTree>
    <BinaryTree type="DecisionTree" boostWeight="1.0000000000000000e+00" itree="144">
      <Node pos="s" depth="0" NCoef="0" IVar="27" Cut="1.4222446875000000e+05" cType="1" res="-4.2733436566777527e-04" rms="3.1675529479980469e-01" purity="7.8424268960952759e-01" nType="0">
        <Node pos="l" depth="1" NCoef="0" IVar="-1" Cut="0.0000000000000000e+00" cType="1" res="1.1139474809169769e-03" rms="3.1413176655769348e-01" purity="7.8569835424423218e-01" nType="-99"/>
        <Node pos="r" depth="1" NCoef="0" IVar="9" Cut="3.8894006347656250e+02" cType="0" res="-4.4975716620683670e-02" rms="3.4980943799018860e-01" purity="7.6300001144409180e-01" nType="0">
          <Node pos="l" depth="2" NCoef="0" IVar="-1" Cut="0.0000000000000000e+00" cType="1" res="-5.3636631928384304e-03" rms="3.0841335654258728e-01" purity="8.5137087106704712e-01" nType="-99"/>
          <Node pos="r" depth="2" NCoef="0" IVar="-1" Cut="0.0000000000000000e+00" cType="1" res="-3.3577784895896912e-02" rms="3.9966985583305359e-01" purity="6.2686568498611450e-01" nType="-99"/>
        </Node>
      </Node>
    </BinaryTree>
    <BinaryTree type="DecisionTree" boostWeight="1.0000000000000000e+00" itree="145">
      <Node pos="s" depth="0" NCoef="0" IVar="5" Cut="1.7398816347122192e-01" cType="0" res="4.2426507570780814e-04" rms="3.1694582104682922e-01" purity="7.8513801097869873e-01" nType="0">
        <Node pos="l" depth="1" NCoef="0" IVar="-1" Cut="0.0000000000000000e+00" cType="1" res="7.4806092306971550e-03" rms="2.8464365005493164e-01" purity="8.6885017156600952e-01" nType="-99"/>
        <Node pos="r" depth="1" NCoef="0" IVar="1" Cut="1.2809312744140625e+03" cType="0" res="-9.3220584094524384e-03" rms="3.3666983246803284e-01" purity="7.2858721017837524e-01" nType="0">
          <Node pos="l" depth="2" NCoef="0" IVar="-1" Cut="0.0000000000000000e+00" cType="1" res="-4.3880357407033443e-04" rms="3.3144602179527283e-01" purity="7.7258229255676270e-01" nType="-99"/>
          <Node pos="r" depth="2" NCoef="0" IVar="-1" Cut="0.0000000000000000e+00" cType="1" res="-2.1322246640920639e-02" rms="3.6564162373542786e-01" purity="4.2612010240554810e-01" nType="-99"/>
        </Node>
      </Node>
    </BinaryTree>
    <BinaryTree type="DecisionTree" boostWeight="1.0000000000000000e+00" itree="146">
      <Node pos="s" depth="0" NCoef="0" IVar="0" Cut="1.0285714149475098e+01" cType="1" res="-6.7262334050610662e-04" rms="3.1752905249595642e-01" purity="7.8362232446670532e-01" nType="0">
        <Node pos="l" depth="1" NCoef="0" IVar="-1" Cut="0.0000000000000000e+00" cType="1" res="1.7942009726539254e-03" rms="3.0276748538017273e-01" purity="8.4571456909179688e-01" nType="-99"/>
        <Node pos="r" depth="1" NCoef="0" IVar="9" Cut="3.1423666381835938e+02" cType="0" res="-2.6985580101609230e-02" rms="3.9152547717094421e-01" purity="4.2232823371887207e-01" nType="0">
          <Node pos="l" depth="2" NCoef="0" IVar="-1" Cut="0.0000000000000000e+00" cType="1" res="3.7133966106921434e-03" rms="3.8600587844848633e-01" purity="5.5101054906845093e-01" nType="-99"/>
          <Node pos="r" depth="2" NCoef="0" IVar="-1" Cut="0.0000000000000000e+00" cType="1" res="-1.7203761264681816e-02" rms="3.9285793900489807e-01" purity="3.1572088599205017e-01" nType="-99"/>
        </Node>
      </Node>
    </BinaryTree>
    <BinaryTree type="DecisionTree" boostWeight="1.0000000000000000e+00" itree="147">
      <Node pos="s" depth="0" NCoef="0" IVar="5" Cut="-1.1766139268875122e+00" cType="0" res="-1.0670504998415709e-03" rms="3.1822568178176880e-01" purity="7.8325569629669189e-01" nType="0">
        <Node pos="l" depth="1" NCoef="0" IVar="-1" Cut="0.0000000000000000e+00" cType="1" res="6.8687647581100464e-04" rms="3.1605425477027893e-01" purity="7.9192304611206055e-01" nType="-99"/>
        <Node pos="r" depth="1" NCoef="0" IVar="12" Cut="-3.4696899414062500e+02" cType="1" res="-6.4940974116325378e-02" rms="3.6057180166244507e-01" purity="5.7561761140823364e-01" nType="0">
          <Node pos="l" depth="2" NCoef="0" IVar="-1" Cut="0.0000000000000000e+00" cType="1" res="6.8848193623125553e-03" rms="2.9370117187500000e-01" purity="8.0095762014389038e-01" nType="-99"/>
          <Node pos="r" depth="2" NCoef="0" IVar="-1" Cut="0.0000000000000000e+00" cType="1" res="-3.0981063842773438e-02" rms="3.7988340854644775e-01" purity="4.8194482922554016e-01" nType="-99"/>
        </Node>
      </Node>
    </BinaryTree>
    <BinaryTree type="DecisionTree" boostWeight="1.0000000000000000e+00" itree="148">
      <Node pos="s" depth="0" NCoef="0" IVar="23" Cut="5.3690258789062500e+03" cType="0" res="-4.3502615881152451e-04" rms="3.1769013404846191e-01" purity="7.8349876403808594e-01" nType="0">
        <Node pos="l" depth="1" NCoef="0" IVar="-1" Cut="0.0000000000000000e+00" cType="1" res="4.9213981255888939e-03" rms="3.0280891060829163e-01" purity="8.2922071218490601e-01" nType="-99"/>
        <Node pos="r" depth="1" NCoef="0" IVar="10" Cut="1.4885015487670898e+00" cType="0" res="-1.1243396438658237e-02" rms="3.3082303404808044e-01" purity="7.4013835191726685e-01" nType="0">
          <Node pos="l" depth="2" NCoef="0" IVar="-1" Cut="0.0000000000000000e+00" cType="1" res="1.0327958501875401e-02" rms="2.7543595433235168e-01" purity="8.8393634557723999e-01" nType="-99"/>
          <Node pos="r" depth="2" NCoef="0" IVar="-1" Cut="0.0000000000000000e+00" cType="1" res="-8.5111735388636589e-03" rms="3.4846866130828857e-01" purity="6.8669593334197998e-01" nType="-99"/>
        </Node>
      </Node>
    </BinaryTree>
    <BinaryTree type="DecisionTree" boostWeight="1.0000000000000000e+00" itree="149">
      <Node pos="s" depth="0" NCoef="0" IVar="1" Cut="2.6440297851562500e+03" cType="1" res="7.2318321326747537e-04" rms="3.1697633862495422e-01" purity="7.8501051664352417e-01" nType="0">
        <Node pos="l" depth="1" NCoef="0" IVar="-1" Cut="0.0000000000000000e+00" cType="1" res="1.7456990899518132e-03" rms="3.1641441583633423e-01" purity="7.8871852159500122e-01" nType="-99"/>
        <Node pos="r" depth="1" NCoef="0" IVar="9" Cut="1.3165062255859375e+03" cType="0" res="-3.4038759768009186e-02" rms="3.2050010561943054e-01" purity="7.4776607751846313e-01" nType="0">
          <Node pos="l" depth="2" NCoef="0" IVar="-1" Cut="0.0000000000000000e+00" cType="1" res="5.4769930429756641e-03" rms="2.1948738396167755e-01" purity="9.4833379983901978e-01" nType="-99"/>
          <Node pos="r" depth="2" NCoef="0" IVar="-1" Cut="0.0000000000000000e+00" cType="1" res="-3.1987536698579788e-02" rms="4.3467736244201660e-01" purity="4.0350878238677979e-01" nType="-99"/>
        </Node>
      </Node>
    </BinaryTree>
    <BinaryTree type="DecisionTree" boostWeight="1.0000000000000000e+00" itree="150">
      <Node pos="s" depth="0" NCoef="0" IVar="25" Cut="2.5296042480468750e+03" cType="0" res="-1.0255956794935628e-06" rms="3.1743714213371277e-01" purity="7.8401416540145874e-01" nType="0">
        <Node pos="l" depth="1" NCoef="0" IVar="-1" Cut="0.0000000000000000e+00" cType="1" res="6.3075707294046879e-03" rms="2.9081830382347107e-01" purity="8.3682638406753540e-01" nType="-99"/>
        <Node pos="r" depth="1" NCoef="0" IVar="12" Cut="-1.2099218750000000e+02" cType="1" res="-7.9919947311282158e-03" rms="3.3191242814064026e-01" purity="7.5279408693313599e-01" nType="0">
          <Node pos="l" depth="2" NCoef="0" IVar="-1" Cut="0.0000000000000000e+00" cType="1" res="9.1626970097422600e-03" rms="2.8533387184143066e-01" purity="8.5305207967758179e-01" nType="-99"/>
          <Node pos="r" depth="2" NCoef="0" IVar="-1" Cut="0.0000000000000000e+00" cType="1" res="-9.4449995085597038e-03" rms="3.5776311159133911e-01" purity="6.8789058923721313e-01" nType="-99"/>
        </Node>
      </Node>
    </BinaryTree>
    <BinaryTree type="DecisionTree" boostWeight="1.0000000000000000e+00" itree="151">
      <Node pos="s" depth="0" NCoef="0" IVar="1" Cut="1.3277597656250000e+03" cType="0" res="2.5141664082184434e-04" rms="3.1721940636634827e-01" purity="7.8503453731536865e-01" nType="0">
        <Node pos="l" depth="1" NCoef="0" IVar="-1" Cut="0.0000000000000000e+00" cType="1" res="2.0297081209719181e-03" rms="3.1097823381423950e-01" purity="8.1714761257171631e-01" nType="-99"/>
        <Node pos="r" depth="1" NCoef="0" IVar="9" Cut="3.7042453002929688e+02" cType="1" res="-2.6908382773399353e-02" rms="3.5269871354103088e-01" purity="5.8335280418395996e-01" nType="0">
          <Node pos="l" depth="2" NCoef="0" IVar="-1" Cut="0.0000000000000000e+00" cType="1" res="-3.0042417347431183e-03" rms="3.4390434622764587e-01" purity="6.0616159439086914e-01" nType="-99"/>
          <Node pos="r" depth="2" NCoef="0" IVar="-1" Cut="0.0000000000000000e+00" cType="1" res="-8.0619849264621735e-02" rms="3.7810033559799194e-01" purity="2.8769356012344360e-01" nType="-99"/>
        </Node>
      </Node>
    </BinaryTree>
    <BinaryTree type="DecisionTree" boostWeight="1.0000000000000000e+00" itree="152">
      <Node pos="s" depth="0" NCoef="0" IVar="19" Cut="1.4335339062500000e+05" cType="1" res="-4.3381538125686347e-04" rms="3.1640765070915222e-01" purity="7.8396201133728027e-01" nType="0">
        <Node pos="l" depth="1" NCoef="0" IVar="-1" Cut="0.0000000000000000e+00" cType="1" res="1.9799054134637117e-03" rms="3.1278622150421143e-01" purity="7.8794711828231812e-01" nType="-99"/>
        <Node pos="r" depth="1" NCoef="0" IVar="9" Cut="3.8282522583007812e+02" cType="0" res="-2.3465439677238464e-02" rms="3.3151203393936157e-01" purity="7.6571607589721680e-01" nType="0">
          <Node pos="l" depth="2" NCoef="0" IVar="-1" Cut="0.0000000000000000e+00" cType="1" res="3.6358644720166922e-03" rms="2.8870025277137756e-01" purity="8.7158352136611938e-01" nType="-99"/>
          <Node pos="r" depth="2" NCoef="0" IVar="-1" Cut="0.0000000000000000e+00" cType="1" res="-2.0316625013947487e-02" rms="3.7078997492790222e-01" purity="6.4679765701293945e-01" nType="-99"/>
        </Node>
      </Node>
    </BinaryTree>
    <BinaryTree type="DecisionTree" boostWeight="1.0000000000000000e+00" itree="153">
      <Node pos="s" depth="0" NCoef="0" IVar="23" Cut="1.3316273437500000e+04" cType="0" res="5.1776358304778114e-05" rms="3.1677860021591187e-01" purity="7.8431451320648193e-01" nType="0">
        <Node pos="l" depth="1" NCoef="0" IVar="-1" Cut="0.0000000000000000e+00" cType="1" res="2.4757539853453636e-02" rms="2.6021629571914673e-01" purity="9.0901553630828857e-01" nType="-99"/>
        <Node pos="r" depth="1" NCoef="0" IVar="27" Cut="3.3922171875000000e+04" cType="0" res="-1.9667444285005331e-03" rms="3.1867417693138123e-01" purity="7.7930861711502075e-01" nType="0">
          <Node pos="l" depth="2" NCoef="0" IVar="-1" Cut="0.0000000000000000e+00" cType="1" res="-4.2261346243321896e-03" rms="3.1844821572303772e-01" purity="7.8554171323776245e-01" nType="-99"/>
          <Node pos="r" depth="2" NCoef="0" IVar="-1" Cut="0.0000000000000000e+00" cType="1" res="8.4113292396068573e-03" rms="3.1823411583900452e-01" purity="7.6089102029800415e-01" nType="-99"/>
        </Node>
      </Node>
    </BinaryTree>
    <BinaryTree type="DecisionTree" boostWeight="1.0000000000000000e+00" itree="154">
      <Node pos="s" depth="0" NCoef="0" IVar="23" Cut="8.0181083984375000e+03" cType="0" res="8.9250493329018354e-04" rms="3.1603398919105530e-01" purity="7.8642898797988892e-01" nType="0">
        <Node pos="l" depth="1" NCoef="0" IVar="-1" Cut="0.0000000000000000e+00" cType="1" res="1.0443530045449734e-02" rms="2.8851088881492615e-01" purity="8.6209911108016968e-01" nType="-99"/>
        <Node pos="r" depth="1" NCoef="0" IVar="19" Cut="1.2413451562500000e+05" cType="1" res="-4.6971193514764309e-03" rms="3.2275050878524780e-01" purity="7.6624244451522827e-01" nType="0">
          <Node pos="l" depth="2" NCoef="0" IVar="-1" Cut="0.0000000000000000e+00" cType="1" res="1.0932015720754862e-03" rms="3.1738796830177307e-01" purity="7.7494424581527710e-01" nType="-99"/>
          <Node pos="r" depth="2" NCoef="0" IVar="-1" Cut="0.0000000000000000e+00" cType="1" res="-1.5765056014060974e-02" rms="3.4528058767318726e-01" purity="7.2431504726409912e-01" nType="-99"/>
        </Node>
      </Node>
    </BinaryTree>
    <BinaryTree type="DecisionTree" boostWeight="1.0000000000000000e+00" itree="155">
      <Node pos="s" depth="0" NCoef="0" IVar="25" Cut="2.0201478271484375e+03" cType="0" res="-8.8980543659999967e-04" rms="3.1708371639251709e-01" purity="7.8335982561111450e-01" nType="0">
        <Node pos="l" depth="1" NCoef="0" IVar="-1" Cut="0.0000000000000000e+00" cType="1" res="3.9480002596974373e-03" rms="3.0108290910720825e-01" purity="8.1922769546508789e-01" nType="-99"/>
        <Node pos="r" depth="1" NCoef="0" IVar="3" Cut="3.3561000976562500e+03" cType="1" res="-1.5197750180959702e-02" rms="3.3896604180335999e-01" purity="7.3005974292755127e-01" nType="0">
          <Node pos="l" depth="2" NCoef="0" IVar="-1" Cut="0.0000000000000000e+00" cType="1" res="-1.2194089358672500e-03" rms="3.2433456182479858e-01" purity="7.7336198091506958e-01" nType="-99"/>
          <Node pos="r" depth="2" NCoef="0" IVar="-1" Cut="0.0000000000000000e+00" cType="1" res="-3.8046441972255707e-02" rms="4.3243941664695740e-01" purity="3.5170146822929382e-01" nType="-99"/>
        </Node>
      </Node>
    </BinaryTree>
    <BinaryTree type="DecisionTree" boostWeight="1.0000000000000000e+00" itree="156">
      <Node pos="s" depth="0" NCoef="0" IVar="27" Cut="1.0904857031250000e+05" cType="1" res="1.1650352971628308e-03" rms="3.1618839502334595e-01" purity="7.8514093160629272e-01" nType="0">
        <Node pos="l" depth="1" NCoef="0" IVar="-1" Cut="0.0000000000000000e+00" cType="1" res="2.3775012232363224e-03" rms="3.1335893273353577e-01" purity="7.8656619787216187e-01" nType="-99"/>
        <Node pos="r" depth="1" NCoef="0" IVar="9" Cut="4.2636135864257812e+02" cType="0" res="-2.8030306100845337e-02" rms="3.3293828368186951e-01" purity="7.7565675973892212e-01" nType="0">
          <Node pos="l" depth="2" NCoef="0" IVar="-1" Cut="0.0000000000000000e+00" cType="1" res="-9.5133436843752861e-04" rms="2.9373630881309509e-01" purity="8.6889088153839111e-01" nType="-99"/>
          <Node pos="r" depth="2" NCoef="0" IVar="-1" Cut="0.0000000000000000e+00" cType="1" res="-2.1227352321147919e-02" rms="3.7284734845161438e-01" purity="6.6166436672210693e-01" nType="-99"/>
        </Node>
      </Node>
    </BinaryTree>
    <BinaryTree type="DecisionTree" boostWeight="1.0000000000000000e+00" itree="157">
      <Node pos="s" depth="0" NCoef="0" IVar="2" Cut="2.3806506767868996e-02" cType="1" res="2.2459158208221197e-04" rms="3.1517314910888672e-01" purity="7.8486931324005127e-01" nType="0">
        <Node pos="l" depth="1" NCoef="0" IVar="-1" Cut="0.0000000000000000e+00" cType="1" res="5.8822636492550373e-03" rms="2.7230146527290344e-01" purity="8.8110798597335815e-01" nType="-99"/>
        <Node pos="r" depth="1" NCoef="0" IVar="12" Cut="-1.2099218750000000e+02" cType="1" res="-9.8581016063690186e-03" rms="3.5080605745315552e-01" purity="6.9339412450790405e-01" nType="0">
          <Node pos="l" depth="2" NCoef="0" IVar="-1" Cut="0.0000000000000000e+00" cType="1" res="1.0677268728613853e-02" rms="2.9742786288261414e-01" purity="8.3007872104644775e-01" nType="-99"/>
          <Node pos="r" depth="2" NCoef="0" IVar="-1" Cut="0.0000000000000000e+00" cType="1" res="-1.0081249289214611e-02" rms="3.7801462411880493e-01" purity="6.1041879653930664e-01" nType="-99"/>
        </Node>
      </Node>
    </BinaryTree>
    <BinaryTree type="DecisionTree" boostWeight="1.0000000000000000e+00" itree="158">
      <Node pos="s" depth="0" NCoef="0" IVar="5" Cut="-2.5919705629348755e-01" cType="0" res="-1.4447053217736538e-05" rms="3.1561359763145447e-01" purity="7.8448420763015747e-01" nType="0">
        <Node pos="l" depth="1" NCoef="0" IVar="-1" Cut="0.0000000000000000e+00" cType="1" res="2.8703531716018915e-03" rms="3.0253368616104126e-01" purity="8.2365584373474121e-01" nType="-99"/>
        <Node pos="r" depth="1" NCoef="0" IVar="32" Cut="2.5248389244079590e+00" cType="1" res="-1.6071166843175888e-02" rms="3.4659260511398315e-01" purity="6.8336302042007446e-01" nType="0">
          <Node pos="l" depth="2" NCoef="0" IVar="-1" Cut="0.0000000000000000e+00" cType="1" res="-2.2771477233618498e-03" rms="3.4189498424530029e-01" purity="6.9697487354278564e-01" nType="-99"/>
          <Node pos="r" depth="2" NCoef="0" IVar="-1" Cut="0.0000000000000000e+00" cType="1" res="-2.4151155725121498e-02" rms="3.6607283353805542e-01" purity="6.1126202344894409e-01" nType="-99"/>
        </Node>
      </Node>
    </BinaryTree>
    <BinaryTree type="DecisionTree" boostWeight="1.0000000000000000e+00" itree="159">
      <Node pos="s" depth="0" NCoef="0" IVar="0" Cut="6.5714287757873535e+00" cType="1" res="-2.9599785921163857e-04" rms="3.1555354595184326e-01" purity="7.8445798158645630e-01" nType="0">
        <Node pos="l" depth="1" NCoef="0" IVar="-1" Cut="0.0000000000000000e+00" cType="1" res="4.8251720145344734e-03" rms="2.6754060387611389e-01" purity="8.9693272113800049e-01" nType="-99"/>
        <Node pos="r" depth="1" NCoef="0" IVar="14" Cut="4.6524136352539062e+02" cType="1" res="-1.1073633097112179e-02" rms="3.6636132001876831e-01" purity="6.4442318677902222e-01" nType="0">
          <Node pos="l" depth="2" NCoef="0" IVar="-1" Cut="0.0000000000000000e+00" cType="1" res="6.0970464255660772e-04" rms="3.6464610695838928e-01" purity="6.4694344997406006e-01" nType="-99"/>
          <Node pos="r" depth="2" NCoef="0" IVar="-1" Cut="0.0000000000000000e+00" cType="1" res="-2.7329869568347931e-02" rms="3.6793932318687439e-01" purity="6.3153254985809326e-01" nType="-99"/>
        </Node>
      </Node>
    </BinaryTree>
    <BinaryTree type="DecisionTree" boostWeight="1.0000000000000000e+00" itree="160">
      <Node pos="s" depth="0" NCoef="0" IVar="23" Cut="8.0181083984375000e+03" cType="0" res="1.7323250649496913e-03" rms="3.1399115920066833e-01" purity="7.8716522455215454e-01" nType="0">
        <Node pos="l" depth="1" NCoef="0" IVar="-1" Cut="0.0000000000000000e+00" cType="1" res="1.0182484053075314e-02" rms="2.8715804219245911e-01" purity="8.6216115951538086e-01" nType="-99"/>
        <Node pos="r" depth="1" NCoef="0" IVar="27" Cut="3.2206359375000000e+04" cType="0" res="-3.3900043927133083e-03" rms="3.2055646181106567e-01" purity="7.6721578836441040e-01" nType="0">
          <Node pos="l" depth="2" NCoef="0" IVar="-1" Cut="0.0000000000000000e+00" cType="1" res="-4.7303931787610054e-03" rms="3.2050961256027222e-01" purity="7.7200210094451904e-01" nType="-99"/>
          <Node pos="r" depth="2" NCoef="0" IVar="-1" Cut="0.0000000000000000e+00" cType="1" res="7.6236221939325333e-03" rms="3.1963962316513062e-01" purity="7.5328648090362549e-01" nType="-99"/>
        </Node>
      </Node>
    </BinaryTree>
    <BinaryTree type="DecisionTree" boostWeight="1.0000000000000000e+00" itree="161">
      <Node pos="s" depth="0" NCoef="0" IVar="27" Cut="1.7615850000000000e+05" cType="1" res="-7.0582004263997078e-04" rms="3.1582841277122498e-01" purity="7.8475552797317505e-01" nType="0">
        <Node pos="l" depth="1" NCoef="0" IVar="-1" Cut="0.0000000000000000e+00" cType="1" res="5.3721695439890027e-04" rms="3.1408002972602844e-01" purity="7.8572851419448853e-01" nType="-99"/>
        <Node pos="r" depth="1" NCoef="0" IVar="25" Cut="2.5839118652343750e+03" cType="0" res="-5.7407978922128677e-02" rms="3.5839360952377319e-01" purity="7.5646293163299561e-01" nType="0">
          <Node pos="l" depth="2" NCoef="0" IVar="-1" Cut="0.0000000000000000e+00" cType="1" res="-9.8270289599895477e-03" rms="3.2547000050544739e-01" purity="8.1250000000000000e-01" nType="-99"/>
          <Node pos="r" depth="2" NCoef="0" IVar="-1" Cut="0.0000000000000000e+00" cType="1" res="-4.2174857109785080e-02" rms="3.9591395854949951e-01" purity="6.7402982711791992e-01" nType="-99"/>
        </Node>
      </Node>
    </BinaryTree>
    <BinaryTree type="DecisionTree" boostWeight="1.0000000000000000e+00" itree="162">
      <Node pos="s" depth="0" NCoef="0" IVar="13" Cut="3.5594628906250000e+03" cType="0" res="-3.6075332900509238e-04" rms="3.1586921215057373e-01" purity="7.8434145450592041e-01" nType="0">
        <Node pos="l" depth="1" NCoef="0" IVar="-1" Cut="0.0000000000000000e+00" cType="1" res="7.9606017097830772e-03" rms="2.8851082921028137e-01" purity="8.4610366821289062e-01" nType="-99"/>
        <Node pos="r" depth="1" NCoef="0" IVar="14" Cut="4.0755096435546875e+02" cType="0" res="-5.8917738497257233e-03" rms="3.2411476969718933e-01" purity="7.6416623592376709e-01" nType="0">
          <Node pos="l" depth="2" NCoef="0" IVar="-1" Cut="0.0000000000000000e+00" cType="1" res="-1.3670245185494423e-02" rms="3.1259366869926453e-01" purity="8.0723720788955688e-01" nType="-99"/>
          <Node pos="r" depth="2" NCoef="0" IVar="-1" Cut="0.0000000000000000e+00" cType="1" res="3.4379221033304930e-03" rms="3.3084383606910706e-01" purity="7.3504197597503662e-01" nType="-99"/>
        </Node>
      </Node>
    </BinaryTree>
    <BinaryTree type="DecisionTree" boostWeight="1.0000000000000000e+00" itree="163">
      <Node pos="s" depth="0" NCoef="0" IVar="1" Cut="1.9284299316406250e+03" cType="1" res="6.2436237931251526e-04" rms="3.1442359089851379e-01" purity="7.8554809093475342e-01" nType="0">
        <Node pos="l" depth="1" NCoef="0" IVar="-1" Cut="0.0000000000000000e+00" cType="1" res="3.3426110167056322e-03" rms="3.1062132120132446e-01" purity="8.0229026079177856e-01" nType="-99"/>
        <Node pos="r" depth="1" NCoef="0" IVar="9" Cut="8.8184246826171875e+02" cType="0" res="-1.5316950157284737e-02" rms="3.2213637232780457e-01" purity="7.4836522340774536e-01" nType="0">
          <Node pos="l" depth="2" NCoef="0" IVar="-1" Cut="0.0000000000000000e+00" cType="1" res="1.3707570731639862e-02" rms="2.3840619623661041e-01" purity="9.3453431129455566e-01" nType="-99"/>
          <Node pos="r" depth="2" NCoef="0" IVar="-1" Cut="0.0000000000000000e+00" cType="1" res="-1.5236185863614082e-02" rms="3.7552726268768311e-01" purity="5.9305965900421143e-01" nType="-99"/>
        </Node>
      </Node>
    </BinaryTree>
    <BinaryTree type="DecisionTree" boostWeight="1.0000000000000000e+00" itree="164">
      <Node pos="s" depth="0" NCoef="0" IVar="23" Cut="4.3048525390625000e+03" cType="0" res="-8.4474479081109166e-04" rms="3.1585046648979187e-01" purity="7.8402572870254517e-01" nType="0">
        <Node pos="l" depth="1" NCoef="0" IVar="-1" Cut="0.0000000000000000e+00" cType="1" res="2.6997805107384920e-03" rms="3.0649724602699280e-01" purity="8.1399267911911011e-01" nType="-99"/>
        <Node pos="r" depth="1" NCoef="0" IVar="10" Cut="1.4885016679763794e+00" cType="0" res="-1.3764442875981331e-02" rms="3.3227670192718506e-01" purity="7.2789913415908813e-01" nType="0">
          <Node pos="l" depth="2" NCoef="0" IVar="-1" Cut="0.0000000000000000e+00" cType="1" res="8.1457281485199928e-03" rms="2.7603238821029663e-01" purity="8.8047933578491211e-01" nType="-99"/>
          <Node pos="r" depth="2" NCoef="0" IVar="-1" Cut="0.0000000000000000e+00" cType="1" res="-9.6206245943903923e-03" rms="3.5220313072204590e-01" purity="6.6487562656402588e-01" nType="-99"/>
        </Node>
      </Node>
    </BinaryTree>
    <BinaryTree type="DecisionTree" boostWeight="1.0000000000000000e+00" itree="165">
      <Node pos="s" depth="0" NCoef="0" IVar="27" Cut="7.5431078125000000e+04" cType="0" res="1.0203759884461761e-03" rms="3.1490272283554077e-01" purity="7.8578078746795654e-01" nType="0">
        <Node pos="l" depth="1" NCoef="0" IVar="-1" Cut="0.0000000000000000e+00" cType="1" res="-6.4225778914988041e-03" rms="3.2272970676422119e-01" purity="7.9234391450881958e-01" nType="-99"/>
        <Node pos="r" depth="1" NCoef="0" IVar="0" Cut="1.8619047164916992e+01" cType="1" res="7.0601329207420349e-03" rms="3.1160578131675720e-01" purity="7.8323608636856079e-01" nType="0">
          <Node pos="l" depth="2" NCoef="0" IVar="-1" Cut="0.0000000000000000e+00" cType="1" res="4.0491535328328609e-03" rms="3.1096452474594116e-01" purity="7.9839611053466797e-01" nType="-99"/>
          <Node pos="r" depth="2" NCoef="0" IVar="-1" Cut="0.0000000000000000e+00" cType="1" res="-2.6008512824773788e-02" rms="3.2325440645217896e-01" purity="1.9964820146560669e-01" nType="-99"/>
        </Node>
      </Node>
    </BinaryTree>
    <BinaryTree type="DecisionTree" boostWeight="1.0000000000000000e+00" itree="166">
      <Node pos="s" depth="0" NCoef="0" IVar="23" Cut="1.3316273437500000e+04" cType="0" res="-1.5569242532365024e-04" rms="3.1523945927619934e-01" purity="7.8499543666839600e-01" nType="0">
        <Node pos="l" depth="1" NCoef="0" IVar="-1" Cut="0.0000000000000000e+00" cType="1" res="2.4395963177084923e-02" rms="2.5476631522178650e-01" purity="9.1401869058609009e-01" nType="-99"/>
        <Node pos="r" depth="1" NCoef="0" IVar="25" Cut="1.8842517089843750e+03" cType="0" res="-2.0493865013122559e-03" rms="3.1729108095169067e-01" purity="7.7979177236557007e-01" nType="0">
          <Node pos="l" depth="2" NCoef="0" IVar="-1" Cut="0.0000000000000000e+00" cType="1" res="3.3943329472094774e-03" rms="3.0331394076347351e-01" purity="8.1026840209960938e-01" nType="-99"/>
          <Node pos="r" depth="2" NCoef="0" IVar="-1" Cut="0.0000000000000000e+00" cType="1" res="-8.0213593319058418e-03" rms="3.4159207344055176e-01" purity="7.2175729274749756e-01" nType="-99"/>
        </Node>
      </Node>
    </BinaryTree>
    <BinaryTree type="DecisionTree" boostWeight="1.0000000000000000e+00" itree="167">
      <Node pos="s" depth="0" NCoef="0" IVar="25" Cut="1.3395092773437500e+03" cType="0" res="7.9610363172832876e-05" rms="3.1475299596786499e-01" purity="7.8368669748306274e-01" nType="0">
        <Node pos="l" depth="1" NCoef="0" IVar="-1" Cut="0.0000000000000000e+00" cType="1" res="1.4653236139565706e-03" rms="3.1038188934326172e-01" purity="7.9152333736419678e-01" nType="-99"/>
        <Node pos="r" depth="1" NCoef="0" IVar="3" Cut="2.5688845214843750e+03" cType="1" res="-2.9070405289530754e-02" rms="3.5007241368293762e-01" purity="7.1363526582717896e-01" nType="0">
          <Node pos="l" depth="2" NCoef="0" IVar="-1" Cut="0.0000000000000000e+00" cType="1" res="-4.7930614091455936e-03" rms="3.3588591217994690e-01" purity="7.8196901082992554e-01" nType="-99"/>
          <Node pos="r" depth="2" NCoef="0" IVar="-1" Cut="0.0000000000000000e+00" cType="1" res="-3.2077383249998093e-02" rms="3.9642286300659180e-01" purity="4.2433109879493713e-01" nType="-99"/>
        </Node>
      </Node>
    </BinaryTree>
    <BinaryTree type="DecisionTree" boostWeight="1.0000000000000000e+00" itree="168">
      <Node pos="s" depth="0" NCoef="0" IVar="0" Cut="6.5714287757873535e+00" cType="1" res="1.0639919200912118e-03" rms="3.1404966115951538e-01" purity="7.8630924224853516e-01" nType="0">
        <Node pos="l" depth="1" NCoef="0" IVar="-1" Cut="0.0000000000000000e+00" cType="1" res="5.6923478841781616e-03" rms="2.6619255542755127e-01" purity="8.9870840311050415e-01" nType="-99"/>
        <Node pos="r" depth="1" NCoef="0" IVar="14" Cut="4.6524136352539062e+02" cType="1" res="-9.7660077735781670e-03" rms="3.6445307731628418e-01" purity="6.4702492952346802e-01" nType="0">
          <Node pos="l" depth="2" NCoef="0" IVar="-1" Cut="0.0000000000000000e+00" cType="1" res="4.3120799819007516e-04" rms="3.6354598402976990e-01" purity="6.5051960945129395e-01" nType="-99"/>
          <Node pos="r" depth="2" NCoef="0" IVar="-1" Cut="0.0000000000000000e+00" cType="1" res="-2.3490209132432938e-02" rms="3.6374008655548096e-01" purity="6.2888664007186890e-01" nType="-99"/>
        </Node>
      </Node>
    </BinaryTree>
    <BinaryTree type="DecisionTree" boostWeight="1.0000000000000000e+00" itree="169">
      <Node pos="s" depth="0" NCoef="0" IVar="0" Cut="2.7000000000000000e+01" cType="1" res="-1.6212330665439367e-03" rms="3.1544354557991028e-01" purity="7.8436326980590820e-01" nType="0">
        <Node pos="l" depth="1" NCoef="0" IVar="-1" Cut="0.0000000000000000e+00" cType="1" res="-4.4778452138416469e-04" rms="3.1553053855895996e-01" purity="7.8696864843368530e-01" nType="-99"/>
        <Node pos="r" depth="1" NCoef="0" IVar="9" Cut="1.7186683654785156e+02" cType="1" res="-1.5993128716945648e-01" rms="2.4429541826248169e-01" purity="8.8172040879726410e-02" nType="0">
          <Node pos="l" depth="2" NCoef="0" IVar="-1" Cut="0.0000000000000000e+00" cType="1" res="5.5560242384672165e-02" rms="3.1983485817909241e-01" purity="5.2499997615814209e-01" nType="-99"/>
          <Node pos="r" depth="2" NCoef="0" IVar="-1" Cut="0.0000000000000000e+00" cType="1" res="-6.4220674335956573e-02" rms="2.0607542991638184e-01" purity="4.7058824449777603e-02" nType="-99"/>
        </Node>
      </Node>
    </BinaryTree>
    <BinaryTree type="DecisionTree" boostWeight="1.0000000000000000e+00" itree="170">
      <Node pos="s" depth="0" NCoef="0" IVar="1" Cut="2.6440297851562500e+03" cType="1" res="-1.6550212167203426e-03" rms="3.1583303213119507e-01" purity="7.8322958946228027e-01" nType="0">
        <Node pos="l" depth="1" NCoef="0" IVar="-1" Cut="0.0000000000000000e+00" cType="1" res="5.7108642067760229e-04" rms="3.1528177857398987e-01" purity="7.8733301162719727e-01" nType="-99"/>
        <Node pos="r" depth="1" NCoef="0" IVar="9" Cut="1.5356358642578125e+03" cType="0" res="-3.1639955937862396e-02" rms="3.1975176930427551e-01" purity="7.4218887090682983e-01" nType="0">
          <Node pos="l" depth="2" NCoef="0" IVar="-1" Cut="0.0000000000000000e+00" cType="1" res="6.4017940312623978e-03" rms="2.0626556873321533e-01" purity="9.5434969663619995e-01" nType="-99"/>
          <Node pos="r" depth="2" NCoef="0" IVar="-1" Cut="0.0000000000000000e+00" cType="1" res="-2.6642385870218277e-02" rms="4.0235191583633423e-01" purity="5.1927602291107178e-01" nType="-99"/>
        </Node>
      </Node>
    </BinaryTree>
    <BinaryTree type="DecisionTree" boostWeight="1.0000000000000000e+00" itree="171">
      <Node pos="s" depth="0" NCoef="0" IVar="1" Cut="1.1206236572265625e+03" cType="0" res="-2.6131508639082313e-04" rms="3.1530418992042542e-01" purity="7.8473120927810669e-01" nType="0">
        <Node pos="l" depth="1" NCoef="0" IVar="-1" Cut="0.0000000000000000e+00" cType="1" res="7.1233633207157254e-04" rms="3.1543624401092529e-01" purity="8.0689823627471924e-01" nType="-99"/>
        <Node pos="r" depth="1" NCoef="0" IVar="9" Cut="1.3985887145996094e+02" cType="1" res="-5.0018489360809326e-02" rms="3.0765882134437561e-01" purity="2.0100723206996918e-01" nType="0">
          <Node pos="l" depth="2" NCoef="0" IVar="-1" Cut="0.0000000000000000e+00" cType="1" res="2.2604826837778091e-02" rms="3.4933683276176453e-01" purity="3.6396396160125732e-01" nType="-99"/>
          <Node pos="r" depth="2" NCoef="0" IVar="-1" Cut="0.0000000000000000e+00" cType="1" res="-2.5437710806727409e-02" rms="2.9781326651573181e-01" purity="1.7846460640430450e-01" nType="-99"/>
        </Node>
      </Node>
    </BinaryTree>
    <BinaryTree type="DecisionTree" boostWeight="1.0000000000000000e+00" itree="172">
      <Node pos="s" depth="0" NCoef="0" IVar="1" Cut="9.5094628906250000e+02" cType="0" res="-1.0365644702687860e-03" rms="3.1481605768203735e-01" purity="7.8341102600097656e-01" nType="0">
        <Node pos="l" depth="1" NCoef="0" IVar="-1" Cut="0.0000000000000000e+00" cType="1" res="4.5844899432267994e-05" rms="3.1612411141395569e-01" purity="7.9379916191101074e-01" nType="-99"/>
        <Node pos="r" depth="1" NCoef="0" IVar="0" Cut="1.1000000000000000e+01" cType="1" res="-8.3738140761852264e-02" rms="1.8005177378654480e-01" purity="3.1268436461687088e-02" nType="0">
          <Node pos="l" depth="2" NCoef="0" IVar="-1" Cut="0.0000000000000000e+00" cType="1" res="-4.8465933650732040e-02" rms="2.1256245672702789e-01" purity="4.6750284731388092e-02" nType="-99"/>
          <Node pos="r" depth="2" NCoef="0" IVar="-1" Cut="0.0000000000000000e+00" cType="1" res="-4.0779896080493927e-02" rms="1.2436164170503616e-01" purity="1.4669926837086678e-02" nType="-99"/>
        </Node>
      </Node>
    </BinaryTree>
    <BinaryTree type="DecisionTree" boostWeight="1.0000000000000000e+00" itree="173">
      <Node pos="s" depth="0" NCoef="0" IVar="23" Cut="5.3989169921875000e+03" cType="0" res="9.7707532404456288e-05" rms="3.1347063183784485e-01" purity="7.8517216444015503e-01" nType="0">
        <Node pos="l" depth="1" NCoef="0" IVar="-1" Cut="0.0000000000000000e+00" cType="1" res="4.2875194922089577e-03" rms="2.9857400059700012e-01" purity="8.3149015903472900e-01" nType="-99"/>
        <Node pos="r" depth="1" NCoef="0" IVar="27" Cut="3.8615222656250000e+04" cType="0" res="-8.4468666464090347e-03" rms="3.2659673690795898e-01" purity="7.4172419309616089e-01" nType="0">
          <Node pos="l" depth="2" NCoef="0" IVar="-1" Cut="0.0000000000000000e+00" cType="1" res="-9.0663647279143333e-03" rms="3.2711458206176758e-01" purity="7.4681198596954346e-01" nType="-99"/>
          <Node pos="r" depth="2" NCoef="0" IVar="-1" Cut="0.0000000000000000e+00" cType="1" res="3.5026187542825937e-03" rms="3.2511469721794128e-01" purity="7.3502832651138306e-01" nType="-99"/>
        </Node>
      </Node>
    </BinaryTree>
    <BinaryTree type="DecisionTree" boostWeight="1.0000000000000000e+00" itree="174">
      <Node pos="s" depth="0" NCoef="0" IVar="5" Cut="-2.5919705629348755e-01" cType="0" res="-2.0554952789098024e-04" rms="3.1549111008644104e-01" purity="7.8462749719619751e-01" nType="0">
        <Node pos="l" depth="1" NCoef="0" IVar="-1" Cut="0.0000000000000000e+00" cType="1" res="2.5898804888129234e-03" rms="3.0275455117225647e-01" purity="8.2319170236587524e-01" nType="-99"/>
        <Node pos="r" depth="1" NCoef="0" IVar="5" Cut="-8.4105145931243896e-01" cType="0" res="-1.5041826292872429e-02" rms="3.4589397907257080e-01" purity="6.8465530872344971e-01" nType="0">
          <Node pos="l" depth="2" NCoef="0" IVar="-1" Cut="0.0000000000000000e+00" cType="1" res="-5.0310243386775255e-04" rms="3.4103089570999146e-01" purity="7.1046912670135498e-01" nType="-99"/>
          <Node pos="r" depth="2" NCoef="0" IVar="-1" Cut="0.0000000000000000e+00" cType="1" res="-1.8444333225488663e-02" rms="3.5607561469078064e-01" purity="6.1492472887039185e-01" nType="-99"/>
        </Node>
      </Node>
    </BinaryTree>
    <BinaryTree type="DecisionTree" boostWeight="1.0000000000000000e+00" itree="175">
      <Node pos="s" depth="0" NCoef="0" IVar="1" Cut="3.0981469726562500e+03" cType="1" res="1.1165032628923655e-03" rms="3.1363365054130554e-01" purity="7.8576111793518066e-01" nType="0">
        <Node pos="l" depth="1" NCoef="0" IVar="-1" Cut="0.0000000000000000e+00" cType="1" res="1.3134081382304430e-03" rms="3.1318831443786621e-01" purity="7.8588932752609253e-01" nType="-99"/>
        <Node pos="r" depth="1" NCoef="0" IVar="9" Cut="1.5641489257812500e+03" cType="0" res="-4.5133884996175766e-02" rms="3.2061672210693359e-01" purity="7.8270375728607178e-01" nType="0">
          <Node pos="l" depth="2" NCoef="0" IVar="-1" Cut="0.0000000000000000e+00" cType="1" res="-3.1231124885380268e-03" rms="2.1763774752616882e-01" purity="9.4840365648269653e-01" nType="-99"/>
          <Node pos="r" depth="2" NCoef="0" IVar="-1" Cut="0.0000000000000000e+00" cType="1" res="-4.6675916761159897e-02" rms="4.6574762463569641e-01" purity="4.0078842639923096e-01" nType="-99"/>
        </Node>
      </Node>
    </BinaryTree>
    <BinaryTree type="DecisionTree" boostWeight="1.0000000000000000e+00" itree="176">
      <Node pos="s" depth="0" NCoef="0" IVar="0" Cut="4.7142858505249023e+00" cType="1" res="6.3544156728312373e-04" rms="3.1352794170379639e-01" purity="7.8516894578933716e-01" nType="0">
        <Node pos="l" depth="1" NCoef="0" IVar="-1" Cut="0.0000000000000000e+00" cType="1" res="9.4793839380145073e-03" rms="2.4549233913421631e-01" purity="9.1870701313018799e-01" nType="-99"/>
        <Node pos="r" depth="1" NCoef="0" IVar="14" Cut="6.5416717529296875e+02" cType="0" res="-5.6005534715950489e-03" rms="3.3925214409828186e-01" purity="7.2576647996902466e-01" nType="0">
          <Node pos="l" depth="2" NCoef="0" IVar="-1" Cut="0.0000000000000000e+00" cType="1" res="-2.4298407137393951e-02" rms="3.3691665530204773e-01" purity="7.4909019470214844e-01" nType="-99"/>
          <Node pos="r" depth="2" NCoef="0" IVar="-1" Cut="0.0000000000000000e+00" cType="1" res="3.7807264016009867e-04" rms="3.3901625871658325e-01" purity="7.2265201807022095e-01" nType="-99"/>
        </Node>
      </Node>
    </BinaryTree>
    <BinaryTree type="DecisionTree" boostWeight="1.0000000000000000e+00" itree="177">
      <Node pos="s" depth="0" NCoef="0" IVar="1" Cut="1.3277597656250000e+03" cType="0" res="-1.5796674415469170e-04" rms="3.1448784470558167e-01" purity="7.8437983989715576e-01" nType="0">
        <Node pos="l" depth="1" NCoef="0" IVar="-1" Cut="0.0000000000000000e+00" cType="1" res="1.7200199654325843e-03" rms="3.0836975574493408e-01" purity="8.1688117980957031e-01" nType="-99"/>
        <Node pos="r" depth="1" NCoef="0" IVar="9" Cut="3.3130300903320312e+02" cType="1" res="-2.4898681789636612e-02" rms="3.4941035509109497e-01" purity="5.8058285713195801e-01" nType="0">
          <Node pos="l" depth="2" NCoef="0" IVar="-1" Cut="0.0000000000000000e+00" cType="1" res="-1.3174448395147920e-03" rms="3.4193551540374756e-01" purity="6.0794323682785034e-01" nType="-99"/>
          <Node pos="r" depth="2" NCoef="0" IVar="-1" Cut="0.0000000000000000e+00" cType="1" res="-5.9903290122747421e-02" rms="3.6349013447761536e-01" purity="3.7487536668777466e-01" nType="-99"/>
        </Node>
      </Node>
    </BinaryTree>
    <BinaryTree type="DecisionTree" boostWeight="1.0000000000000000e+00" itree="178">
      <Node pos="s" depth="0" NCoef="0" IVar="0" Cut="4.7142858505249023e+00" cType="1" res="3.3669439289951697e-05" rms="3.1425240635871887e-01" purity="7.8469049930572510e-01" nType="0">
        <Node pos="l" depth="1" NCoef="0" IVar="-1" Cut="0.0000000000000000e+00" cType="1" res="8.1568649038672447e-03" rms="2.4634282290935516e-01" purity="9.1801100969314575e-01" nType="-99"/>
        <Node pos="r" depth="1" NCoef="0" IVar="25" Cut="1.5973321533203125e+03" cType="0" res="-5.4735369049012661e-03" rms="3.3991137146949768e-01" purity="7.2556316852569580e-01" nType="0">
          <Node pos="l" depth="2" NCoef="0" IVar="-1" Cut="0.0000000000000000e+00" cType="1" res="8.2530762301757932e-04" rms="3.3134266734123230e-01" purity="7.5374454259872437e-01" nType="-99"/>
          <Node pos="r" depth="2" NCoef="0" IVar="-1" Cut="0.0000000000000000e+00" cType="1" res="-1.6891719773411751e-02" rms="3.8662207126617432e-01" purity="5.4611259698867798e-01" nType="-99"/>
        </Node>
      </Node>
    </BinaryTree>
    <BinaryTree type="DecisionTree" boostWeight="1.0000000000000000e+00" itree="179">
      <Node pos="s" depth="0" NCoef="0" IVar="1" Cut="1.8524174804687500e+03" cType="1" res="-2.6499008527025580e-04" rms="3.1386730074882507e-01" purity="7.8534245491027832e-01" nType="0">
        <Node pos="l" depth="1" NCoef="0" IVar="-1" Cut="0.0000000000000000e+00" cType="1" res="2.8846764471381903e-03" rms="3.1107756495475769e-01" purity="7.9860097169876099e-01" nType="-99"/>
        <Node pos="r" depth="1" NCoef="0" IVar="9" Cut="4.6815942382812500e+02" cType="0" res="-1.2687543407082558e-02" rms="3.1841287016868591e-01" purity="7.6165503263473511e-01" nType="0">
          <Node pos="l" depth="2" NCoef="0" IVar="-1" Cut="0.0000000000000000e+00" cType="1" res="3.8201971910893917e-03" rms="2.7302277088165283e-01" purity="8.7528538703918457e-01" nType="-99"/>
          <Node pos="r" depth="2" NCoef="0" IVar="-1" Cut="0.0000000000000000e+00" cType="1" res="-2.0048523321747780e-02" rms="4.0974876284599304e-01" purity="4.6463423967361450e-01" nType="-99"/>
        </Node>
      </Node>
    </BinaryTree>
    <BinaryTree type="DecisionTree" boostWeight="1.0000000000000000e+00" itree="180">
      <Node pos="s" depth="0" NCoef="0" IVar="1" Cut="2.9267395019531250e+03" cType="1" res="-2.5180322700180113e-04" rms="3.1384870409965515e-01" purity="7.8481727838516235e-01" nType="0">
        <Node pos="l" depth="1" NCoef="0" IVar="-1" Cut="0.0000000000000000e+00" cType="1" res="8.3302456187084317e-04" rms="3.1364277005195618e-01" purity="7.8543198108673096e-01" nType="-99"/>
        <Node pos="r" depth="1" NCoef="0" IVar="9" Cut="1.5599855957031250e+03" cType="0" res="-3.7320423871278763e-02" rms="3.1502884626388550e-01" purity="7.7436637878417969e-01" nType="0">
          <Node pos="l" depth="2" NCoef="0" IVar="-1" Cut="0.0000000000000000e+00" cType="1" res="1.6086869873106480e-03" rms="2.0971395075321198e-01" purity="9.5276981592178345e-01" nType="-99"/>
          <Node pos="r" depth="2" NCoef="0" IVar="-1" Cut="0.0000000000000000e+00" cType="1" res="-3.7924248725175858e-02" rms="4.4313672184944153e-01" purity="4.3386688828468323e-01" nType="-99"/>
        </Node>
      </Node>
    </BinaryTree>
    <BinaryTree type="DecisionTree" boostWeight="1.0000000000000000e+00" itree="181">
      <Node pos="s" depth="0" NCoef="0" IVar="19" Cut="2.1056390625000000e+05" cType="1" res="-5.8514051488600671e-05" rms="3.1490004062652588e-01" purity="7.8438162803649902e-01" nType="0">
        <Node pos="l" depth="1" NCoef="0" IVar="-1" Cut="0.0000000000000000e+00" cType="1" res="9.3978940276429057e-04" rms="3.1249761581420898e-01" purity="7.8698378801345825e-01" nType="-99"/>
        <Node pos="r" depth="1" NCoef="0" IVar="0" Cut="8.4285717010498047e+00" cType="1" res="-3.3730357885360718e-02" rms="3.4803712368011475e-01" purity="7.4437278509140015e-01" nType="0">
          <Node pos="l" depth="2" NCoef="0" IVar="-1" Cut="0.0000000000000000e+00" cType="1" res="-6.3038947992026806e-03" rms="3.2690981030464172e-01" purity="8.3527338504791260e-01" nType="-99"/>
          <Node pos="r" depth="2" NCoef="0" IVar="-1" Cut="0.0000000000000000e+00" cType="1" res="-2.7278807014226913e-02" rms="3.9772668480873108e-01" purity="4.7690710425376892e-01" nType="-99"/>
        </Node>
      </Node>
    </BinaryTree>
    <BinaryTree type="DecisionTree" boostWeight="1.0000000000000000e+00" itree="182">
      <Node pos="s" depth="0" NCoef="0" IVar="27" Cut="1.7899925000000000e+05" cType="1" res="-4.0783922304399312e-04" rms="3.1459000706672668e-01" purity="7.8314566612243652e-01" nType="0">
        <Node pos="l" depth="1" NCoef="0" IVar="-1" Cut="0.0000000000000000e+00" cType="1" res="5.1387789426371455e-04" rms="3.1305155158042908e-01" purity="7.8415042161941528e-01" nType="-99"/>
        <Node pos="r" depth="1" NCoef="0" IVar="23" Cut="1.1949541992187500e+04" cType="0" res="-4.9617156386375427e-02" rms="3.5579028725624084e-01" purity="7.5180596113204956e-01" nType="0">
          <Node pos="l" depth="2" NCoef="0" IVar="-1" Cut="0.0000000000000000e+00" cType="1" res="6.3146268948912621e-03" rms="3.1486019492149353e-01" purity="8.5654711723327637e-01" nType="-99"/>
          <Node pos="r" depth="2" NCoef="0" IVar="-1" Cut="0.0000000000000000e+00" cType="1" res="-3.1700704246759415e-02" rms="3.6914494633674622e-01" purity="7.0489352941513062e-01" nType="-99"/>
        </Node>
      </Node>
    </BinaryTree>
    <BinaryTree type="DecisionTree" boostWeight="1.0000000000000000e+00" itree="183">
      <Node pos="s" depth="0" NCoef="0" IVar="0" Cut="2.3285715103149414e+01" cType="1" res="1.0625424329191446e-03" rms="3.1303799152374268e-01" purity="7.8602629899978638e-01" nType="0">
        <Node pos="l" depth="1" NCoef="0" IVar="-1" Cut="0.0000000000000000e+00" cType="1" res="8.3851447561755776e-04" rms="3.1328442692756653e-01" purity="7.9160404205322266e-01" nType="-99"/>
        <Node pos="r" depth="1" NCoef="0" IVar="7" Cut="1.4346661376953125e+03" cType="0" res="-9.5624998211860657e-02" rms="2.6608675718307495e-01" purity="1.4418604969978333e-01" nType="0">
          <Node pos="l" depth="2" NCoef="0" IVar="-1" Cut="0.0000000000000000e+00" cType="1" res="-5.4980283603072166e-03" rms="3.1268417835235596e-01" purity="2.8629857301712036e-01" nType="-99"/>
          <Node pos="r" depth="2" NCoef="0" IVar="-1" Cut="0.0000000000000000e+00" cType="1" res="-6.3152141869068146e-02" rms="1.9749797880649567e-01" purity="2.5597268715500832e-02" nType="-99"/>
        </Node>
      </Node>
    </BinaryTree>
    <BinaryTree type="DecisionTree" boostWeight="1.0000000000000000e+00" itree="184">
      <Node pos="s" depth="0" NCoef="0" IVar="0" Cut="1.2142857551574707e+01" cType="1" res="2.1358777303248644e-04" rms="3.1345963478088379e-01" purity="7.8454935550689697e-01" nType="0">
        <Node pos="l" depth="1" NCoef="0" IVar="-1" Cut="0.0000000000000000e+00" cType="1" res="1.3214842183515429e-03" rms="3.0654656887054443e-01" purity="8.2482111454010010e-01" nType="-99"/>
        <Node pos="r" depth="1" NCoef="0" IVar="30" Cut="2.4558434486389160e+00" cType="0" res="-2.7099901810288429e-02" rms="3.7642803788185120e-01" purity="3.6869880557060242e-01" nType="0">
          <Node pos="l" depth="2" NCoef="0" IVar="-1" Cut="0.0000000000000000e+00" cType="1" res="-1.8577986629679799e-03" rms="3.7975639104843140e-01" purity="4.0463560819625854e-01" nType="-99"/>
          <Node pos="r" depth="2" NCoef="0" IVar="-1" Cut="0.0000000000000000e+00" cType="1" res="-3.2176446169614792e-02" rms="3.5313001275062561e-01" purity="2.3425365984439850e-01" nType="-99"/>
        </Node>
      </Node>
    </BinaryTree>
    <BinaryTree type="DecisionTree" boostWeight="1.0000000000000000e+00" itree="185">
      <Node pos="s" depth="0" NCoef="0" IVar="2" Cut="4.7613013535737991e-02" cType="1" res="-6.1575981089845300e-04" rms="3.1353166699409485e-01" purity="7.8383094072341919e-01" nType="0">
        <Node pos="l" depth="1" NCoef="0" IVar="-1" Cut="0.0000000000000000e+00" cType="1" res="3.7208506837487221e-03" rms="2.7926227450370789e-01" purity="8.6584699153900146e-01" nType="-99"/>
        <Node pos="r" depth="1" NCoef="0" IVar="25" Cut="6.9234985351562500e+03" cType="0" res="-1.0882114991545677e-02" rms="3.5425522923469543e-01" purity="6.7329722642898560e-01" nType="0">
          <Node pos="l" depth="2" NCoef="0" IVar="-1" Cut="0.0000000000000000e+00" cType="1" res="3.0813040211796761e-02" rms="3.3323216438293457e-01" purity="7.2382396459579468e-01" nType="-99"/>
          <Node pos="r" depth="2" NCoef="0" IVar="-1" Cut="0.0000000000000000e+00" cType="1" res="-4.4234404340386391e-03" rms="3.5427239537239075e-01" purity="6.7266088724136353e-01" nType="-99"/>
        </Node>
      </Node>
    </BinaryTree>
    <BinaryTree type="DecisionTree" boostWeight="1.0000000000000000e+00" itree="186">
      <Node pos="s" depth="0" NCoef="0" IVar="25" Cut="2.5839118652343750e+03" cType="0" res="4.7079485375434160e-04" rms="3.1357938051223755e-01" purity="7.8482139110565186e-01" nType="0">
        <Node pos="l" depth="1" NCoef="0" IVar="-1" Cut="0.0000000000000000e+00" cType="1" res="6.0269632376730442e-03" rms="2.8607368469238281e-01" purity="8.3755570650100708e-01" nType="-99"/>
        <Node pos="r" depth="1" NCoef="0" IVar="1" Cut="1.5894732666015625e+03" cType="1" res="-5.9949154965579510e-03" rms="3.2735267281532288e-01" purity="7.5621724128723145e-01" nType="0">
          <Node pos="l" depth="2" NCoef="0" IVar="-1" Cut="0.0000000000000000e+00" cType="1" res="4.4514238834381104e-03" rms="3.1930053234100342e-01" purity="7.6421922445297241e-01" nType="-99"/>
          <Node pos="r" depth="2" NCoef="0" IVar="-1" Cut="0.0000000000000000e+00" cType="1" res="-8.7209390476346016e-03" rms="3.3323222398757935e-01" purity="7.4956893920898438e-01" nType="-99"/>
        </Node>
      </Node>
    </BinaryTree>
    <BinaryTree type="DecisionTree" boostWeight="1.0000000000000000e+00" itree="187">
      <Node pos="s" depth="0" NCoef="0" IVar="29" Cut="4.1302997589111328e+01" cType="1" res="-1.4561073840013705e-05" rms="3.1364557147026062e-01" purity="7.8446793556213379e-01" nType="0">
        <Node pos="l" depth="1" NCoef="0" IVar="23" Cut="1.3316273437500000e+04" cType="0" res="1.6655770014040172e-04" rms="3.1351482868194580e-01" purity="7.8479027748107910e-01" nType="0">
          <Node pos="l" depth="2" NCoef="0" IVar="-1" Cut="0.0000000000000000e+00" cType="1" res="2.3146588355302811e-02" rms="2.5354787707328796e-01" purity="9.1214090585708618e-01" nType="-99"/>
          <Node pos="r" depth="2" NCoef="0" IVar="-1" Cut="0.0000000000000000e+00" cType="1" res="-6.6921766847372055e-04" rms="3.1554764509201050e-01" purity="7.7971947193145752e-01" nType="-99"/>
        </Node>
        <Node pos="r" depth="1" NCoef="0" IVar="-1" Cut="0.0000000000000000e+00" cType="1" res="-1.4856429398059845e-01" rms="3.4022012352943420e-01" purity="5.4545454680919647e-02" nType="-99"/>
      </Node>
    </BinaryTree>
    <BinaryTree type="DecisionTree" boostWeight="1.0000000000000000e+00" itree="188">
      <Node pos="s" depth="0" NCoef="0" IVar="27" Cut="7.5431078125000000e+04" cType="0" res="-9.2725228751078248e-04" rms="3.1427049636840820e-01" purity="7.8389626741409302e-01" nType="0">
        <Node pos="l" depth="1" NCoef="0" IVar="-1" Cut="0.0000000000000000e+00" cType="1" res="-6.4232363365590572e-03" rms="3.2207801938056946e-01" purity="7.9024994373321533e-01" nType="-99"/>
        <Node pos="r" depth="1" NCoef="0" IVar="20" Cut="-4.2857119441032410e-01" cType="0" res="4.2684106156229973e-03" rms="3.1104955077171326e-01" purity="7.8144454956054688e-01" nType="0">
          <Node pos="l" depth="2" NCoef="0" IVar="-1" Cut="0.0000000000000000e+00" cType="1" res="2.4052355438470840e-03" rms="3.1020975112915039e-01" purity="7.8521758317947388e-01" nType="-99"/>
          <Node pos="r" depth="2" NCoef="0" IVar="-1" Cut="0.0000000000000000e+00" cType="1" res="-4.4515296816825867e-02" rms="3.7065887451171875e-01" purity="3.4754520654678345e-01" nType="-99"/>
        </Node>
      </Node>
    </BinaryTree>
    <BinaryTree type="DecisionTree" boostWeight="1.0000000000000000e+00" itree="189">
      <Node pos="s" depth="0" NCoef="0" IVar="0" Cut="8.4285717010498047e+00" cType="1" res="6.7277997732162476e-04" rms="3.1177380681037903e-01" purity="7.8486192226409912e-01" nType="0">
        <Node pos="l" depth="1" NCoef="0" IVar="-1" Cut="0.0000000000000000e+00" cType="1" res="2.8797925915569067e-03" rms="2.8471890091896057e-01" purity="8.7318426370620728e-01" nType="-99"/>
        <Node pos="r" depth="1" NCoef="0" IVar="14" Cut="3.6105722045898438e+02" cType="1" res="-1.4190621674060822e-02" rms="3.8332650065422058e-01" purity="5.1105976104736328e-01" nType="0">
          <Node pos="l" depth="2" NCoef="0" IVar="-1" Cut="0.0000000000000000e+00" cType="1" res="2.1893416997045279e-03" rms="3.8339030742645264e-01" purity="5.2939039468765259e-01" nType="-99"/>
          <Node pos="r" depth="2" NCoef="0" IVar="-1" Cut="0.0000000000000000e+00" cType="1" res="-2.1402496844530106e-02" rms="3.7710005044937134e-01" purity="4.6216249465942383e-01" nType="-99"/>
        </Node>
      </Node>
    </BinaryTree>
    <BinaryTree type="DecisionTree" boostWeight="1.0000000000000000e+00" itree="190">
      <Node pos="s" depth="0" NCoef="0" IVar="5" Cut="-5.2763158082962036e-01" cType="0" res="3.6252723657526076e-04" rms="3.1222501397132874e-01" purity="7.8541547060012817e-01" nType="0">
        <Node pos="l" depth="1" NCoef="0" IVar="-1" Cut="0.0000000000000000e+00" cType="1" res="2.1354090422391891e-03" rms="3.0594849586486816e-01" purity="8.0847507715225220e-01" nType="-99"/>
        <Node pos="r" depth="1" NCoef="0" IVar="9" Cut="2.4336447143554688e+02" cType="0" res="-2.3560509085655212e-02" rms="3.4420964121818542e-01" purity="6.5662270784378052e-01" nType="0">
          <Node pos="l" depth="2" NCoef="0" IVar="-1" Cut="0.0000000000000000e+00" cType="1" res="-1.1918868403881788e-03" rms="3.2543420791625977e-01" purity="7.4073225259780884e-01" nType="-99"/>
          <Node pos="r" depth="2" NCoef="0" IVar="-1" Cut="0.0000000000000000e+00" cType="1" res="-2.1962817758321762e-02" rms="3.7859576940536499e-01" purity="4.7030878067016602e-01" nType="-99"/>
        </Node>
      </Node>
    </BinaryTree>
    <BinaryTree type="DecisionTree" boostWeight="1.0000000000000000e+00" itree="191">
      <Node pos="s" depth="0" NCoef="0" IVar="13" Cut="2.0681789550781250e+03" cType="0" res="6.8381882738322020e-04" rms="3.1224718689918518e-01" purity="7.8595125675201416e-01" nType="0">
        <Node pos="l" depth="1" NCoef="0" IVar="-1" Cut="0.0000000000000000e+00" cType="1" res="3.3587673678994179e-03" rms="3.0614194273948669e-01" purity="8.0182254314422607e-01" nType="-99"/>
        <Node pos="r" depth="1" NCoef="0" IVar="13" Cut="6.8292297363281250e+02" cType="1" res="-9.5123741775751114e-03" rms="3.2084411382675171e-01" purity="7.6234048604965210e-01" nType="0">
          <Node pos="l" depth="2" NCoef="0" IVar="-1" Cut="0.0000000000000000e+00" cType="1" res="1.1424372904002666e-02" rms="2.6928153634071350e-01" purity="8.9347493648529053e-01" nType="-99"/>
          <Node pos="r" depth="2" NCoef="0" IVar="-1" Cut="0.0000000000000000e+00" cType="1" res="-7.8766308724880219e-03" rms="3.3552625775337219e-01" purity="7.1914339065551758e-01" nType="-99"/>
        </Node>
      </Node>
    </BinaryTree>
    <BinaryTree type="DecisionTree" boostWeight="1.0000000000000000e+00" itree="192">
      <Node pos="s" depth="0" NCoef="0" IVar="0" Cut="2.7000000000000000e+01" cType="1" res="3.4557955223135650e-04" rms="3.1297811865806580e-01" purity="7.8492414951324463e-01" nType="0">
        <Node pos="l" depth="1" NCoef="0" IVar="-1" Cut="0.0000000000000000e+00" cType="1" res="3.6181093310005963e-04" rms="3.1314176321029663e-01" purity="7.8756231069564819e-01" nType="-99"/>
        <Node pos="r" depth="1" NCoef="0" IVar="31" Cut="2.6397690773010254e+00" cType="0" res="-1.2048160284757614e-01" rms="2.3874169588088989e-01" purity="1.0766045749187469e-01" nType="0">
          <Node pos="l" depth="2" NCoef="0" IVar="-1" Cut="0.0000000000000000e+00" cType="1" res="2.3348167538642883e-02" rms="2.3907752335071564e-01" purity="2.8571429848670959e-01" nType="-99"/>
          <Node pos="r" depth="2" NCoef="0" IVar="-1" Cut="0.0000000000000000e+00" cType="1" res="-6.0216493904590607e-02" rms="2.0905639231204987e-01" purity="4.9450550228357315e-02" nType="-99"/>
        </Node>
      </Node>
    </BinaryTree>
    <BinaryTree type="DecisionTree" boostWeight="1.0000000000000000e+00" itree="193">
      <Node pos="s" depth="0" NCoef="0" IVar="25" Cut="1.3571992187500000e+03" cType="0" res="1.5011202776804566e-04" rms="3.1297585368156433e-01" purity="7.8485989570617676e-01" nType="0">
        <Node pos="l" depth="1" NCoef="0" IVar="-1" Cut="0.0000000000000000e+00" cType="1" res="1.3325366890057921e-03" rms="3.0859243869781494e-01" purity="7.9202872514724731e-01" nType="-99"/>
        <Node pos="r" depth="1" NCoef="0" IVar="0" Cut="5.2857141494750977e+00" cType="1" res="-2.4224491789937019e-02" rms="3.4770330786705017e-01" purity="7.2274768352508545e-01" nType="0">
          <Node pos="l" depth="2" NCoef="0" IVar="-1" Cut="0.0000000000000000e+00" cType="1" res="-3.1026334036141634e-03" rms="3.2777220010757446e-01" purity="8.3033913373947144e-01" nType="-99"/>
          <Node pos="r" depth="2" NCoef="0" IVar="-1" Cut="0.0000000000000000e+00" cType="1" res="-2.3748897016048431e-02" rms="4.0157353878021240e-01" purity="3.6622074246406555e-01" nType="-99"/>
        </Node>
      </Node>
    </BinaryTree>
    <BinaryTree type="DecisionTree" boostWeight="1.0000000000000000e+00" itree="194">
      <Node pos="s" depth="0" NCoef="0" IVar="27" Cut="3.9051343750000000e+04" cType="0" res="-3.4485562355257571e-04" rms="3.1316983699798584e-01" purity="7.8426194190979004e-01" nType="0">
        <Node pos="l" depth="1" NCoef="0" IVar="-1" Cut="0.0000000000000000e+00" cType="1" res="-2.8123508673161268e-03" rms="3.1232741475105286e-01" purity="7.9264408349990845e-01" nType="-99"/>
        <Node pos="r" depth="1" NCoef="0" IVar="0" Cut="1.8619047164916992e+01" cType="1" res="1.1748498305678368e-02" rms="3.1454879045486450e-01" purity="7.6703387498855591e-01" nType="0">
          <Node pos="l" depth="2" NCoef="0" IVar="-1" Cut="0.0000000000000000e+00" cType="1" res="6.7155701108276844e-03" rms="3.1486076116561890e-01" purity="7.9019910097122192e-01" nType="-99"/>
          <Node pos="r" depth="2" NCoef="0" IVar="-1" Cut="0.0000000000000000e+00" cType="1" res="-3.4485142678022385e-02" rms="2.8601157665252686e-01" purity="1.3179916143417358e-01" nType="-99"/>
        </Node>
      </Node>
    </BinaryTree>
    <BinaryTree type="DecisionTree" boostWeight="1.0000000000000000e+00" itree="195">
      <Node pos="s" depth="0" NCoef="0" IVar="1" Cut="9.5094628906250000e+02" cType="0" res="-2.6427689590491354e-04" rms="3.1326371431350708e-01" purity="7.8446274995803833e-01" nType="0">
        <Node pos="l" depth="1" NCoef="0" IVar="-1" Cut="0.0000000000000000e+00" cType="1" res="3.5133652272634208e-04" rms="3.1456899642944336e-01" purity="7.9541319608688354e-01" nType="-99"/>
        <Node pos="r" depth="1" NCoef="0" IVar="0" Cut="8.1428575515747070e+00" cType="1" res="-7.2811402380466461e-02" rms="1.9151708483695984e-01" purity="3.4636870026588440e-02" nType="0">
          <Node pos="l" depth="2" NCoef="0" IVar="-1" Cut="0.0000000000000000e+00" cType="1" res="-5.0114795565605164e-02" rms="2.5427418947219849e-01" purity="6.9114468991756439e-02" nType="-99"/>
          <Node pos="r" depth="2" NCoef="0" IVar="-1" Cut="0.0000000000000000e+00" cType="1" res="-3.5679750144481659e-02" rms="1.5089619159698486e-01" purity="2.2607384249567986e-02" nType="-99"/>
        </Node>
      </Node>
    </BinaryTree>
    <BinaryTree type="DecisionTree" boostWeight="1.0000000000000000e+00" itree="196">
      <Node pos="s" depth="0" NCoef="0" IVar="23" Cut="8.0181083984375000e+03" cType="0" res="7.5991079211235046e-04" rms="3.1234031915664673e-01" purity="7.8595626354217529e-01" nType="0">
        <Node pos="l" depth="1" NCoef="0" IVar="-1" Cut="0.0000000000000000e+00" cType="1" res="8.3775315433740616e-03" rms="2.8569474816322327e-01" purity="8.6111539602279663e-01" nType="-99"/>
        <Node pos="r" depth="1" NCoef="0" IVar="13" Cut="2.9079655761718750e+03" cType="0" res="-3.4117465838789940e-03" rms="3.1890159845352173e-01" purity="7.6602959632873535e-01" nType="0">
          <Node pos="l" depth="2" NCoef="0" IVar="-1" Cut="0.0000000000000000e+00" cType="1" res="7.9897642135620117e-03" rms="3.0087631940841675e-01" purity="8.1344902515411377e-01" nType="-99"/>
          <Node pos="r" depth="2" NCoef="0" IVar="-1" Cut="0.0000000000000000e+00" cType="1" res="-4.6052634716033936e-03" rms="3.2458955049514771e-01" purity="7.4958628416061401e-01" nType="-99"/>
        </Node>
      </Node>
    </BinaryTree>
    <BinaryTree type="DecisionTree" boostWeight="1.0000000000000000e+00" itree="197">
      <Node pos="s" depth="0" NCoef="0" IVar="25" Cut="8.6774589843750000e+03" cType="0" res="7.5822527287527919e-04" rms="3.1339937448501587e-01" purity="7.8570055961608887e-01" nType="0">
        <Node pos="l" depth="1" NCoef="0" IVar="-1" Cut="0.0000000000000000e+00" cType="1" res="4.7078300267457962e-02" rms="2.9313540458679199e-01" purity="8.3673471212387085e-01" nType="-99"/>
        <Node pos="r" depth="1" NCoef="0" IVar="25" Cut="2.1177355957031250e+03" cType="0" res="4.1497763595543802e-04" rms="3.1336587667465210e-01" purity="7.8558003902435303e-01" nType="0">
          <Node pos="l" depth="2" NCoef="0" IVar="-1" Cut="0.0000000000000000e+00" cType="1" res="4.5433682389557362e-03" rms="2.9473933577537537e-01" purity="8.2598227262496948e-01" nType="-99"/>
          <Node pos="r" depth="2" NCoef="0" IVar="-1" Cut="0.0000000000000000e+00" cType="1" res="-4.4337650761008263e-03" rms="3.3442649245262146e-01" purity="7.3610389232635498e-01" nType="-99"/>
        </Node>
      </Node>
    </BinaryTree>
    <BinaryTree type="DecisionTree" boostWeight="1.0000000000000000e+00" itree="198">
      <Node pos="s" depth="0" NCoef="0" IVar="19" Cut="7.6716875000000000e+04" cType="1" res="6.1396032106131315e-04" rms="3.1202104687690735e-01" purity="7.8570795059204102e-01" nType="0">
        <Node pos="l" depth="1" NCoef="0" IVar="-1" Cut="0.0000000000000000e+00" cType="1" res="4.3072178959846497e-03" rms="3.0720284581184387e-01" purity="7.9144251346588135e-01" nType="-99"/>
        <Node pos="r" depth="1" NCoef="0" IVar="9" Cut="4.1986074829101562e+02" cType="0" res="-6.3907098956406116e-03" rms="3.1558221578598022e-01" purity="7.8119802474975586e-01" nType="0">
          <Node pos="l" depth="2" NCoef="0" IVar="-1" Cut="0.0000000000000000e+00" cType="1" res="4.3325698934495449e-03" rms="2.7810022234916687e-01" purity="8.7083810567855835e-01" nType="-99"/>
          <Node pos="r" depth="2" NCoef="0" IVar="-1" Cut="0.0000000000000000e+00" cType="1" res="-7.4240178801119328e-03" rms="3.4545701742172241e-01" purity="7.0017474889755249e-01" nType="-99"/>
        </Node>
      </Node>
    </BinaryTree>
    <BinaryTree type="DecisionTree" boostWeight="1.0000000000000000e+00" itree="199">
      <Node pos="s" depth="0" NCoef="0" IVar="19" Cut="2.0998990625000000e+05" cType="1" res="6.4724159892648458e-04" rms="3.1170335412025452e-01" purity="7.8639483451843262e-01" nType="0">
        <Node pos="l" depth="1" NCoef="0" IVar="-1" Cut="0.0000000000000000e+00" cType="1" res="1.1905601713806391e-03" rms="3.0959102511405945e-01" purity="7.8898626565933228e-01" nType="-99"/>
        <Node pos="r" depth="1" NCoef="0" IVar="0" Cut="8.4285717010498047e+00" cType="1" res="-2.9662039130926132e-02" rms="3.4053894877433777e-01" purity="7.4732226133346558e-01" nType="0">
          <Node pos="l" depth="2" NCoef="0" IVar="-1" Cut="0.0000000000000000e+00" cType="1" res="-4.7599584795534611e-03" rms="3.2046186923980713e-01" purity="8.4054237604141235e-01" nType="-99"/>
          <Node pos="r" depth="2" NCoef="0" IVar="-1" Cut="0.0000000000000000e+00" cType="1" res="-2.5843912735581398e-02" rms="3.8911688327789307e-01" purity="4.6489858627319336e-01" nType="-99"/>
        </Node>
      </Node>
    </BinaryTree>
    <BinaryTree type="DecisionTree" boostWeight="1.0000000000000000e+00" itree="200">
      <Node pos="s" depth="0" NCoef="0" IVar="25" Cut="2.9949904785156250e+03" cType="0" res="-6.2201760010793805e-04" rms="3.1255698204040527e-01" purity="7.8311109542846680e-01" nType="0">
        <Node pos="l" depth="1" NCoef="0" IVar="-1" Cut="0.0000000000000000e+00" cType="1" res="7.5480625964701176e-03" rms="2.8830215334892273e-01" purity="8.2717621326446533e-01" nType="-99"/>
        <Node pos="r" depth="1" NCoef="0" IVar="0" Cut="9.8095235824584961e+00" cType="1" res="-5.2126427181065083e-03" rms="3.1872704625129700e-01" purity="7.7103781700134277e-01" nType="0">
          <Node pos="l" depth="2" NCoef="0" IVar="-1" Cut="0.0000000000000000e+00" cType="1" res="8.2179962191730738e-04" rms="3.0412000417709351e-01" purity="8.4412145614624023e-01" nType="-99"/>
          <Node pos="r" depth="2" NCoef="0" IVar="-1" Cut="0.0000000000000000e+00" cType="1" res="-1.2641567736864090e-02" rms="3.8573291897773743e-01" purity="3.7871867418289185e-01" nType="-99"/>
        </Node>
      </Node>
    </BinaryTree>
    <BinaryTree type="DecisionTree" boostWeight="1.0000000000000000e+00" itree="201">
      <Node pos="s" depth="0" NCoef="0" IVar="5" Cut="-1.7366113662719727e+00" cType="0" res="-2.5359538267366588e-04" rms="3.1257370114326477e-01" purity="7.8473842144012451e-01" nType="0">
        <Node pos="l" depth="1" NCoef="0" IVar="-1" Cut="0.0000000000000000e+00" cType="1" res="3.5855168243870139e-04" rms="3.1144544482231140e-01" purity="7.8823906183242798e-01" nType="-99"/>
        <Node pos="r" depth="1" NCoef="0" IVar="23" Cut="9.4988740234375000e+03" cType="0" res="-7.6240248978137970e-02" rms="3.7764519453048706e-01" purity="5.3231489658355713e-01" nType="0">
          <Node pos="l" depth="2" NCoef="0" IVar="-1" Cut="0.0000000000000000e+00" cType="1" res="-2.5107979308813810e-04" rms="3.7674051523208618e-01" purity="6.7587476968765259e-01" nType="-99"/>
          <Node pos="r" depth="2" NCoef="0" IVar="-1" Cut="0.0000000000000000e+00" cType="1" res="-3.8093544542789459e-02" rms="3.7284049391746521e-01" purity="4.6505609154701233e-01" nType="-99"/>
        </Node>
      </Node>
    </BinaryTree>
    <BinaryTree type="DecisionTree" boostWeight="1.0000000000000000e+00" itree="202">
      <Node pos="s" depth="0" NCoef="0" IVar="2" Cut="4.7613013535737991e-02" cType="1" res="3.0939103453420103e-05" rms="3.1212428212165833e-01" purity="7.8458416461944580e-01" nType="0">
        <Node pos="l" depth="1" NCoef="0" IVar="-1" Cut="0.0000000000000000e+00" cType="1" res="3.4951511770486832e-03" rms="2.7786669135093689e-01" purity="8.6764544248580933e-01" nType="-99"/>
        <Node pos="r" depth="1" NCoef="0" IVar="5" Cut="-8.9504355192184448e-01" cType="0" res="-8.6402613669633865e-03" rms="3.5289052128791809e-01" purity="6.7263484001159668e-01" nType="0">
          <Node pos="l" depth="2" NCoef="0" IVar="-1" Cut="0.0000000000000000e+00" cType="1" res="-1.3812392717227340e-03" rms="3.5168313980102539e-01" purity="6.9087487459182739e-01" nType="-99"/>
          <Node pos="r" depth="2" NCoef="0" IVar="-1" Cut="0.0000000000000000e+00" cType="1" res="-2.1173030138015747e-02" rms="3.6188066005706787e-01" purity="4.6053257584571838e-01" nType="-99"/>
        </Node>
      </Node>
    </BinaryTree>
    <BinaryTree type="DecisionTree" boostWeight="1.0000000000000000e+00" itree="203">
      <Node pos="s" depth="0" NCoef="0" IVar="1" Cut="3.0054248046875000e+03" cType="1" res="-7.0733291795477271e-04" rms="3.1290596723556519e-01" purity="7.8416782617568970e-01" nType="0">
        <Node pos="l" depth="1" NCoef="0" IVar="-1" Cut="0.0000000000000000e+00" cType="1" res="4.0828890632838011e-04" rms="3.1258895993232727e-01" purity="7.8427529335021973e-01" nType="-99"/>
        <Node pos="r" depth="1" NCoef="0" IVar="9" Cut="1.5802066650390625e+03" cType="0" res="-3.3223472535610199e-02" rms="3.1739547848701477e-01" purity="7.8203189373016357e-01" nType="0">
          <Node pos="l" depth="2" NCoef="0" IVar="-1" Cut="0.0000000000000000e+00" cType="1" res="5.9821654576808214e-04" rms="2.0711912214756012e-01" purity="9.5334333181381226e-01" nType="-99"/>
          <Node pos="r" depth="2" NCoef="0" IVar="-1" Cut="0.0000000000000000e+00" cType="1" res="-3.6032669246196747e-02" rms="4.6112793684005737e-01" purity="4.2937853932380676e-01" nType="-99"/>
        </Node>
      </Node>
    </BinaryTree>
    <BinaryTree type="DecisionTree" boostWeight="1.0000000000000000e+00" itree="204">
      <Node pos="s" depth="0" NCoef="0" IVar="27" Cut="1.7899925000000000e+05" cType="1" res="-7.2243000613525510e-04" rms="3.1234583258628845e-01" purity="7.8327333927154541e-01" nType="0">
        <Node pos="l" depth="1" NCoef="0" IVar="-1" Cut="0.0000000000000000e+00" cType="1" res="2.8742777067236602e-04" rms="3.1078800559043884e-01" purity="7.8405094146728516e-01" nType="-99"/>
        <Node pos="r" depth="1" NCoef="0" IVar="20" Cut="9.0476363897323608e-01" cType="0" res="-4.3020717799663544e-02" rms="3.5471421480178833e-01" purity="7.5915420055389404e-01" nType="0">
          <Node pos="l" depth="2" NCoef="0" IVar="-1" Cut="0.0000000000000000e+00" cType="1" res="-2.1309362724423409e-02" rms="3.5361397266387939e-01" purity="7.5996786355972290e-01" nType="-99"/>
          <Node pos="r" depth="2" NCoef="0" IVar="-1" Cut="0.0000000000000000e+00" cType="1" res="3.6197274923324585e-02" rms="3.4182152152061462e-01" purity="7.3758864402770996e-01" nType="-99"/>
        </Node>
      </Node>
    </BinaryTree>
    <BinaryTree type="DecisionTree" boostWeight="1.0000000000000000e+00" itree="205">
      <Node pos="s" depth="0" NCoef="0" IVar="3" Cut="1.1994725585937500e+04" cType="0" res="-5.7424354599788785e-04" rms="3.1220266222953796e-01" purity="7.8444540500640869e-01" nType="0">
        <Node pos="l" depth="1" NCoef="0" IVar="-1" Cut="0.0000000000000000e+00" cType="1" res="7.8561075031757355e-02" rms="2.4113082885742188e-01" purity="9.1472870111465454e-01" nType="-99"/>
        <Node pos="r" depth="1" NCoef="0" IVar="25" Cut="1.5972678222656250e+03" cType="0" res="-8.4009626880288124e-04" rms="3.1215944886207581e-01" purity="7.8430974483489990e-01" nType="0">
          <Node pos="l" depth="2" NCoef="0" IVar="-1" Cut="0.0000000000000000e+00" cType="1" res="2.0601130090653896e-03" rms="3.0440667271614075e-01" purity="8.0135560035705566e-01" nType="-99"/>
          <Node pos="r" depth="2" NCoef="0" IVar="-1" Cut="0.0000000000000000e+00" cType="1" res="-8.8138487190008163e-03" rms="3.4083861112594604e-01" purity="7.1548813581466675e-01" nType="-99"/>
        </Node>
      </Node>
    </BinaryTree>
    <BinaryTree type="DecisionTree" boostWeight="1.0000000000000000e+00" itree="206">
      <Node pos="s" depth="0" NCoef="0" IVar="10" Cut="1.4885011911392212e+00" cType="0" res="-6.5667676972225308e-04" rms="3.1263807415962219e-01" purity="7.8349775075912476e-01" nType="0">
        <Node pos="l" depth="1" NCoef="0" IVar="-1" Cut="0.0000000000000000e+00" cType="1" res="7.7074952423572540e-03" rms="2.6511400938034058e-01" purity="8.9302277565002441e-01" nType="-99"/>
        <Node pos="r" depth="1" NCoef="0" IVar="1" Cut="1.3277597656250000e+03" cType="0" res="-4.8222634941339493e-03" rms="3.2545706629753113e-01" purity="7.5056970119476318e-01" nType="0">
          <Node pos="l" depth="2" NCoef="0" IVar="-1" Cut="0.0000000000000000e+00" cType="1" res="-4.3052310502389446e-05" rms="3.1948974728584290e-01" purity="7.8927809000015259e-01" nType="-99"/>
          <Node pos="r" depth="2" NCoef="0" IVar="-1" Cut="0.0000000000000000e+00" cType="1" res="-1.0936766862869263e-02" rms="3.5585355758666992e-01" purity="5.3400123119354248e-01" nType="-99"/>
        </Node>
      </Node>
    </BinaryTree>
    <BinaryTree type="DecisionTree" boostWeight="1.0000000000000000e+00" itree="207">
      <Node pos="s" depth="0" NCoef="0" IVar="1" Cut="3.1799846191406250e+03" cType="0" res="-2.4878134718164802e-04" rms="3.1222543120384216e-01" purity="7.8380459547042847e-01" nType="0">
        <Node pos="l" depth="1" NCoef="0" IVar="-1" Cut="0.0000000000000000e+00" cType="1" res="-2.7416335418820381e-02" rms="3.1741240620613098e-01" purity="7.9425954818725586e-01" nType="-99"/>
        <Node pos="r" depth="1" NCoef="0" IVar="1" Cut="1.2658338623046875e+03" cType="0" res="1.1250168317928910e-03" rms="3.1195452809333801e-01" purity="7.8344506025314331e-01" nType="0">
          <Node pos="l" depth="2" NCoef="0" IVar="-1" Cut="0.0000000000000000e+00" cType="1" res="2.2358859423547983e-03" rms="3.0699503421783447e-01" purity="8.1589865684509277e-01" nType="-99"/>
          <Node pos="r" depth="2" NCoef="0" IVar="-1" Cut="0.0000000000000000e+00" cType="1" res="-1.1771442368626595e-02" rms="3.5230877995491028e-01" purity="4.8587092757225037e-01" nType="-99"/>
        </Node>
      </Node>
    </BinaryTree>
    <BinaryTree type="DecisionTree" boostWeight="1.0000000000000000e+00" itree="208">
      <Node pos="s" depth="0" NCoef="0" IVar="13" Cut="5.7044536132812500e+03" cType="0" res="3.5343525814823806e-04" rms="3.1203040480613708e-01" purity="7.8464215993881226e-01" nType="0">
        <Node pos="l" depth="1" NCoef="0" IVar="-1" Cut="0.0000000000000000e+00" cType="1" res="1.5959182754158974e-02" rms="2.5702035427093506e-01" purity="8.8510918617248535e-01" nType="-99"/>
        <Node pos="r" depth="1" NCoef="0" IVar="14" Cut="5.0864501953125000e+02" cType="0" res="-1.8599542090669274e-03" rms="3.1585368514060974e-01" purity="7.7672243118286133e-01" nType="0">
          <Node pos="l" depth="2" NCoef="0" IVar="-1" Cut="0.0000000000000000e+00" cType="1" res="-9.4676762819290161e-03" rms="2.9484301805496216e-01" purity="8.3570986986160278e-01" nType="-99"/>
          <Node pos="r" depth="2" NCoef="0" IVar="-1" Cut="0.0000000000000000e+00" cType="1" res="1.9286815077066422e-03" rms="3.2393556833267212e-01" purity="7.5227570533752441e-01" nType="-99"/>
        </Node>
      </Node>
    </BinaryTree>
    <BinaryTree type="DecisionTree" boostWeight="1.0000000000000000e+00" itree="209">
      <Node pos="s" depth="0" NCoef="0" IVar="29" Cut="3.2485527038574219e+01" cType="1" res="-9.4110095233190805e-05" rms="3.1151828169822693e-01" purity="7.8431719541549683e-01" nType="0">
        <Node pos="l" depth="1" NCoef="0" IVar="11" Cut="4.7620930671691895e+00" cType="1" res="9.0168847236782312e-05" rms="3.1140339374542236e-01" purity="7.8468847274780273e-01" nType="0">
          <Node pos="l" depth="2" NCoef="0" IVar="-1" Cut="0.0000000000000000e+00" cType="1" res="9.1594886034727097e-03" rms="2.7986815571784973e-01" purity="8.7144750356674194e-01" nType="-99"/>
          <Node pos="r" depth="2" NCoef="0" IVar="-1" Cut="0.0000000000000000e+00" cType="1" res="-1.4173260424286127e-03" rms="3.1683340668678284e-01" purity="7.6848822832107544e-01" nType="-99"/>
        </Node>
        <Node pos="r" depth="1" NCoef="0" IVar="-1" Cut="0.0000000000000000e+00" cType="1" res="-1.3874436914920807e-01" rms="3.3757281303405762e-01" purity="1.0294117778539658e-01" nType="-99"/>
      </Node>
    </BinaryTree>
    <BinaryTree type="DecisionTree" boostWeight="1.0000000000000000e+00" itree="210">
      <Node pos="s" depth="0" NCoef="0" IVar="25" Cut="1.3281748046875000e+03" cType="0" res="3.5754346754401922e-04" rms="3.1174251437187195e-01" purity="7.8511691093444824e-01" nType="0">
        <Node pos="l" depth="1" NCoef="0" IVar="-1" Cut="0.0000000000000000e+00" cType="1" res="1.3238578103482723e-03" rms="3.0770063400268555e-01" purity="7.9232484102249146e-01" nType="-99"/>
        <Node pos="r" depth="1" NCoef="0" IVar="0" Cut="1.8571428060531616e+00" cType="1" res="-2.3884851485490799e-02" rms="3.4687349200248718e-01" purity="7.1663576364517212e-01" nType="0">
          <Node pos="l" depth="2" NCoef="0" IVar="-1" Cut="0.0000000000000000e+00" cType="1" res="2.6886435225605965e-02" rms="2.3109000921249390e-01" purity="9.3037337064743042e-01" nType="-99"/>
          <Node pos="r" depth="2" NCoef="0" IVar="-1" Cut="0.0000000000000000e+00" cType="1" res="-1.4642138965427876e-02" rms="3.6379775404930115e-01" purity="6.7372363805770874e-01" nType="-99"/>
        </Node>
      </Node>
    </BinaryTree>
    <BinaryTree type="DecisionTree" boostWeight="1.0000000000000000e+00" itree="211">
      <Node pos="s" depth="0" NCoef="0" IVar="1" Cut="1.0197979736328125e+03" cType="0" res="2.2625745623372495e-04" rms="3.1105560064315796e-01" purity="7.8467786312103271e-01" nType="0">
        <Node pos="l" depth="1" NCoef="0" IVar="-1" Cut="0.0000000000000000e+00" cType="1" res="6.0005817795172334e-04" rms="3.1247961521148682e-01" purity="7.9947388172149658e-01" nType="-99"/>
        <Node pos="r" depth="1" NCoef="0" IVar="0" Cut="1.0285714149475098e+01" cType="1" res="-5.3945247083902359e-02" rms="2.2512185573577881e-01" purity="6.6799201071262360e-02" nType="0">
          <Node pos="l" depth="2" NCoef="0" IVar="-1" Cut="0.0000000000000000e+00" cType="1" res="-3.2953269779682159e-02" rms="2.6775190234184265e-01" purity="1.0588235408067703e-01" nType="-99"/>
          <Node pos="r" depth="2" NCoef="0" IVar="-1" Cut="0.0000000000000000e+00" cType="1" res="-2.3054728284478188e-02" rms="1.7253510653972626e-01" purity="3.1698111444711685e-02" nType="-99"/>
        </Node>
      </Node>
    </BinaryTree>
    <BinaryTree type="DecisionTree" boostWeight="1.0000000000000000e+00" itree="212">
      <Node pos="s" depth="0" NCoef="0" IVar="13" Cut="2.0681789550781250e+03" cType="0" res="5.9749855427071452e-04" rms="3.1165125966072083e-01" purity="7.8452128171920776e-01" nType="0">
        <Node pos="l" depth="1" NCoef="0" IVar="-1" Cut="0.0000000000000000e+00" cType="1" res="3.0021474231034517e-03" rms="3.0536308884620667e-01" purity="8.0063998699188232e-01" nType="-99"/>
        <Node pos="r" depth="1" NCoef="0" IVar="13" Cut="5.9634674072265625e+02" cType="1" res="-8.3535313606262207e-03" rms="3.2056909799575806e-01" purity="7.6054179668426514e-01" nType="0">
          <Node pos="l" depth="2" NCoef="0" IVar="-1" Cut="0.0000000000000000e+00" cType="1" res="1.2482340447604656e-02" rms="2.6332816481590271e-01" purity="9.0344959497451782e-01" nType="-99"/>
          <Node pos="r" depth="2" NCoef="0" IVar="-1" Cut="0.0000000000000000e+00" cType="1" res="-6.6924435086548328e-03" rms="3.3389899134635925e-01" purity="7.2198194265365601e-01" nType="-99"/>
        </Node>
      </Node>
    </BinaryTree>
    <BinaryTree type="DecisionTree" boostWeight="1.0000000000000000e+00" itree="213">
      <Node pos="s" depth="0" NCoef="0" IVar="5" Cut="-7.7644246816635132e-01" cType="0" res="1.1550890048965812e-03" rms="3.1083664298057556e-01" purity="7.8612899780273438e-01" nType="0">
        <Node pos="l" depth="1" NCoef="0" IVar="-1" Cut="0.0000000000000000e+00" cType="1" res="1.8244780367240310e-03" rms="3.0667385458946228e-01" purity="8.0105406045913696e-01" nType="-99"/>
        <Node pos="r" depth="1" NCoef="0" IVar="0" Cut="8.4285717010498047e+00" cType="1" res="-2.8123343363404274e-02" rms="3.4992209076881409e-01" purity="6.3072407245635986e-01" nType="0">
          <Node pos="l" depth="2" NCoef="0" IVar="-1" Cut="0.0000000000000000e+00" cType="1" res="-4.0870876982808113e-03" rms="3.4342601895332336e-01" purity="7.7629607915878296e-01" nType="-99"/>
          <Node pos="r" depth="2" NCoef="0" IVar="-1" Cut="0.0000000000000000e+00" cType="1" res="-2.0115941762924194e-02" rms="3.6027029156684875e-01" purity="3.2919955253601074e-01" nType="-99"/>
        </Node>
      </Node>
    </BinaryTree>
    <BinaryTree type="DecisionTree" boostWeight="1.0000000000000000e+00" itree="214">
      <Node pos="s" depth="0" NCoef="0" IVar="1" Cut="1.8524174804687500e+03" cType="1" res="5.5638182675465941e-04" rms="3.1116634607315063e-01" purity="7.8515589237213135e-01" nType="0">
        <Node pos="l" depth="1" NCoef="0" IVar="-1" Cut="0.0000000000000000e+00" cType="1" res="2.7644047513604164e-03" rms="3.0870267748832703e-01" purity="7.9874932765960693e-01" nType="-99"/>
        <Node pos="r" depth="1" NCoef="0" IVar="9" Cut="4.6815942382812500e+02" cType="0" res="-9.5634963363409042e-03" rms="3.1525489687919617e-01" purity="7.6093524694442749e-01" nType="0">
          <Node pos="l" depth="2" NCoef="0" IVar="-1" Cut="0.0000000000000000e+00" cType="1" res="4.7362749464809895e-03" rms="2.7004435658454895e-01" purity="8.7559318542480469e-01" nType="-99"/>
          <Node pos="r" depth="2" NCoef="0" IVar="-1" Cut="0.0000000000000000e+00" cType="1" res="-1.8065622076392174e-02" rms="4.0601021051406860e-01" purity="4.6410793066024780e-01" nType="-99"/>
        </Node>
      </Node>
    </BinaryTree>
    <BinaryTree type="DecisionTree" boostWeight="1.0000000000000000e+00" itree="215">
      <Node pos="s" depth="0" NCoef="0" IVar="23" Cut="1.3341445312500000e+04" cType="0" res="-1.1585176689550281e-03" rms="3.1192585825920105e-01" purity="7.8298157453536987e-01" nType="0">
        <Node pos="l" depth="1" NCoef="0" IVar="-1" Cut="0.0000000000000000e+00" cType="1" res="1.9681878387928009e-02" rms="2.5956284999847412e-01" purity="9.1004961729049683e-01" nType="-99"/>
        <Node pos="r" depth="1" NCoef="0" IVar="25" Cut="1.6913959960937500e+03" cType="0" res="-2.6099758688360453e-03" rms="3.1377160549163818e-01" purity="7.7784740924835205e-01" nType="0">
          <Node pos="l" depth="2" NCoef="0" IVar="-1" Cut="0.0000000000000000e+00" cType="1" res="1.4670041855424643e-03" rms="3.0417984724044800e-01" purity="7.9973113536834717e-01" nType="-99"/>
          <Node pos="r" depth="2" NCoef="0" IVar="-1" Cut="0.0000000000000000e+00" cType="1" res="-7.9667828977108002e-03" rms="3.4061020612716675e-01" purity="7.1150928735733032e-01" nType="-99"/>
        </Node>
      </Node>
    </BinaryTree>
    <BinaryTree type="DecisionTree" boostWeight="1.0000000000000000e+00" itree="216">
      <Node pos="s" depth="0" NCoef="0" IVar="0" Cut="1.4000000000000000e+01" cType="1" res="-4.6331148041645065e-05" rms="3.1168535351753235e-01" purity="7.8499370813369751e-01" nType="0">
        <Node pos="l" depth="1" NCoef="0" IVar="-1" Cut="0.0000000000000000e+00" cType="1" res="5.9246318414807320e-04" rms="3.0792200565338135e-01" purity="8.1210279464721680e-01" nType="-99"/>
        <Node pos="r" depth="1" NCoef="0" IVar="7" Cut="4.0778093261718750e+03" cType="0" res="-2.2538254037499428e-02" rms="3.6903741955757141e-01" purity="3.2488480210304260e-01" nType="0">
          <Node pos="l" depth="2" NCoef="0" IVar="-1" Cut="0.0000000000000000e+00" cType="1" res="1.7236739397048950e-02" rms="3.8703456521034241e-01" purity="5.8047491312026978e-01" nType="-99"/>
          <Node pos="r" depth="2" NCoef="0" IVar="-1" Cut="0.0000000000000000e+00" cType="1" res="-1.2579052709043026e-02" rms="3.6299204826354980e-01" purity="2.7484071254730225e-01" nType="-99"/>
        </Node>
      </Node>
    </BinaryTree>
    <BinaryTree type="DecisionTree" boostWeight="1.0000000000000000e+00" itree="217">
      <Node pos="s" depth="0" NCoef="0" IVar="19" Cut="1.4421093750000000e+05" cType="1" res="1.3734305684920400e-04" rms="3.1180092692375183e-01" purity="7.8471541404724121e-01" nType="0">
        <Node pos="l" depth="1" NCoef="0" IVar="-1" Cut="0.0000000000000000e+00" cType="1" res="1.5382226556539536e-03" rms="3.0895012617111206e-01" purity="7.8861498832702637e-01" nType="-99"/>
        <Node pos="r" depth="1" NCoef="0" IVar="23" Cut="1.1289518554687500e+04" cType="0" res="-1.5067276544868946e-02" rms="3.2440015673637390e-01" purity="7.6643431186676025e-01" nType="0">
          <Node pos="l" depth="2" NCoef="0" IVar="-1" Cut="0.0000000000000000e+00" cType="1" res="1.2886762619018555e-02" rms="2.7830708026885986e-01" purity="8.7706422805786133e-01" nType="-99"/>
          <Node pos="r" depth="2" NCoef="0" IVar="-1" Cut="0.0000000000000000e+00" cType="1" res="-1.0897134430706501e-02" rms="3.3562022447586060e-01" purity="7.3460048437118530e-01" nType="-99"/>
        </Node>
      </Node>
    </BinaryTree>
    <BinaryTree type="DecisionTree" boostWeight="1.0000000000000000e+00" itree="218">
      <Node pos="s" depth="0" NCoef="0" IVar="1" Cut="1.8524174804687500e+03" cType="1" res="-2.9338712920434773e-04" rms="3.1156143546104431e-01" purity="7.8478181362152100e-01" nType="0">
        <Node pos="l" depth="1" NCoef="0" IVar="-1" Cut="0.0000000000000000e+00" cType="1" res="2.3411451838910580e-03" rms="3.0855569243431091e-01" purity="7.9888272285461426e-01" nType="-99"/>
        <Node pos="r" depth="1" NCoef="0" IVar="9" Cut="4.6815942382812500e+02" cType="0" res="-1.0114229284226894e-02" rms="3.1658038496971130e-01" purity="7.5979000329971313e-01" nType="0">
          <Node pos="l" depth="2" NCoef="0" IVar="-1" Cut="0.0000000000000000e+00" cType="1" res="3.4515762235969305e-03" rms="2.7148920297622681e-01" purity="8.7468558549880981e-01" nType="-99"/>
          <Node pos="r" depth="2" NCoef="0" IVar="-1" Cut="0.0000000000000000e+00" cType="1" res="-1.6804603859782219e-02" rms="4.0818589925765991e-01" purity="4.6135458350181580e-01" nType="-99"/>
        </Node>
      </Node>
    </BinaryTree>
    <BinaryTree type="DecisionTree" boostWeight="1.0000000000000000e+00" itree="219">
      <Node pos="s" depth="0" NCoef="0" IVar="0" Cut="2.7000000000000000e+01" cType="1" res="-7.5647287303581834e-05" rms="3.1226021051406860e-01" purity="7.8495305776596069e-01" nType="0">
        <Node pos="l" depth="1" NCoef="0" IVar="-1" Cut="0.0000000000000000e+00" cType="1" res="1.5444670862052590e-04" rms="3.1255093216896057e-01" purity="7.8777402639389038e-01" nType="-99"/>
        <Node pos="r" depth="1" NCoef="0" IVar="27" Cut="6.0497351562500000e+04" cType="0" res="-1.0429573059082031e-01" rms="2.0307198166847229e-01" purity="8.0482900142669678e-02" nType="0">
          <Node pos="l" depth="2" NCoef="0" IVar="-1" Cut="0.0000000000000000e+00" cType="1" res="2.0789587870240211e-02" rms="2.5256249308586121e-01" purity="3.2291665673255920e-01" nType="-99"/>
          <Node pos="r" depth="2" NCoef="0" IVar="-1" Cut="0.0000000000000000e+00" cType="1" res="-5.9406582266092300e-02" rms="1.6956891119480133e-01" purity="2.2443890571594238e-02" nType="-99"/>
        </Node>
      </Node>
    </BinaryTree>
    <BinaryTree type="DecisionTree" boostWeight="1.0000000000000000e+00" itree="220">
      <Node pos="s" depth="0" NCoef="0" IVar="17" Cut="3.5500058593750000e+04" cType="1" res="2.7583196060732007e-04" rms="3.1050103902816772e-01" purity="7.8493249416351318e-01" nType="0">
        <Node pos="l" depth="1" NCoef="0" IVar="-1" Cut="0.0000000000000000e+00" cType="1" res="3.5392709542065859e-03" rms="3.0495682358741760e-01" purity="8.0319899320602417e-01" nType="-99"/>
        <Node pos="r" depth="1" NCoef="0" IVar="0" Cut="1.2142857551574707e+01" cType="1" res="-6.3109328038990498e-03" rms="3.1522819399833679e-01" purity="7.6860588788986206e-01" nType="0">
          <Node pos="l" depth="2" NCoef="0" IVar="-1" Cut="0.0000000000000000e+00" cType="1" res="-6.2688725301995873e-04" rms="3.0578503012657166e-01" purity="8.1692928075790405e-01" nType="-99"/>
          <Node pos="r" depth="2" NCoef="0" IVar="-1" Cut="0.0000000000000000e+00" cType="1" res="-1.4290535822510719e-02" rms="3.8309985399246216e-01" purity="3.6184871196746826e-01" nType="-99"/>
        </Node>
      </Node>
    </BinaryTree>
    <BinaryTree type="DecisionTree" boostWeight="1.0000000000000000e+00" itree="221">
      <Node pos="s" depth="0" NCoef="0" IVar="12" Cut="-2.8346059570312500e+03" cType="1" res="-6.9263228215277195e-04" rms="3.1190395355224609e-01" purity="7.8396910429000854e-01" nType="0">
        <Node pos="l" depth="1" NCoef="0" IVar="-1" Cut="0.0000000000000000e+00" cType="1" res="3.1754378229379654e-02" rms="1.6484595835208893e-01" purity="9.6260786056518555e-01" nType="-99"/>
        <Node pos="r" depth="1" NCoef="0" IVar="12" Cut="-1.2926753234863281e+02" cType="1" res="-2.0201664883643389e-03" rms="3.1569185853004456e-01" purity="7.7777779102325439e-01" nType="0">
          <Node pos="l" depth="2" NCoef="0" IVar="-1" Cut="0.0000000000000000e+00" cType="1" res="1.2897323817014694e-02" rms="2.5747445225715637e-01" purity="8.8421368598937988e-01" nType="-99"/>
          <Node pos="r" depth="2" NCoef="0" IVar="-1" Cut="0.0000000000000000e+00" cType="1" res="-7.0631504058837891e-03" rms="3.4676921367645264e-01" purity="7.1003043651580811e-01" nType="-99"/>
        </Node>
      </Node>
    </BinaryTree>
    <BinaryTree type="DecisionTree" boostWeight="1.0000000000000000e+00" itree="222">
      <Node pos="s" depth="0" NCoef="0" IVar="19" Cut="7.7354656250000000e+04" cType="1" res="4.1034942842088640e-04" rms="3.1114298105239868e-01" purity="7.8506177663803101e-01" nType="0">
        <Node pos="l" depth="1" NCoef="0" IVar="-1" Cut="0.0000000000000000e+00" cType="1" res="3.5727026406675577e-03" rms="3.0984565615653992e-01" purity="7.9054707288742065e-01" nType="-99"/>
        <Node pos="r" depth="1" NCoef="0" IVar="0" Cut="1.0285714149475098e+01" cType="1" res="-5.5351532064378262e-03" rms="3.1206524372100830e-01" purity="7.8061097860336304e-01" nType="0">
          <Node pos="l" depth="2" NCoef="0" IVar="-1" Cut="0.0000000000000000e+00" cType="1" res="-1.7754633154254407e-04" rms="2.9777389764785767e-01" purity="8.4156501293182373e-01" nType="-99"/>
          <Node pos="r" depth="2" NCoef="0" IVar="-1" Cut="0.0000000000000000e+00" cType="1" res="-1.0143099352717400e-02" rms="3.8214397430419922e-01" purity="4.3320983648300171e-01" nType="-99"/>
        </Node>
      </Node>
    </BinaryTree>
    <BinaryTree type="DecisionTree" boostWeight="1.0000000000000000e+00" itree="223">
      <Node pos="s" depth="0" NCoef="0" IVar="7" Cut="6.4405654296875000e+03" cType="0" res="1.6142553649842739e-03" rms="3.1097057461738586e-01" purity="7.8686606884002686e-01" nType="0">
        <Node pos="l" depth="1" NCoef="0" IVar="-1" Cut="0.0000000000000000e+00" cType="1" res="1.0514716617763042e-02" rms="2.7423742413520813e-01" purity="8.8516867160797119e-01" nType="-99"/>
        <Node pos="r" depth="1" NCoef="0" IVar="27" Cut="8.3467679687500000e+04" cType="1" res="-8.8207016233354807e-04" rms="3.1578695774078369e-01" purity="7.7283358573913574e-01" nType="0">
          <Node pos="l" depth="2" NCoef="0" IVar="-1" Cut="0.0000000000000000e+00" cType="1" res="1.4649335062131286e-03" rms="3.1209790706634521e-01" purity="7.7714884281158447e-01" nType="-99"/>
          <Node pos="r" depth="2" NCoef="0" IVar="-1" Cut="0.0000000000000000e+00" cType="1" res="-8.6944783106446266e-03" rms="3.3208259940147400e-01" purity="7.5228190422058105e-01" nType="-99"/>
        </Node>
      </Node>
    </BinaryTree>
    <BinaryTree type="DecisionTree" boostWeight="1.0000000000000000e+00" itree="224">
      <Node pos="s" depth="0" NCoef="0" IVar="27" Cut="3.8379671875000000e+04" cType="0" res="5.1922700367867947e-04" rms="3.1042259931564331e-01" purity="7.8473317623138428e-01" nType="0">
        <Node pos="l" depth="1" NCoef="0" IVar="-1" Cut="0.0000000000000000e+00" cType="1" res="-2.1163313649594784e-03" rms="3.1009337306022644e-01" purity="7.9192519187927246e-01" nType="-99"/>
        <Node pos="r" depth="1" NCoef="0" IVar="20" Cut="9.0476191043853760e-01" cType="0" res="1.1583776213228703e-02" rms="3.1084397435188293e-01" purity="7.6920938491821289e-01" nType="0">
          <Node pos="l" depth="2" NCoef="0" IVar="-1" Cut="0.0000000000000000e+00" cType="1" res="5.8791637420654297e-03" rms="3.0995461344718933e-01" purity="7.7396720647811890e-01" nType="-99"/>
          <Node pos="r" depth="2" NCoef="0" IVar="-1" Cut="0.0000000000000000e+00" cType="1" res="-6.0639783740043640e-02" rms="3.5158261656761169e-01" purity="2.8865978121757507e-01" nType="-99"/>
        </Node>
      </Node>
    </BinaryTree>
    <BinaryTree type="DecisionTree" boostWeight="1.0000000000000000e+00" itree="225">
      <Node pos="s" depth="0" NCoef="0" IVar="13" Cut="1.9047512207031250e+03" cType="0" res="-2.9003914096392691e-04" rms="3.1047117710113525e-01" purity="7.8562170267105103e-01" nType="0">
        <Node pos="l" depth="1" NCoef="0" IVar="-1" Cut="0.0000000000000000e+00" cType="1" res="2.1772501058876514e-03" rms="3.0676609277725220e-01" purity="7.9460042715072632e-01" nType="-99"/>
        <Node pos="r" depth="1" NCoef="0" IVar="7" Cut="2.9100517578125000e+03" cType="0" res="-9.7228251397609711e-03" rms="3.1702837347984314e-01" purity="7.6892983913421631e-01" nType="0">
          <Node pos="l" depth="2" NCoef="0" IVar="-1" Cut="0.0000000000000000e+00" cType="1" res="3.9304625242948532e-03" rms="2.9170632362365723e-01" purity="8.4952950477600098e-01" nType="-99"/>
          <Node pos="r" depth="2" NCoef="0" IVar="-1" Cut="0.0000000000000000e+00" cType="1" res="-1.1833989992737770e-02" rms="3.4205397963523865e-01" purity="6.7893284559249878e-01" nType="-99"/>
        </Node>
      </Node>
    </BinaryTree>
    <BinaryTree type="DecisionTree" boostWeight="1.0000000000000000e+00" itree="226">
      <Node pos="s" depth="0" NCoef="0" IVar="5" Cut="-5.2763158082962036e-01" cType="0" res="1.7983125871978700e-04" rms="3.1107369065284729e-01" purity="7.8510612249374390e-01" nType="0">
        <Node pos="l" depth="1" NCoef="0" IVar="-1" Cut="0.0000000000000000e+00" cType="1" res="2.1272781305015087e-03" rms="3.0398648977279663e-01" purity="8.0919015407562256e-01" nType="-99"/>
        <Node pos="r" depth="1" NCoef="0" IVar="3" Cut="4.0665805664062500e+03" cType="0" res="-2.3993721231818199e-02" rms="3.4715434908866882e-01" purity="6.5008455514907837e-01" nType="0">
          <Node pos="l" depth="2" NCoef="0" IVar="-1" Cut="0.0000000000000000e+00" cType="1" res="4.0474999696016312e-03" rms="3.2973107695579529e-01" purity="7.1890693902969360e-01" nType="-99"/>
          <Node pos="r" depth="2" NCoef="0" IVar="-1" Cut="0.0000000000000000e+00" cType="1" res="-1.5585126355290413e-02" rms="3.5506218671798706e-01" purity="6.1172401905059814e-01" nType="-99"/>
        </Node>
      </Node>
    </BinaryTree>
    <BinaryTree type="DecisionTree" boostWeight="1.0000000000000000e+00" itree="227">
      <Node pos="s" depth="0" NCoef="0" IVar="5" Cut="-7.7644246816635132e-01" cType="0" res="3.0806107679381967e-04" rms="3.1170982122421265e-01" purity="7.8488618135452271e-01" nType="0">
        <Node pos="l" depth="1" NCoef="0" IVar="-1" Cut="0.0000000000000000e+00" cType="1" res="1.5391778433695436e-03" rms="3.0753970146179199e-01" purity="8.0070567131042480e-01" nType="-99"/>
        <Node pos="r" depth="1" NCoef="0" IVar="5" Cut="-2.6405415534973145e+00" cType="0" res="-3.0324762687087059e-02" rms="3.4999555349349976e-01" purity="6.2337899208068848e-01" nType="0">
          <Node pos="l" depth="2" NCoef="0" IVar="-1" Cut="0.0000000000000000e+00" cType="1" res="-9.4111282378435135e-03" rms="3.4807625412940979e-01" purity="6.2962275743484497e-01" nType="-99"/>
          <Node pos="r" depth="2" NCoef="0" IVar="-1" Cut="0.0000000000000000e+00" cType="1" res="-6.9238089025020599e-02" rms="3.8218042254447937e-01" purity="3.8888889551162720e-01" nType="-99"/>
        </Node>
      </Node>
    </BinaryTree>
    <BinaryTree type="DecisionTree" boostWeight="1.0000000000000000e+00" itree="228">
      <Node pos="s" depth="0" NCoef="0" IVar="1" Cut="9.5094628906250000e+02" cType="0" res="-6.0942320487811230e-06" rms="3.1105807423591614e-01" purity="7.8493058681488037e-01" nType="0">
        <Node pos="l" depth="1" NCoef="0" IVar="-1" Cut="0.0000000000000000e+00" cType="1" res="3.7907654768787324e-04" rms="3.1245651841163635e-01" purity="7.9571467638015747e-01" nType="-99"/>
        <Node pos="r" depth="1" NCoef="0" IVar="0" Cut="1.1000000000000000e+01" cType="1" res="-5.8815922588109970e-02" rms="1.8000678718090057e-01" purity="3.2404776662588120e-02" nType="0">
          <Node pos="l" depth="2" NCoef="0" IVar="-1" Cut="0.0000000000000000e+00" cType="1" res="-4.3090324848890305e-02" rms="2.0678651332855225e-01" purity="4.5154184103012085e-02" nType="-99"/>
          <Node pos="r" depth="2" NCoef="0" IVar="-1" Cut="0.0000000000000000e+00" cType="1" res="-2.9838198795914650e-02" rms="1.3761100172996521e-01" purity="1.8801409751176834e-02" nType="-99"/>
        </Node>
      </Node>
    </BinaryTree>
    <BinaryTree type="DecisionTree" boostWeight="1.0000000000000000e+00" itree="229">
      <Node pos="s" depth="0" NCoef="0" IVar="0" Cut="4.7142858505249023e+00" cType="1" res="-1.9795072148554027e-04" rms="3.1165382266044617e-01" purity="7.8515219688415527e-01" nType="0">
        <Node pos="l" depth="1" NCoef="0" IVar="-1" Cut="0.0000000000000000e+00" cType="1" res="6.6045178100466728e-03" rms="2.4660538136959076e-01" purity="9.1761749982833862e-01" nType="-99"/>
        <Node pos="r" depth="1" NCoef="0" IVar="14" Cut="7.3161126708984375e+02" cType="0" res="-4.5644612982869148e-03" rms="3.3639910817146301e-01" purity="7.2642898559570312e-01" nType="0">
          <Node pos="l" depth="2" NCoef="0" IVar="-1" Cut="0.0000000000000000e+00" cType="1" res="-2.3785851895809174e-02" rms="3.3708533644676208e-01" purity="7.4555909633636475e-01" nType="-99"/>
          <Node pos="r" depth="2" NCoef="0" IVar="-1" Cut="0.0000000000000000e+00" cType="1" res="1.1859938967972994e-04" rms="3.3594244718551636e-01" purity="7.2451895475387573e-01" nType="-99"/>
        </Node>
      </Node>
    </BinaryTree>
    <BinaryTree type="DecisionTree" boostWeight="1.0000000000000000e+00" itree="230">
      <Node pos="s" depth="0" NCoef="0" IVar="29" Cut="3.3277023315429688e+01" cType="1" res="-8.4361364133656025e-04" rms="3.1071892380714417e-01" purity="7.8397983312606812e-01" nType="0">
        <Node pos="l" depth="1" NCoef="0" IVar="9" Cut="8.4069299316406250e+02" cType="0" res="-6.8399118026718497e-04" rms="3.1063494086265564e-01" purity="7.8432267904281616e-01" nType="0">
          <Node pos="l" depth="2" NCoef="0" IVar="-1" Cut="0.0000000000000000e+00" cType="1" res="1.0356960818171501e-02" rms="2.4470561742782593e-01" purity="9.2783015966415405e-01" nType="-99"/>
          <Node pos="r" depth="2" NCoef="0" IVar="-1" Cut="0.0000000000000000e+00" cType="1" res="-1.4952007913962007e-03" rms="3.2096472382545471e-01" purity="7.5854825973510742e-01" nType="-99"/>
        </Node>
        <Node pos="r" depth="1" NCoef="0" IVar="-1" Cut="0.0000000000000000e+00" cType="1" res="-1.2399938702583313e-01" rms="3.2270118594169617e-01" purity="1.3636364042758942e-01" nType="-99"/>
      </Node>
    </BinaryTree>
    <BinaryTree type="DecisionTree" boostWeight="1.0000000000000000e+00" itree="231">
      <Node pos="s" depth="0" NCoef="0" IVar="13" Cut="2.0681813964843750e+03" cType="0" res="-3.5935640335083008e-04" rms="3.1033256649971008e-01" purity="7.8433024883270264e-01" nType="0">
        <Node pos="l" depth="1" NCoef="0" IVar="-1" Cut="0.0000000000000000e+00" cType="1" res="2.4516216944903135e-03" rms="3.0416476726531982e-01" purity="8.0068016052246094e-01" nType="-99"/>
        <Node pos="r" depth="1" NCoef="0" IVar="4" Cut="5.9507651329040527e+00" cType="0" res="-8.7341153994202614e-03" rms="3.1904438138008118e-01" purity="7.6017004251480103e-01" nType="0">
          <Node pos="l" depth="2" NCoef="0" IVar="-1" Cut="0.0000000000000000e+00" cType="1" res="7.5696827843785286e-03" rms="2.5150007009506226e-01" purity="9.0140485763549805e-01" nType="-99"/>
          <Node pos="r" depth="2" NCoef="0" IVar="-1" Cut="0.0000000000000000e+00" cType="1" res="-7.2821909561753273e-03" rms="3.4514659643173218e-01" purity="6.9555902481079102e-01" nType="-99"/>
        </Node>
      </Node>
    </BinaryTree>
    <BinaryTree type="DecisionTree" boostWeight="1.0000000000000000e+00" itree="232">
      <Node pos="s" depth="0" NCoef="0" IVar="1" Cut="3.0981469726562500e+03" cType="1" res="2.8200828819535673e-04" rms="3.1016004085540771e-01" purity="7.8518432378768921e-01" nType="0">
        <Node pos="l" depth="1" NCoef="0" IVar="-1" Cut="0.0000000000000000e+00" cType="1" res="7.5503968400880694e-04" rms="3.1003952026367188e-01" purity="7.8530770540237427e-01" nType="-99"/>
        <Node pos="r" depth="1" NCoef="0" IVar="9" Cut="1.5641489257812500e+03" cType="0" res="-3.3079367130994797e-02" rms="3.1117126345634460e-01" purity="7.8223383426666260e-01" nType="0">
          <Node pos="l" depth="2" NCoef="0" IVar="-1" Cut="0.0000000000000000e+00" cType="1" res="-7.0880372077226639e-03" rms="2.1848580241203308e-01" purity="9.4773316383361816e-01" nType="-99"/>
          <Node pos="r" depth="2" NCoef="0" IVar="-1" Cut="0.0000000000000000e+00" cType="1" res="-3.2748483121395111e-02" rms="4.5050752162933350e-01" purity="4.0616798400878906e-01" nType="-99"/>
        </Node>
      </Node>
    </BinaryTree>
    <BinaryTree type="DecisionTree" boostWeight="1.0000000000000000e+00" itree="233">
      <Node pos="s" depth="0" NCoef="0" IVar="11" Cut="3.5716667175292969e+00" cType="1" res="-1.8626922974362969e-04" rms="3.1137108802795410e-01" purity="7.8445219993591309e-01" nType="0">
        <Node pos="l" depth="1" NCoef="0" IVar="-1" Cut="0.0000000000000000e+00" cType="1" res="9.8144598305225372e-03" rms="2.7745777368545532e-01" purity="8.8184499740600586e-01" nType="-99"/>
        <Node pos="r" depth="1" NCoef="0" IVar="5" Cut="-2.5919705629348755e-01" cType="0" res="-2.4709384888410568e-03" rms="3.1517845392227173e-01" purity="7.7258336544036865e-01" nType="0">
          <Node pos="l" depth="2" NCoef="0" IVar="-1" Cut="0.0000000000000000e+00" cType="1" res="1.1806008405983448e-03" rms="3.0179634690284729e-01" purity="8.1650269031524658e-01" nType="-99"/>
          <Node pos="r" depth="2" NCoef="0" IVar="-1" Cut="0.0000000000000000e+00" cType="1" res="-6.0500800609588623e-03" rms="3.5004708170890808e-01" purity="6.4780461788177490e-01" nType="-99"/>
        </Node>
      </Node>
    </BinaryTree>
    <BinaryTree type="DecisionTree" boostWeight="1.0000000000000000e+00" itree="234">
      <Node pos="s" depth="0" NCoef="0" IVar="23" Cut="8.0181083984375000e+03" cType="0" res="3.0475572566501796e-04" rms="3.1019228696823120e-01" purity="7.8424161672592163e-01" nType="0">
        <Node pos="l" depth="1" NCoef="0" IVar="-1" Cut="0.0000000000000000e+00" cType="1" res="7.3059485293924809e-03" rms="2.8275185823440552e-01" purity="8.5986530780792236e-01" nType="-99"/>
        <Node pos="r" depth="1" NCoef="0" IVar="13" Cut="2.9079655761718750e+03" cType="0" res="-3.3072552178055048e-03" rms="3.1700155138969421e-01" purity="7.6410347223281860e-01" nType="0">
          <Node pos="l" depth="2" NCoef="0" IVar="-1" Cut="0.0000000000000000e+00" cType="1" res="6.3551538623869419e-03" rms="2.9926526546478271e-01" purity="8.1015276908874512e-01" nType="-99"/>
          <Node pos="r" depth="2" NCoef="0" IVar="-1" Cut="0.0000000000000000e+00" cType="1" res="-4.0080742910504341e-03" rms="3.2267278432846069e-01" purity="7.4824649095535278e-01" nType="-99"/>
        </Node>
      </Node>
    </BinaryTree>
    <BinaryTree type="DecisionTree" boostWeight="1.0000000000000000e+00" itree="235">
      <Node pos="s" depth="0" NCoef="0" IVar="1" Cut="3.6177341308593750e+03" cType="0" res="-8.0014695413410664e-04" rms="3.1110170483589172e-01" purity="7.8356212377548218e-01" nType="0">
        <Node pos="l" depth="1" NCoef="0" IVar="-1" Cut="0.0000000000000000e+00" cType="1" res="-5.0382565706968307e-02" rms="3.2943755388259888e-01" purity="8.1150794029235840e-01" nType="-99"/>
        <Node pos="r" depth="1" NCoef="0" IVar="1" Cut="1.2422763671875000e+03" cType="0" res="-3.8729918742319569e-05" rms="3.1079274415969849e-01" purity="7.8321856260299683e-01" nType="0">
          <Node pos="l" depth="2" NCoef="0" IVar="-1" Cut="0.0000000000000000e+00" cType="1" res="1.3622277183458209e-03" rms="3.0674830079078674e-01" purity="8.1373393535614014e-01" nType="-99"/>
          <Node pos="r" depth="2" NCoef="0" IVar="-1" Cut="0.0000000000000000e+00" cType="1" res="-1.1710153892636299e-02" rms="3.5084977746009827e-01" purity="4.4508841633796692e-01" nType="-99"/>
        </Node>
      </Node>
    </BinaryTree>
    <BinaryTree type="DecisionTree" boostWeight="1.0000000000000000e+00" itree="236">
      <Node pos="s" depth="0" NCoef="0" IVar="1" Cut="1.7415343017578125e+03" cType="1" res="7.6458491093944758e-05" rms="3.1032508611679077e-01" purity="7.8469049930572510e-01" nType="0">
        <Node pos="l" depth="1" NCoef="0" IVar="-1" Cut="0.0000000000000000e+00" cType="1" res="2.8686190489679575e-03" rms="3.1093424558639526e-01" purity="7.8813964128494263e-01" nType="-99"/>
        <Node pos="r" depth="1" NCoef="0" IVar="9" Cut="4.3763323974609375e+02" cType="0" res="-7.7958605252206326e-03" rms="3.0939608812332153e-01" purity="7.8046953678131104e-01" nType="0">
          <Node pos="l" depth="2" NCoef="0" IVar="-1" Cut="0.0000000000000000e+00" cType="1" res="6.6548469476401806e-03" rms="2.6683989167213440e-01" purity="8.7857615947723389e-01" nType="-99"/>
          <Node pos="r" depth="2" NCoef="0" IVar="-1" Cut="0.0000000000000000e+00" cType="1" res="-2.0942017436027527e-02" rms="3.9756321907043457e-01" purity="5.1569300889968872e-01" nType="-99"/>
        </Node>
      </Node>
    </BinaryTree>
    <BinaryTree type="DecisionTree" boostWeight="1.0000000000000000e+00" itree="237">
      <Node pos="s" depth="0" NCoef="0" IVar="1" Cut="1.8524174804687500e+03" cType="1" res="-7.3874602094292641e-05" rms="3.1069827079772949e-01" purity="7.8455835580825806e-01" nType="0">
        <Node pos="l" depth="1" NCoef="0" IVar="-1" Cut="0.0000000000000000e+00" cType="1" res="2.2498259786516428e-03" rms="3.0949869751930237e-01" purity="7.9792380332946777e-01" nType="-99"/>
        <Node pos="r" depth="1" NCoef="0" IVar="9" Cut="4.6815942382812500e+02" cType="0" res="-9.1486498713493347e-03" rms="3.1263130903244019e-01" purity="7.6060694456100464e-01" nType="0">
          <Node pos="l" depth="2" NCoef="0" IVar="-1" Cut="0.0000000000000000e+00" cType="1" res="2.9335040599107742e-03" rms="2.6892501115798950e-01" purity="8.7625789642333984e-01" nType="-99"/>
          <Node pos="r" depth="2" NCoef="0" IVar="-1" Cut="0.0000000000000000e+00" cType="1" res="-1.4915148727595806e-02" rms="4.0215885639190674e-01" purity="4.6083244681358337e-01" nType="-99"/>
        </Node>
      </Node>
    </BinaryTree>
    <BinaryTree type="DecisionTree" boostWeight="1.0000000000000000e+00" itree="238">
      <Node pos="s" depth="0" NCoef="0" IVar="27" Cut="2.2212696875000000e+05" cType="1" res="4.6924728667363524e-04" rms="3.0967313051223755e-01" purity="7.8517651557922363e-01" nType="0">
        <Node pos="l" depth="1" NCoef="0" IVar="-1" Cut="0.0000000000000000e+00" cType="1" res="5.5153935682028532e-04" rms="3.0866444110870361e-01" purity="7.8547942638397217e-01" nType="-99"/>
        <Node pos="r" depth="1" NCoef="0" IVar="20" Cut="9.0477693080902100e-01" cType="1" res="-5.1427196711301804e-02" rms="3.7089532613754272e-01" purity="7.6361531019210815e-01" nType="0">
          <Node pos="l" depth="2" NCoef="0" IVar="-1" Cut="0.0000000000000000e+00" cType="1" res="7.6445870101451874e-02" rms="2.3175922036170959e-01" purity="9.2727273702621460e-01" nType="-99"/>
          <Node pos="r" depth="2" NCoef="0" IVar="-1" Cut="0.0000000000000000e+00" cType="1" res="-2.7392731979489326e-02" rms="3.7046235799789429e-01" purity="7.5822860002517700e-01" nType="-99"/>
        </Node>
      </Node>
    </BinaryTree>
    <BinaryTree type="DecisionTree" boostWeight="1.0000000000000000e+00" itree="239">
      <Node pos="s" depth="0" NCoef="0" IVar="1" Cut="3.7159392089843750e+03" cType="0" res="3.5886518890038133e-04" rms="3.0914849042892456e-01" purity="7.8524285554885864e-01" nType="0">
        <Node pos="l" depth="1" NCoef="0" IVar="-1" Cut="0.0000000000000000e+00" cType="1" res="-5.1275618374347687e-02" rms="3.2099315524101257e-01" purity="8.2004737854003906e-01" nType="-99"/>
        <Node pos="r" depth="1" NCoef="0" IVar="1" Cut="1.2656999511718750e+03" cType="0" res="9.8846002947539091e-04" rms="3.0896127223968506e-01" purity="7.8488475084304810e-01" nType="0">
          <Node pos="l" depth="2" NCoef="0" IVar="-1" Cut="0.0000000000000000e+00" cType="1" res="1.7824096139520407e-03" rms="3.0408668518066406e-01" purity="8.1602162122726440e-01" nType="-99"/>
          <Node pos="r" depth="2" NCoef="0" IVar="-1" Cut="0.0000000000000000e+00" cType="1" res="-9.1290371492505074e-03" rms="3.5092961788177490e-01" purity="4.8824486136436462e-01" nType="-99"/>
        </Node>
      </Node>
    </BinaryTree>
    <BinaryTree type="DecisionTree" boostWeight="1.0000000000000000e+00" itree="240">
      <Node pos="s" depth="0" NCoef="0" IVar="11" Cut="5.9548110961914062e+00" cType="1" res="-1.7690677486825734e-04" rms="3.1003516912460327e-01" purity="7.8526848554611206e-01" nType="0">
        <Node pos="l" depth="1" NCoef="0" IVar="-1" Cut="0.0000000000000000e+00" cType="1" res="6.6582052968442440e-03" rms="2.8059405088424683e-01" purity="8.6542361974716187e-01" nType="-99"/>
        <Node pos="r" depth="1" NCoef="0" IVar="1" Cut="1.9284299316406250e+03" cType="1" res="-3.4007285721600056e-03" rms="3.1697496771812439e-01" purity="7.6497352123260498e-01" nType="0">
          <Node pos="l" depth="2" NCoef="0" IVar="-1" Cut="0.0000000000000000e+00" cType="1" res="1.1844706023111939e-03" rms="3.1374803185462952e-01" purity="7.8550565242767334e-01" nType="-99"/>
          <Node pos="r" depth="2" NCoef="0" IVar="-1" Cut="0.0000000000000000e+00" cType="1" res="-8.0763697624206543e-03" rms="3.2392281293869019e-01" purity="7.1714872121810913e-01" nType="-99"/>
        </Node>
      </Node>
    </BinaryTree>
    <BinaryTree type="DecisionTree" boostWeight="1.0000000000000000e+00" itree="241">
      <Node pos="s" depth="0" NCoef="0" IVar="27" Cut="1.0943227343750000e+05" cType="1" res="8.4277307905722409e-05" rms="3.1012389063835144e-01" purity="7.8529357910156250e-01" nType="0">
        <Node pos="l" depth="1" NCoef="0" IVar="-1" Cut="0.0000000000000000e+00" cType="1" res="1.1847047135233879e-03" rms="3.0797770619392395e-01" purity="7.8650468587875366e-01" nType="-99"/>
        <Node pos="r" depth="1" NCoef="0" IVar="0" Cut="9.8571424484252930e+00" cType="1" res="-1.6617296263575554e-02" rms="3.2374766469001770e-01" purity="7.7711701393127441e-01" nType="0">
          <Node pos="l" depth="2" NCoef="0" IVar="-1" Cut="0.0000000000000000e+00" cType="1" res="-2.6106298901140690e-03" rms="3.1094256043434143e-01" purity="8.3486896753311157e-01" nType="-99"/>
          <Node pos="r" depth="2" NCoef="0" IVar="-1" Cut="0.0000000000000000e+00" cType="1" res="-2.5016963481903076e-02" rms="3.8646608591079712e-01" purity="4.2070192098617554e-01" nType="-99"/>
        </Node>
      </Node>
    </BinaryTree>
    <BinaryTree type="DecisionTree" boostWeight="1.0000000000000000e+00" itree="242">
      <Node pos="s" depth="0" NCoef="0" IVar="25" Cut="2.5296042480468750e+03" cType="0" res="-3.8918587961234152e-04" rms="3.1092053651809692e-01" purity="7.8455740213394165e-01" nType="0">
        <Node pos="l" depth="1" NCoef="0" IVar="-1" Cut="0.0000000000000000e+00" cType="1" res="4.4172988273203373e-03" rms="2.8483545780181885e-01" purity="8.3817112445831299e-01" nType="-99"/>
        <Node pos="r" depth="1" NCoef="0" IVar="1" Cut="1.5486218261718750e+03" cType="1" res="-5.7098940014839172e-03" rms="3.2528582215309143e-01" purity="7.5276476144790649e-01" nType="0">
          <Node pos="l" depth="2" NCoef="0" IVar="-1" Cut="0.0000000000000000e+00" cType="1" res="4.2505864985287189e-03" rms="3.1583747267723083e-01" purity="7.5322335958480835e-01" nType="-99"/>
          <Node pos="r" depth="2" NCoef="0" IVar="-1" Cut="0.0000000000000000e+00" cType="1" res="-7.4847042560577393e-03" rms="3.3124455809593201e-01" purity="7.5244593620300293e-01" nType="-99"/>
        </Node>
      </Node>
    </BinaryTree>
    <BinaryTree type="DecisionTree" boostWeight="1.0000000000000000e+00" itree="243">
      <Node pos="s" depth="0" NCoef="0" IVar="23" Cut="8.0181083984375000e+03" cType="0" res="-6.7162106279283762e-04" rms="3.1046792864799500e-01" purity="7.8411662578582764e-01" nType="0">
        <Node pos="l" depth="1" NCoef="0" IVar="-1" Cut="0.0000000000000000e+00" cType="1" res="7.3243728838860989e-03" rms="2.8396579623222351e-01" purity="8.6095070838928223e-01" nType="-99"/>
        <Node pos="r" depth="1" NCoef="0" IVar="27" Cut="3.2878027343750000e+04" cType="0" res="-4.4942065142095089e-03" rms="3.1702208518981934e-01" purity="7.6371866464614868e-01" nType="0">
          <Node pos="l" depth="2" NCoef="0" IVar="-1" Cut="0.0000000000000000e+00" cType="1" res="-4.5754699967801571e-03" rms="3.1816184520721436e-01" purity="7.6843637228012085e-01" nType="-99"/>
          <Node pos="r" depth="2" NCoef="0" IVar="-1" Cut="0.0000000000000000e+00" cType="1" res="4.9854968674480915e-03" rms="3.1331947445869446e-01" purity="7.5074249505996704e-01" nType="-99"/>
        </Node>
      </Node>
    </BinaryTree>
    <BinaryTree type="DecisionTree" boostWeight="1.0000000000000000e+00" itree="244">
      <Node pos="s" depth="0" NCoef="0" IVar="5" Cut="5.7931953668594360e-01" cType="0" res="-9.5545517979189754e-04" rms="3.1046521663665771e-01" purity="7.8444439172744751e-01" nType="0">
        <Node pos="l" depth="1" NCoef="0" IVar="-1" Cut="0.0000000000000000e+00" cType="1" res="6.1458041891455650e-03" rms="2.6135534048080444e-01" purity="8.9590334892272949e-01" nType="-99"/>
        <Node pos="r" depth="1" NCoef="0" IVar="32" Cut="2.4539413452148438e+00" cType="1" res="-4.6637044288218021e-03" rms="3.2533177733421326e-01" purity="7.4671274423599243e-01" nType="0">
          <Node pos="l" depth="2" NCoef="0" IVar="-1" Cut="0.0000000000000000e+00" cType="1" res="-3.2369789551012218e-04" rms="3.2299152016639709e-01" purity="7.5455796718597412e-01" nType="-99"/>
          <Node pos="r" depth="2" NCoef="0" IVar="-1" Cut="0.0000000000000000e+00" cType="1" res="-1.8380103632807732e-02" rms="3.4659567475318909e-01" purity="6.6299170255661011e-01" nType="-99"/>
        </Node>
      </Node>
    </BinaryTree>
    <BinaryTree type="DecisionTree" boostWeight="1.0000000000000000e+00" itree="245">
      <Node pos="s" depth="0" NCoef="0" IVar="23" Cut="1.3341445312500000e+04" cType="0" res="-2.9864782118238509e-04" rms="3.1074818968772888e-01" purity="7.8336352109909058e-01" nType="0">
        <Node pos="l" depth="1" NCoef="0" IVar="-1" Cut="0.0000000000000000e+00" cType="1" res="2.1133361384272575e-02" rms="2.5353866815567017e-01" purity="9.1325354576110840e-01" nType="-99"/>
        <Node pos="r" depth="1" NCoef="0" IVar="25" Cut="1.8842517089843750e+03" cType="0" res="-1.7223898321390152e-03" rms="3.1271836161613464e-01" purity="7.7820760011672974e-01" nType="0">
          <Node pos="l" depth="2" NCoef="0" IVar="-1" Cut="0.0000000000000000e+00" cType="1" res="1.7890334129333496e-03" rms="3.0029296875000000e-01" purity="8.0819725990295410e-01" nType="-99"/>
          <Node pos="r" depth="2" NCoef="0" IVar="-1" Cut="0.0000000000000000e+00" cType="1" res="-4.9980347976088524e-03" rms="3.3495602011680603e-01" purity="7.2085571289062500e-01" nType="-99"/>
        </Node>
      </Node>
    </BinaryTree>
    <BinaryTree type="DecisionTree" boostWeight="1.0000000000000000e+00" itree="246">
      <Node pos="s" depth="0" NCoef="0" IVar="2" Cut="4.7613013535737991e-02" cType="1" res="-5.6119909277185798e-04" rms="3.1032729148864746e-01" purity="7.8343343734741211e-01" nType="0">
        <Node pos="l" depth="1" NCoef="0" IVar="-1" Cut="0.0000000000000000e+00" cType="1" res="2.8024443890899420e-03" rms="2.7816143631935120e-01" purity="8.6615359783172607e-01" nType="-99"/>
        <Node pos="r" depth="1" NCoef="0" IVar="29" Cut="1.6242761611938477e+01" cType="1" res="-8.1272702664136887e-03" rms="3.4902110695838928e-01" purity="6.7150861024856567e-01" nType="0">
          <Node pos="l" depth="2" NCoef="0" IVar="-1" Cut="0.0000000000000000e+00" cType="1" res="-4.5601380988955498e-03" rms="3.4805217385292053e-01" purity="6.7658585309982300e-01" nType="-99"/>
          <Node pos="r" depth="2" NCoef="0" IVar="-1" Cut="0.0000000000000000e+00" cType="1" res="8.0546773970127106e-03" rms="3.5490667819976807e-01" purity="6.3219529390335083e-01" nType="-99"/>
        </Node>
      </Node>
    </BinaryTree>
    <BinaryTree type="DecisionTree" boostWeight="1.0000000000000000e+00" itree="247">
      <Node pos="s" depth="0" NCoef="0" IVar="23" Cut="5.3690258789062500e+03" cType="0" res="1.6364660114049911e-03" rms="3.0815169215202332e-01" purity="7.8669816255569458e-01" nType="0">
        <Node pos="l" depth="1" NCoef="0" IVar="-1" Cut="0.0000000000000000e+00" cType="1" res="4.1358247399330139e-03" rms="2.9193839430809021e-01" purity="8.3277833461761475e-01" nType="-99"/>
        <Node pos="r" depth="1" NCoef="0" IVar="3" Cut="4.8623427734375000e+03" cType="1" res="-4.7225877642631531e-03" rms="3.2271403074264526e-01" purity="7.4279505014419556e-01" nType="0">
          <Node pos="l" depth="2" NCoef="0" IVar="-1" Cut="0.0000000000000000e+00" cType="1" res="-8.6769845802336931e-04" rms="3.1989631056785583e-01" purity="7.5270992517471313e-01" nType="-99"/>
          <Node pos="r" depth="2" NCoef="0" IVar="-1" Cut="0.0000000000000000e+00" cType="1" res="-2.2952623665332794e-02" rms="3.7531632184982300e-01" purity="5.2016127109527588e-01" nType="-99"/>
        </Node>
      </Node>
    </BinaryTree>
    <BinaryTree type="DecisionTree" boostWeight="1.0000000000000000e+00" itree="248">
      <Node pos="s" depth="0" NCoef="0" IVar="19" Cut="2.0998990625000000e+05" cType="1" res="8.8848610175773501e-04" rms="3.0958607792854309e-01" purity="7.8514236211776733e-01" nType="0">
        <Node pos="l" depth="1" NCoef="0" IVar="-1" Cut="0.0000000000000000e+00" cType="1" res="1.2037049746140838e-03" rms="3.0756968259811401e-01" purity="7.8806054592132568e-01" nType="-99"/>
        <Node pos="r" depth="1" NCoef="0" IVar="0" Cut="8.4285717010498047e+00" cType="1" res="-2.5196511298418045e-02" rms="3.3786168694496155e-01" purity="7.4051296710968018e-01" nType="0">
          <Node pos="l" depth="2" NCoef="0" IVar="-1" Cut="0.0000000000000000e+00" cType="1" res="-3.4164730459451675e-03" rms="3.1762480735778809e-01" purity="8.3850604295730591e-01" nType="-99"/>
          <Node pos="r" depth="2" NCoef="0" IVar="-1" Cut="0.0000000000000000e+00" cType="1" res="-2.3367986083030701e-02" rms="3.8641977310180664e-01" purity="4.5229500532150269e-01" nType="-99"/>
        </Node>
      </Node>
    </BinaryTree>
    <BinaryTree type="DecisionTree" boostWeight="1.0000000000000000e+00" itree="249">
      <Node pos="s" depth="0" NCoef="0" IVar="13" Cut="6.8688798828125000e+03" cType="0" res="1.1452954495325685e-03" rms="3.0904692411422729e-01" purity="7.8592097759246826e-01" nType="0">
        <Node pos="l" depth="1" NCoef="0" IVar="-1" Cut="0.0000000000000000e+00" cType="1" res="1.9574642181396484e-02" rms="2.4495445191860199e-01" purity="9.0855032205581665e-01" nType="-99"/>
        <Node pos="r" depth="1" NCoef="0" IVar="14" Cut="5.6436602783203125e+02" cType="0" res="-5.6039323681034148e-05" rms="3.1131628155708313e-01" purity="7.8093141317367554e-01" nType="0">
          <Node pos="l" depth="2" NCoef="0" IVar="-1" Cut="0.0000000000000000e+00" cType="1" res="-8.5491342470049858e-03" rms="2.8878289461135864e-01" purity="8.4369319677352905e-01" nType="-99"/>
          <Node pos="r" depth="2" NCoef="0" IVar="-1" Cut="0.0000000000000000e+00" cType="1" res="2.3023609537631273e-03" rms="3.1874126195907593e-01" purity="7.5869703292846680e-01" nType="-99"/>
        </Node>
      </Node>
    </BinaryTree>
    <BinaryTree type="DecisionTree" boostWeight="1.0000000000000000e+00" itree="250">
      <Node pos="s" depth="0" NCoef="0" IVar="1" Cut="9.5094628906250000e+02" cType="0" res="-2.9933048062957823e-04" rms="3.0957964062690735e-01" purity="7.8507983684539795e-01" nType="0">
        <Node pos="l" depth="1" NCoef="0" IVar="-1" Cut="0.0000000000000000e+00" cType="1" res="2.4156851577572525e-04" rms="3.1111010909080505e-01" purity="7.9591441154479980e-01" nType="-99"/>
        <Node pos="r" depth="1" NCoef="0" IVar="0" Cut="1.1000000000000000e+01" cType="1" res="-5.8109898120164871e-02" rms="1.6096505522727966e-01" purity="2.6151223108172417e-02" nType="0">
          <Node pos="l" depth="2" NCoef="0" IVar="-1" Cut="0.0000000000000000e+00" cType="1" res="-4.2498342692852020e-02" rms="1.9724741578102112e-01" purity="4.1433371603488922e-02" nType="-99"/>
          <Node pos="r" depth="2" NCoef="0" IVar="-1" Cut="0.0000000000000000e+00" cType="1" res="-3.9557151496410370e-02" rms="1.0432999581098557e-01" purity="1.0392609983682632e-02" nType="-99"/>
        </Node>
      </Node>
    </BinaryTree>
    <BinaryTree type="DecisionTree" boostWeight="1.0000000000000000e+00" itree="251">
      <Node pos="s" depth="0" NCoef="0" IVar="27" Cut="1.7957015625000000e+05" cType="1" res="-2.0306764054112136e-04" rms="3.0971077084541321e-01" purity="7.8458422422409058e-01" nType="0">
        <Node pos="l" depth="1" NCoef="0" IVar="-1" Cut="0.0000000000000000e+00" cType="1" res="5.0215597730129957e-04" rms="3.0812236666679382e-01" purity="7.8576618432998657e-01" nType="-99"/>
        <Node pos="r" depth="1" NCoef="0" IVar="23" Cut="1.1949541992187500e+04" cType="0" res="-4.0531005710363388e-02" rms="3.5355168581008911e-01" purity="7.4754267930984497e-01" nType="0">
          <Node pos="l" depth="2" NCoef="0" IVar="-1" Cut="0.0000000000000000e+00" cType="1" res="3.2443085219711065e-03" rms="3.2570794224739075e-01" purity="8.4769874811172485e-01" nType="-99"/>
          <Node pos="r" depth="2" NCoef="0" IVar="-1" Cut="0.0000000000000000e+00" cType="1" res="-2.4214433506131172e-02" rms="3.6334407329559326e-01" purity="7.0273303985595703e-01" nType="-99"/>
        </Node>
      </Node>
    </BinaryTree>
    <BinaryTree type="DecisionTree" boostWeight="1.0000000000000000e+00" itree="252">
      <Node pos="s" depth="0" NCoef="0" IVar="12" Cut="-2.4542778320312500e+03" cType="1" res="9.0692820958793163e-04" rms="3.0901247262954712e-01" purity="7.8612673282623291e-01" nType="0">
        <Node pos="l" depth="1" NCoef="0" IVar="-1" Cut="0.0000000000000000e+00" cType="1" res="2.8696713969111443e-02" rms="1.6964213550090790e-01" purity="9.6132487058639526e-01" nType="-99"/>
        <Node pos="r" depth="1" NCoef="0" IVar="12" Cut="-8.6915466308593750e+02" cType="1" res="-4.0570867713540792e-04" rms="3.1346690654754639e-01" purity="7.7873289585113525e-01" nType="0">
          <Node pos="l" depth="2" NCoef="0" IVar="-1" Cut="0.0000000000000000e+00" cType="1" res="2.1827559918165207e-02" rms="2.0616526901721954e-01" purity="9.3359607458114624e-01" nType="-99"/>
          <Node pos="r" depth="2" NCoef="0" IVar="-1" Cut="0.0000000000000000e+00" cType="1" res="-1.4336396707221866e-03" rms="3.2146811485290527e-01" purity="7.6435452699661255e-01" nType="-99"/>
        </Node>
      </Node>
    </BinaryTree>
    <BinaryTree type="DecisionTree" boostWeight="1.0000000000000000e+00" itree="253">
      <Node pos="s" depth="0" NCoef="0" IVar="0" Cut="2.1428571701049805e+01" cType="1" res="-2.3526711447630078e-04" rms="3.1034010648727417e-01" purity="7.8498840332031250e-01" nType="0">
        <Node pos="l" depth="1" NCoef="0" IVar="-1" Cut="0.0000000000000000e+00" cType="1" res="2.1784772980026901e-04" rms="3.1058898568153381e-01" purity="7.9302579164505005e-01" nType="-99"/>
        <Node pos="r" depth="1" NCoef="0" IVar="7" Cut="1.1517434082031250e+03" cType="0" res="-5.3659237921237946e-02" rms="2.8585478663444519e-01" purity="1.7614339292049408e-01" nType="0">
          <Node pos="l" depth="2" NCoef="0" IVar="-1" Cut="0.0000000000000000e+00" cType="1" res="2.1476242691278458e-03" rms="3.3749690651893616e-01" purity="2.9678848385810852e-01" nType="-99"/>
          <Node pos="r" depth="2" NCoef="0" IVar="-1" Cut="0.0000000000000000e+00" cType="1" res="-5.7049389928579330e-02" rms="1.7543432116508484e-01" purity="2.3776223883032799e-02" nType="-99"/>
        </Node>
      </Node>
    </BinaryTree>
    <BinaryTree type="DecisionTree" boostWeight="1.0000000000000000e+00" itree="254">
      <Node pos="s" depth="0" NCoef="0" IVar="1" Cut="1.1410792236328125e+03" cType="0" res="-5.9777882415801287e-04" rms="3.0980262160301208e-01" purity="7.8424125909805298e-01" nType="0">
        <Node pos="l" depth="1" NCoef="0" IVar="-1" Cut="0.0000000000000000e+00" cType="1" res="3.2307166839018464e-04" rms="3.0959892272949219e-01" purity="8.0822503566741943e-01" nType="-99"/>
        <Node pos="r" depth="1" NCoef="0" IVar="9" Cut="2.0377345275878906e+02" cType="1" res="-3.0174355953931808e-02" rms="3.1297755241394043e-01" purity="2.3487612605094910e-01" nType="0">
          <Node pos="l" depth="2" NCoef="0" IVar="-1" Cut="0.0000000000000000e+00" cType="1" res="5.0020444905385375e-04" rms="3.1527799367904663e-01" purity="2.8367832303047180e-01" nType="-99"/>
          <Node pos="r" depth="2" NCoef="0" IVar="-1" Cut="0.0000000000000000e+00" cType="1" res="-2.9354117810726166e-02" rms="3.0512246489524841e-01" purity="1.7123894393444061e-01" nType="-99"/>
        </Node>
      </Node>
    </BinaryTree>
    <BinaryTree type="DecisionTree" boostWeight="1.0000000000000000e+00" itree="255">
      <Node pos="s" depth="0" NCoef="0" IVar="1" Cut="3.6177341308593750e+03" cType="0" res="6.7827344173565507e-04" rms="3.0915316939353943e-01" purity="7.8497284650802612e-01" nType="0">
        <Node pos="l" depth="1" NCoef="0" IVar="-1" Cut="0.0000000000000000e+00" cType="1" res="-4.0267396718263626e-02" rms="3.2911613583564758e-01" purity="8.0725318193435669e-01" nType="-99"/>
        <Node pos="r" depth="1" NCoef="0" IVar="1" Cut="1.2422763671875000e+03" cType="0" res="1.3320097932592034e-03" rms="3.0884632468223572e-01" purity="7.8470391035079956e-01" nType="0">
          <Node pos="l" depth="2" NCoef="0" IVar="-1" Cut="0.0000000000000000e+00" cType="1" res="2.0042613614350557e-03" rms="3.0444890260696411e-01" purity="8.1571245193481445e-01" nType="-99"/>
          <Node pos="r" depth="2" NCoef="0" IVar="-1" Cut="0.0000000000000000e+00" cType="1" res="-1.1072029359638691e-02" rms="3.5225033760070801e-01" purity="4.4184911251068115e-01" nType="-99"/>
        </Node>
      </Node>
    </BinaryTree>
    <BinaryTree type="DecisionTree" boostWeight="1.0000000000000000e+00" itree="256">
      <Node pos="s" depth="0" NCoef="0" IVar="0" Cut="2.7000000000000000e+01" cType="1" res="3.2385723898187280e-04" rms="3.0962195992469788e-01" purity="7.8492176532745361e-01" nType="0">
        <Node pos="l" depth="1" NCoef="0" IVar="-1" Cut="0.0000000000000000e+00" cType="1" res="3.2464339165017009e-04" rms="3.0991941690444946e-01" purity="7.8762966394424438e-01" nType="-99"/>
        <Node pos="r" depth="1" NCoef="0" IVar="2" Cut="4.4951561093330383e-01" cType="1" res="-9.7942218184471130e-02" rms="1.9568763673305511e-01" purity="8.1419624388217926e-02" nType="0">
          <Node pos="l" depth="2" NCoef="0" IVar="-1" Cut="0.0000000000000000e+00" cType="1" res="-2.7644025161862373e-02" rms="1.9233477115631104e-01" purity="1.0773480683565140e-01" nType="-99"/>
          <Node pos="r" depth="2" NCoef="0" IVar="-1" Cut="0.0000000000000000e+00" cType="1" res="-7.2760224342346191e-02" rms="1.3748750090599060e-01" purity="0.0000000000000000e+00" nType="-99"/>
        </Node>
      </Node>
    </BinaryTree>
    <BinaryTree type="DecisionTree" boostWeight="1.0000000000000000e+00" itree="257">
      <Node pos="s" depth="0" NCoef="0" IVar="9" Cut="7.5362072753906250e+02" cType="0" res="-8.5546617629006505e-04" rms="3.0970168113708496e-01" purity="7.8345602750778198e-01" nType="0">
        <Node pos="l" depth="1" NCoef="0" IVar="-1" Cut="0.0000000000000000e+00" cType="1" res="8.3279618993401527e-03" rms="2.5661349296569824e-01" purity="9.1483318805694580e-01" nType="-99"/>
        <Node pos="r" depth="1" NCoef="0" IVar="1" Cut="1.9835018310546875e+03" cType="1" res="-3.8761305622756481e-03" rms="3.2016658782958984e-01" purity="7.5443184375762939e-01" nType="0">
          <Node pos="l" depth="2" NCoef="0" IVar="-1" Cut="0.0000000000000000e+00" cType="1" res="9.9103839602321386e-04" rms="3.0582743883132935e-01" purity="7.9799848794937134e-01" nType="-99"/>
          <Node pos="r" depth="2" NCoef="0" IVar="-1" Cut="0.0000000000000000e+00" cType="1" res="-1.3071883469820023e-02" rms="3.9130118489265442e-01" purity="5.0183200836181641e-01" nType="-99"/>
        </Node>
      </Node>
    </BinaryTree>
    <BinaryTree type="DecisionTree" boostWeight="1.0000000000000000e+00" itree="258">
      <Node pos="s" depth="0" NCoef="0" IVar="29" Cut="4.1302997589111328e+01" cType="1" res="8.7270577205345035e-04" rms="3.0930599570274353e-01" purity="7.8586822748184204e-01" nType="0">
        <Node pos="l" depth="1" NCoef="0" IVar="0" Cut="2.7000000000000000e+01" cType="1" res="9.8619482014328241e-04" rms="3.0925050377845764e-01" purity="7.8612864017486572e-01" nType="0">
          <Node pos="l" depth="2" NCoef="0" IVar="-1" Cut="0.0000000000000000e+00" cType="1" res="6.2430137768387794e-04" rms="3.0959451198577881e-01" purity="7.8896266222000122e-01" nType="-99"/>
          <Node pos="r" depth="2" NCoef="0" IVar="-1" Cut="0.0000000000000000e+00" cType="1" res="-4.2728479951620102e-02" rms="1.8212048709392548e-01" purity="6.5708421170711517e-02" nType="-99"/>
        </Node>
        <Node pos="r" depth="1" NCoef="0" IVar="-1" Cut="0.0000000000000000e+00" cType="1" res="-9.8280593752861023e-02" rms="3.0361446738243103e-01" purity="6.6666670143604279e-02" nType="-99"/>
      </Node>
    </BinaryTree>
    <BinaryTree type="DecisionTree" boostWeight="1.0000000000000000e+00" itree="259">
      <Node pos="s" depth="0" NCoef="0" IVar="25" Cut="2.5296042480468750e+03" cType="0" res="4.2742781806737185e-04" rms="3.0904251337051392e-01" purity="7.8476929664611816e-01" nType="0">
        <Node pos="l" depth="1" NCoef="0" IVar="-1" Cut="0.0000000000000000e+00" cType="1" res="4.7725830227136612e-03" rms="2.8282308578491211e-01" purity="8.3909261226654053e-01" nType="-99"/>
        <Node pos="r" depth="1" NCoef="0" IVar="0" Cut="9.8095235824584961e+00" cType="1" res="-4.6792281791567802e-03" rms="3.2340466976165771e-01" purity="7.5272643566131592e-01" nType="0">
          <Node pos="l" depth="2" NCoef="0" IVar="-1" Cut="0.0000000000000000e+00" cType="1" res="2.8177560307085514e-04" rms="3.1229391694068909e-01" purity="8.2695865631103516e-01" nType="-99"/>
          <Node pos="r" depth="2" NCoef="0" IVar="-1" Cut="0.0000000000000000e+00" cType="1" res="-1.1134366504848003e-02" rms="3.8067317008972168e-01" purity="3.1712660193443298e-01" nType="-99"/>
        </Node>
      </Node>
    </BinaryTree>
    <BinaryTree type="DecisionTree" boostWeight="1.0000000000000000e+00" itree="260">
      <Node pos="s" depth="0" NCoef="0" IVar="12" Cut="-2.1068989257812500e+03" cType="1" res="2.1458344417624176e-04" rms="3.0919283628463745e-01" purity="7.8487265110015869e-01" nType="0">
        <Node pos="l" depth="1" NCoef="0" IVar="-1" Cut="0.0000000000000000e+00" cType="1" res="2.7620743960142136e-02" rms="1.7050115764141083e-01" purity="9.5913940668106079e-01" nType="-99"/>
        <Node pos="r" depth="1" NCoef="0" IVar="12" Cut="-5.3846783447265625e+02" cType="1" res="-1.3025278458371758e-03" rms="3.1451320648193359e-01" purity="7.7605539560317993e-01" nType="0">
          <Node pos="l" depth="2" NCoef="0" IVar="-1" Cut="0.0000000000000000e+00" cType="1" res="1.8543817102909088e-02" rms="2.1904003620147705e-01" purity="9.2447614669799805e-01" nType="-99"/>
          <Node pos="r" depth="2" NCoef="0" IVar="-1" Cut="0.0000000000000000e+00" cType="1" res="-2.4752169847488403e-03" rms="3.2692936062812805e-01" purity="7.5243067741394043e-01" nType="-99"/>
        </Node>
      </Node>
    </BinaryTree>
    <BinaryTree type="DecisionTree" boostWeight="1.0000000000000000e+00" itree="261">
      <Node pos="s" depth="0" NCoef="0" IVar="0" Cut="4.7142858505249023e+00" cType="1" res="8.2559179281815886e-04" rms="3.0870759487152100e-01" purity="7.8552651405334473e-01" nType="0">
        <Node pos="l" depth="1" NCoef="0" IVar="-1" Cut="0.0000000000000000e+00" cType="1" res="6.9197649136185646e-03" rms="2.4276855587959290e-01" purity="9.1918617486953735e-01" nType="-99"/>
        <Node pos="r" depth="1" NCoef="0" IVar="12" Cut="-5.2419085502624512e+00" cType="1" res="-3.1977891921997070e-03" rms="3.3390778303146362e-01" purity="7.2581076622009277e-01" nType="0">
          <Node pos="l" depth="2" NCoef="0" IVar="-1" Cut="0.0000000000000000e+00" cType="1" res="2.2335713729262352e-03" rms="3.2464820146560669e-01" purity="7.5172054767608643e-01" nType="-99"/>
          <Node pos="r" depth="2" NCoef="0" IVar="-1" Cut="0.0000000000000000e+00" cType="1" res="-1.7895607277750969e-02" rms="3.7932172417640686e-01" purity="5.7611000537872314e-01" nType="-99"/>
        </Node>
      </Node>
    </BinaryTree>
    <BinaryTree type="DecisionTree" boostWeight="1.0000000000000000e+00" itree="262">
      <Node pos="s" depth="0" NCoef="0" IVar="29" Cut="4.1302997589111328e+01" cType="1" res="3.6397951771505177e-04" rms="3.0871233344078064e-01" purity="7.8568577766418457e-01" nType="0">
        <Node pos="l" depth="1" NCoef="0" IVar="29" Cut="1.5329561233520508e+01" cType="1" res="4.7627274761907756e-04" rms="3.0868449807167053e-01" purity="7.8600239753723145e-01" nType="0">
          <Node pos="l" depth="2" NCoef="0" IVar="-1" Cut="0.0000000000000000e+00" cType="1" res="-7.8145682346075773e-04" rms="3.0629998445510864e-01" purity="7.9222512245178223e-01" nType="-99"/>
          <Node pos="r" depth="2" NCoef="0" IVar="-1" Cut="0.0000000000000000e+00" cType="1" res="7.3601403273642063e-03" rms="3.2720565795898438e-01" purity="7.3457157611846924e-01" nType="-99"/>
        </Node>
        <Node pos="r" depth="1" NCoef="0" IVar="-1" Cut="0.0000000000000000e+00" cType="1" res="-9.7977384924888611e-02" rms="2.5593069195747375e-01" purity="3.7735849618911743e-02" nType="-99"/>
      </Node>
    </BinaryTree>
    <BinaryTree type="DecisionTree" boostWeight="1.0000000000000000e+00" itree="263">
      <Node pos="s" depth="0" NCoef="0" IVar="3" Cut="3.9036367187500000e+03" cType="0" res="5.8638488553697243e-05" rms="3.0863288044929504e-01" purity="7.8594028949737549e-01" nType="0">
        <Node pos="l" depth="1" NCoef="0" IVar="-1" Cut="0.0000000000000000e+00" cType="1" res="4.6249628067016602e-03" rms="3.0859452486038208e-01" purity="7.9676628112792969e-01" nType="-99"/>
        <Node pos="r" depth="1" NCoef="0" IVar="0" Cut="7.8571429252624512e+00" cType="1" res="-5.3972327150404453e-03" rms="3.0852171778678894e-01" purity="7.7978032827377319e-01" nType="0">
          <Node pos="l" depth="2" NCoef="0" IVar="-1" Cut="0.0000000000000000e+00" cType="1" res="2.3518654052168131e-03" rms="2.7635198831558228e-01" purity="8.7845504283905029e-01" nType="-99"/>
          <Node pos="r" depth="2" NCoef="0" IVar="-1" Cut="0.0000000000000000e+00" cType="1" res="-1.0162808932363987e-02" rms="3.8286551833152771e-01" purity="5.0508844852447510e-01" nType="-99"/>
        </Node>
      </Node>
    </BinaryTree>
    <BinaryTree type="DecisionTree" boostWeight="1.0000000000000000e+00" itree="264">
      <Node pos="s" depth="0" NCoef="0" IVar="29" Cut="3.2485523223876953e+01" cType="1" res="-8.8504358427599072e-04" rms="3.1006067991256714e-01" purity="7.8419911861419678e-01" nType="0">
        <Node pos="l" depth="1" NCoef="0" IVar="29" Cut="1.3420149803161621e+01" cType="1" res="-7.4928428512066603e-04" rms="3.1000721454620361e-01" purity="7.8456163406372070e-01" nType="0">
          <Node pos="l" depth="2" NCoef="0" IVar="-1" Cut="0.0000000000000000e+00" cType="1" res="-1.5526701463386416e-03" rms="3.0602559447288513e-01" purity="7.9481476545333862e-01" nType="-99"/>
          <Node pos="r" depth="2" NCoef="0" IVar="-1" Cut="0.0000000000000000e+00" cType="1" res="4.9173976294696331e-03" rms="3.2926416397094727e-01" purity="7.3230421543121338e-01" nType="-99"/>
        </Node>
        <Node pos="r" depth="1" NCoef="0" IVar="-1" Cut="0.0000000000000000e+00" cType="1" res="-9.9409706890583038e-02" rms="3.1451174616813660e-01" purity="1.6438356041908264e-01" nType="-99"/>
      </Node>
    </BinaryTree>
    <BinaryTree type="DecisionTree" boostWeight="1.0000000000000000e+00" itree="265">
      <Node pos="s" depth="0" NCoef="0" IVar="5" Cut="-5.2763158082962036e-01" cType="0" res="-4.9432436935603619e-04" rms="3.0923998355865479e-01" purity="7.8411734104156494e-01" nType="0">
        <Node pos="l" depth="1" NCoef="0" IVar="-1" Cut="0.0000000000000000e+00" cType="1" res="1.1974873486906290e-03" rms="3.0312216281890869e-01" purity="8.0781853199005127e-01" nType="-99"/>
        <Node pos="r" depth="1" NCoef="0" IVar="3" Cut="4.1827651367187500e+03" cType="0" res="-1.6927536576986313e-02" rms="3.4091803431510925e-01" purity="6.5180319547653198e-01" nType="0">
          <Node pos="l" depth="2" NCoef="0" IVar="-1" Cut="0.0000000000000000e+00" cType="1" res="4.2992993257939816e-03" rms="3.2501581311225891e-01" purity="7.2080051898956299e-01" nType="-99"/>
          <Node pos="r" depth="2" NCoef="0" IVar="-1" Cut="0.0000000000000000e+00" cType="1" res="-1.1181924492120743e-02" rms="3.4746935963630676e-01" purity="6.1890983581542969e-01" nType="-99"/>
        </Node>
      </Node>
    </BinaryTree>
    <BinaryTree type="DecisionTree" boostWeight="1.0000000000000000e+00" itree="266">
      <Node pos="s" depth="0" NCoef="0" IVar="29" Cut="1.6217962265014648e+01" cType="1" res="4.2658150778152049e-04" rms="3.0894106626510620e-01" purity="7.8493458032608032e-01" nType="0">
        <Node pos="l" depth="1" NCoef="0" IVar="-1" Cut="0.0000000000000000e+00" cType="1" res="-6.2811316456645727e-04" rms="3.0701789259910583e-01" purity="7.9004442691802979e-01" nType="-99"/>
        <Node pos="r" depth="1" NCoef="0" IVar="15" Cut="3.8371627807617188e+01" cType="1" res="1.9115200266242027e-02" rms="3.2814696431159973e-01" purity="7.3050707578659058e-01" nType="0">
          <Node pos="l" depth="2" NCoef="0" IVar="-1" Cut="0.0000000000000000e+00" cType="1" res="8.9302398264408112e-03" rms="3.2726082205772400e-01" purity="7.3544722795486450e-01" nType="-99"/>
          <Node pos="r" depth="2" NCoef="0" IVar="-1" Cut="0.0000000000000000e+00" cType="1" res="-7.0687413215637207e-02" rms="3.4111908078193665e-01" purity="3.6805555224418640e-01" nType="-99"/>
        </Node>
      </Node>
    </BinaryTree>
    <BinaryTree type="DecisionTree" boostWeight="1.0000000000000000e+00" itree="267">
      <Node pos="s" depth="0" NCoef="0" IVar="27" Cut="4.2107980468750000e+04" cType="0" res="-4.9622938968241215e-04" rms="3.0975797772407532e-01" purity="7.8355389833450317e-01" nType="0">
        <Node pos="l" depth="1" NCoef="0" IVar="-1" Cut="0.0000000000000000e+00" cType="1" res="-2.5235752109438181e-03" rms="3.0858424305915833e-01" purity="7.9347378015518188e-01" nType="-99"/>
        <Node pos="r" depth="1" NCoef="0" IVar="27" Cut="2.1387564453125000e+04" cType="0" res="7.5815669260919094e-03" rms="3.1154081225395203e-01" purity="7.6698839664459229e-01" nType="0">
          <Node pos="l" depth="2" NCoef="0" IVar="-1" Cut="0.0000000000000000e+00" cType="1" res="8.5478590335696936e-04" rms="3.1036773324012756e-01" purity="7.7058672904968262e-01" nType="-99"/>
          <Node pos="r" depth="2" NCoef="0" IVar="-1" Cut="0.0000000000000000e+00" cType="1" res="1.6771111637353897e-02" rms="3.1606417894363403e-01" purity="7.4718081951141357e-01" nType="-99"/>
        </Node>
      </Node>
    </BinaryTree>
    <BinaryTree type="DecisionTree" boostWeight="1.0000000000000000e+00" itree="268">
      <Node pos="s" depth="0" NCoef="0" IVar="3" Cut="1.1996687500000000e+04" cType="0" res="3.7400948349386454e-04" rms="3.0916199088096619e-01" purity="7.8498601913452148e-01" nType="0">
        <Node pos="l" depth="1" NCoef="0" IVar="-1" Cut="0.0000000000000000e+00" cType="1" res="6.6551931202411652e-02" rms="2.7126386761665344e-01" purity="9.1338580846786499e-01" nType="-99"/>
        <Node pos="r" depth="1" NCoef="0" IVar="25" Cut="1.5972678222656250e+03" cType="0" res="1.7150559870060533e-04" rms="3.0913293361663818e-01" purity="7.8485536575317383e-01" nType="0">
          <Node pos="l" depth="2" NCoef="0" IVar="-1" Cut="0.0000000000000000e+00" cType="1" res="2.1590734831988811e-03" rms="3.0093431472778320e-01" purity="8.0272591114044189e-01" nType="-99"/>
          <Node pos="r" depth="2" NCoef="0" IVar="-1" Cut="0.0000000000000000e+00" cType="1" res="-6.9402679800987244e-03" rms="3.3984199166297913e-01" purity="7.1231710910797119e-01" nType="-99"/>
        </Node>
      </Node>
    </BinaryTree>
    <BinaryTree type="DecisionTree" boostWeight="1.0000000000000000e+00" itree="269">
      <Node pos="s" depth="0" NCoef="0" IVar="19" Cut="1.4421093750000000e+05" cType="1" res="2.9095867648720741e-04" rms="3.0824795365333557e-01" purity="7.8583574295043945e-01" nType="0">
        <Node pos="l" depth="1" NCoef="0" IVar="-1" Cut="0.0000000000000000e+00" cType="1" res="1.5233677113428712e-03" rms="3.0484411120414734e-01" purity="7.9032897949218750e-01" nType="-99"/>
        <Node pos="r" depth="1" NCoef="0" IVar="13" Cut="5.7053740234375000e+03" cType="0" res="-1.3455779291689396e-02" rms="3.2346978783607483e-01" purity="7.6463842391967773e-01" nType="0">
          <Node pos="l" depth="2" NCoef="0" IVar="-1" Cut="0.0000000000000000e+00" cType="1" res="1.7764480784535408e-02" rms="2.6008182764053345e-01" purity="8.8168942928314209e-01" nType="-99"/>
          <Node pos="r" depth="2" NCoef="0" IVar="-1" Cut="0.0000000000000000e+00" cType="1" res="-9.5872133970260620e-03" rms="3.3461779356002808e-01" purity="7.3984551429748535e-01" nType="-99"/>
        </Node>
      </Node>
    </BinaryTree>
    <BinaryTree type="DecisionTree" boostWeight="1.0000000000000000e+00" itree="270">
      <Node pos="s" depth="0" NCoef="0" IVar="27" Cut="1.7899925000000000e+05" cType="1" res="6.8156485212966800e-05" rms="3.0830085277557373e-01" purity="7.8526014089584351e-01" nType="0">
        <Node pos="l" depth="1" NCoef="0" IVar="-1" Cut="0.0000000000000000e+00" cType="1" res="5.6340266019105911e-04" rms="3.0667272210121155e-01" purity="7.8634595870971680e-01" nType="-99"/>
        <Node pos="r" depth="1" NCoef="0" IVar="20" Cut="9.0476363897323608e-01" cType="0" res="-3.4480895847082138e-02" rms="3.5271343588829041e-01" purity="7.5208699703216553e-01" nType="0">
          <Node pos="l" depth="2" NCoef="0" IVar="-1" Cut="0.0000000000000000e+00" cType="1" res="-1.6794640570878983e-02" rms="3.5280957818031311e-01" purity="7.5235110521316528e-01" nType="-99"/>
          <Node pos="r" depth="2" NCoef="0" IVar="-1" Cut="0.0000000000000000e+00" cType="1" res="3.7525072693824768e-02" rms="3.1127253174781799e-01" purity="7.4400001764297485e-01" nType="-99"/>
        </Node>
      </Node>
    </BinaryTree>
    <BinaryTree type="DecisionTree" boostWeight="1.0000000000000000e+00" itree="271">
      <Node pos="s" depth="0" NCoef="0" IVar="20" Cut="-4.2857116460800171e-01" cType="0" res="-3.4231561585329473e-04" rms="3.0913385748863220e-01" purity="7.8547996282577515e-01" nType="0">
        <Node pos="l" depth="1" NCoef="0" IVar="-1" Cut="0.0000000000000000e+00" cType="1" res="1.7696524446364492e-04" rms="3.0787089467048645e-01" purity="7.8973209857940674e-01" nType="-99"/>
        <Node pos="r" depth="1" NCoef="0" IVar="19" Cut="1.2780479687500000e+05" cType="0" res="-5.2925895899534225e-02" rms="3.8714811205863953e-01" purity="4.7377830743789673e-01" nType="0">
          <Node pos="l" depth="2" NCoef="0" IVar="-1" Cut="0.0000000000000000e+00" cType="1" res="1.3174160383641720e-02" rms="3.8021790981292725e-01" purity="6.1346632242202759e-01" nType="-99"/>
          <Node pos="r" depth="2" NCoef="0" IVar="-1" Cut="0.0000000000000000e+00" cType="1" res="-4.6688154339790344e-02" rms="3.7278380990028381e-01" purity="3.4589040279388428e-01" nType="-99"/>
        </Node>
      </Node>
    </BinaryTree>
    <BinaryTree type="DecisionTree" boostWeight="1.0000000000000000e+00" itree="272">
      <Node pos="s" depth="0" NCoef="0" IVar="1" Cut="3.0981469726562500e+03" cType="1" res="5.6466006208211184e-04" rms="3.0804008245468140e-01" purity="7.8508448600769043e-01" nType="0">
        <Node pos="l" depth="1" NCoef="0" IVar="-1" Cut="0.0000000000000000e+00" cType="1" res="8.1295153358951211e-04" rms="3.0773839354515076e-01" purity="7.8535139560699463e-01" nType="-99"/>
        <Node pos="r" depth="1" NCoef="0" IVar="9" Cut="1.5641489257812500e+03" cType="0" res="-2.7852244675159454e-02" rms="3.1379717588424683e-01" purity="7.7873104810714722e-01" nType="0">
          <Node pos="l" depth="2" NCoef="0" IVar="-1" Cut="0.0000000000000000e+00" cType="1" res="-5.7337754406034946e-03" rms="2.1915638446807861e-01" purity="9.4745957851409912e-01" nType="-99"/>
          <Node pos="r" depth="2" NCoef="0" IVar="-1" Cut="0.0000000000000000e+00" cType="1" res="-2.7860129252076149e-02" rms="4.5559203624725342e-01" purity="4.0116280317306519e-01" nType="-99"/>
        </Node>
      </Node>
    </BinaryTree>
    <BinaryTree type="DecisionTree" boostWeight="1.0000000000000000e+00" itree="273">
      <Node pos="s" depth="0" NCoef="0" IVar="5" Cut="5.7931953668594360e-01" cType="0" res="-5.3950864821672440e-04" rms="3.0865928530693054e-01" purity="7.8443038463592529e-01" nType="0">
        <Node pos="l" depth="1" NCoef="0" IVar="-1" Cut="0.0000000000000000e+00" cType="1" res="6.0757407918572426e-03" rms="2.5973993539810181e-01" purity="8.9642214775085449e-01" nType="-99"/>
        <Node pos="r" depth="1" NCoef="0" IVar="32" Cut="2.8650271892547607e+00" cType="1" res="-4.0124421939253807e-03" rms="3.2352375984191895e-01" purity="7.4639064073562622e-01" nType="0">
          <Node pos="l" depth="2" NCoef="0" IVar="-1" Cut="0.0000000000000000e+00" cType="1" res="-7.2614237433299422e-04" rms="3.2210135459899902e-01" purity="7.5179916620254517e-01" nType="-99"/>
          <Node pos="r" depth="2" NCoef="0" IVar="-1" Cut="0.0000000000000000e+00" cType="1" res="-1.7123403027653694e-02" rms="3.4404948353767395e-01" purity="6.5617293119430542e-01" nType="-99"/>
        </Node>
      </Node>
    </BinaryTree>
    <BinaryTree type="DecisionTree" boostWeight="1.0000000000000000e+00" itree="274">
      <Node pos="s" depth="0" NCoef="0" IVar="23" Cut="5.3690258789062500e+03" cType="0" res="-4.5216191210784018e-04" rms="3.0963245034217834e-01" purity="7.8492122888565063e-01" nType="0">
        <Node pos="l" depth="1" NCoef="0" IVar="-1" Cut="0.0000000000000000e+00" cType="1" res="2.7208158280700445e-03" rms="2.9444417357444763e-01" purity="8.3088076114654541e-01" nType="-99"/>
        <Node pos="r" depth="1" NCoef="0" IVar="1" Cut="1.6394996337890625e+03" cType="0" res="-6.0009905137121677e-03" rms="3.2334113121032715e-01" purity="7.4113839864730835e-01" nType="0">
          <Node pos="l" depth="2" NCoef="0" IVar="-1" Cut="0.0000000000000000e+00" cType="1" res="-7.6457294635474682e-03" rms="3.1898105144500732e-01" purity="7.4233663082122803e-01" nType="-99"/>
          <Node pos="r" depth="2" NCoef="0" IVar="-1" Cut="0.0000000000000000e+00" cType="1" res="2.9967189766466618e-03" rms="3.2830455899238586e-01" purity="7.3961818218231201e-01" nType="-99"/>
        </Node>
      </Node>
    </BinaryTree>
    <BinaryTree type="DecisionTree" boostWeight="1.0000000000000000e+00" itree="275">
      <Node pos="s" depth="0" NCoef="0" IVar="9" Cut="8.2769177246093750e+02" cType="0" res="9.4554954557679594e-05" rms="3.0829864740371704e-01" purity="7.8473776578903198e-01" nType="0">
        <Node pos="l" depth="1" NCoef="0" IVar="-1" Cut="0.0000000000000000e+00" cType="1" res="8.7658725678920746e-03" rms="2.4452428519725800e-01" purity="9.2618340253829956e-01" nType="-99"/>
        <Node pos="r" depth="1" NCoef="0" IVar="1" Cut="1.9015010986328125e+03" cType="1" res="-2.1753467153757811e-03" rms="3.1869283318519592e-01" purity="7.5845956802368164e-01" nType="0">
          <Node pos="l" depth="2" NCoef="0" IVar="-1" Cut="0.0000000000000000e+00" cType="1" res="2.0568957552313805e-03" rms="3.0493593215942383e-01" purity="8.0113750696182251e-01" nType="-99"/>
          <Node pos="r" depth="2" NCoef="0" IVar="-1" Cut="0.0000000000000000e+00" cType="1" res="-1.0090793482959270e-02" rms="3.6558982729911804e-01" purity="5.9481173753738403e-01" nType="-99"/>
        </Node>
      </Node>
    </BinaryTree>
    <BinaryTree type="DecisionTree" boostWeight="1.0000000000000000e+00" itree="276">
      <Node pos="s" depth="0" NCoef="0" IVar="35" Cut="1.1580952453613281e+02" cType="0" res="3.4387496998533607e-04" rms="3.0845528841018677e-01" purity="7.8529697656631470e-01" nType="0">
        <Node pos="l" depth="1" NCoef="0" IVar="-1" Cut="0.0000000000000000e+00" cType="1" res="-3.0635565053671598e-04" rms="3.0796378850936890e-01" purity="7.8613770008087158e-01" nType="-99"/>
        <Node pos="r" depth="1" NCoef="0" IVar="1" Cut="1.5311125488281250e+03" cType="0" res="2.5857752189040184e-02" rms="3.1979012489318848e-01" purity="7.6365971565246582e-01" nType="0">
          <Node pos="l" depth="2" NCoef="0" IVar="-1" Cut="0.0000000000000000e+00" cType="1" res="4.5323418453335762e-03" rms="3.1874933838844299e-01" purity="7.6881170272827148e-01" nType="-99"/>
          <Node pos="r" depth="2" NCoef="0" IVar="-1" Cut="0.0000000000000000e+00" cType="1" res="2.0035699009895325e-02" rms="3.1982171535491943e-01" purity="7.5491327047348022e-01" nType="-99"/>
        </Node>
      </Node>
    </BinaryTree>
    <BinaryTree type="DecisionTree" boostWeight="1.0000000000000000e+00" itree="277">
      <Node pos="s" depth="0" NCoef="0" IVar="20" Cut="7.1428579092025757e-01" cType="0" res="-3.1396345002576709e-04" rms="3.0903756618499756e-01" purity="7.8570395708084106e-01" nType="0">
        <Node pos="l" depth="1" NCoef="0" IVar="-1" Cut="0.0000000000000000e+00" cType="1" res="1.7573031072970480e-04" rms="3.0777487158775330e-01" purity="7.9033786058425903e-01" nType="-99"/>
        <Node pos="r" depth="1" NCoef="0" IVar="19" Cut="1.0611935156250000e+05" cType="0" res="-4.4648747891187668e-02" rms="3.7937989830970764e-01" purity="4.8571428656578064e-01" nType="0">
          <Node pos="l" depth="2" NCoef="0" IVar="-1" Cut="0.0000000000000000e+00" cType="1" res="7.1951802819967270e-03" rms="3.8311621546745300e-01" purity="6.1631137132644653e-01" nType="-99"/>
          <Node pos="r" depth="2" NCoef="0" IVar="-1" Cut="0.0000000000000000e+00" cType="1" res="-4.6804007142782211e-02" rms="3.5489866137504578e-01" purity="3.1196054816246033e-01" nType="-99"/>
        </Node>
      </Node>
    </BinaryTree>
    <BinaryTree type="DecisionTree" boostWeight="1.0000000000000000e+00" itree="278">
      <Node pos="s" depth="0" NCoef="0" IVar="17" Cut="6.3536242187500000e+04" cType="1" res="6.3604040769860148e-04" rms="3.0934685468673706e-01" purity="7.8564321994781494e-01" nType="0">
        <Node pos="l" depth="1" NCoef="0" IVar="-1" Cut="0.0000000000000000e+00" cType="1" res="1.7623442690819502e-03" rms="3.0803972482681274e-01" purity="7.8951311111450195e-01" nType="-99"/>
        <Node pos="r" depth="1" NCoef="0" IVar="12" Cut="-3.9332299804687500e+02" cType="1" res="-1.1173172853887081e-02" rms="3.1400409340858459e-01" purity="7.7087759971618652e-01" nType="0">
          <Node pos="l" depth="2" NCoef="0" IVar="-1" Cut="0.0000000000000000e+00" cType="1" res="1.3092247769236565e-02" rms="2.2671413421630859e-01" purity="9.1288733482360840e-01" nType="-99"/>
          <Node pos="r" depth="2" NCoef="0" IVar="-1" Cut="0.0000000000000000e+00" cType="1" res="-9.4512738287448883e-03" rms="3.4267684817314148e-01" purity="7.1271377801895142e-01" nType="-99"/>
        </Node>
      </Node>
    </BinaryTree>
    <BinaryTree type="DecisionTree" boostWeight="1.0000000000000000e+00" itree="279">
      <Node pos="s" depth="0" NCoef="0" IVar="11" Cut="4.7621364593505859e+00" cType="1" res="-2.9367403476499021e-04" rms="3.0824473500251770e-01" purity="7.8546267747879028e-01" nType="0">
        <Node pos="l" depth="1" NCoef="0" IVar="-1" Cut="0.0000000000000000e+00" cType="1" res="7.1624414995312691e-03" rms="2.7679514884948730e-01" purity="8.7050288915634155e-01" nType="-99"/>
        <Node pos="r" depth="1" NCoef="0" IVar="5" Cut="-1.1935122013092041e+00" cType="0" res="-2.8237598016858101e-03" rms="3.1370368599891663e-01" purity="7.6958239078521729e-01" nType="0">
          <Node pos="l" depth="2" NCoef="0" IVar="-1" Cut="0.0000000000000000e+00" cType="1" res="-6.4029492205008864e-04" rms="3.1229132413864136e-01" purity="7.7891504764556885e-01" nType="-99"/>
          <Node pos="r" depth="2" NCoef="0" IVar="-1" Cut="0.0000000000000000e+00" cType="1" res="-1.4626738615334034e-02" rms="3.4721255302429199e-01" purity="5.1937365531921387e-01" nType="-99"/>
        </Node>
      </Node>
    </BinaryTree>
    <BinaryTree type="DecisionTree" boostWeight="1.0000000000000000e+00" itree="280">
      <Node pos="s" depth="0" NCoef="0" IVar="7" Cut="1.0729921875000000e+04" cType="0" res="-6.9570938649121672e-05" rms="3.0948865413665771e-01" purity="7.8477263450622559e-01" nType="0">
        <Node pos="l" depth="1" NCoef="0" IVar="-1" Cut="0.0000000000000000e+00" cType="1" res="2.1537940949201584e-02" rms="2.5354295969009399e-01" purity="9.2431277036666870e-01" nType="-99"/>
        <Node pos="r" depth="1" NCoef="0" IVar="14" Cut="6.8259008789062500e+02" cType="0" res="-8.5127493366599083e-04" rms="3.1061267852783203e-01" purity="7.8156447410583496e-01" nType="0">
          <Node pos="l" depth="2" NCoef="0" IVar="-1" Cut="0.0000000000000000e+00" cType="1" res="-8.4519665688276291e-03" rms="2.8355425596237183e-01" purity="8.5335469245910645e-01" nType="-99"/>
          <Node pos="r" depth="2" NCoef="0" IVar="-1" Cut="0.0000000000000000e+00" cType="1" res="1.1737681925296783e-03" rms="3.1711858510971069e-01" purity="7.6306200027465820e-01" nType="-99"/>
        </Node>
      </Node>
    </BinaryTree>
    <BinaryTree type="DecisionTree" boostWeight="1.0000000000000000e+00" itree="281">
      <Node pos="s" depth="0" NCoef="0" IVar="25" Cut="3.9829233398437500e+03" cType="1" res="-7.4293871875852346e-04" rms="3.0903166532516479e-01" purity="7.8360837697982788e-01" nType="0">
        <Node pos="l" depth="1" NCoef="0" IVar="-1" Cut="0.0000000000000000e+00" cType="1" res="-1.0245232842862606e-03" rms="3.0789548158645630e-01" purity="7.8491473197937012e-01" nType="-99"/>
        <Node pos="r" depth="1" NCoef="0" IVar="2" Cut="1.9045111536979675e-01" cType="1" res="2.1207369863986969e-02" rms="3.2536140084266663e-01" purity="7.6334565877914429e-01" nType="0">
          <Node pos="l" depth="2" NCoef="0" IVar="-1" Cut="0.0000000000000000e+00" cType="1" res="1.0926226386800408e-03" rms="3.1735464930534363e-01" purity="7.9427582025527954e-01" nType="-99"/>
          <Node pos="r" depth="2" NCoef="0" IVar="-1" Cut="0.0000000000000000e+00" cType="1" res="2.0872516557574272e-02" rms="3.3870780467987061e-01" purity="6.9517356157302856e-01" nType="-99"/>
        </Node>
      </Node>
    </BinaryTree>
    <BinaryTree type="DecisionTree" boostWeight="1.0000000000000000e+00" itree="282">
      <Node pos="s" depth="0" NCoef="0" IVar="27" Cut="1.0943227343750000e+05" cType="1" res="-8.1375479931011796e-04" rms="3.0845060944557190e-01" purity="7.8414827585220337e-01" nType="0">
        <Node pos="l" depth="1" NCoef="0" IVar="-1" Cut="0.0000000000000000e+00" cType="1" res="7.0702930679544806e-04" rms="3.0608791112899780e-01" purity="7.8595250844955444e-01" nType="-99"/>
        <Node pos="r" depth="1" NCoef="0" IVar="25" Cut="2.5563386230468750e+03" cType="0" res="-1.6445923596620560e-02" rms="3.2357180118560791e-01" purity="7.7192437648773193e-01" nType="0">
          <Node pos="l" depth="2" NCoef="0" IVar="-1" Cut="0.0000000000000000e+00" cType="1" res="9.6675306849647313e-05" rms="2.9563143849372864e-01" purity="8.2086420059204102e-01" nType="-99"/>
          <Node pos="r" depth="2" NCoef="0" IVar="-1" Cut="0.0000000000000000e+00" cType="1" res="-1.5307331457734108e-02" rms="3.5542577505111694e-01" purity="7.0840507745742798e-01" nType="-99"/>
        </Node>
      </Node>
    </BinaryTree>
    <BinaryTree type="DecisionTree" boostWeight="1.0000000000000000e+00" itree="283">
      <Node pos="s" depth="0" NCoef="0" IVar="10" Cut="1.4885011911392212e+00" cType="0" res="4.4382267515175045e-04" rms="3.0871689319610596e-01" purity="7.8509336709976196e-01" nType="0">
        <Node pos="l" depth="1" NCoef="0" IVar="-1" Cut="0.0000000000000000e+00" cType="1" res="6.1353314667940140e-03" rms="2.6123839616775513e-01" purity="8.9316654205322266e-01" nType="-99"/>
        <Node pos="r" depth="1" NCoef="0" IVar="13" Cut="2.0681789550781250e+03" cType="0" res="-2.3966899607330561e-03" rms="3.2158911228179932e-01" purity="7.5255119800567627e-01" nType="0">
          <Node pos="l" depth="2" NCoef="0" IVar="-1" Cut="0.0000000000000000e+00" cType="1" res="1.7809901619330049e-03" rms="3.1092849373817444e-01" purity="7.8143244981765747e-01" nType="-99"/>
          <Node pos="r" depth="2" NCoef="0" IVar="-1" Cut="0.0000000000000000e+00" cType="1" res="-5.5843163281679153e-03" rms="3.3941465616226196e-01" purity="7.0124000310897827e-01" nType="-99"/>
        </Node>
      </Node>
    </BinaryTree>
    <BinaryTree type="DecisionTree" boostWeight="1.0000000000000000e+00" itree="284">
      <Node pos="s" depth="0" NCoef="0" IVar="5" Cut="4.4063550233840942e-01" cType="0" res="-7.2172828367911279e-05" rms="3.0827644467353821e-01" purity="7.8549510240554810e-01" nType="0">
        <Node pos="l" depth="1" NCoef="0" IVar="-1" Cut="0.0000000000000000e+00" cType="1" res="4.9680760130286217e-03" rms="2.6511171460151672e-01" purity="8.8944542407989502e-01" nType="-99"/>
        <Node pos="r" depth="1" NCoef="0" IVar="1" Cut="1.2975493164062500e+03" cType="0" res="-3.4449328668415546e-03" rms="3.2440125942230225e-01" purity="7.4248427152633667e-01" nType="0">
          <Node pos="l" depth="2" NCoef="0" IVar="-1" Cut="0.0000000000000000e+00" cType="1" res="2.6697898283600807e-04" rms="3.1910553574562073e-01" purity="7.8173279762268066e-01" nType="-99"/>
          <Node pos="r" depth="2" NCoef="0" IVar="-1" Cut="0.0000000000000000e+00" cType="1" res="-1.0984597727656364e-02" rms="3.5677883028984070e-01" purity="4.7867757081985474e-01" nType="-99"/>
        </Node>
      </Node>
    </BinaryTree>
    <BinaryTree type="DecisionTree" boostWeight="1.0000000000000000e+00" itree="285">
      <Node pos="s" depth="0" NCoef="0" IVar="2" Cut="2.3806506767868996e-02" cType="1" res="-1.8040643772110343e-04" rms="3.0821141600608826e-01" purity="7.8401637077331543e-01" nType="0">
        <Node pos="l" depth="1" NCoef="0" IVar="-1" Cut="0.0000000000000000e+00" cType="1" res="3.1253814231604338e-03" rms="2.6947775483131409e-01" purity="8.7991106510162354e-01" nType="-99"/>
        <Node pos="r" depth="1" NCoef="0" IVar="9" Cut="2.9568734741210938e+02" cType="0" res="-5.3159426897764206e-03" rms="3.4089690446853638e-01" purity="6.9285935163497925e-01" nType="0">
          <Node pos="l" depth="2" NCoef="0" IVar="-1" Cut="0.0000000000000000e+00" cType="1" res="1.2275828048586845e-03" rms="3.2490333914756775e-01" purity="7.6412951946258545e-01" nType="-99"/>
          <Node pos="r" depth="2" NCoef="0" IVar="-1" Cut="0.0000000000000000e+00" cType="1" res="-6.3468459993600845e-03" rms="3.6388659477233887e-01" purity="5.8262878656387329e-01" nType="-99"/>
        </Node>
      </Node>
    </BinaryTree>
    <BinaryTree type="DecisionTree" boostWeight="1.0000000000000000e+00" itree="286">
      <Node pos="s" depth="0" NCoef="0" IVar="9" Cut="8.2769177246093750e+02" cType="0" res="1.1681787436828017e-03" rms="3.0809569358825684e-01" purity="7.8584933280944824e-01" nType="0">
        <Node pos="l" depth="1" NCoef="0" IVar="-1" Cut="0.0000000000000000e+00" cType="1" res="9.4883684068918228e-03" rms="2.4428564310073853e-01" purity="9.2722451686859131e-01" nType="-99"/>
        <Node pos="r" depth="1" NCoef="0" IVar="1" Cut="1.9015010986328125e+03" cType="1" res="-1.0855564614757895e-03" rms="3.1853380799293518e-01" purity="7.5948488712310791e-01" nType="0">
          <Node pos="l" depth="2" NCoef="0" IVar="-1" Cut="0.0000000000000000e+00" cType="1" res="2.1665808744728565e-03" rms="3.0459329485893250e-01" purity="8.0055552721023560e-01" nType="-99"/>
          <Node pos="r" depth="2" NCoef="0" IVar="-1" Cut="0.0000000000000000e+00" cType="1" res="-8.5770376026630402e-03" rms="3.6646595597267151e-01" purity="6.0134607553482056e-01" nType="-99"/>
        </Node>
      </Node>
    </BinaryTree>
    <BinaryTree type="DecisionTree" boostWeight="1.0000000000000000e+00" itree="287">
      <Node pos="s" depth="0" NCoef="0" IVar="7" Cut="1.0729921875000000e+04" cType="0" res="-8.9484214549884200e-04" rms="3.0978703498840332e-01" purity="7.8415840864181519e-01" nType="0">
        <Node pos="l" depth="1" NCoef="0" IVar="-1" Cut="0.0000000000000000e+00" cType="1" res="2.1098963916301727e-02" rms="2.4749027192592621e-01" purity="9.2812383174896240e-01" nType="-99"/>
        <Node pos="r" depth="1" NCoef="0" IVar="27" Cut="3.2260568359375000e+04" cType="0" res="-1.6306152101606131e-03" rms="3.1099328398704529e-01" purity="7.8095018863677979e-01" nType="0">
          <Node pos="l" depth="2" NCoef="0" IVar="-1" Cut="0.0000000000000000e+00" cType="1" res="-2.2425169590860605e-03" rms="3.1053569912910461e-01" purity="7.8674489259719849e-01" nType="-99"/>
          <Node pos="r" depth="2" NCoef="0" IVar="-1" Cut="0.0000000000000000e+00" cType="1" res="4.3599093332886696e-03" rms="3.1235778331756592e-01" purity="7.6041352748870850e-01" nType="-99"/>
        </Node>
      </Node>
    </BinaryTree>
    <BinaryTree type="DecisionTree" boostWeight="1.0000000000000000e+00" itree="288">
      <Node pos="s" depth="0" NCoef="0" IVar="0" Cut="2.7000000000000000e+01" cType="1" res="6.3748774118721485e-04" rms="3.0768492817878723e-01" purity="7.8518944978713989e-01" nType="0">
        <Node pos="l" depth="1" NCoef="0" IVar="-1" Cut="0.0000000000000000e+00" cType="1" res="4.4304196489974856e-04" rms="3.0801653861999512e-01" purity="7.8786003589630127e-01" nType="-99"/>
        <Node pos="r" depth="1" NCoef="0" IVar="5" Cut="-2.9409626126289368e-01" cType="1" res="-7.8834690153598785e-02" rms="1.8524858355522156e-01" purity="7.8723400831222534e-02" nType="0">
          <Node pos="l" depth="2" NCoef="0" IVar="-1" Cut="0.0000000000000000e+00" cType="1" res="1.6535846516489983e-02" rms="1.9161143898963928e-01" purity="1.7931035161018372e-01" nType="-99"/>
          <Node pos="r" depth="2" NCoef="0" IVar="-1" Cut="0.0000000000000000e+00" cType="1" res="-5.4803527891635895e-02" rms="1.6153460741043091e-01" purity="3.3846154808998108e-02" nType="-99"/>
        </Node>
      </Node>
    </BinaryTree>
    <BinaryTree type="DecisionTree" boostWeight="1.0000000000000000e+00" itree="289">
      <Node pos="s" depth="0" NCoef="0" IVar="3" Cut="3.9036367187500000e+03" cType="0" res="-2.4072264204733074e-04" rms="3.0821660161018372e-01" purity="7.8481042385101318e-01" nType="0">
        <Node pos="l" depth="1" NCoef="0" IVar="-1" Cut="0.0000000000000000e+00" cType="1" res="4.2826584540307522e-03" rms="3.0761298537254333e-01" purity="7.9586488008499146e-01" nType="-99"/>
        <Node pos="r" depth="1" NCoef="0" IVar="0" Cut="7.8571429252624512e+00" cType="1" res="-5.4386798292398453e-03" rms="3.0844199657440186e-01" purity="7.7847212553024292e-01" nType="0">
          <Node pos="l" depth="2" NCoef="0" IVar="-1" Cut="0.0000000000000000e+00" cType="1" res="2.3501061368733644e-03" rms="2.7662235498428345e-01" purity="8.7857007980346680e-01" nType="-99"/>
          <Node pos="r" depth="2" NCoef="0" IVar="-1" Cut="0.0000000000000000e+00" cType="1" res="-1.0229797102510929e-02" rms="3.8216751813888550e-01" purity="4.9942615628242493e-01" nType="-99"/>
        </Node>
      </Node>
    </BinaryTree>
    <BinaryTree type="DecisionTree" boostWeight="1.0000000000000000e+00" itree="290">
      <Node pos="s" depth="0" NCoef="0" IVar="3" Cut="1.1994725585937500e+04" cType="0" res="-3.5421299980953336e-04" rms="3.0825835466384888e-01" purity="7.8503984212875366e-01" nType="0">
        <Node pos="l" depth="1" NCoef="0" IVar="-1" Cut="0.0000000000000000e+00" cType="1" res="5.9260580688714981e-02" rms="2.6004201173782349e-01" purity="8.8709676265716553e-01" nType="-99"/>
        <Node pos="r" depth="1" NCoef="0" IVar="25" Cut="1.5972678222656250e+03" cType="0" res="-5.2163656800985336e-04" rms="3.0825704336166382e-01" purity="7.8493803739547729e-01" nType="0">
          <Node pos="l" depth="2" NCoef="0" IVar="-1" Cut="0.0000000000000000e+00" cType="1" res="1.1584075400605798e-03" rms="3.0088600516319275e-01" purity="8.0165457725524902e-01" nType="-99"/>
          <Node pos="r" depth="2" NCoef="0" IVar="-1" Cut="0.0000000000000000e+00" cType="1" res="-4.9668899737298489e-03" rms="3.3625057339668274e-01" purity="7.1713846921920776e-01" nType="-99"/>
        </Node>
      </Node>
    </BinaryTree>
    <BinaryTree type="DecisionTree" boostWeight="1.0000000000000000e+00" itree="291">
      <Node pos="s" depth="0" NCoef="0" IVar="1" Cut="2.6440297851562500e+03" cType="1" res="-7.2282389737665653e-05" rms="3.0756244063377380e-01" purity="7.8571659326553345e-01" nType="0">
        <Node pos="l" depth="1" NCoef="0" IVar="-1" Cut="0.0000000000000000e+00" cType="1" res="6.6605041502043605e-04" rms="3.0681869387626648e-01" purity="7.8942912817001343e-01" nType="-99"/>
        <Node pos="r" depth="1" NCoef="0" IVar="9" Cut="5.6771740722656250e+02" cType="0" res="-1.4915418811142445e-02" rms="3.1440350413322449e-01" purity="7.4917548894882202e-01" nType="0">
          <Node pos="l" depth="2" NCoef="0" IVar="-1" Cut="0.0000000000000000e+00" cType="1" res="-2.3293338716030121e-02" rms="2.8441196680068970e-01" purity="8.5426706075668335e-01" nType="-99"/>
          <Node pos="r" depth="2" NCoef="0" IVar="-1" Cut="0.0000000000000000e+00" cType="1" res="2.0103415474295616e-02" rms="4.1174545884132385e-01" purity="2.9958772659301758e-01" nType="-99"/>
        </Node>
      </Node>
    </BinaryTree>
    <BinaryTree type="DecisionTree" boostWeight="1.0000000000000000e+00" itree="292">
      <Node pos="s" depth="0" NCoef="0" IVar="0" Cut="4.7142858505249023e+00" cType="1" res="-1.6703749133739620e-04" rms="3.0789375305175781e-01" purity="7.8476554155349731e-01" nType="0">
        <Node pos="l" depth="1" NCoef="0" IVar="-1" Cut="0.0000000000000000e+00" cType="1" res="5.3389240056276321e-03" rms="2.4407213926315308e-01" purity="9.1761445999145508e-01" nType="-99"/>
        <Node pos="r" depth="1" NCoef="0" IVar="14" Cut="6.8971289062500000e+02" cType="0" res="-3.5414192825555801e-03" rms="3.3221131563186646e-01" purity="7.2592413425445557e-01" nType="0">
          <Node pos="l" depth="2" NCoef="0" IVar="-1" Cut="0.0000000000000000e+00" cType="1" res="-1.7265390604734421e-02" rms="3.2565325498580933e-01" purity="7.5337165594100952e-01" nType="-99"/>
          <Node pos="r" depth="2" NCoef="0" IVar="-1" Cut="0.0000000000000000e+00" cType="1" res="2.0224915351718664e-04" rms="3.3273625373840332e-01" purity="7.2271233797073364e-01" nType="-99"/>
        </Node>
      </Node>
    </BinaryTree>
    <BinaryTree type="DecisionTree" boostWeight="1.0000000000000000e+00" itree="293">
      <Node pos="s" depth="0" NCoef="0" IVar="9" Cut="8.4069299316406250e+02" cType="0" res="-9.5950636023189873e-05" rms="3.0792289972305298e-01" purity="7.8504246473312378e-01" nType="0">
        <Node pos="l" depth="1" NCoef="0" IVar="-1" Cut="0.0000000000000000e+00" cType="1" res="8.7880045175552368e-03" rms="2.4168978631496429e-01" purity="9.2868292331695557e-01" nType="-99"/>
        <Node pos="r" depth="1" NCoef="0" IVar="9" Cut="1.6985839843750000e+02" cType="0" res="-2.3032301105558872e-03" rms="3.1848442554473877e-01" purity="7.5881260633468628e-01" nType="0">
          <Node pos="l" depth="2" NCoef="0" IVar="-1" Cut="0.0000000000000000e+00" cType="1" res="4.5314634917303920e-04" rms="3.1220820546150208e-01" purity="7.7471649646759033e-01" nType="-99"/>
          <Node pos="r" depth="2" NCoef="0" IVar="-1" Cut="0.0000000000000000e+00" cType="1" res="-1.4804534614086151e-02" rms="3.8305455446243286e-01" purity="5.7013684511184692e-01" nType="-99"/>
        </Node>
      </Node>
    </BinaryTree>
    <BinaryTree type="DecisionTree" boostWeight="1.0000000000000000e+00" itree="294">
      <Node pos="s" depth="0" NCoef="0" IVar="9" Cut="8.4069299316406250e+02" cType="0" res="-6.5254711080342531e-04" rms="3.0810940265655518e-01" purity="7.8430175781250000e-01" nType="0">
        <Node pos="l" depth="1" NCoef="0" IVar="-1" Cut="0.0000000000000000e+00" cType="1" res="8.5413921624422073e-03" rms="2.4009537696838379e-01" purity="9.2930257320404053e-01" nType="-99"/>
        <Node pos="r" depth="1" NCoef="0" IVar="1" Cut="1.9696950683593750e+03" cType="1" res="-2.8279330581426620e-03" rms="3.1868681311607361e-01" purity="7.5839722156524658e-01" nType="0">
          <Node pos="l" depth="2" NCoef="0" IVar="-1" Cut="0.0000000000000000e+00" cType="1" res="8.5204135393723845e-04" rms="3.0457946658134460e-01" purity="8.0068999528884888e-01" nType="-99"/>
          <Node pos="r" depth="2" NCoef="0" IVar="-1" Cut="0.0000000000000000e+00" cType="1" res="-9.1851130127906799e-03" rms="3.8128170371055603e-01" purity="5.4448395967483521e-01" nType="-99"/>
        </Node>
      </Node>
    </BinaryTree>
    <BinaryTree type="DecisionTree" boostWeight="1.0000000000000000e+00" itree="295">
      <Node pos="s" depth="0" NCoef="0" IVar="1" Cut="9.0463214111328125e+02" cType="0" res="4.9449823563918471e-04" rms="3.0740749835968018e-01" purity="7.8463727235794067e-01" nType="0">
        <Node pos="l" depth="1" NCoef="0" IVar="-1" Cut="0.0000000000000000e+00" cType="1" res="5.2038166904821992e-04" rms="3.0868405103683472e-01" purity="7.9250180721282959e-01" nType="-99"/>
        <Node pos="r" depth="1" NCoef="0" IVar="0" Cut="7.9523811340332031e+00" cType="1" res="-5.9116750955581665e-02" rms="1.1645749956369400e-01" purity="1.1173184029757977e-02" nType="0">
          <Node pos="l" depth="2" NCoef="0" IVar="-1" Cut="0.0000000000000000e+00" cType="1" res="-5.0522685050964355e-02" rms="2.0116600394248962e-01" purity="4.0358744561672211e-02" nType="-99"/>
          <Node pos="r" depth="2" NCoef="0" IVar="-1" Cut="0.0000000000000000e+00" cType="1" res="-4.9820572137832642e-02" rms="7.9279161989688873e-02" purity="4.8543689772486687e-03" nType="-99"/>
        </Node>
      </Node>
    </BinaryTree>
    <BinaryTree type="DecisionTree" boostWeight="1.0000000000000000e+00" itree="296">
      <Node pos="s" depth="0" NCoef="0" IVar="11" Cut="3.5731954574584961e+00" cType="1" res="-3.8823156501166523e-04" rms="3.0845227837562561e-01" purity="7.8398710489273071e-01" nType="0">
        <Node pos="l" depth="1" NCoef="0" IVar="-1" Cut="0.0000000000000000e+00" cType="1" res="8.1859305500984192e-03" rms="2.7570593357086182e-01" purity="8.8172513246536255e-01" nType="-99"/>
        <Node pos="r" depth="1" NCoef="0" IVar="13" Cut="2.5783769531250000e+03" cType="0" res="-2.2401735186576843e-03" rms="3.1219154596328735e-01" purity="7.7196937799453735e-01" nType="0">
          <Node pos="l" depth="2" NCoef="0" IVar="-1" Cut="0.0000000000000000e+00" cType="1" res="2.1963799372315407e-03" rms="2.9959154129028320e-01" purity="8.0857986211776733e-01" nType="-99"/>
          <Node pos="r" depth="2" NCoef="0" IVar="-1" Cut="0.0000000000000000e+00" cType="1" res="-3.4621283411979675e-03" rms="3.2204017043113708e-01" purity="7.4198454618453979e-01" nType="-99"/>
        </Node>
      </Node>
    </BinaryTree>
    <BinaryTree type="DecisionTree" boostWeight="1.0000000000000000e+00" itree="297">
      <Node pos="s" depth="0" NCoef="0" IVar="1" Cut="2.7538886718750000e+03" cType="1" res="9.8368758335709572e-04" rms="3.0660369992256165e-01" purity="7.8560358285903931e-01" nType="0">
        <Node pos="l" depth="1" NCoef="0" IVar="-1" Cut="0.0000000000000000e+00" cType="1" res="1.1829662835225463e-03" rms="3.0569908022880554e-01" purity="7.8806358575820923e-01" nType="-99"/>
        <Node pos="r" depth="1" NCoef="0" IVar="9" Cut="4.9606521606445312e+02" cType="0" res="-1.8085172399878502e-02" rms="3.1686073541641235e-01" purity="7.5545620918273926e-01" nType="0">
          <Node pos="l" depth="2" NCoef="0" IVar="-1" Cut="0.0000000000000000e+00" cType="1" res="-2.6477599516510963e-02" rms="2.9390820860862732e-01" purity="8.3819097280502319e-01" nType="-99"/>
          <Node pos="r" depth="2" NCoef="0" IVar="-1" Cut="0.0000000000000000e+00" cType="1" res="3.3331140875816345e-02" rms="4.0695992112159729e-01" purity="2.9588276147842407e-01" nType="-99"/>
        </Node>
      </Node>
    </BinaryTree>
    <BinaryTree type="DecisionTree" boostWeight="1.0000000000000000e+00" itree="298">
      <Node pos="s" depth="0" NCoef="0" IVar="13" Cut="6.8688798828125000e+03" cType="0" res="-6.5823498880490661e-04" rms="3.0883646011352539e-01" purity="7.8391158580780029e-01" nType="0">
        <Node pos="l" depth="1" NCoef="0" IVar="-1" Cut="0.0000000000000000e+00" cType="1" res="1.6551539301872253e-02" rms="2.4643006920814514e-01" purity="9.0465211868286133e-01" nType="-99"/>
        <Node pos="r" depth="1" NCoef="0" IVar="14" Cut="5.6502178955078125e+02" cType="0" res="-1.6664892900735140e-03" rms="3.1102487444877625e-01" purity="7.7909272909164429e-01" nType="0">
          <Node pos="l" depth="2" NCoef="0" IVar="-1" Cut="0.0000000000000000e+00" cType="1" res="-8.4397047758102417e-03" rms="2.8892076015472412e-01" purity="8.4048861265182495e-01" nType="-99"/>
          <Node pos="r" depth="2" NCoef="0" IVar="-1" Cut="0.0000000000000000e+00" cType="1" res="1.3337846612557769e-03" rms="3.1827479600906372e-01" purity="7.5757849216461182e-01" nType="-99"/>
        </Node>
      </Node>
    </BinaryTree>
    <BinaryTree type="DecisionTree" boostWeight="1.0000000000000000e+00" itree="299">
      <Node pos="s" depth="0" NCoef="0" IVar="12" Cut="-2.4542778320312500e+03" cType="1" res="-1.5968065417837352e-04" rms="3.0690535902976990e-01" purity="7.8505241870880127e-01" nType="0">
        <Node pos="l" depth="1" NCoef="0" IVar="-1" Cut="0.0000000000000000e+00" cType="1" res="2.5449343025684357e-02" rms="1.6696834564208984e-01" purity="9.6191817522048950e-01" nType="-99"/>
        <Node pos="r" depth="1" NCoef="0" IVar="12" Cut="-8.6915466308593750e+02" cType="1" res="-1.2005905155092478e-03" rms="3.1129732728004456e-01" purity="7.7773797512054443e-01" nType="0">
          <Node pos="l" depth="2" NCoef="0" IVar="-1" Cut="0.0000000000000000e+00" cType="1" res="2.1244982257485390e-02" rms="1.9518105685710907e-01" purity="9.3798375129699707e-01" nType="-99"/>
          <Node pos="r" depth="2" NCoef="0" IVar="-1" Cut="0.0000000000000000e+00" cType="1" res="-1.7026346176862717e-03" rms="3.1983283162117004e-01" purity="7.6284152269363403e-01" nType="-99"/>
        </Node>
      </Node>
    </BinaryTree>
    <BinaryTree type="DecisionTree" boostWeight="1.0000000000000000e+00" itree="300">
      <Node pos="s" depth="0" NCoef="0" IVar="19" Cut="2.0998990625000000e+05" cType="1" res="-3.9726519025862217e-04" rms="3.0743899941444397e-01" purity="7.8391474485397339e-01" nType="0">
        <Node pos="l" depth="1" NCoef="0" IVar="-1" Cut="0.0000000000000000e+00" cType="1" res="4.9085781211033463e-04" rms="3.0528295040130615e-01" purity="7.8686177730560303e-01" nType="-99"/>
        <Node pos="r" depth="1" NCoef="0" IVar="0" Cut="8.4285717010498047e+00" cType="1" res="-2.2277576848864555e-02" rms="3.3812725543975830e-01" purity="7.3858267068862915e-01" nType="0">
          <Node pos="l" depth="2" NCoef="0" IVar="-1" Cut="0.0000000000000000e+00" cType="1" res="-3.1681451946496964e-03" rms="3.2032969594001770e-01" purity="8.3464705944061279e-01" nType="-99"/>
          <Node pos="r" depth="2" NCoef="0" IVar="-1" Cut="0.0000000000000000e+00" cType="1" res="-2.1343158558011055e-02" rms="3.8258537650108337e-01" purity="4.5159602165222168e-01" nType="-99"/>
        </Node>
      </Node>
    </BinaryTree>
    <BinaryTree type="DecisionTree" boostWeight="1.0000000000000000e+00" itree="301">
      <Node pos="s" depth="0" NCoef="0" IVar="1" Cut="1.5721202392578125e+03" cType="0" res="1.3243108987808228e-03" rms="3.0724158883094788e-01" purity="7.8569704294204712e-01" nType="0">
        <Node pos="l" depth="1" NCoef="0" IVar="-1" Cut="0.0000000000000000e+00" cType="1" res="-1.1929902248084545e-03" rms="3.0257922410964966e-01" purity="8.0163574218750000e-01" nType="-99"/>
        <Node pos="r" depth="1" NCoef="0" IVar="9" Cut="5.4461578369140625e+02" cType="1" res="7.0977709256112576e-03" rms="3.1427127122879028e-01" purity="7.6089775562286377e-01" nType="0">
          <Node pos="l" depth="2" NCoef="0" IVar="-1" Cut="0.0000000000000000e+00" cType="1" res="6.1361244879662991e-03" rms="3.0759355425834656e-01" purity="7.6636934280395508e-01" nType="-99"/>
          <Node pos="r" depth="2" NCoef="0" IVar="-1" Cut="0.0000000000000000e+00" cType="1" res="-1.2284325808286667e-01" rms="4.3305072188377380e-01" purity="5.3409093618392944e-01" nType="-99"/>
        </Node>
      </Node>
    </BinaryTree>
    <BinaryTree type="DecisionTree" boostWeight="1.0000000000000000e+00" itree="302">
      <Node pos="s" depth="0" NCoef="0" IVar="0" Cut="6.5714287757873535e+00" cType="1" res="-5.5234215687960386e-04" rms="3.0765244364738464e-01" purity="7.8486484289169312e-01" nType="0">
        <Node pos="l" depth="1" NCoef="0" IVar="-1" Cut="0.0000000000000000e+00" cType="1" res="2.6911648456007242e-03" rms="2.6249808073043823e-01" purity="8.9688110351562500e-01" nType="-99"/>
        <Node pos="r" depth="1" NCoef="0" IVar="14" Cut="8.9571716308593750e+02" cType="1" res="-6.5186130814254284e-03" rms="3.5603773593902588e-01" purity="6.4486217498779297e-01" nType="0">
          <Node pos="l" depth="2" NCoef="0" IVar="-1" Cut="0.0000000000000000e+00" cType="1" res="-1.4025907730683684e-03" rms="3.5501417517662048e-01" purity="6.4825963973999023e-01" nType="-99"/>
          <Node pos="r" depth="2" NCoef="0" IVar="-1" Cut="0.0000000000000000e+00" cType="1" res="-4.8068948090076447e-02" rms="3.8159114122390747e-01" purity="4.7141519188880920e-01" nType="-99"/>
        </Node>
      </Node>
    </BinaryTree>
    <BinaryTree type="DecisionTree" boostWeight="1.0000000000000000e+00" itree="303">
      <Node pos="s" depth="0" NCoef="0" IVar="0" Cut="4.7142858505249023e+00" cType="1" res="-6.5920199267566204e-04" rms="3.0840861797332764e-01" purity="7.8413814306259155e-01" nType="0">
        <Node pos="l" depth="1" NCoef="0" IVar="-1" Cut="0.0000000000000000e+00" cType="1" res="5.5791609920561314e-03" rms="2.4321362376213074e-01" purity="9.1865366697311401e-01" nType="-99"/>
        <Node pos="r" depth="1" NCoef="0" IVar="14" Cut="7.3161254882812500e+02" cType="0" res="-4.3809772469103336e-03" rms="3.3318519592285156e-01" purity="7.2451037168502808e-01" nType="0">
          <Node pos="l" depth="2" NCoef="0" IVar="-1" Cut="0.0000000000000000e+00" cType="1" res="-1.5853911638259888e-02" rms="3.2835835218429565e-01" purity="7.5171709060668945e-01" nType="-99"/>
          <Node pos="r" depth="2" NCoef="0" IVar="-1" Cut="0.0000000000000000e+00" cType="1" res="-5.0456635653972626e-04" rms="3.3350294828414917e-01" purity="7.2177964448928833e-01" nType="-99"/>
        </Node>
      </Node>
    </BinaryTree>
    <BinaryTree type="DecisionTree" boostWeight="1.0000000000000000e+00" itree="304">
      <Node pos="s" depth="0" NCoef="0" IVar="13" Cut="6.8688798828125000e+03" cType="0" res="-1.1805578833445907e-03" rms="3.0828133225440979e-01" purity="7.8423959016799927e-01" nType="0">
        <Node pos="l" depth="1" NCoef="0" IVar="-1" Cut="0.0000000000000000e+00" cType="1" res="1.6953954473137856e-02" rms="2.4014733731746674e-01" purity="9.1008508205413818e-01" nType="-99"/>
        <Node pos="r" depth="1" NCoef="0" IVar="14" Cut="5.6436737060546875e+02" cType="0" res="-2.2344442550092936e-03" rms="3.1073266267776489e-01" purity="7.7903497219085693e-01" nType="0">
          <Node pos="l" depth="2" NCoef="0" IVar="-1" Cut="0.0000000000000000e+00" cType="1" res="-7.2612948715686798e-03" rms="2.8803640604019165e-01" purity="8.4032887220382690e-01" nType="-99"/>
          <Node pos="r" depth="2" NCoef="0" IVar="-1" Cut="0.0000000000000000e+00" cType="1" res="6.9587980397045612e-04" rms="3.1826731562614441e-01" purity="7.5740993022918701e-01" nType="-99"/>
        </Node>
      </Node>
    </BinaryTree>
    <BinaryTree type="DecisionTree" boostWeight="1.0000000000000000e+00" itree="305">
      <Node pos="s" depth="0" NCoef="0" IVar="23" Cut="8.0181083984375000e+03" cType="0" res="5.7405367260798812e-04" rms="3.0713686347007751e-01" purity="7.8561657667160034e-01" nType="0">
        <Node pos="l" depth="1" NCoef="0" IVar="-1" Cut="0.0000000000000000e+00" cType="1" res="6.2443949282169342e-03" rms="2.7866283059120178e-01" purity="8.6119765043258667e-01" nType="-99"/>
        <Node pos="r" depth="1" NCoef="0" IVar="13" Cut="2.9079655761718750e+03" cType="0" res="-2.2228574380278587e-03" rms="3.1423583626747131e-01" purity="7.6546049118041992e-01" nType="0">
          <Node pos="l" depth="2" NCoef="0" IVar="-1" Cut="0.0000000000000000e+00" cType="1" res="5.3601823747158051e-03" rms="2.9653075337409973e-01" purity="8.1157594919204712e-01" nType="-99"/>
          <Node pos="r" depth="2" NCoef="0" IVar="-1" Cut="0.0000000000000000e+00" cType="1" res="-3.0580703169107437e-03" rms="3.2002452015876770e-01" purity="7.4945056438446045e-01" nType="-99"/>
        </Node>
      </Node>
    </BinaryTree>
    <BinaryTree type="DecisionTree" boostWeight="1.0000000000000000e+00" itree="306">
      <Node pos="s" depth="0" NCoef="0" IVar="17" Cut="6.3536242187500000e+04" cType="1" res="-2.0560095435939729e-04" rms="3.0747014284133911e-01" purity="7.8346192836761475e-01" nType="0">
        <Node pos="l" depth="1" NCoef="0" IVar="-1" Cut="0.0000000000000000e+00" cType="1" res="1.2055143015459180e-03" rms="3.0652737617492676e-01" purity="7.8686255216598511e-01" nType="-99"/>
        <Node pos="r" depth="1" NCoef="0" IVar="0" Cut="1.2142857551574707e+01" cType="1" res="-1.0684652253985405e-02" rms="3.1082049012184143e-01" purity="7.7047854661941528e-01" nType="0">
          <Node pos="l" depth="2" NCoef="0" IVar="-1" Cut="0.0000000000000000e+00" cType="1" res="-2.1327147260308266e-03" rms="3.0323910713195801e-01" purity="8.1729495525360107e-01" nType="-99"/>
          <Node pos="r" depth="2" NCoef="0" IVar="-1" Cut="0.0000000000000000e+00" cType="1" res="-2.0964218303561211e-02" rms="3.6743897199630737e-01" purity="3.4688347578048706e-01" nType="-99"/>
        </Node>
      </Node>
    </BinaryTree>
    <BinaryTree type="DecisionTree" boostWeight="1.0000000000000000e+00" itree="307">
      <Node pos="s" depth="0" NCoef="0" IVar="2" Cut="1.9045205414295197e-01" cType="1" res="7.3732982855290174e-05" rms="3.0748048424720764e-01" purity="7.8456670045852661e-01" nType="0">
        <Node pos="l" depth="1" NCoef="0" IVar="-1" Cut="0.0000000000000000e+00" cType="1" res="-1.1650752276182175e-03" rms="2.9758191108703613e-01" purity="8.1459993124008179e-01" nType="-99"/>
        <Node pos="r" depth="1" NCoef="0" IVar="9" Cut="2.6395642089843750e+02" cType="0" res="1.1454408988356590e-02" rms="3.5089373588562012e-01" purity="6.4045625925064087e-01" nType="0">
          <Node pos="l" depth="2" NCoef="0" IVar="-1" Cut="0.0000000000000000e+00" cType="1" res="9.9948290735483170e-03" rms="3.3303543925285339e-01" purity="7.1204000711441040e-01" nType="-99"/>
          <Node pos="r" depth="2" NCoef="0" IVar="-1" Cut="0.0000000000000000e+00" cType="1" res="-4.8881778493523598e-03" rms="3.7953183054924011e-01" purity="5.1172482967376709e-01" nType="-99"/>
        </Node>
      </Node>
    </BinaryTree>
    <BinaryTree type="DecisionTree" boostWeight="1.0000000000000000e+00" itree="308">
      <Node pos="s" depth="0" NCoef="0" IVar="1" Cut="1.5721202392578125e+03" cType="0" res="-8.6841573647689074e-05" rms="3.0687317252159119e-01" purity="7.8483051061630249e-01" nType="0">
        <Node pos="l" depth="1" NCoef="0" IVar="-1" Cut="0.0000000000000000e+00" cType="1" res="-1.9816779531538486e-03" rms="3.0313086509704590e-01" purity="7.9909473657608032e-01" nType="-99"/>
        <Node pos="r" depth="1" NCoef="0" IVar="9" Cut="5.0023358154296875e+02" cType="1" res="5.9574483893811703e-03" rms="3.1254124641418457e-01" purity="7.6251846551895142e-01" nType="0">
          <Node pos="l" depth="2" NCoef="0" IVar="-1" Cut="0.0000000000000000e+00" cType="1" res="6.0666361823678017e-03" rms="3.0545091629028320e-01" purity="7.6833266019821167e-01" nType="-99"/>
          <Node pos="r" depth="2" NCoef="0" IVar="-1" Cut="0.0000000000000000e+00" cType="1" res="-7.5068704783916473e-02" rms="4.0588739514350891e-01" purity="6.3006347417831421e-01" nType="-99"/>
        </Node>
      </Node>
    </BinaryTree>
    <BinaryTree type="DecisionTree" boostWeight="1.0000000000000000e+00" itree="309">
      <Node pos="s" depth="0" NCoef="0" IVar="2" Cut="4.7613013535737991e-02" cType="1" res="1.7992474604398012e-03" rms="3.0527383089065552e-01" purity="7.8654229640960693e-01" nType="0">
        <Node pos="l" depth="1" NCoef="0" IVar="-1" Cut="0.0000000000000000e+00" cType="1" res="3.4820074215531349e-03" rms="2.7196800708770752e-01" purity="8.6830991506576538e-01" nType="-99"/>
        <Node pos="r" depth="1" NCoef="0" IVar="2" Cut="1.7685191333293915e-01" cType="1" res="-3.9168298244476318e-03" rms="3.4505945444107056e-01" purity="6.7625653743743896e-01" nType="0">
          <Node pos="l" depth="2" NCoef="0" IVar="-1" Cut="0.0000000000000000e+00" cType="1" res="-5.3832493722438812e-03" rms="3.4254616498947144e-01" purity="7.0027184486389160e-01" nType="-99"/>
          <Node pos="r" depth="2" NCoef="0" IVar="-1" Cut="0.0000000000000000e+00" cType="1" res="3.2354393042623997e-03" rms="3.4792011976242065e-01" purity="6.4478427171707153e-01" nType="-99"/>
        </Node>
      </Node>
    </BinaryTree>
    <BinaryTree type="DecisionTree" boostWeight="1.0000000000000000e+00" itree="310">
      <Node pos="s" depth="0" NCoef="0" IVar="1" Cut="1.2285875244140625e+03" cType="0" res="2.0257428695913404e-04" rms="3.0633133649826050e-01" purity="7.8453487157821655e-01" nType="0">
        <Node pos="l" depth="1" NCoef="0" IVar="-1" Cut="0.0000000000000000e+00" cType="1" res="1.3605278218165040e-03" rms="3.0285504460334778e-01" purity="8.1421381235122681e-01" nType="-99"/>
        <Node pos="r" depth="1" NCoef="0" IVar="9" Cut="2.7912460327148438e+02" cType="1" res="-3.2667830586433411e-02" rms="3.4564667940139771e-01" purity="4.0896174311637878e-01" nType="0">
          <Node pos="l" depth="2" NCoef="0" IVar="-1" Cut="0.0000000000000000e+00" cType="1" res="-1.3400525785982609e-03" rms="3.3974146842956543e-01" purity="4.4701141119003296e-01" nType="-99"/>
          <Node pos="r" depth="2" NCoef="0" IVar="-1" Cut="0.0000000000000000e+00" cType="1" res="-5.6516379117965698e-02" rms="3.4242284297943115e-01" purity="2.4281525611877441e-01" nType="-99"/>
        </Node>
      </Node>
    </BinaryTree>
    <BinaryTree type="DecisionTree" boostWeight="1.0000000000000000e+00" itree="311">
      <Node pos="s" depth="0" NCoef="0" IVar="1" Cut="3.7159392089843750e+03" cType="0" res="3.6125697079114616e-04" rms="3.0637994408607483e-01" purity="7.8578954935073853e-01" nType="0">
        <Node pos="l" depth="1" NCoef="0" IVar="-1" Cut="0.0000000000000000e+00" cType="1" res="-3.6682650446891785e-02" rms="3.3210396766662598e-01" purity="8.2559025287628174e-01" nType="-99"/>
        <Node pos="r" depth="1" NCoef="0" IVar="1" Cut="1.2656999511718750e+03" cType="0" res="8.5490196943283081e-04" rms="3.0605792999267578e-01" purity="7.8536796569824219e-01" nType="0">
          <Node pos="l" depth="2" NCoef="0" IVar="-1" Cut="0.0000000000000000e+00" cType="1" res="1.4931458281353116e-03" rms="3.0100008845329285e-01" purity="8.1635600328445435e-01" nType="-99"/>
          <Node pos="r" depth="2" NCoef="0" IVar="-1" Cut="0.0000000000000000e+00" cType="1" res="-7.4590048752725124e-03" rms="3.5026445984840393e-01" purity="4.8758986592292786e-01" nType="-99"/>
        </Node>
      </Node>
    </BinaryTree>
    <BinaryTree type="DecisionTree" boostWeight="1.0000000000000000e+00" itree="312">
      <Node pos="s" depth="0" NCoef="0" IVar="0" Cut="4.7142858505249023e+00" cType="1" res="-9.9796731956303120e-04" rms="3.0843782424926758e-01" purity="7.8372794389724731e-01" nType="0">
        <Node pos="l" depth="1" NCoef="0" IVar="-1" Cut="0.0000000000000000e+00" cType="1" res="4.6856794506311417e-03" rms="2.4351002275943756e-01" purity="9.1751718521118164e-01" nType="-99"/>
        <Node pos="r" depth="1" NCoef="0" IVar="12" Cut="-5.2419085502624512e+00" cType="1" res="-4.3115410953760147e-03" rms="3.3320817351341248e-01" purity="7.2425842285156250e-01" nType="0">
          <Node pos="l" depth="2" NCoef="0" IVar="-1" Cut="0.0000000000000000e+00" cType="1" res="1.0482164798304439e-03" rms="3.2386681437492371e-01" purity="7.4945259094238281e-01" nType="-99"/>
          <Node pos="r" depth="2" NCoef="0" IVar="-1" Cut="0.0000000000000000e+00" cType="1" res="-1.4703698456287384e-02" rms="3.7989136576652527e-01" purity="5.8043479919433594e-01" nType="-99"/>
        </Node>
      </Node>
    </BinaryTree>
    <BinaryTree type="DecisionTree" boostWeight="1.0000000000000000e+00" itree="313">
      <Node pos="s" depth="0" NCoef="0" IVar="1" Cut="9.5094628906250000e+02" cType="0" res="-1.4513866335619241e-04" rms="3.0670225620269775e-01" purity="7.8465712070465088e-01" nType="0">
        <Node pos="l" depth="1" NCoef="0" IVar="-1" Cut="0.0000000000000000e+00" cType="1" res="1.8850009655579925e-04" rms="3.0819743871688843e-01" purity="7.9536789655685425e-01" nType="-99"/>
        <Node pos="r" depth="1" NCoef="0" IVar="0" Cut="1.1000000000000000e+01" cType="1" res="-3.8365699350833893e-02" rms="1.6687597334384918e-01" purity="3.0477285385131836e-02" nType="0">
          <Node pos="l" depth="2" NCoef="0" IVar="-1" Cut="0.0000000000000000e+00" cType="1" res="-3.5823486745357513e-02" rms="1.9660052657127380e-01" purity="4.4622424989938736e-02" nType="-99"/>
          <Node pos="r" depth="2" NCoef="0" IVar="-1" Cut="0.0000000000000000e+00" cType="1" res="-2.5591406971216202e-02" rms="1.2592442333698273e-01" purity="1.6184970736503601e-02" nType="-99"/>
        </Node>
      </Node>
    </BinaryTree>
    <BinaryTree type="DecisionTree" boostWeight="1.0000000000000000e+00" itree="314">
      <Node pos="s" depth="0" NCoef="0" IVar="11" Cut="5.9525194168090820e+00" cType="1" res="4.7101537347771227e-04" rms="3.0625897645950317e-01" purity="7.8485852479934692e-01" nType="0">
        <Node pos="l" depth="1" NCoef="0" IVar="-1" Cut="0.0000000000000000e+00" cType="1" res="5.5009406059980392e-03" rms="2.7707010507583618e-01" purity="8.6376661062240601e-01" nType="-99"/>
        <Node pos="r" depth="1" NCoef="0" IVar="5" Cut="-1.0694433450698853e+00" cType="0" res="-1.9229014869779348e-03" rms="3.1316107511520386e-01" purity="7.6491355895996094e-01" nType="0">
          <Node pos="l" depth="2" NCoef="0" IVar="-1" Cut="0.0000000000000000e+00" cType="1" res="-1.2075646372977644e-04" rms="3.1136292219161987e-01" purity="7.7637767791748047e-01" nType="-99"/>
          <Node pos="r" depth="2" NCoef="0" IVar="-1" Cut="0.0000000000000000e+00" cType="1" res="-1.3382676988840103e-02" rms="3.4772002696990967e-01" purity="5.1802313327789307e-01" nType="-99"/>
        </Node>
      </Node>
    </BinaryTree>
    <BinaryTree type="DecisionTree" boostWeight="1.0000000000000000e+00" itree="315">
      <Node pos="s" depth="0" NCoef="0" IVar="23" Cut="8.0181083984375000e+03" cType="0" res="2.0048700389452279e-04" rms="3.0676975846290588e-01" purity="7.8462982177734375e-01" nType="0">
        <Node pos="l" depth="1" NCoef="0" IVar="-1" Cut="0.0000000000000000e+00" cType="1" res="5.3010266274213791e-03" rms="2.7963295578956604e-01" purity="8.6145943403244019e-01" nType="-99"/>
        <Node pos="r" depth="1" NCoef="0" IVar="14" Cut="5.4764013671875000e+02" cType="0" res="-2.2074605803936720e-03" rms="3.1351917982101440e-01" purity="7.6428294181823730e-01" nType="0">
          <Node pos="l" depth="2" NCoef="0" IVar="-1" Cut="0.0000000000000000e+00" cType="1" res="-7.7070794068276882e-03" rms="2.8856277465820312e-01" purity="8.3134931325912476e-01" nType="-99"/>
          <Node pos="r" depth="2" NCoef="0" IVar="-1" Cut="0.0000000000000000e+00" cType="1" res="8.7364792125299573e-04" rms="3.2173004746437073e-01" purity="7.4069702625274658e-01" nType="-99"/>
        </Node>
      </Node>
    </BinaryTree>
    <BinaryTree type="DecisionTree" boostWeight="1.0000000000000000e+00" itree="316">
      <Node pos="s" depth="0" NCoef="0" IVar="27" Cut="1.7673550000000000e+05" cType="1" res="-1.2801199918612838e-03" rms="3.0749833583831787e-01" purity="7.8387051820755005e-01" nType="0">
        <Node pos="l" depth="1" NCoef="0" IVar="-1" Cut="0.0000000000000000e+00" cType="1" res="-1.8433648801874369e-04" rms="3.0602785944938660e-01" purity="7.8485900163650513e-01" nType="-99"/>
        <Node pos="r" depth="1" NCoef="0" IVar="20" Cut="9.0476363897323608e-01" cType="1" res="-2.8073990717530251e-02" rms="3.4753140807151794e-01" purity="7.5432527065277100e-01" nType="0">
          <Node pos="l" depth="2" NCoef="0" IVar="-1" Cut="0.0000000000000000e+00" cType="1" res="4.1166227310895920e-02" rms="3.0958649516105652e-01" purity="7.7443611621856689e-01" nType="-99"/>
          <Node pos="r" depth="2" NCoef="0" IVar="-1" Cut="0.0000000000000000e+00" cType="1" res="-1.4091539196670055e-02" rms="3.4747630357742310e-01" purity="7.5364172458648682e-01" nType="-99"/>
        </Node>
      </Node>
    </BinaryTree>
    <BinaryTree type="DecisionTree" boostWeight="1.0000000000000000e+00" itree="317">
      <Node pos="s" depth="0" NCoef="0" IVar="29" Cut="1.6242761611938477e+01" cType="1" res="6.2112003797665238e-04" rms="3.0658811330795288e-01" purity="7.8527933359146118e-01" nType="0">
        <Node pos="l" depth="1" NCoef="0" IVar="-1" Cut="0.0000000000000000e+00" cType="1" res="-3.9044165168888867e-04" rms="3.0449688434600830e-01" purity="7.9024475812911987e-01" nType="-99"/>
        <Node pos="r" depth="1" NCoef="0" IVar="0" Cut="8.0476188659667969e+00" cType="1" res="1.5749879181385040e-02" rms="3.2751566171646118e-01" purity="7.3274338245391846e-01" nType="0">
          <Node pos="l" depth="2" NCoef="0" IVar="-1" Cut="0.0000000000000000e+00" cType="1" res="-2.4350800085812807e-03" rms="2.9117116332054138e-01" purity="8.6703372001647949e-01" nType="-99"/>
          <Node pos="r" depth="2" NCoef="0" IVar="-1" Cut="0.0000000000000000e+00" cType="1" res="1.3007299043238163e-02" rms="3.6681225895881653e-01" purity="5.6296139955520630e-01" nType="-99"/>
        </Node>
      </Node>
    </BinaryTree>
    <BinaryTree type="DecisionTree" boostWeight="1.0000000000000000e+00" itree="318">
      <Node pos="s" depth="0" NCoef="0" IVar="7" Cut="1.0729921875000000e+04" cType="0" res="-1.1931086191907525e-03" rms="3.0698946118354797e-01" purity="7.8315591812133789e-01" nType="0">
        <Node pos="l" depth="1" NCoef="0" IVar="-1" Cut="0.0000000000000000e+00" cType="1" res="2.0597890019416809e-02" rms="2.4131660163402557e-01" purity="9.3000715970993042e-01" nType="-99"/>
        <Node pos="r" depth="1" NCoef="0" IVar="0" Cut="4.7142858505249023e+00" cType="1" res="-1.9141917582601309e-03" rms="3.0829039216041565e-01" purity="7.7979671955108643e-01" nType="0">
          <Node pos="l" depth="2" NCoef="0" IVar="-1" Cut="0.0000000000000000e+00" cType="1" res="4.0897582657635212e-03" rms="2.4489802122116089e-01" purity="9.1573834419250488e-01" nType="-99"/>
          <Node pos="r" depth="2" NCoef="0" IVar="-1" Cut="0.0000000000000000e+00" cType="1" res="-2.1660476922988892e-03" rms="3.3235451579093933e-01" purity="7.1989262104034424e-01" nType="-99"/>
        </Node>
      </Node>
    </BinaryTree>
    <BinaryTree type="DecisionTree" boostWeight="1.0000000000000000e+00" itree="319">
      <Node pos="s" depth="0" NCoef="0" IVar="25" Cut="1.3281748046875000e+03" cType="0" res="1.2016067921649665e-04" rms="3.0673584342002869e-01" purity="7.8533482551574707e-01" nType="0">
        <Node pos="l" depth="1" NCoef="0" IVar="-1" Cut="0.0000000000000000e+00" cType="1" res="7.9814170021563768e-04" rms="3.0298554897308350e-01" purity="7.9210108518600464e-01" nType="-99"/>
        <Node pos="r" depth="1" NCoef="0" IVar="25" Cut="1.2111447753906250e+03" cType="1" res="-1.4327812008559704e-02" rms="3.3994802832603455e-01" purity="7.2109812498092651e-01" nType="0">
          <Node pos="l" depth="2" NCoef="0" IVar="-1" Cut="0.0000000000000000e+00" cType="1" res="-1.4281013049185276e-02" rms="3.4176945686340332e-01" purity="7.3665297031402588e-01" nType="-99"/>
          <Node pos="r" depth="2" NCoef="0" IVar="-1" Cut="0.0000000000000000e+00" cType="1" res="7.9581094905734062e-03" rms="3.3359083533287048e-01" purity="6.9167274236679077e-01" nType="-99"/>
        </Node>
      </Node>
    </BinaryTree>
    <BinaryTree type="DecisionTree" boostWeight="1.0000000000000000e+00" itree="320">
      <Node pos="s" depth="0" NCoef="0" IVar="19" Cut="1.4395928125000000e+05" cType="1" res="7.7781575964763761e-04" rms="3.0561816692352295e-01" purity="7.8561860322952271e-01" nType="0">
        <Node pos="l" depth="1" NCoef="0" IVar="-1" Cut="0.0000000000000000e+00" cType="1" res="1.4168688794597983e-03" rms="3.0289998650550842e-01" purity="7.8982204198837280e-01" nType="-99"/>
        <Node pos="r" depth="1" NCoef="0" IVar="13" Cut="5.2150908203125000e+03" cType="0" res="-9.2401355504989624e-03" rms="3.1782811880111694e-01" purity="7.6596421003341675e-01" nType="0">
          <Node pos="l" depth="2" NCoef="0" IVar="-1" Cut="0.0000000000000000e+00" cType="1" res="1.2246788479387760e-02" rms="2.6683121919631958e-01" purity="8.6394840478897095e-01" nType="-99"/>
          <Node pos="r" depth="2" NCoef="0" IVar="-1" Cut="0.0000000000000000e+00" cType="1" res="-7.4579026550054550e-03" rms="3.3019810914993286e-01" purity="7.3852246999740601e-01" nType="-99"/>
        </Node>
      </Node>
    </BinaryTree>
    <BinaryTree type="DecisionTree" boostWeight="1.0000000000000000e+00" itree="321">
      <Node pos="s" depth="0" NCoef="0" IVar="35" Cut="1.1580952453613281e+02" cType="0" res="6.1011227080598474e-04" rms="3.0585360527038574e-01" purity="7.8567254543304443e-01" nType="0">
        <Node pos="l" depth="1" NCoef="0" IVar="-1" Cut="0.0000000000000000e+00" cType="1" res="-2.0467382273636758e-04" rms="3.0531442165374756e-01" purity="7.8629904985427856e-01" nType="-99"/>
        <Node pos="r" depth="1" NCoef="0" IVar="0" Cut="4.5238094329833984e+00" cType="1" res="2.7405237779021263e-02" rms="3.1831884384155273e-01" purity="7.6946234703063965e-01" nType="0">
          <Node pos="l" depth="2" NCoef="0" IVar="-1" Cut="0.0000000000000000e+00" cType="1" res="-6.5259332768619061e-03" rms="2.8340891003608704e-01" purity="8.8783943653106689e-01" nType="-99"/>
          <Node pos="r" depth="2" NCoef="0" IVar="-1" Cut="0.0000000000000000e+00" cType="1" res="1.3887302950024605e-02" rms="3.2499900460243225e-01" purity="7.4309754371643066e-01" nType="-99"/>
        </Node>
      </Node>
    </BinaryTree>
    <BinaryTree type="DecisionTree" boostWeight="1.0000000000000000e+00" itree="322">
      <Node pos="s" depth="0" NCoef="0" IVar="12" Cut="-5.9496691894531250e+02" cType="1" res="3.5258769639767706e-04" rms="3.0540636181831360e-01" purity="7.8492349386215210e-01" nType="0">
        <Node pos="l" depth="1" NCoef="0" IVar="-1" Cut="0.0000000000000000e+00" cType="1" res="1.5841985121369362e-02" rms="2.0326650142669678e-01" purity="9.3428969383239746e-01" nType="-99"/>
        <Node pos="r" depth="1" NCoef="0" IVar="3" Cut="3.2170036621093750e+03" cType="1" res="-3.4085796214640141e-03" rms="3.2180744409561157e-01" purity="7.5510537624359131e-01" nType="0">
          <Node pos="l" depth="2" NCoef="0" IVar="-1" Cut="0.0000000000000000e+00" cType="1" res="2.5511402636766434e-03" rms="3.1740337610244751e-01" purity="7.5903880596160889e-01" nType="-99"/>
          <Node pos="r" depth="2" NCoef="0" IVar="-1" Cut="0.0000000000000000e+00" cType="1" res="-4.2904815636575222e-03" rms="3.2450103759765625e-01" purity="7.5254034996032715e-01" nType="-99"/>
        </Node>
      </Node>
    </BinaryTree>
    <BinaryTree type="DecisionTree" boostWeight="1.0000000000000000e+00" itree="323">
      <Node pos="s" depth="0" NCoef="0" IVar="20" Cut="-4.2857116460800171e-01" cType="0" res="1.1933118366869166e-04" rms="3.0722036957740784e-01" purity="7.8489542007446289e-01" nType="0">
        <Node pos="l" depth="1" NCoef="0" IVar="-1" Cut="0.0000000000000000e+00" cType="1" res="3.0258743208833039e-04" rms="3.0622148513793945e-01" purity="7.8892290592193604e-01" nType="-99"/>
        <Node pos="r" depth="1" NCoef="0" IVar="19" Cut="1.2780479687500000e+05" cType="0" res="-3.9141010493040085e-02" rms="3.7420964241027832e-01" purity="4.7460815310478210e-01" nType="0">
          <Node pos="l" depth="2" NCoef="0" IVar="-1" Cut="0.0000000000000000e+00" cType="1" res="1.3012279756367207e-02" rms="3.6542516946792603e-01" purity="6.2614381313323975e-01" nType="-99"/>
          <Node pos="r" depth="2" NCoef="0" IVar="-1" Cut="0.0000000000000000e+00" cType="1" res="-3.8963213562965393e-02" rms="3.6736258864402771e-01" purity="3.3493974804878235e-01" nType="-99"/>
        </Node>
      </Node>
    </BinaryTree>
    <BinaryTree type="DecisionTree" boostWeight="1.0000000000000000e+00" itree="324">
      <Node pos="s" depth="0" NCoef="0" IVar="0" Cut="1.4000000000000000e+01" cType="1" res="-1.1140579590573907e-03" rms="3.0761584639549255e-01" purity="7.8328269720077515e-01" nType="0">
        <Node pos="l" depth="1" NCoef="0" IVar="-1" Cut="0.0000000000000000e+00" cType="1" res="-3.2104406272992492e-04" rms="3.0416715145111084e-01" purity="8.1041496992111206e-01" nType="-99"/>
        <Node pos="r" depth="1" NCoef="0" IVar="14" Cut="3.5490985107421875e+02" cType="1" res="-8.8744210079312325e-03" rms="3.6075302958488464e-01" purity="3.2574456930160522e-01" nType="0">
          <Node pos="l" depth="2" NCoef="0" IVar="-1" Cut="0.0000000000000000e+00" cType="1" res="2.1698216442018747e-03" rms="3.5726028680801392e-01" purity="3.3481076359748840e-01" nType="-99"/>
          <Node pos="r" depth="2" NCoef="0" IVar="-1" Cut="0.0000000000000000e+00" cType="1" res="-2.8789423406124115e-02" rms="3.6816039681434631e-01" purity="2.7817532420158386e-01" nType="-99"/>
        </Node>
      </Node>
    </BinaryTree>
    <BinaryTree type="DecisionTree" boostWeight="1.0000000000000000e+00" itree="325">
      <Node pos="s" depth="0" NCoef="0" IVar="1" Cut="1.5721202392578125e+03" cType="0" res="3.8452135049737990e-04" rms="3.0633088946342468e-01" purity="7.8498589992523193e-01" nType="0">
        <Node pos="l" depth="1" NCoef="0" IVar="-1" Cut="0.0000000000000000e+00" cType="1" res="-1.7272698460146785e-03" rms="3.0268722772598267e-01" purity="7.9938548803329468e-01" nType="-99"/>
        <Node pos="r" depth="1" NCoef="0" IVar="9" Cut="4.5585144042968750e+02" cType="1" res="6.3709090463817120e-03" rms="3.1186407804489136e-01" purity="7.6240867376327515e-01" nType="0">
          <Node pos="l" depth="2" NCoef="0" IVar="-1" Cut="0.0000000000000000e+00" cType="1" res="7.3146568611264229e-03" rms="3.0381965637207031e-01" purity="7.6967662572860718e-01" nType="-99"/>
          <Node pos="r" depth="2" NCoef="0" IVar="-1" Cut="0.0000000000000000e+00" cType="1" res="-5.5765613913536072e-02" rms="3.7709346413612366e-01" purity="6.7014378309249878e-01" nType="-99"/>
        </Node>
      </Node>
    </BinaryTree>
    <BinaryTree type="DecisionTree" boostWeight="1.0000000000000000e+00" itree="326">
      <Node pos="s" depth="0" NCoef="0" IVar="2" Cut="2.1425856649875641e-01" cType="1" res="-3.9745264803059399e-04" rms="3.0588662624359131e-01" purity="7.8476798534393311e-01" nType="0">
        <Node pos="l" depth="1" NCoef="0" IVar="-1" Cut="0.0000000000000000e+00" cType="1" res="-1.2707954738289118e-03" rms="2.9744538664817810e-01" purity="8.1139671802520752e-01" nType="-99"/>
        <Node pos="r" depth="1" NCoef="0" IVar="9" Cut="2.6395642089843750e+02" cType="0" res="1.1308137327432632e-02" rms="3.4880971908569336e-01" purity="6.3698953390121460e-01" nType="0">
          <Node pos="l" depth="2" NCoef="0" IVar="-1" Cut="0.0000000000000000e+00" cType="1" res="1.0374221019446850e-02" rms="3.3272835612297058e-01" purity="7.0994818210601807e-01" nType="-99"/>
          <Node pos="r" depth="2" NCoef="0" IVar="-1" Cut="0.0000000000000000e+00" cType="1" res="-5.5438233539462090e-03" rms="3.7396267056465149e-01" purity="5.0800114870071411e-01" nType="-99"/>
        </Node>
      </Node>
    </BinaryTree>
    <BinaryTree type="DecisionTree" boostWeight="1.0000000000000000e+00" itree="327">
      <Node pos="s" depth="0" NCoef="0" IVar="35" Cut="1.1580952453613281e+02" cType="0" res="1.0872627171920612e-04" rms="3.0661553144454956e-01" purity="7.8464382886886597e-01" nType="0">
        <Node pos="l" depth="1" NCoef="0" IVar="-1" Cut="0.0000000000000000e+00" cType="1" res="-3.9661285700276494e-04" rms="3.0627834796905518e-01" purity="7.8506392240524292e-01" nType="-99"/>
        <Node pos="r" depth="1" NCoef="0" IVar="5" Cut="-1.6472530364990234e+00" cType="0" res="2.3980876430869102e-02" rms="3.1417688727378845e-01" purity="7.7389824390411377e-01" nType="0">
          <Node pos="l" depth="2" NCoef="0" IVar="-1" Cut="0.0000000000000000e+00" cType="1" res="1.1033833958208561e-02" rms="3.1281712651252747e-01" purity="7.7950716018676758e-01" nType="-99"/>
          <Node pos="r" depth="2" NCoef="0" IVar="-1" Cut="0.0000000000000000e+00" cType="1" res="-3.1100720167160034e-02" rms="3.7571331858634949e-01" purity="4.0845069289207458e-01" nType="-99"/>
        </Node>
      </Node>
    </BinaryTree>
    <BinaryTree type="DecisionTree" boostWeight="1.0000000000000000e+00" itree="328">
      <Node pos="s" depth="0" NCoef="0" IVar="25" Cut="6.2183168945312500e+03" cType="1" res="4.0014437399804592e-04" rms="3.0608311295509338e-01" purity="7.8518271446228027e-01" nType="0">
        <Node pos="l" depth="1" NCoef="0" IVar="-1" Cut="0.0000000000000000e+00" cType="1" res="-4.8353631427744403e-05" rms="3.0571720004081726e-01" purity="7.8569692373275757e-01" nType="-99"/>
        <Node pos="r" depth="1" NCoef="0" IVar="7" Cut="3.9796206054687500e+03" cType="0" res="4.6724922955036163e-02" rms="3.3499032258987427e-01" purity="7.3763120174407959e-01" nType="0">
          <Node pos="l" depth="2" NCoef="0" IVar="-1" Cut="0.0000000000000000e+00" cType="1" res="3.3592831343412399e-02" rms="2.8966605663299561e-01" purity="8.2803297042846680e-01" nType="-99"/>
          <Node pos="r" depth="2" NCoef="0" IVar="-1" Cut="0.0000000000000000e+00" cType="1" res="-9.1177187860012054e-03" rms="3.9130601286888123e-01" purity="5.7938146591186523e-01" nType="-99"/>
        </Node>
      </Node>
    </BinaryTree>
    <BinaryTree type="DecisionTree" boostWeight="1.0000000000000000e+00" itree="329">
      <Node pos="s" depth="0" NCoef="0" IVar="25" Cut="1.3000334472656250e+03" cType="0" res="2.0146948372712359e-05" rms="3.0619519948959351e-01" purity="7.8449249267578125e-01" nType="0">
        <Node pos="l" depth="1" NCoef="0" IVar="-1" Cut="0.0000000000000000e+00" cType="1" res="8.0596416955813766e-04" rms="3.0299684405326843e-01" purity="7.9030627012252808e-01" nType="-99"/>
        <Node pos="r" depth="1" NCoef="0" IVar="3" Cut="3.6855825195312500e+03" cType="1" res="-1.7523240298032761e-02" rms="3.3802112936973572e-01" purity="7.2231107950210571e-01" nType="0">
          <Node pos="l" depth="2" NCoef="0" IVar="-1" Cut="0.0000000000000000e+00" cType="1" res="-8.6537208408117294e-03" rms="3.3481407165527344e-01" purity="7.2858506441116333e-01" nType="-99"/>
          <Node pos="r" depth="2" NCoef="0" IVar="-1" Cut="0.0000000000000000e+00" cType="1" res="1.1952769011259079e-01" rms="4.4224727153778076e-01" purity="3.2934132218360901e-01" nType="-99"/>
        </Node>
      </Node>
    </BinaryTree>
    <BinaryTree type="DecisionTree" boostWeight="1.0000000000000000e+00" itree="330">
      <Node pos="s" depth="0" NCoef="0" IVar="9" Cut="4.9940457153320312e+02" cType="0" res="-7.8795209992676973e-04" rms="3.0607473850250244e-01" purity="7.8461182117462158e-01" nType="0">
        <Node pos="l" depth="1" NCoef="0" IVar="-1" Cut="0.0000000000000000e+00" cType="1" res="3.1935595907270908e-03" rms="2.7109941840171814e-01" purity="8.8075488805770874e-01" nType="-99"/>
        <Node pos="r" depth="1" NCoef="0" IVar="1" Cut="1.7359093017578125e+03" cType="1" res="-4.2978101409971714e-03" rms="3.2407325506210327e-01" purity="7.3043227195739746e-01" nType="0">
          <Node pos="l" depth="2" NCoef="0" IVar="-1" Cut="0.0000000000000000e+00" cType="1" res="3.0943099409341812e-03" rms="3.0499592423439026e-01" purity="7.8329086303710938e-01" nType="-99"/>
          <Node pos="r" depth="2" NCoef="0" IVar="-1" Cut="0.0000000000000000e+00" cType="1" res="-1.4516267925500870e-02" rms="3.7602901458740234e-01" purity="5.6313765048980713e-01" nType="-99"/>
        </Node>
      </Node>
    </BinaryTree>
    <BinaryTree type="DecisionTree" boostWeight="1.0000000000000000e+00" itree="331">
      <Node pos="s" depth="0" NCoef="0" IVar="20" Cut="-4.2857116460800171e-01" cType="0" res="4.5515148667618632e-04" rms="3.0630430579185486e-01" purity="7.8482109308242798e-01" nType="0">
        <Node pos="l" depth="1" NCoef="0" IVar="-1" Cut="0.0000000000000000e+00" cType="1" res="4.7188252210617065e-04" rms="3.0526319146156311e-01" purity="7.8896456956863403e-01" nType="-99"/>
        <Node pos="r" depth="1" NCoef="0" IVar="19" Cut="1.3082950781250000e+05" cType="0" res="-3.8700487464666367e-02" rms="3.7378126382827759e-01" purity="4.7607511281967163e-01" nType="0">
          <Node pos="l" depth="2" NCoef="0" IVar="-1" Cut="0.0000000000000000e+00" cType="1" res="9.3760145828127861e-03" rms="3.7649196386337280e-01" purity="6.1357700824737549e-01" nType="-99"/>
          <Node pos="r" depth="2" NCoef="0" IVar="-1" Cut="0.0000000000000000e+00" cType="1" res="-3.3147241920232773e-02" rms="3.6133706569671631e-01" purity="3.5706216096878052e-01" nType="-99"/>
        </Node>
      </Node>
    </BinaryTree>
    <BinaryTree type="DecisionTree" boostWeight="1.0000000000000000e+00" itree="332">
      <Node pos="s" depth="0" NCoef="0" IVar="12" Cut="-2.8346059570312500e+03" cType="1" res="-1.9051149138249457e-04" rms="3.0615317821502686e-01" purity="7.8517895936965942e-01" nType="0">
        <Node pos="l" depth="1" NCoef="0" IVar="-1" Cut="0.0000000000000000e+00" cType="1" res="2.8668187558650970e-02" rms="1.4898848533630371e-01" purity="9.6862745285034180e-01" nType="-99"/>
        <Node pos="r" depth="1" NCoef="0" IVar="12" Cut="-1.2926753234863281e+02" cType="1" res="-1.0657967068254948e-03" rms="3.1005331873893738e-01" purity="7.7895569801330566e-01" nType="0">
          <Node pos="l" depth="2" NCoef="0" IVar="-1" Cut="0.0000000000000000e+00" cType="1" res="9.2000290751457214e-03" rms="2.5531047582626343e-01" purity="8.8359993696212769e-01" nType="-99"/>
          <Node pos="r" depth="2" NCoef="0" IVar="-1" Cut="0.0000000000000000e+00" cType="1" res="-4.6191676519811153e-03" rms="3.4006109833717346e-01" purity="7.1208775043487549e-01" nType="-99"/>
        </Node>
      </Node>
    </BinaryTree>
    <BinaryTree type="DecisionTree" boostWeight="1.0000000000000000e+00" itree="333">
      <Node pos="s" depth="0" NCoef="0" IVar="9" Cut="4.1986074829101562e+02" cType="0" res="-5.6366639910265803e-04" rms="3.0634149909019470e-01" purity="7.8333938121795654e-01" nType="0">
        <Node pos="l" depth="1" NCoef="0" IVar="-1" Cut="0.0000000000000000e+00" cType="1" res="2.9687357600778341e-03" rms="2.7490416169166565e-01" purity="8.6590594053268433e-01" nType="-99"/>
        <Node pos="r" depth="1" NCoef="0" IVar="1" Cut="1.5686610107421875e+03" cType="1" res="-5.4153078235685825e-03" rms="3.3031004667282104e-01" purity="7.1415483951568604e-01" nType="0">
          <Node pos="l" depth="2" NCoef="0" IVar="-1" Cut="0.0000000000000000e+00" cType="1" res="5.4181311279535294e-03" rms="3.0712956190109253e-01" purity="7.6286107301712036e-01" nType="-99"/>
          <Node pos="r" depth="2" NCoef="0" IVar="-1" Cut="0.0000000000000000e+00" cType="1" res="-1.4353440143167973e-02" rms="3.6556273698806763e-01" purity="6.2830197811126709e-01" nType="-99"/>
        </Node>
      </Node>
    </BinaryTree>
    <BinaryTree type="DecisionTree" boostWeight="1.0000000000000000e+00" itree="334">
      <Node pos="s" depth="0" NCoef="0" IVar="34" Cut="-7.1427416801452637e-01" cType="0" res="4.5477057574316859e-04" rms="3.0544543266296387e-01" purity="7.8603839874267578e-01" nType="0">
        <Node pos="l" depth="1" NCoef="0" IVar="-1" Cut="0.0000000000000000e+00" cType="1" res="1.5134271234273911e-04" rms="3.0537158250808716e-01" purity="7.8608018159866333e-01" nType="-99"/>
        <Node pos="r" depth="1" NCoef="0" IVar="25" Cut="2.5406713867187500e+03" cType="0" res="1.3435289263725281e-01" rms="3.4414160251617432e-01" purity="7.4615383148193359e-01" nType="0">
          <Node pos="l" depth="2" NCoef="0" IVar="-1" Cut="0.0000000000000000e+00" cType="1" res="9.8523922264575958e-02" rms="3.7501934170722961e-01" purity="9.5454543828964233e-01" nType="-99"/>
          <Node pos="r" depth="2" NCoef="0" IVar="-1" Cut="0.0000000000000000e+00" cType="1" res="1.8963880836963654e-02" rms="2.9907074570655823e-01" purity="6.3953489065170288e-01" nType="-99"/>
        </Node>
      </Node>
    </BinaryTree>
    <BinaryTree type="DecisionTree" boostWeight="1.0000000000000000e+00" itree="335">
      <Node pos="s" depth="0" NCoef="0" IVar="5" Cut="-1.1987437009811401e+00" cType="0" res="6.0879829106852412e-04" rms="3.0515626072883606e-01" purity="7.8523659706115723e-01" nType="0">
        <Node pos="l" depth="1" NCoef="0" IVar="-1" Cut="0.0000000000000000e+00" cType="1" res="8.6012366227805614e-04" rms="3.0357444286346436e-01" purity="7.9383450746536255e-01" nType="-99"/>
        <Node pos="r" depth="1" NCoef="0" IVar="0" Cut="1.0285714149475098e+01" cType="1" res="-2.9231689870357513e-02" rms="3.4202235937118530e-01" purity="5.6393724679946899e-01" nType="0">
          <Node pos="l" depth="2" NCoef="0" IVar="-1" Cut="0.0000000000000000e+00" cType="1" res="-4.7431355342268944e-03" rms="3.5401517152786255e-01" purity="6.7850315570831299e-01" nType="-99"/>
          <Node pos="r" depth="2" NCoef="0" IVar="-1" Cut="0.0000000000000000e+00" cType="1" res="-3.5119730979204178e-02" rms="2.8581878542900085e-01" purity="1.4112903177738190e-01" nType="-99"/>
        </Node>
      </Node>
    </BinaryTree>
    <BinaryTree type="DecisionTree" boostWeight="1.0000000000000000e+00" itree="336">
      <Node pos="s" depth="0" NCoef="0" IVar="1" Cut="2.7332065429687500e+03" cType="1" res="3.1626637792214751e-04" rms="3.0547571182250977e-01" purity="7.8465843200683594e-01" nType="0">
        <Node pos="l" depth="1" NCoef="0" IVar="-1" Cut="0.0000000000000000e+00" cType="1" res="8.7115465430542827e-04" rms="3.0468854308128357e-01" purity="7.8758537769317627e-01" nType="-99"/>
        <Node pos="r" depth="1" NCoef="0" IVar="9" Cut="5.0256582641601562e+02" cType="0" res="-1.7784262076020241e-02" rms="3.1404802203178406e-01" purity="7.5012814998626709e-01" nType="0">
          <Node pos="l" depth="2" NCoef="0" IVar="-1" Cut="0.0000000000000000e+00" cType="1" res="-2.4609813466668129e-02" rms="2.9199150204658508e-01" purity="8.3705329895019531e-01" nType="-99"/>
          <Node pos="r" depth="2" NCoef="0" IVar="-1" Cut="0.0000000000000000e+00" cType="1" res="2.7445329353213310e-02" rms="3.9966335892677307e-01" purity="2.9150578379631042e-01" nType="-99"/>
        </Node>
      </Node>
    </BinaryTree>
    <BinaryTree type="DecisionTree" boostWeight="1.0000000000000000e+00" itree="337">
      <Node pos="s" depth="0" NCoef="0" IVar="27" Cut="7.5431078125000000e+04" cType="0" res="-2.6469668955542147e-04" rms="3.0596363544464111e-01" purity="7.8489673137664795e-01" nType="0">
        <Node pos="l" depth="1" NCoef="0" IVar="-1" Cut="0.0000000000000000e+00" cType="1" res="-3.7070354446768761e-03" rms="3.1426781415939331e-01" purity="7.8928321599960327e-01" nType="-99"/>
        <Node pos="r" depth="1" NCoef="0" IVar="27" Cut="2.1360191406250000e+04" cType="0" res="2.6713707484304905e-03" rms="3.0264723300933838e-01" purity="7.8320413827896118e-01" nType="0">
          <Node pos="l" depth="2" NCoef="0" IVar="-1" Cut="0.0000000000000000e+00" cType="1" res="6.1796250520274043e-05" rms="3.0178064107894897e-01" purity="7.8552925586700439e-01" nType="-99"/>
          <Node pos="r" depth="2" NCoef="0" IVar="-1" Cut="0.0000000000000000e+00" cType="1" res="1.4983916655182838e-02" rms="3.1122532486915588e-01" purity="7.5536233186721802e-01" nType="-99"/>
        </Node>
      </Node>
    </BinaryTree>
    <BinaryTree type="DecisionTree" boostWeight="1.0000000000000000e+00" itree="338">
      <Node pos="s" depth="0" NCoef="0" IVar="25" Cut="3.7845024414062500e+03" cType="1" res="-5.9067405527457595e-04" rms="3.0601456761360168e-01" purity="7.8523755073547363e-01" nType="0">
        <Node pos="l" depth="1" NCoef="0" IVar="-1" Cut="0.0000000000000000e+00" cType="1" res="-8.4994063945487142e-04" rms="3.0461615324020386e-01" purity="7.8666871786117554e-01" nType="-99"/>
        <Node pos="r" depth="1" NCoef="0" IVar="7" Cut="3.1467526855468750e+03" cType="0" res="1.4123401604592800e-02" rms="3.2287290692329407e-01" purity="7.6707667112350464e-01" nType="0">
          <Node pos="l" depth="2" NCoef="0" IVar="-1" Cut="0.0000000000000000e+00" cType="1" res="1.3640444725751877e-02" rms="3.0107727646827698e-01" purity="8.2534199953079224e-01" nType="-99"/>
          <Node pos="r" depth="2" NCoef="0" IVar="-1" Cut="0.0000000000000000e+00" cType="1" res="-1.3483310118317604e-02" rms="3.7986013293266296e-01" purity="5.7982414960861206e-01" nType="-99"/>
        </Node>
      </Node>
    </BinaryTree>
    <BinaryTree type="DecisionTree" boostWeight="1.0000000000000000e+00" itree="339">
      <Node pos="s" depth="0" NCoef="0" IVar="1" Cut="9.0463214111328125e+02" cType="0" res="2.6106077712029219e-04" rms="3.0475220084190369e-01" purity="7.8524327278137207e-01" nType="0">
        <Node pos="l" depth="1" NCoef="0" IVar="-1" Cut="0.0000000000000000e+00" cType="1" res="3.8535118801519275e-04" rms="3.0599144101142883e-01" purity="7.9304701089859009e-01" nType="-99"/>
        <Node pos="r" depth="1" NCoef="0" IVar="0" Cut="6.7619047164916992e+00" cType="1" res="-5.3755085915327072e-02" rms="1.2283971160650253e-01" purity="1.3621794991195202e-02" nType="0">
          <Node pos="l" depth="2" NCoef="0" IVar="-1" Cut="0.0000000000000000e+00" cType="1" res="-5.5096022784709930e-02" rms="1.9258208572864532e-01" purity="4.1322313249111176e-02" nType="-99"/>
          <Node pos="r" depth="2" NCoef="0" IVar="-1" Cut="0.0000000000000000e+00" cType="1" res="-4.4963650405406952e-02" rms="1.0617278516292572e-01" purity="1.0647737421095371e-02" nType="-99"/>
        </Node>
      </Node>
    </BinaryTree>
    <BinaryTree type="DecisionTree" boostWeight="1.0000000000000000e+00" itree="340">
      <Node pos="s" depth="0" NCoef="0" IVar="0" Cut="2.8571429252624512e+00" cType="1" res="-3.6677409661933780e-04" rms="3.0509272217750549e-01" purity="7.8472697734832764e-01" nType="0">
        <Node pos="l" depth="1" NCoef="0" IVar="-1" Cut="0.0000000000000000e+00" cType="1" res="1.4057637192308903e-02" rms="2.3591087758541107e-01" purity="9.2576056718826294e-01" nType="-99"/>
        <Node pos="r" depth="1" NCoef="0" IVar="3" Cut="1.9663117675781250e+03" cType="0" res="-1.4540393603965640e-03" rms="3.0816897749900818e-01" purity="7.7752637863159180e-01" nType="0">
          <Node pos="l" depth="2" NCoef="0" IVar="-1" Cut="0.0000000000000000e+00" cType="1" res="-4.1146134026348591e-04" rms="3.0784803628921509e-01" purity="7.7926021814346313e-01" nType="-99"/>
          <Node pos="r" depth="2" NCoef="0" IVar="-1" Cut="0.0000000000000000e+00" cType="1" res="-6.0495518147945404e-02" rms="3.5038262605667114e-01" purity="3.5403725504875183e-01" nType="-99"/>
        </Node>
      </Node>
    </BinaryTree>
    <BinaryTree type="DecisionTree" boostWeight="1.0000000000000000e+00" itree="341">
      <Node pos="s" depth="0" NCoef="0" IVar="1" Cut="3.6177341308593750e+03" cType="0" res="-1.6264322766801342e-05" rms="3.0611112713813782e-01" purity="7.8452450037002563e-01" nType="0">
        <Node pos="l" depth="1" NCoef="0" IVar="-1" Cut="0.0000000000000000e+00" cType="1" res="-3.1254317611455917e-02" rms="3.3119216561317444e-01" purity="8.0606859922409058e-01" nType="-99"/>
        <Node pos="r" depth="1" NCoef="0" IVar="1" Cut="1.2422763671875000e+03" cType="0" res="5.2821671124547720e-04" rms="3.0574947595596313e-01" purity="7.8425908088684082e-01" nType="0">
          <Node pos="l" depth="2" NCoef="0" IVar="-1" Cut="0.0000000000000000e+00" cType="1" res="1.4084787108004093e-03" rms="3.0141460895538330e-01" purity="8.1482368707656860e-01" nType="-99"/>
          <Node pos="r" depth="2" NCoef="0" IVar="-1" Cut="0.0000000000000000e+00" cType="1" res="-9.7456863150000572e-03" rms="3.4993752837181091e-01" purity="4.3893665075302124e-01" nType="-99"/>
        </Node>
      </Node>
    </BinaryTree>
    <BinaryTree type="DecisionTree" boostWeight="1.0000000000000000e+00" itree="342">
      <Node pos="s" depth="0" NCoef="0" IVar="19" Cut="6.5583015625000000e+04" cType="1" res="1.8168888054788113e-03" rms="3.0497390031814575e-01" purity="7.8620719909667969e-01" nType="0">
        <Node pos="l" depth="1" NCoef="0" IVar="-1" Cut="0.0000000000000000e+00" cType="1" res="4.2520016431808472e-03" rms="3.0249649286270142e-01" purity="7.9526597261428833e-01" nType="-99"/>
        <Node pos="r" depth="1" NCoef="0" IVar="0" Cut="6.5714287757873535e+00" cType="1" res="-1.4866009587422013e-03" rms="3.0612388253211975e-01" purity="7.8177696466445923e-01" nType="0">
          <Node pos="l" depth="2" NCoef="0" IVar="-1" Cut="0.0000000000000000e+00" cType="1" res="3.9213048294186592e-03" rms="2.6249012351036072e-01" purity="8.9369040727615356e-01" nType="-99"/>
          <Node pos="r" depth="2" NCoef="0" IVar="-1" Cut="0.0000000000000000e+00" cType="1" res="-3.9530834183096886e-03" rms="3.5140722990036011e-01" purity="6.4675056934356689e-01" nType="-99"/>
        </Node>
      </Node>
    </BinaryTree>
    <BinaryTree type="DecisionTree" boostWeight="1.0000000000000000e+00" itree="343">
      <Node pos="s" depth="0" NCoef="0" IVar="9" Cut="8.4069299316406250e+02" cType="0" res="-1.0913798178080469e-04" rms="3.0566406250000000e-01" purity="7.8446000814437866e-01" nType="0">
        <Node pos="l" depth="1" NCoef="0" IVar="-1" Cut="0.0000000000000000e+00" cType="1" res="8.8839968666434288e-03" rms="2.4135006964206696e-01" purity="9.2890971899032593e-01" nType="-99"/>
        <Node pos="r" depth="1" NCoef="0" IVar="9" Cut="1.6985839843750000e+02" cType="0" res="-2.2944898810237646e-03" rms="3.1583407521247864e-01" purity="7.5837957859039307e-01" nType="0">
          <Node pos="l" depth="2" NCoef="0" IVar="-1" Cut="0.0000000000000000e+00" cType="1" res="2.5655320496298373e-04" rms="3.0993854999542236e-01" purity="7.7374601364135742e-01" nType="-99"/>
          <Node pos="r" depth="2" NCoef="0" IVar="-1" Cut="0.0000000000000000e+00" cType="1" res="-1.3137555681169033e-02" rms="3.7732005119323730e-01" purity="5.7567965984344482e-01" nType="-99"/>
        </Node>
      </Node>
    </BinaryTree>
    <BinaryTree type="DecisionTree" boostWeight="1.0000000000000000e+00" itree="344">
      <Node pos="s" depth="0" NCoef="0" IVar="25" Cut="1.3281748046875000e+03" cType="0" res="9.0935989283025265e-04" rms="3.0436882376670837e-01" purity="7.8605175018310547e-01" nType="0">
        <Node pos="l" depth="1" NCoef="0" IVar="-1" Cut="0.0000000000000000e+00" cType="1" res="1.1240135645493865e-03" rms="3.0048018693923950e-01" purity="7.9322212934494019e-01" nType="-99"/>
        <Node pos="r" depth="1" NCoef="0" IVar="3" Cut="2.5770244140625000e+03" cType="1" res="-1.2091220356523991e-02" rms="3.3860921859741211e-01" purity="7.1836531162261963e-01" nType="0">
          <Node pos="l" depth="2" NCoef="0" IVar="-1" Cut="0.0000000000000000e+00" cType="1" res="-5.0785089842975140e-04" rms="3.2495027780532837e-01" purity="7.8768235445022583e-01" nType="-99"/>
          <Node pos="r" depth="2" NCoef="0" IVar="-1" Cut="0.0000000000000000e+00" cType="1" res="-2.1632721647620201e-02" rms="3.9322727918624878e-01" purity="3.8762688636779785e-01" nType="-99"/>
        </Node>
      </Node>
    </BinaryTree>
    <BinaryTree type="DecisionTree" boostWeight="1.0000000000000000e+00" itree="345">
      <Node pos="s" depth="0" NCoef="0" IVar="7" Cut="6.4405654296875000e+03" cType="0" res="-4.4630671618506312e-04" rms="3.0528122186660767e-01" purity="7.8350055217742920e-01" nType="0">
        <Node pos="l" depth="1" NCoef="0" IVar="-1" Cut="0.0000000000000000e+00" cType="1" res="7.3930225335061550e-03" rms="2.7187293767929077e-01" purity="8.8375866413116455e-01" nType="-99"/>
        <Node pos="r" depth="1" NCoef="0" IVar="27" Cut="8.3467679687500000e+04" cType="1" res="-2.2399758454412222e-03" rms="3.0965223908424377e-01" purity="7.6938897371292114e-01" nType="0">
          <Node pos="l" depth="2" NCoef="0" IVar="-1" Cut="0.0000000000000000e+00" cType="1" res="2.1860635024495423e-04" rms="3.0610540509223938e-01" purity="7.7364736795425415e-01" nType="-99"/>
          <Node pos="r" depth="2" NCoef="0" IVar="-1" Cut="0.0000000000000000e+00" cType="1" res="-6.5068537369370461e-03" rms="3.2559788227081299e-01" purity="7.4925386905670166e-01" nType="-99"/>
        </Node>
      </Node>
    </BinaryTree>
    <BinaryTree type="DecisionTree" boostWeight="1.0000000000000000e+00" itree="346">
      <Node pos="s" depth="0" NCoef="0" IVar="2" Cut="2.3806506767868996e-02" cType="1" res="2.5202039978466928e-04" rms="3.0518192052841187e-01" purity="7.8438603878021240e-01" nType="0">
        <Node pos="l" depth="1" NCoef="0" IVar="-1" Cut="0.0000000000000000e+00" cType="1" res="3.0648086685687304e-03" rms="2.6458093523979187e-01" purity="8.8176095485687256e-01" nType="-99"/>
        <Node pos="r" depth="1" NCoef="0" IVar="3" Cut="3.7215258789062500e+03" cType="0" res="-4.1949260048568249e-03" rms="3.3908021450042725e-01" purity="6.9228482246398926e-01" nType="0">
          <Node pos="l" depth="2" NCoef="0" IVar="-1" Cut="0.0000000000000000e+00" cType="1" res="2.2711618803441525e-03" rms="3.3146873116493225e-01" purity="7.2285306453704834e-01" nType="-99"/>
          <Node pos="r" depth="2" NCoef="0" IVar="-1" Cut="0.0000000000000000e+00" cType="1" res="-4.9558389000594616e-03" rms="3.4569609165191650e-01" purity="6.6417640447616577e-01" nType="-99"/>
        </Node>
      </Node>
    </BinaryTree>
    <BinaryTree type="DecisionTree" boostWeight="1.0000000000000000e+00" itree="347">
      <Node pos="s" depth="0" NCoef="0" IVar="10" Cut="2.9770038127899170e+00" cType="0" res="-6.9257611175999045e-04" rms="3.0550095438957214e-01" purity="7.8378397226333618e-01" nType="0">
        <Node pos="l" depth="1" NCoef="0" IVar="-1" Cut="0.0000000000000000e+00" cType="1" res="7.0567028596997261e-03" rms="2.4340625107288361e-01" purity="9.1231089830398560e-01" nType="-99"/>
        <Node pos="r" depth="1" NCoef="0" IVar="32" Cut="4.2513432502746582e+00" cType="1" res="-2.3761994671076536e-03" rms="3.1407934427261353e-01" purity="7.6366287469863892e-01" nType="0">
          <Node pos="l" depth="2" NCoef="0" IVar="-1" Cut="0.0000000000000000e+00" cType="1" res="-5.3741724696010351e-04" rms="3.1371033191680908e-01" purity="7.6417922973632812e-01" nType="-99"/>
          <Node pos="r" depth="2" NCoef="0" IVar="-1" Cut="0.0000000000000000e+00" cType="1" res="-2.9691966250538826e-02" rms="3.2569780945777893e-01" purity="7.4035990238189697e-01" nType="-99"/>
        </Node>
      </Node>
    </BinaryTree>
    <BinaryTree type="DecisionTree" boostWeight="1.0000000000000000e+00" itree="348">
      <Node pos="s" depth="0" NCoef="0" IVar="0" Cut="2.3285715103149414e+01" cType="1" res="4.6629604185000062e-04" rms="3.0493322014808655e-01" purity="7.8520792722702026e-01" nType="0">
        <Node pos="l" depth="1" NCoef="0" IVar="-1" Cut="0.0000000000000000e+00" cType="1" res="4.1541867540217936e-04" rms="3.0542150139808655e-01" purity="7.9093110561370850e-01" nType="-99"/>
        <Node pos="r" depth="1" NCoef="0" IVar="12" Cut="-3.0133066177368164e+01" cType="1" res="-4.3013956397771835e-02" rms="2.4097466468811035e-01" purity="1.5129812061786652e-01" nType="0">
          <Node pos="l" depth="2" NCoef="0" IVar="-1" Cut="0.0000000000000000e+00" cType="1" res="2.5915347039699554e-02" rms="3.1423595547676086e-01" purity="3.5521236062049866e-01" nType="-99"/>
          <Node pos="r" depth="2" NCoef="0" IVar="-1" Cut="0.0000000000000000e+00" cType="1" res="-3.8555953651666641e-02" rms="2.0043981075286865e-01" purity="8.9743591845035553e-02" nType="-99"/>
        </Node>
      </Node>
    </BinaryTree>
    <BinaryTree type="DecisionTree" boostWeight="1.0000000000000000e+00" itree="349">
      <Node pos="s" depth="0" NCoef="0" IVar="11" Cut="5.9525194168090820e+00" cType="1" res="-1.3807827781420201e-04" rms="3.0520114302635193e-01" purity="7.8487485647201538e-01" nType="0">
        <Node pos="l" depth="1" NCoef="0" IVar="-1" Cut="0.0000000000000000e+00" cType="1" res="5.2927909418940544e-03" rms="2.7633458375930786e-01" purity="8.6322683095932007e-01" nType="-99"/>
        <Node pos="r" depth="1" NCoef="0" IVar="1" Cut="2.3923298339843750e+03" cType="1" res="-2.5597256608307362e-03" rms="3.1202545762062073e-01" purity="7.6507925987243652e-01" nType="0">
          <Node pos="l" depth="2" NCoef="0" IVar="-1" Cut="0.0000000000000000e+00" cType="1" res="-4.9280897655989975e-05" rms="3.1138375401496887e-01" purity="7.7504003047943115e-01" nType="-99"/>
          <Node pos="r" depth="2" NCoef="0" IVar="-1" Cut="0.0000000000000000e+00" cType="1" res="-1.0545178316533566e-02" rms="3.1580057740211487e-01" purity="6.9834774732589722e-01" nType="-99"/>
        </Node>
      </Node>
    </BinaryTree>
    <BinaryTree type="DecisionTree" boostWeight="1.0000000000000000e+00" itree="350">
      <Node pos="s" depth="0" NCoef="0" IVar="25" Cut="3.7591752929687500e+03" cType="1" res="2.6521430118009448e-04" rms="3.0538251996040344e-01" purity="7.8480708599090576e-01" nType="0">
        <Node pos="l" depth="1" NCoef="0" IVar="-1" Cut="0.0000000000000000e+00" cType="1" res="-4.4022858492098749e-04" rms="3.0404376983642578e-01" purity="7.8618675470352173e-01" nType="-99"/>
        <Node pos="r" depth="1" NCoef="0" IVar="2" Cut="1.9045111536979675e-01" cType="1" res="1.4852999709546566e-02" rms="3.2130843400955200e-01" purity="7.6754051446914673e-01" nType="0">
          <Node pos="l" depth="2" NCoef="0" IVar="-1" Cut="0.0000000000000000e+00" cType="1" res="-2.2452410776168108e-03" rms="3.1401306390762329e-01" purity="7.9403918981552124e-01" nType="-99"/>
          <Node pos="r" depth="2" NCoef="0" IVar="-1" Cut="0.0000000000000000e+00" cType="1" res="2.1345773711800575e-02" rms="3.3298218250274658e-01" purity="7.0759403705596924e-01" nType="-99"/>
        </Node>
      </Node>
    </BinaryTree>
    <BinaryTree type="DecisionTree" boostWeight="1.0000000000000000e+00" itree="351">
      <Node pos="s" depth="0" NCoef="0" IVar="2" Cut="2.6187157630920410e-01" cType="1" res="1.5065782645251602e-04" rms="3.0418491363525391e-01" purity="7.8536593914031982e-01" nType="0">
        <Node pos="l" depth="1" NCoef="0" IVar="-1" Cut="0.0000000000000000e+00" cType="1" res="-7.6199090108275414e-04" rms="2.9770532250404358e-01" purity="8.0707573890686035e-01" nType="-99"/>
        <Node pos="r" depth="1" NCoef="0" IVar="0" Cut="8.0476188659667969e+00" cType="1" res="1.2360207736492157e-02" rms="3.4803077578544617e-01" purity="6.2523514032363892e-01" nType="0">
          <Node pos="l" depth="2" NCoef="0" IVar="-1" Cut="0.0000000000000000e+00" cType="1" res="-3.7191207520663738e-03" rms="3.2672670483589172e-01" purity="8.0836516618728638e-01" nType="-99"/>
          <Node pos="r" depth="2" NCoef="0" IVar="-1" Cut="0.0000000000000000e+00" cType="1" res="8.9476099237799644e-03" rms="3.6208432912826538e-01" purity="4.9127501249313354e-01" nType="-99"/>
        </Node>
      </Node>
    </BinaryTree>
    <BinaryTree type="DecisionTree" boostWeight="1.0000000000000000e+00" itree="352">
      <Node pos="s" depth="0" NCoef="0" IVar="0" Cut="2.8571429252624512e+00" cType="1" res="-7.4855168350040913e-04" rms="3.0512186884880066e-01" purity="7.8442472219467163e-01" nType="0">
        <Node pos="l" depth="1" NCoef="0" IVar="-1" Cut="0.0000000000000000e+00" cType="1" res="1.2251592241227627e-02" rms="2.3625901341438293e-01" purity="9.2406713962554932e-01" nType="-99"/>
        <Node pos="r" depth="1" NCoef="0" IVar="3" Cut="1.9663117675781250e+03" cType="0" res="-1.7041587270796299e-03" rms="3.0822795629501343e-01" purity="7.7721911668777466e-01" nType="0">
          <Node pos="l" depth="2" NCoef="0" IVar="-1" Cut="0.0000000000000000e+00" cType="1" res="-5.6546431733295321e-04" rms="3.0795577168464661e-01" purity="7.7900773286819458e-01" nType="-99"/>
          <Node pos="r" depth="2" NCoef="0" IVar="-1" Cut="0.0000000000000000e+00" cType="1" res="-5.1948849111795425e-02" rms="3.4600156545639038e-01" purity="3.5270541906356812e-01" nType="-99"/>
        </Node>
      </Node>
    </BinaryTree>
    <BinaryTree type="DecisionTree" boostWeight="1.0000000000000000e+00" itree="353">
      <Node pos="s" depth="0" NCoef="0" IVar="29" Cut="3.2485523223876953e+01" cType="1" res="-6.6418835194781423e-04" rms="3.0505615472793579e-01" purity="7.8492051362991333e-01" nType="0">
        <Node pos="l" depth="1" NCoef="0" IVar="9" Cut="8.4069299316406250e+02" cType="0" res="-5.5848585907369852e-04" rms="3.0501881241798401e-01" purity="7.8521281480789185e-01" nType="0">
          <Node pos="l" depth="2" NCoef="0" IVar="-1" Cut="0.0000000000000000e+00" cType="1" res="7.7269556932151318e-03" rms="2.4170964956283569e-01" purity="9.2792135477066040e-01" nType="-99"/>
          <Node pos="r" depth="2" NCoef="0" IVar="-1" Cut="0.0000000000000000e+00" cType="1" res="-1.1527104070410132e-03" rms="3.1510505080223083e-01" purity="7.5931972265243530e-01" nType="-99"/>
        </Node>
        <Node pos="r" depth="1" NCoef="0" IVar="-1" Cut="0.0000000000000000e+00" cType="1" res="-9.7891770303249359e-02" rms="2.9357424378395081e-01" purity="1.1111111193895340e-01" nType="-99"/>
      </Node>
    </BinaryTree>
    <BinaryTree type="DecisionTree" boostWeight="1.0000000000000000e+00" itree="354">
      <Node pos="s" depth="0" NCoef="0" IVar="2" Cut="1.9045205414295197e-01" cType="1" res="8.5456587839871645e-04" rms="3.0494448542594910e-01" purity="7.8577500581741333e-01" nType="0">
        <Node pos="l" depth="1" NCoef="0" IVar="-1" Cut="0.0000000000000000e+00" cType="1" res="-5.1393196918070316e-04" rms="2.9507133364677429e-01" purity="8.1533008813858032e-01" nType="-99"/>
        <Node pos="r" depth="1" NCoef="0" IVar="27" Cut="1.6647428125000000e+05" cType="1" res="9.7799301147460938e-03" rms="3.4847947955131531e-01" purity="6.4337360858917236e-01" nType="0">
          <Node pos="l" depth="2" NCoef="0" IVar="-1" Cut="0.0000000000000000e+00" cType="1" res="4.8156394623219967e-03" rms="3.4605544805526733e-01" purity="6.4505380392074585e-01" nType="-99"/>
          <Node pos="r" depth="2" NCoef="0" IVar="-1" Cut="0.0000000000000000e+00" cType="1" res="-2.5449739769101143e-02" rms="4.0241420269012451e-01" purity="5.9530389308929443e-01" nType="-99"/>
        </Node>
      </Node>
    </BinaryTree>
    <BinaryTree type="DecisionTree" boostWeight="1.0000000000000000e+00" itree="355">
      <Node pos="s" depth="0" NCoef="0" IVar="5" Cut="-2.4745786190032959e+00" cType="0" res="8.3572405856102705e-05" rms="3.0469647049903870e-01" purity="7.8574514389038086e-01" nType="0">
        <Node pos="l" depth="1" NCoef="0" IVar="-1" Cut="0.0000000000000000e+00" cType="1" res="1.9574009638745338e-04" rms="3.0447587370872498e-01" purity="7.8677153587341309e-01" nType="-99"/>
        <Node pos="r" depth="1" NCoef="0" IVar="24" Cut="1.0579175949096680e+01" cType="0" res="-1.0671205818653107e-01" rms="3.5520106554031372e-01" purity="4.4385027885437012e-01" nType="0">
          <Node pos="l" depth="2" NCoef="0" IVar="-1" Cut="0.0000000000000000e+00" cType="1" res="-2.5916516780853271e-02" rms="3.4909591078758240e-01" purity="4.9185666441917419e-01" nType="-99"/>
          <Node pos="r" depth="2" NCoef="0" IVar="-1" Cut="0.0000000000000000e+00" cType="1" res="-8.2545593380928040e-02" rms="3.4019988775253296e-01" purity="2.2388060390949249e-01" nType="-99"/>
        </Node>
      </Node>
    </BinaryTree>
    <BinaryTree type="DecisionTree" boostWeight="1.0000000000000000e+00" itree="356">
      <Node pos="s" depth="0" NCoef="0" IVar="0" Cut="6.5714287757873535e+00" cType="1" res="-1.0131712770089507e-03" rms="3.0486798286437988e-01" purity="7.8425019979476929e-01" nType="0">
        <Node pos="l" depth="1" NCoef="0" IVar="-1" Cut="0.0000000000000000e+00" cType="1" res="2.1094877738505602e-03" rms="2.6109814643859863e-01" purity="8.9704626798629761e-01" nType="-99"/>
        <Node pos="r" depth="1" NCoef="0" IVar="14" Cut="4.6524136352539062e+02" cType="1" res="-6.2977983616292477e-03" rms="3.5181906819343567e-01" purity="6.4363217353820801e-01" nType="0">
          <Node pos="l" depth="2" NCoef="0" IVar="-1" Cut="0.0000000000000000e+00" cType="1" res="3.8099414086900651e-04" rms="3.5168254375457764e-01" purity="6.4584636688232422e-01" nType="-99"/>
          <Node pos="r" depth="2" NCoef="0" IVar="-1" Cut="0.0000000000000000e+00" cType="1" res="-1.6632992774248123e-02" rms="3.5010355710983276e-01" purity="6.3227659463882446e-01" nType="-99"/>
        </Node>
      </Node>
    </BinaryTree>
    <BinaryTree type="DecisionTree" boostWeight="1.0000000000000000e+00" itree="357">
      <Node pos="s" depth="0" NCoef="0" IVar="25" Cut="3.7591752929687500e+03" cType="1" res="1.0277081746608019e-03" rms="3.0401968955993652e-01" purity="7.8608250617980957e-01" nType="0">
        <Node pos="l" depth="1" NCoef="0" IVar="-1" Cut="0.0000000000000000e+00" cType="1" res="-1.3838830636814237e-04" rms="3.0339705944061279e-01" purity="7.8694999217987061e-01" nType="-99"/>
        <Node pos="r" depth="1" NCoef="0" IVar="2" Cut="1.6664473712444305e-01" cType="1" res="1.7289848998188972e-02" rms="3.1118392944335938e-01" purity="7.7531713247299194e-01" nType="0">
          <Node pos="l" depth="2" NCoef="0" IVar="-1" Cut="0.0000000000000000e+00" cType="1" res="8.8016100926324725e-04" rms="3.0584150552749634e-01" purity="8.0743241310119629e-01" nType="-99"/>
          <Node pos="r" depth="2" NCoef="0" IVar="-1" Cut="0.0000000000000000e+00" cType="1" res="1.7593963071703911e-02" rms="3.1942036747932434e-01" purity="7.1062862873077393e-01" nType="-99"/>
        </Node>
      </Node>
    </BinaryTree>
    <BinaryTree type="DecisionTree" boostWeight="1.0000000000000000e+00" itree="358">
      <Node pos="s" depth="0" NCoef="0" IVar="27" Cut="3.8379671875000000e+04" cType="0" res="4.8658979358151555e-04" rms="3.0456611514091492e-01" purity="7.8601497411727905e-01" nType="0">
        <Node pos="l" depth="1" NCoef="0" IVar="-1" Cut="0.0000000000000000e+00" cType="1" res="-1.4151221839711070e-03" rms="3.0352681875228882e-01" purity="7.9308247566223145e-01" nType="-99"/>
        <Node pos="r" depth="1" NCoef="0" IVar="27" Cut="1.9967853515625000e+04" cType="0" res="7.8511023893952370e-03" rms="3.0668106675148010e-01" purity="7.7067232131958008e-01" nType="0">
          <Node pos="l" depth="2" NCoef="0" IVar="-1" Cut="0.0000000000000000e+00" cType="1" res="1.5313528710976243e-03" rms="3.0621975660324097e-01" purity="7.7374279499053955e-01" nType="-99"/>
          <Node pos="r" depth="2" NCoef="0" IVar="-1" Cut="0.0000000000000000e+00" cType="1" res="1.6922816634178162e-02" rms="3.0793678760528564e-01" purity="7.5080722570419312e-01" nType="-99"/>
        </Node>
      </Node>
    </BinaryTree>
    <BinaryTree type="DecisionTree" boostWeight="1.0000000000000000e+00" itree="359">
      <Node pos="s" depth="0" NCoef="0" IVar="23" Cut="5.3690258789062500e+03" cType="0" res="-6.0331023996695876e-04" rms="3.0504408478736877e-01" purity="7.8446131944656372e-01" nType="0">
        <Node pos="l" depth="1" NCoef="0" IVar="-1" Cut="0.0000000000000000e+00" cType="1" res="2.4552715476602316e-03" rms="2.8954640030860901e-01" purity="8.3083564043045044e-01" nType="-99"/>
        <Node pos="r" depth="1" NCoef="0" IVar="13" Cut="2.7862875976562500e+03" cType="0" res="-5.6170444004237652e-03" rms="3.1899428367614746e-01" purity="7.4039065837860107e-01" nType="0">
          <Node pos="l" depth="2" NCoef="0" IVar="-1" Cut="0.0000000000000000e+00" cType="1" res="8.2338210195302963e-03" rms="2.9850211739540100e-01" purity="7.9298675060272217e-01" nType="-99"/>
          <Node pos="r" depth="2" NCoef="0" IVar="-1" Cut="0.0000000000000000e+00" cType="1" res="-4.3836249969899654e-03" rms="3.2236975431442261e-01" purity="7.3091626167297363e-01" nType="-99"/>
        </Node>
      </Node>
    </BinaryTree>
    <BinaryTree type="DecisionTree" boostWeight="1.0000000000000000e+00" itree="360">
      <Node pos="s" depth="0" NCoef="0" IVar="29" Cut="1.1092340469360352e+01" cType="1" res="8.1597134703770280e-04" rms="3.0398795008659363e-01" purity="7.8645229339599609e-01" nType="0">
        <Node pos="l" depth="1" NCoef="0" IVar="-1" Cut="0.0000000000000000e+00" cType="1" res="-9.8382995929569006e-04" rms="2.9909855127334595e-01" purity="8.0222547054290771e-01" nType="-99"/>
        <Node pos="r" depth="1" NCoef="0" IVar="11" Cut="1.6945196151733398e+01" cType="1" res="9.0596368536353111e-03" rms="3.1795087456703186e-01" purity="7.3951435089111328e-01" nType="0">
          <Node pos="l" depth="2" NCoef="0" IVar="-1" Cut="0.0000000000000000e+00" cType="1" res="-8.7599232792854309e-03" rms="3.2440605759620667e-01" purity="7.4897116422653198e-01" nType="-99"/>
          <Node pos="r" depth="2" NCoef="0" IVar="-1" Cut="0.0000000000000000e+00" cType="1" res="6.6862548701465130e-03" rms="3.1609892845153809e-01" purity="7.3734515905380249e-01" nType="-99"/>
        </Node>
      </Node>
    </BinaryTree>
    <BinaryTree type="DecisionTree" boostWeight="1.0000000000000000e+00" itree="361">
      <Node pos="s" depth="0" NCoef="0" IVar="34" Cut="-7.1427416801452637e-01" cType="0" res="-1.1879634112119675e-03" rms="3.0542555451393127e-01" purity="7.8436160087585449e-01" nType="0">
        <Node pos="l" depth="1" NCoef="0" IVar="-1" Cut="0.0000000000000000e+00" cType="1" res="-6.4819672843441367e-04" rms="3.0539381504058838e-01" purity="7.8438550233840942e-01" nType="-99"/>
        <Node pos="r" depth="1" NCoef="0" IVar="9" Cut="4.4451388549804688e+02" cType="0" res="1.4195370674133301e-01" rms="3.0219241976737976e-01" purity="7.6153844594955444e-01" nType="0">
          <Node pos="l" depth="2" NCoef="0" IVar="-1" Cut="0.0000000000000000e+00" cType="1" res="1.9767710939049721e-02" rms="2.5027570128440857e-01" purity="7.7142858505249023e-01" nType="-99"/>
          <Node pos="r" depth="2" NCoef="0" IVar="-1" Cut="0.0000000000000000e+00" cType="1" res="8.3934530615806580e-02" rms="3.2224056124687195e-01" purity="7.5000000000000000e-01" nType="-99"/>
        </Node>
      </Node>
    </BinaryTree>
    <BinaryTree type="DecisionTree" boostWeight="1.0000000000000000e+00" itree="362">
      <Node pos="s" depth="0" NCoef="0" IVar="11" Cut="5.9535317420959473e+00" cType="1" res="-7.4216409120708704e-04" rms="3.0517709255218506e-01" purity="7.8413355350494385e-01" nType="0">
        <Node pos="l" depth="1" NCoef="0" IVar="-1" Cut="0.0000000000000000e+00" cType="1" res="4.7581819817423820e-03" rms="2.7705192565917969e-01" purity="8.6261904239654541e-01" nType="-99"/>
        <Node pos="r" depth="1" NCoef="0" IVar="7" Cut="3.5335974121093750e+03" cType="0" res="-3.0707153491675854e-03" rms="3.1185391545295715e-01" purity="7.6425904035568237e-01" nType="0">
          <Node pos="l" depth="2" NCoef="0" IVar="-1" Cut="0.0000000000000000e+00" cType="1" res="1.7747990787029266e-03" rms="2.8761443495750427e-01" purity="8.3562451601028442e-01" nType="-99"/>
          <Node pos="r" depth="2" NCoef="0" IVar="-1" Cut="0.0000000000000000e+00" cType="1" res="-3.3704524394124746e-03" rms="3.2857003808021545e-01" purity="7.1142005920410156e-01" nType="-99"/>
        </Node>
      </Node>
    </BinaryTree>
    <BinaryTree type="DecisionTree" boostWeight="1.0000000000000000e+00" itree="363">
      <Node pos="s" depth="0" NCoef="0" IVar="0" Cut="1.4000000000000000e+01" cType="1" res="2.9202771838754416e-04" rms="3.0447992682456970e-01" purity="7.8492259979248047e-01" nType="0">
        <Node pos="l" depth="1" NCoef="0" IVar="-1" Cut="0.0000000000000000e+00" cType="1" res="3.7070529651828110e-04" rms="3.0126371979713440e-01" purity="8.1151854991912842e-01" nType="-99"/>
        <Node pos="r" depth="1" NCoef="0" IVar="11" Cut="1.3017855644226074e+01" cType="0" res="-7.4825328774750233e-03" rms="3.5497033596038818e-01" purity="3.2950580120086670e-01" nType="0">
          <Node pos="l" depth="2" NCoef="0" IVar="-1" Cut="0.0000000000000000e+00" cType="1" res="8.7579042883589864e-04" rms="3.5696294903755188e-01" purity="3.4400761127471924e-01" nType="-99"/>
          <Node pos="r" depth="2" NCoef="0" IVar="-1" Cut="0.0000000000000000e+00" cType="1" res="-4.0399052202701569e-02" rms="3.1126305460929871e-01" purity="1.6958041489124298e-01" nType="-99"/>
        </Node>
      </Node>
    </BinaryTree>
    <BinaryTree type="DecisionTree" boostWeight="1.0000000000000000e+00" itree="364">
      <Node pos="s" depth="0" NCoef="0" IVar="10" Cut="1.4885011911392212e+00" cType="0" res="-3.0016098753549159e-04" rms="3.0490130186080933e-01" purity="7.8385806083679199e-01" nType="0">
        <Node pos="l" depth="1" NCoef="0" IVar="-1" Cut="0.0000000000000000e+00" cType="1" res="4.7980411909520626e-03" rms="2.5783073902130127e-01" purity="8.9223915338516235e-01" nType="-99"/>
        <Node pos="r" depth="1" NCoef="0" IVar="3" Cut="4.4739057617187500e+03" cType="0" res="-2.6048868894577026e-03" rms="3.1758049130439758e-01" purity="7.5146967172622681e-01" nType="0">
          <Node pos="l" depth="2" NCoef="0" IVar="-1" Cut="0.0000000000000000e+00" cType="1" res="4.8930519260466099e-03" rms="3.1410509347915649e-01" purity="7.5467944145202637e-01" nType="-99"/>
          <Node pos="r" depth="2" NCoef="0" IVar="-1" Cut="0.0000000000000000e+00" cType="1" res="-2.6788858231157064e-03" rms="3.1831988692283630e-01" purity="7.5069981813430786e-01" nType="-99"/>
        </Node>
      </Node>
    </BinaryTree>
    <BinaryTree type="DecisionTree" boostWeight="1.0000000000000000e+00" itree="365">
      <Node pos="s" depth="0" NCoef="0" IVar="1" Cut="2.6440297851562500e+03" cType="1" res="7.5655861292034388e-04" rms="3.0412408709526062e-01" purity="7.8604781627655029e-01" nType="0">
        <Node pos="l" depth="1" NCoef="0" IVar="-1" Cut="0.0000000000000000e+00" cType="1" res="9.8465371411293745e-04" rms="3.0294910073280334e-01" purity="7.8989654779434204e-01" nType="-99"/>
        <Node pos="r" depth="1" NCoef="0" IVar="9" Cut="5.6771740722656250e+02" cType="0" res="-1.2504535727202892e-02" rms="3.1539627909660339e-01" purity="7.4732464551925659e-01" nType="0">
          <Node pos="l" depth="2" NCoef="0" IVar="-1" Cut="0.0000000000000000e+00" cType="1" res="-2.0660925656557083e-02" rms="2.8612911701202393e-01" purity="8.5014188289642334e-01" nType="-99"/>
          <Node pos="r" depth="2" NCoef="0" IVar="-1" Cut="0.0000000000000000e+00" cType="1" res="2.0077183842658997e-02" rms="4.1090539097785950e-01" purity="3.0815851688385010e-01" nType="-99"/>
        </Node>
      </Node>
    </BinaryTree>
    <BinaryTree type="DecisionTree" boostWeight="1.0000000000000000e+00" itree="366">
      <Node pos="s" depth="0" NCoef="0" IVar="0" Cut="2.7000000000000000e+01" cType="1" res="1.1879017984028906e-04" rms="3.0454963445663452e-01" purity="7.8337377309799194e-01" nType="0">
        <Node pos="l" depth="1" NCoef="0" IVar="-1" Cut="0.0000000000000000e+00" cType="1" res="1.9746211182791740e-04" rms="3.0495414137840271e-01" purity="7.8635084629058838e-01" nType="-99"/>
        <Node pos="r" depth="1" NCoef="0" IVar="26" Cut="1.9954133300781250e+03" cType="1" res="-6.8953476846218109e-02" rms="1.7112994194030762e-01" purity="7.4856042861938477e-02" nType="0">
          <Node pos="l" depth="2" NCoef="0" IVar="-1" Cut="0.0000000000000000e+00" cType="1" res="3.0916759744286537e-02" rms="2.4757118523120880e-01" purity="2.0353981852531433e-01" nType="-99"/>
          <Node pos="r" depth="2" NCoef="0" IVar="-1" Cut="0.0000000000000000e+00" cType="1" res="-5.2405279129743576e-02" rms="1.2334606051445007e-01" purity="3.9215687662363052e-02" nType="-99"/>
        </Node>
      </Node>
    </BinaryTree>
    <BinaryTree type="DecisionTree" boostWeight="1.0000000000000000e+00" itree="367">
      <Node pos="s" depth="0" NCoef="0" IVar="14" Cut="2.0681425781250000e+03" cType="0" res="1.0198412928730249e-03" rms="3.0469930171966553e-01" purity="7.8596001863479614e-01" nType="0">
        <Node pos="l" depth="1" NCoef="0" IVar="-1" Cut="0.0000000000000000e+00" cType="1" res="-1.9826246425509453e-02" rms="2.7945932745933533e-01" purity="8.9134806394577026e-01" nType="-99"/>
        <Node pos="r" depth="1" NCoef="0" IVar="14" Cut="3.3656591796875000e+02" cType="0" res="1.6719868872314692e-03" rms="3.0526241660118103e-01" purity="7.8337782621383667e-01" nType="0">
          <Node pos="l" depth="2" NCoef="0" IVar="-1" Cut="0.0000000000000000e+00" cType="1" res="-3.4765480086207390e-03" rms="2.9247337579727173e-01" purity="8.1598961353302002e-01" nType="-99"/>
          <Node pos="r" depth="2" NCoef="0" IVar="-1" Cut="0.0000000000000000e+00" cType="1" res="5.9380158782005310e-03" rms="3.2307973504066467e-01" purity="7.3452383279800415e-01" nType="-99"/>
        </Node>
      </Node>
    </BinaryTree>
    <BinaryTree type="DecisionTree" boostWeight="1.0000000000000000e+00" itree="368">
      <Node pos="s" depth="0" NCoef="0" IVar="14" Cut="2.3179091796875000e+03" cType="0" res="-1.1360391363268718e-04" rms="3.0544772744178772e-01" purity="7.8549128770828247e-01" nType="0">
        <Node pos="l" depth="1" NCoef="0" IVar="-1" Cut="0.0000000000000000e+00" cType="1" res="-2.7117814868688583e-02" rms="2.8312090039253235e-01" purity="8.8533914089202881e-01" nType="-99"/>
        <Node pos="r" depth="1" NCoef="0" IVar="14" Cut="3.4845745849609375e+02" cType="0" res="5.2408390911296010e-04" rms="3.0581307411193848e-01" purity="7.8362601995468140e-01" nType="0">
          <Node pos="l" depth="2" NCoef="0" IVar="-1" Cut="0.0000000000000000e+00" cType="1" res="-3.1008911319077015e-03" rms="2.9021513462066650e-01" purity="8.1983184814453125e-01" nType="-99"/>
          <Node pos="r" depth="2" NCoef="0" IVar="-1" Cut="0.0000000000000000e+00" cType="1" res="3.8128138985484838e-03" rms="3.2513236999511719e-01" purity="7.3567086458206177e-01" nType="-99"/>
        </Node>
      </Node>
    </BinaryTree>
    <BinaryTree type="DecisionTree" boostWeight="1.0000000000000000e+00" itree="369">
      <Node pos="s" depth="0" NCoef="0" IVar="0" Cut="1.0285714149475098e+01" cType="1" res="-9.2201278312131763e-04" rms="3.0414587259292603e-01" purity="7.8391259908676147e-01" nType="0">
        <Node pos="l" depth="1" NCoef="0" IVar="-1" Cut="0.0000000000000000e+00" cType="1" res="5.8980169706046581e-04" rms="2.9111492633819580e-01" purity="8.4551078081130981e-01" nType="-99"/>
        <Node pos="r" depth="1" NCoef="0" IVar="24" Cut="8.7752466201782227e+00" cType="0" res="-1.2829360552132130e-02" rms="3.7123996019363403e-01" purity="4.2274549603462219e-01" nType="0">
          <Node pos="l" depth="2" NCoef="0" IVar="-1" Cut="0.0000000000000000e+00" cType="1" res="1.5481275113415904e-05" rms="3.7443539500236511e-01" purity="4.4271498918533325e-01" nType="-99"/>
          <Node pos="r" depth="2" NCoef="0" IVar="-1" Cut="0.0000000000000000e+00" cType="1" res="-1.8067363649606705e-02" rms="3.5674777626991272e-01" purity="3.5502532124519348e-01" nType="-99"/>
        </Node>
      </Node>
    </BinaryTree>
    <BinaryTree type="DecisionTree" boostWeight="1.0000000000000000e+00" itree="370">
      <Node pos="s" depth="0" NCoef="0" IVar="5" Cut="-2.4745786190032959e+00" cType="0" res="3.5590701736509800e-04" rms="3.0506443977355957e-01" purity="7.8480100631713867e-01" nType="0">
        <Node pos="l" depth="1" NCoef="0" IVar="-1" Cut="0.0000000000000000e+00" cType="1" res="3.3864719443954527e-04" rms="3.0483269691467285e-01" purity="7.8588026762008667e-01" nType="-99"/>
        <Node pos="r" depth="1" NCoef="0" IVar="9" Cut="2.1333734130859375e+02" cType="0" res="-1.1200250685214996e-01" rms="3.5588866472244263e-01" purity="4.3157893419265747e-01" nType="0">
          <Node pos="l" depth="2" NCoef="0" IVar="-1" Cut="0.0000000000000000e+00" cType="1" res="-1.9550325348973274e-02" rms="3.3505111932754517e-01" purity="5.6640625000000000e-01" nType="-99"/>
          <Node pos="r" depth="2" NCoef="0" IVar="-1" Cut="0.0000000000000000e+00" cType="1" res="-8.4535263478755951e-02" rms="3.6921361088752747e-01" purity="1.5322580933570862e-01" nType="-99"/>
        </Node>
      </Node>
    </BinaryTree>
    <BinaryTree type="DecisionTree" boostWeight="1.0000000000000000e+00" itree="371">
      <Node pos="s" depth="0" NCoef="0" IVar="9" Cut="8.2769177246093750e+02" cType="0" res="3.3876153793244157e-07" rms="3.0438190698623657e-01" purity="7.8393757343292236e-01" nType="0">
        <Node pos="l" depth="1" NCoef="0" IVar="-1" Cut="0.0000000000000000e+00" cType="1" res="7.9108439385890961e-03" rms="2.4542537331581116e-01" purity="9.2525428533554077e-01" nType="-99"/>
        <Node pos="r" depth="1" NCoef="0" IVar="1" Cut="1.9015010986328125e+03" cType="1" res="-2.0073994528502226e-03" rms="3.1402790546417236e-01" purity="7.5781887769699097e-01" nType="0">
          <Node pos="l" depth="2" NCoef="0" IVar="-1" Cut="0.0000000000000000e+00" cType="1" res="1.0719760321080685e-03" rms="3.0036139488220215e-01" purity="8.0047595500946045e-01" nType="-99"/>
          <Node pos="r" depth="2" NCoef="0" IVar="-1" Cut="0.0000000000000000e+00" cType="1" res="-6.8019088357686996e-03" rms="3.6142867803573608e-01" purity="5.9346634149551392e-01" nType="-99"/>
        </Node>
      </Node>
    </BinaryTree>
    <BinaryTree type="DecisionTree" boostWeight="1.0000000000000000e+00" itree="372">
      <Node pos="s" depth="0" NCoef="0" IVar="9" Cut="4.2636135864257812e+02" cType="0" res="-4.8827609862200916e-04" rms="3.0504271388053894e-01" purity="7.8498041629791260e-01" nType="0">
        <Node pos="l" depth="1" NCoef="0" IVar="-1" Cut="0.0000000000000000e+00" cType="1" res="2.9329808894544840e-03" rms="2.7428907155990601e-01" purity="8.6660814285278320e-01" nType="-99"/>
        <Node pos="r" depth="1" NCoef="0" IVar="1" Cut="1.5686610107421875e+03" cType="1" res="-5.0158100202679634e-03" rms="3.2771629095077515e-01" purity="7.1903884410858154e-01" nType="0">
          <Node pos="l" depth="2" NCoef="0" IVar="-1" Cut="0.0000000000000000e+00" cType="1" res="5.3718378767371178e-03" rms="3.0339574813842773e-01" purity="7.6583677530288696e-01" nType="-99"/>
          <Node pos="r" depth="2" NCoef="0" IVar="-1" Cut="0.0000000000000000e+00" cType="1" res="-1.3651011511683464e-02" rms="3.6435079574584961e-01" purity="6.3759613037109375e-01" nType="-99"/>
        </Node>
      </Node>
    </BinaryTree>
    <BinaryTree type="DecisionTree" boostWeight="1.0000000000000000e+00" itree="373">
      <Node pos="s" depth="0" NCoef="0" IVar="35" Cut="1.1580952453613281e+02" cType="0" res="6.1883263697382063e-05" rms="3.0442047119140625e-01" purity="7.8431010246276855e-01" nType="0">
        <Node pos="l" depth="1" NCoef="0" IVar="-1" Cut="0.0000000000000000e+00" cType="1" res="-4.0154144517146051e-04" rms="3.0413144826889038e-01" purity="7.8490555286407471e-01" nType="-99"/>
        <Node pos="r" depth="1" NCoef="0" IVar="1" Cut="1.9127984619140625e+03" cType="1" res="2.2702051326632500e-02" rms="3.1085717678070068e-01" purity="7.6909983158111572e-01" nType="0">
          <Node pos="l" depth="2" NCoef="0" IVar="-1" Cut="0.0000000000000000e+00" cType="1" res="1.5086064115166664e-02" rms="3.0647793412208557e-01" purity="8.0159461498260498e-01" nType="-99"/>
          <Node pos="r" depth="2" NCoef="0" IVar="-1" Cut="0.0000000000000000e+00" cType="1" res="-2.6094079948961735e-03" rms="3.1874144077301025e-01" purity="6.9541031122207642e-01" nType="-99"/>
        </Node>
      </Node>
    </BinaryTree>
    <BinaryTree type="DecisionTree" boostWeight="1.0000000000000000e+00" itree="374">
      <Node pos="s" depth="0" NCoef="0" IVar="0" Cut="2.7000000000000000e+01" cType="1" res="-5.1460567192407325e-05" rms="3.0475562810897827e-01" purity="7.8499090671539307e-01" nType="0">
        <Node pos="l" depth="1" NCoef="0" IVar="-1" Cut="0.0000000000000000e+00" cType="1" res="8.1552985648158938e-05" rms="3.0513155460357666e-01" purity="7.8762137889862061e-01" nType="-99"/>
        <Node pos="r" depth="1" NCoef="0" IVar="26" Cut="1.9954133300781250e+03" cType="1" res="-5.8645803481340408e-02" rms="1.6819244623184204e-01" purity="8.3511777222156525e-02" nType="0">
          <Node pos="l" depth="2" NCoef="0" IVar="-1" Cut="0.0000000000000000e+00" cType="1" res="2.7771741151809692e-02" rms="2.2615991532802582e-01" purity="1.9642856717109680e-01" nType="-99"/>
          <Node pos="r" depth="2" NCoef="0" IVar="-1" Cut="0.0000000000000000e+00" cType="1" res="-4.8758339136838913e-02" rms="1.2936131656169891e-01" purity="4.7887325286865234e-02" nType="-99"/>
        </Node>
      </Node>
    </BinaryTree>
    <BinaryTree type="DecisionTree" boostWeight="1.0000000000000000e+00" itree="375">
      <Node pos="s" depth="0" NCoef="0" IVar="0" Cut="1.4000000000000000e+01" cType="1" res="4.8283135402016342e-04" rms="3.0407860875129700e-01" purity="7.8531259298324585e-01" nType="0">
        <Node pos="l" depth="1" NCoef="0" IVar="-1" Cut="0.0000000000000000e+00" cType="1" res="5.6499103084206581e-04" rms="3.0060681700706482e-01" purity="8.1258922815322876e-01" nType="-99"/>
        <Node pos="r" depth="1" NCoef="0" IVar="9" Cut="3.3264715576171875e+02" cType="0" res="-1.0547276586294174e-02" rms="3.5763731598854065e-01" purity="3.2316106557846069e-01" nType="0">
          <Node pos="l" depth="2" NCoef="0" IVar="-1" Cut="0.0000000000000000e+00" cType="1" res="8.9971590787172318e-03" rms="3.6140438914299011e-01" purity="4.7311413288116455e-01" nType="-99"/>
          <Node pos="r" depth="2" NCoef="0" IVar="-1" Cut="0.0000000000000000e+00" cType="1" res="-1.2173742055892944e-02" rms="3.5331648588180542e-01" purity="2.3429618775844574e-01" nType="-99"/>
        </Node>
      </Node>
    </BinaryTree>
    <BinaryTree type="DecisionTree" boostWeight="1.0000000000000000e+00" itree="376">
      <Node pos="s" depth="0" NCoef="0" IVar="22" Cut="7.0675146484375000e+02" cType="0" res="5.6278338888660073e-04" rms="3.0440139770507812e-01" purity="7.8574985265731812e-01" nType="0">
        <Node pos="l" depth="1" NCoef="0" IVar="-1" Cut="0.0000000000000000e+00" cType="1" res="8.7217250838875771e-03" rms="2.9317912459373474e-01" purity="7.9803359508514404e-01" nType="-99"/>
        <Node pos="r" depth="1" NCoef="0" IVar="21" Cut="1.9840117187500000e+03" cType="0" res="-1.8213423027191311e-04" rms="3.0482703447341919e-01" purity="7.8524893522262573e-01" nType="0">
          <Node pos="l" depth="2" NCoef="0" IVar="-1" Cut="0.0000000000000000e+00" cType="1" res="2.6708792895078659e-02" rms="1.6258104145526886e-01" purity="9.6003150939941406e-01" nType="-99"/>
          <Node pos="r" depth="2" NCoef="0" IVar="-1" Cut="0.0000000000000000e+00" cType="1" res="-6.5118609927594662e-04" rms="3.0956733226776123e-01" purity="7.7750545740127563e-01" nType="-99"/>
        </Node>
      </Node>
    </BinaryTree>
    <BinaryTree type="DecisionTree" boostWeight="1.0000000000000000e+00" itree="377">
      <Node pos="s" depth="0" NCoef="0" IVar="7" Cut="6.4405654296875000e+03" cType="0" res="2.9957201331853867e-04" rms="3.0372753739356995e-01" purity="7.8568679094314575e-01" nType="0">
        <Node pos="l" depth="1" NCoef="0" IVar="-1" Cut="0.0000000000000000e+00" cType="1" res="9.2807086184620857e-03" rms="2.6798766851425171e-01" purity="8.8850510120391846e-01" nType="-99"/>
        <Node pos="r" depth="1" NCoef="0" IVar="27" Cut="1.0271251562500000e+05" cType="1" res="-1.8457530532032251e-03" rms="3.0845066905021667e-01" purity="7.7095270156860352e-01" nType="0">
          <Node pos="l" depth="2" NCoef="0" IVar="-1" Cut="0.0000000000000000e+00" cType="1" res="1.3884168765798677e-05" rms="3.0590194463729858e-01" purity="7.7524358034133911e-01" nType="-99"/>
          <Node pos="r" depth="2" NCoef="0" IVar="-1" Cut="0.0000000000000000e+00" cType="1" res="-7.8699067234992981e-03" rms="3.2990688085556030e-01" purity="7.3256134986877441e-01" nType="-99"/>
        </Node>
      </Node>
    </BinaryTree>
    <BinaryTree type="DecisionTree" boostWeight="1.0000000000000000e+00" itree="378">
      <Node pos="s" depth="0" NCoef="0" IVar="9" Cut="4.2636135864257812e+02" cType="0" res="1.6345706535503268e-04" rms="3.0358368158340454e-01" purity="7.8456169366836548e-01" nType="0">
        <Node pos="l" depth="1" NCoef="0" IVar="-1" Cut="0.0000000000000000e+00" cType="1" res="3.0007783789187670e-03" rms="2.7309975028038025e-01" purity="8.6771601438522339e-01" nType="-99"/>
        <Node pos="r" depth="1" NCoef="0" IVar="1" Cut="1.5686610107421875e+03" cType="1" res="-3.9106123149394989e-03" rms="3.2609570026397705e-01" purity="7.1733427047729492e-01" nType="0">
          <Node pos="l" depth="2" NCoef="0" IVar="-1" Cut="0.0000000000000000e+00" cType="1" res="5.4063280113041401e-03" rms="3.0228313803672791e-01" purity="7.6517927646636963e-01" nType="-99"/>
          <Node pos="r" depth="2" NCoef="0" IVar="-1" Cut="0.0000000000000000e+00" cType="1" res="-1.2326264753937721e-02" rms="3.6177119612693787e-01" purity="6.3512820005416870e-01" nType="-99"/>
        </Node>
      </Node>
    </BinaryTree>
    <BinaryTree type="DecisionTree" boostWeight="1.0000000000000000e+00" itree="379">
      <Node pos="s" depth="0" NCoef="0" IVar="29" Cut="3.3277023315429688e+01" cType="1" res="3.1566349207423627e-04" rms="3.0513703823089600e-01" purity="7.8584104776382446e-01" nType="0">
        <Node pos="l" depth="1" NCoef="0" IVar="13" Cut="2.0681789550781250e+03" cType="0" res="4.1189955663867295e-04" rms="3.0512398481369019e-01" purity="7.8617119789123535e-01" nType="0">
          <Node pos="l" depth="2" NCoef="0" IVar="-1" Cut="0.0000000000000000e+00" cType="1" res="1.8253056332468987e-03" rms="2.9955339431762695e-01" purity="8.0211639404296875e-01" nType="-99"/>
          <Node pos="r" depth="2" NCoef="0" IVar="-1" Cut="0.0000000000000000e+00" cType="1" res="-2.0845821127295494e-03" rms="3.1313058733940125e-01" purity="7.6255381107330322e-01" nType="-99"/>
        </Node>
        <Node pos="r" depth="1" NCoef="0" IVar="-1" Cut="0.0000000000000000e+00" cType="1" res="-8.8453680276870728e-02" rms="2.7074602246284485e-01" purity="1.4062500000000000e-01" nType="-99"/>
      </Node>
    </BinaryTree>
    <BinaryTree type="DecisionTree" boostWeight="1.0000000000000000e+00" itree="380">
      <Node pos="s" depth="0" NCoef="0" IVar="1" Cut="9.5094628906250000e+02" cType="0" res="-9.4768655253574252e-04" rms="3.0382564663887024e-01" purity="7.8406482934951782e-01" nType="0">
        <Node pos="l" depth="1" NCoef="0" IVar="-1" Cut="0.0000000000000000e+00" cType="1" res="-2.2235163487493992e-04" rms="3.0524230003356934e-01" purity="7.9445570707321167e-01" nType="-99"/>
        <Node pos="r" depth="1" NCoef="0" IVar="0" Cut="1.1000000000000000e+01" cType="1" res="-3.6367915570735931e-02" rms="1.6847506165504456e-01" purity="2.9533373191952705e-02" nType="0">
          <Node pos="l" depth="2" NCoef="0" IVar="-1" Cut="0.0000000000000000e+00" cType="1" res="-3.5244345664978027e-02" rms="1.9800464808940887e-01" purity="4.2141228914260864e-02" nType="-99"/>
          <Node pos="r" depth="2" NCoef="0" IVar="-1" Cut="0.0000000000000000e+00" cType="1" res="-2.4911032989621162e-02" rms="1.2560357153415680e-01" purity="1.5950920060276985e-02" nType="-99"/>
        </Node>
      </Node>
    </BinaryTree>
    <BinaryTree type="DecisionTree" boostWeight="1.0000000000000000e+00" itree="381">
      <Node pos="s" depth="0" NCoef="0" IVar="0" Cut="1.2142857551574707e+01" cType="1" res="-2.4673118605278432e-04" rms="3.0368515849113464e-01" purity="7.8497588634490967e-01" nType="0">
        <Node pos="l" depth="1" NCoef="0" IVar="-1" Cut="0.0000000000000000e+00" cType="1" res="7.2022387757897377e-04" rms="2.9703554511070251e-01" purity="8.2584649324417114e-01" nType="-99"/>
        <Node pos="r" depth="1" NCoef="0" IVar="21" Cut="1.5750352783203125e+03" cType="1" res="-1.7070081084966660e-02" rms="3.6404553055763245e-01" purity="3.6941874027252197e-01" nType="0">
          <Node pos="l" depth="2" NCoef="0" IVar="-1" Cut="0.0000000000000000e+00" cType="1" res="-4.3048411607742310e-03" rms="3.6309587955474854e-01" purity="3.7291532754898071e-01" nType="-99"/>
          <Node pos="r" depth="2" NCoef="0" IVar="-1" Cut="0.0000000000000000e+00" cType="1" res="-9.5717854797840118e-02" rms="3.2694977521896362e-01" purity="1.2658227980136871e-01" nType="-99"/>
        </Node>
      </Node>
    </BinaryTree>
    <BinaryTree type="DecisionTree" boostWeight="1.0000000000000000e+00" itree="382">
      <Node pos="s" depth="0" NCoef="0" IVar="1" Cut="2.7538886718750000e+03" cType="1" res="1.3437020243145525e-04" rms="3.0407044291496277e-01" purity="7.8426313400268555e-01" nType="0">
        <Node pos="l" depth="1" NCoef="0" IVar="-1" Cut="0.0000000000000000e+00" cType="1" res="6.8135856417939067e-04" rms="3.0301961302757263e-01" purity="7.8669410943984985e-01" nType="-99"/>
        <Node pos="r" depth="1" NCoef="0" IVar="9" Cut="4.9606521606445312e+02" cType="0" res="-1.5753988176584244e-02" rms="3.1628069281578064e-01" purity="7.5435781478881836e-01" nType="0">
          <Node pos="l" depth="2" NCoef="0" IVar="-1" Cut="0.0000000000000000e+00" cType="1" res="-2.1209584549069405e-02" rms="2.9548230767250061e-01" purity="8.3553540706634521e-01" nType="-99"/>
          <Node pos="r" depth="2" NCoef="0" IVar="-1" Cut="0.0000000000000000e+00" cType="1" res="2.6617299765348434e-02" rms="4.0432462096214294e-01" purity="2.9487180709838867e-01" nType="-99"/>
        </Node>
      </Node>
    </BinaryTree>
    <BinaryTree type="DecisionTree" boostWeight="1.0000000000000000e+00" itree="383">
      <Node pos="s" depth="0" NCoef="0" IVar="0" Cut="4.7142858505249023e+00" cType="1" res="8.4283173782750964e-04" rms="3.0373620986938477e-01" purity="7.8522342443466187e-01" nType="0">
        <Node pos="l" depth="1" NCoef="0" IVar="-1" Cut="0.0000000000000000e+00" cType="1" res="4.8880507238209248e-03" rms="2.4247395992279053e-01" purity="9.1818064451217651e-01" nType="-99"/>
        <Node pos="r" depth="1" NCoef="0" IVar="3" Cut="3.6584448242187500e+03" cType="0" res="-1.6942161601036787e-03" rms="3.2709699869155884e-01" purity="7.2658520936965942e-01" nType="0">
          <Node pos="l" depth="2" NCoef="0" IVar="-1" Cut="0.0000000000000000e+00" cType="1" res="3.5549609456211329e-03" rms="3.1458884477615356e-01" purity="7.6494008302688599e-01" nType="-99"/>
          <Node pos="r" depth="2" NCoef="0" IVar="-1" Cut="0.0000000000000000e+00" cType="1" res="-4.6619540080428123e-03" rms="3.3974865078926086e-01" purity="6.8530529737472534e-01" nType="-99"/>
        </Node>
      </Node>
    </BinaryTree>
    <BinaryTree type="DecisionTree" boostWeight="1.0000000000000000e+00" itree="384">
      <Node pos="s" depth="0" NCoef="0" IVar="9" Cut="8.4069299316406250e+02" cType="0" res="1.4591636136174202e-03" rms="3.0253478884696960e-01" purity="7.8606581687927246e-01" nType="0">
        <Node pos="l" depth="1" NCoef="0" IVar="-1" Cut="0.0000000000000000e+00" cType="1" res="8.6423326283693314e-03" rms="2.3632575571537018e-01" purity="9.3108332157135010e-01" nType="-99"/>
        <Node pos="r" depth="1" NCoef="0" IVar="9" Cut="1.6985839843750000e+02" cType="0" res="-3.1807430787011981e-04" rms="3.1292790174484253e-01" purity="7.5998151302337646e-01" nType="0">
          <Node pos="l" depth="2" NCoef="0" IVar="-1" Cut="0.0000000000000000e+00" cType="1" res="1.0730400681495667e-03" rms="3.0757728219032288e-01" purity="7.7500331401824951e-01" nType="-99"/>
          <Node pos="r" depth="2" NCoef="0" IVar="-1" Cut="0.0000000000000000e+00" cType="1" res="-1.1712896637618542e-02" rms="3.6961895227432251e-01" purity="5.8010780811309814e-01" nType="-99"/>
        </Node>
      </Node>
    </BinaryTree>
    <BinaryTree type="DecisionTree" boostWeight="1.0000000000000000e+00" itree="385">
      <Node pos="s" depth="0" NCoef="0" IVar="0" Cut="1.4000000000000000e+01" cType="1" res="-1.1968795442953706e-03" rms="3.0574318766593933e-01" purity="7.8413122892379761e-01" nType="0">
        <Node pos="l" depth="1" NCoef="0" IVar="-1" Cut="0.0000000000000000e+00" cType="1" res="-4.0058803278952837e-04" rms="3.0262902379035950e-01" purity="8.1096279621124268e-01" nType="-99"/>
        <Node pos="r" depth="1" NCoef="0" IVar="22" Cut="-4.6401176452636719e+01" cType="1" res="-7.9847974702715874e-03" rms="3.5477176308631897e-01" purity="3.2480370998382568e-01" nType="0">
          <Node pos="l" depth="2" NCoef="0" IVar="-1" Cut="0.0000000000000000e+00" cType="1" res="5.8874599635601044e-02" rms="2.3506881296634674e-01" purity="8.4756100177764893e-01" nType="-99"/>
          <Node pos="r" depth="2" NCoef="0" IVar="-1" Cut="0.0000000000000000e+00" cType="1" res="-4.2909053154289722e-03" rms="3.5600486397743225e-01" purity="3.1203454732894897e-01" nType="-99"/>
        </Node>
      </Node>
    </BinaryTree>
    <BinaryTree type="DecisionTree" boostWeight="1.0000000000000000e+00" itree="386">
      <Node pos="s" depth="0" NCoef="0" IVar="9" Cut="7.2427697753906250e+02" cType="0" res="-2.5326793547719717e-04" rms="3.0368259549140930e-01" purity="7.8507626056671143e-01" nType="0">
        <Node pos="l" depth="1" NCoef="0" IVar="-1" Cut="0.0000000000000000e+00" cType="1" res="7.5633628293871880e-03" rms="2.5304222106933594e-01" purity="9.1379022598266602e-01" nType="-99"/>
        <Node pos="r" depth="1" NCoef="0" IVar="1" Cut="1.8735895996093750e+03" cType="1" res="-2.9673897661268711e-03" rms="3.1448984146118164e-01" purity="7.5440055131912231e-01" nType="0">
          <Node pos="l" depth="2" NCoef="0" IVar="-1" Cut="0.0000000000000000e+00" cType="1" res="6.4340065000578761e-04" rms="3.0114331841468811e-01" purity="7.9790502786636353e-01" nType="-99"/>
          <Node pos="r" depth="2" NCoef="0" IVar="-1" Cut="0.0000000000000000e+00" cType="1" res="-7.3042265139520168e-03" rms="3.6009284853935242e-01" purity="5.8974725008010864e-01" nType="-99"/>
        </Node>
      </Node>
    </BinaryTree>
    <BinaryTree type="DecisionTree" boostWeight="1.0000000000000000e+00" itree="387">
      <Node pos="s" depth="0" NCoef="0" IVar="35" Cut="1.1580952453613281e+02" cType="0" res="-2.4625455262139440e-04" rms="3.0477771162986755e-01" purity="7.8416669368743896e-01" nType="0">
        <Node pos="l" depth="1" NCoef="0" IVar="-1" Cut="0.0000000000000000e+00" cType="1" res="-5.3671322530135512e-04" rms="3.0419421195983887e-01" purity="7.8461450338363647e-01" nType="-99"/>
        <Node pos="r" depth="1" NCoef="0" IVar="32" Cut="8.5383462905883789e-01" cType="0" res="2.1797372028231621e-02" rms="3.1876522302627563e-01" purity="7.7254056930541992e-01" nType="0">
          <Node pos="l" depth="2" NCoef="0" IVar="-1" Cut="0.0000000000000000e+00" cType="1" res="4.9821953289210796e-03" rms="3.1633606553077698e-01" purity="7.7315872907638550e-01" nType="-99"/>
          <Node pos="r" depth="2" NCoef="0" IVar="-1" Cut="0.0000000000000000e+00" cType="1" res="1.7182085663080215e-02" rms="3.2241442799568176e-01" purity="7.7133756875991821e-01" nType="-99"/>
        </Node>
      </Node>
    </BinaryTree>
    <BinaryTree type="DecisionTree" boostWeight="1.0000000000000000e+00" itree="388">
      <Node pos="s" depth="0" NCoef="0" IVar="7" Cut="1.0729921875000000e+04" cType="0" res="-5.7419855147600174e-04" rms="3.0366358160972595e-01" purity="7.8422105312347412e-01" nType="0">
        <Node pos="l" depth="1" NCoef="0" IVar="-1" Cut="0.0000000000000000e+00" cType="1" res="1.8518563359975815e-02" rms="2.4743631482124329e-01" purity="9.2684686183929443e-01" nType="-99"/>
        <Node pos="r" depth="1" NCoef="0" IVar="23" Cut="3.0448095703125000e+03" cType="0" res="-1.1814174940809608e-03" rms="3.0479583144187927e-01" purity="7.8097385168075562e-01" nType="0">
          <Node pos="l" depth="2" NCoef="0" IVar="-1" Cut="0.0000000000000000e+00" cType="1" res="3.1558467890135944e-04" rms="3.0136701464653015e-01" purity="7.9221749305725098e-01" nType="-99"/>
          <Node pos="r" depth="2" NCoef="0" IVar="-1" Cut="0.0000000000000000e+00" cType="1" res="-5.1388638094067574e-03" rms="3.2261994481086731e-01" purity="7.1984577178955078e-01" nType="-99"/>
        </Node>
      </Node>
    </BinaryTree>
    <BinaryTree type="DecisionTree" boostWeight="1.0000000000000000e+00" itree="389">
      <Node pos="s" depth="0" NCoef="0" IVar="20" Cut="-4.2857116460800171e-01" cType="0" res="-4.9752427730709314e-04" rms="3.0386346578598022e-01" purity="7.8316086530685425e-01" nType="0">
        <Node pos="l" depth="1" NCoef="0" IVar="-1" Cut="0.0000000000000000e+00" cType="1" res="2.8896220101159997e-05" rms="3.0299928784370422e-01" purity="7.8723561763763428e-01" nType="-99"/>
        <Node pos="r" depth="1" NCoef="0" IVar="19" Cut="1.2780479687500000e+05" cType="0" res="-4.2615421116352081e-02" rms="3.6088290810585022e-01" purity="4.7469136118888855e-01" nType="0">
          <Node pos="l" depth="2" NCoef="0" IVar="-1" Cut="0.0000000000000000e+00" cType="1" res="8.1952502951025963e-03" rms="3.5210508108139038e-01" purity="6.2213742733001709e-01" nType="-99"/>
          <Node pos="r" depth="2" NCoef="0" IVar="-1" Cut="0.0000000000000000e+00" cType="1" res="-3.6891259253025055e-02" rms="3.5797408223152161e-01" purity="3.3573141694068909e-01" nType="-99"/>
        </Node>
      </Node>
    </BinaryTree>
    <BinaryTree type="DecisionTree" boostWeight="1.0000000000000000e+00" itree="390">
      <Node pos="s" depth="0" NCoef="0" IVar="19" Cut="4.7653593750000000e+05" cType="1" res="-6.9921644171699882e-04" rms="3.0472284555435181e-01" purity="7.8405833244323730e-01" nType="0">
        <Node pos="l" depth="1" NCoef="0" IVar="-1" Cut="0.0000000000000000e+00" cType="1" res="-2.5376147823408246e-04" rms="3.0458194017410278e-01" purity="7.8410899639129639e-01" nType="-99"/>
        <Node pos="r" depth="1" NCoef="0" IVar="31" Cut="3.1581773757934570e+00" cType="1" res="-9.8540589213371277e-02" rms="3.6048865318298340e-01" purity="7.5652176141738892e-01" nType="0">
          <Node pos="l" depth="2" NCoef="0" IVar="-1" Cut="0.0000000000000000e+00" cType="1" res="-4.5769885182380676e-03" rms="2.8847488760948181e-01" purity="8.8549619913101196e-01" nType="-99"/>
          <Node pos="r" depth="2" NCoef="0" IVar="-1" Cut="0.0000000000000000e+00" cType="1" res="-9.8920345306396484e-02" rms="4.0806722640991211e-01" purity="5.8585858345031738e-01" nType="-99"/>
        </Node>
      </Node>
    </BinaryTree>
    <BinaryTree type="DecisionTree" boostWeight="1.0000000000000000e+00" itree="391">
      <Node pos="s" depth="0" NCoef="0" IVar="20" Cut="-4.2857116460800171e-01" cType="0" res="1.0639723768690601e-04" rms="3.0356955528259277e-01" purity="7.8535413742065430e-01" nType="0">
        <Node pos="l" depth="1" NCoef="0" IVar="-1" Cut="0.0000000000000000e+00" cType="1" res="2.7076344122178853e-04" rms="3.0267241597175598e-01" purity="7.8920710086822510e-01" nType="-99"/>
        <Node pos="r" depth="1" NCoef="0" IVar="19" Cut="2.8654840625000000e+05" cType="0" res="-3.4843415021896362e-02" rms="3.6555856466293335e-01" purity="4.8275861144065857e-01" nType="0">
          <Node pos="l" depth="2" NCoef="0" IVar="-1" Cut="0.0000000000000000e+00" cType="1" res="6.4751662313938141e-02" rms="2.6418641209602356e-01" purity="8.9230769872665405e-01" nType="-99"/>
          <Node pos="r" depth="2" NCoef="0" IVar="-1" Cut="0.0000000000000000e+00" cType="1" res="-1.5948485583066940e-02" rms="3.6533695459365845e-01" purity="4.6502330899238586e-01" nType="-99"/>
        </Node>
      </Node>
    </BinaryTree>
    <BinaryTree type="DecisionTree" boostWeight="1.0000000000000000e+00" itree="392">
      <Node pos="s" depth="0" NCoef="0" IVar="1" Cut="1.3277597656250000e+03" cType="0" res="-9.1459468239918351e-04" rms="3.0420604348182678e-01" purity="7.8374254703521729e-01" nType="0">
        <Node pos="l" depth="1" NCoef="0" IVar="-1" Cut="0.0000000000000000e+00" cType="1" res="4.2094258242286742e-04" rms="2.9884490370750427e-01" purity="8.1466746330261230e-01" nType="-99"/>
        <Node pos="r" depth="1" NCoef="0" IVar="9" Cut="3.3458505249023438e+02" cType="1" res="-1.1951953172683716e-02" rms="3.3593413233757019e-01" purity="5.8811825513839722e-01" nType="0">
          <Node pos="l" depth="2" NCoef="0" IVar="-1" Cut="0.0000000000000000e+00" cType="1" res="2.4051943328231573e-03" rms="3.3007505536079407e-01" purity="6.1534911394119263e-01" nType="-99"/>
          <Node pos="r" depth="2" NCoef="0" IVar="-1" Cut="0.0000000000000000e+00" cType="1" res="-5.6633479893207550e-02" rms="3.4753552079200745e-01" purity="3.7112861871719360e-01" nType="-99"/>
        </Node>
      </Node>
    </BinaryTree>
    <BinaryTree type="DecisionTree" boostWeight="1.0000000000000000e+00" itree="393">
      <Node pos="s" depth="0" NCoef="0" IVar="2" Cut="4.7613013535737991e-02" cType="1" res="-7.1070651756599545e-04" rms="3.0340325832366943e-01" purity="7.8404688835144043e-01" nType="0">
        <Node pos="l" depth="1" NCoef="0" IVar="-1" Cut="0.0000000000000000e+00" cType="1" res="1.6035563312470913e-03" rms="2.7186131477355957e-01" purity="8.6575531959533691e-01" nType="-99"/>
        <Node pos="r" depth="1" NCoef="0" IVar="9" Cut="2.8216186523437500e+02" cType="0" res="-5.2796918898820877e-03" rms="3.4105584025382996e-01" purity="6.7461282014846802e-01" nType="0">
          <Node pos="l" depth="2" NCoef="0" IVar="-1" Cut="0.0000000000000000e+00" cType="1" res="1.7112349160015583e-03" rms="3.2818245887756348e-01" purity="7.4631780385971069e-01" nType="-99"/>
          <Node pos="r" depth="2" NCoef="0" IVar="-1" Cut="0.0000000000000000e+00" cType="1" res="-7.4755353853106499e-03" rms="3.6088067293167114e-01" purity="5.5558317899703979e-01" nType="-99"/>
        </Node>
      </Node>
    </BinaryTree>
    <BinaryTree type="DecisionTree" boostWeight="1.0000000000000000e+00" itree="394">
      <Node pos="s" depth="0" NCoef="0" IVar="7" Cut="4.2958872070312500e+03" cType="0" res="-2.0714047423098236e-04" rms="3.0365884304046631e-01" purity="7.8403276205062866e-01" nType="0">
        <Node pos="l" depth="1" NCoef="0" IVar="-1" Cut="0.0000000000000000e+00" cType="1" res="3.4410615917295218e-03" rms="2.7908849716186523e-01" purity="8.5985690355300903e-01" nType="-99"/>
        <Node pos="r" depth="1" NCoef="0" IVar="13" Cut="3.3969538574218750e+03" cType="0" res="-3.1314000952988863e-03" rms="3.1443896889686584e-01" purity="7.4860495328903198e-01" nType="0">
          <Node pos="l" depth="2" NCoef="0" IVar="-1" Cut="0.0000000000000000e+00" cType="1" res="6.9702840410172939e-03" rms="2.8423810005187988e-01" purity="8.2596194744110107e-01" nType="-99"/>
          <Node pos="r" depth="2" NCoef="0" IVar="-1" Cut="0.0000000000000000e+00" cType="1" res="-3.4792488440871239e-03" rms="3.2253295183181763e-01" purity="7.2612208127975464e-01" nType="-99"/>
        </Node>
      </Node>
    </BinaryTree>
    <BinaryTree type="DecisionTree" boostWeight="1.0000000000000000e+00" itree="395">
      <Node pos="s" depth="0" NCoef="0" IVar="14" Cut="2.0681425781250000e+03" cType="0" res="4.6390431816689670e-04" rms="3.0467483401298523e-01" purity="7.8424954414367676e-01" nType="0">
        <Node pos="l" depth="1" NCoef="0" IVar="-1" Cut="0.0000000000000000e+00" cType="1" res="-2.0365236327052116e-02" rms="2.7633926272392273e-01" purity="8.8755422830581665e-01" nType="-99"/>
        <Node pos="r" depth="1" NCoef="0" IVar="14" Cut="3.3657449340820312e+02" cType="0" res="1.1383908567950130e-03" rms="3.0530849099159241e-01" purity="7.8170555830001831e-01" nType="0">
          <Node pos="l" depth="2" NCoef="0" IVar="-1" Cut="0.0000000000000000e+00" cType="1" res="-3.3625350333750248e-03" rms="2.9195836186408997e-01" purity="8.1558603048324585e-01" nType="-99"/>
          <Node pos="r" depth="2" NCoef="0" IVar="-1" Cut="0.0000000000000000e+00" cType="1" res="5.2606672979891300e-03" rms="3.2394063472747803e-01" purity="7.3100435733795166e-01" nType="-99"/>
        </Node>
      </Node>
    </BinaryTree>
    <BinaryTree type="DecisionTree" boostWeight="1.0000000000000000e+00" itree="396">
      <Node pos="s" depth="0" NCoef="0" IVar="22" Cut="3.0189665527343750e+03" cType="0" res="-3.2103329431265593e-05" rms="3.0443072319030762e-01" purity="7.8443974256515503e-01" nType="0">
        <Node pos="l" depth="1" NCoef="0" IVar="-1" Cut="0.0000000000000000e+00" cType="1" res="2.5549376383423805e-02" rms="2.6471656560897827e-01" purity="8.6535555124282837e-01" nType="-99"/>
        <Node pos="r" depth="1" NCoef="0" IVar="12" Cut="-7.2350994873046875e+02" cType="1" res="-3.0865843291394413e-04" rms="3.0460581183433533e-01" purity="7.8400659561157227e-01" nType="0">
          <Node pos="l" depth="2" NCoef="0" IVar="-1" Cut="0.0000000000000000e+00" cType="1" res="1.5756158158183098e-02" rms="1.9470277428627014e-01" purity="9.4219255447387695e-01" nType="-99"/>
          <Node pos="r" depth="2" NCoef="0" IVar="-1" Cut="0.0000000000000000e+00" cType="1" res="-1.4449261361733079e-03" rms="3.1908100843429565e-01" purity="7.5781375169754028e-01" nType="-99"/>
        </Node>
      </Node>
    </BinaryTree>
    <BinaryTree type="DecisionTree" boostWeight="1.0000000000000000e+00" itree="397">
      <Node pos="s" depth="0" NCoef="0" IVar="25" Cut="3.9937534179687500e+03" cType="1" res="-4.9773920181905851e-05" rms="3.0401372909545898e-01" purity="7.8590244054794312e-01" nType="0">
        <Node pos="l" depth="1" NCoef="0" IVar="-1" Cut="0.0000000000000000e+00" cType="1" res="-6.2851619441062212e-04" rms="3.0336543917655945e-01" purity="7.8675699234008789e-01" nType="-99"/>
        <Node pos="r" depth="1" NCoef="0" IVar="17" Cut="6.3660281250000000e+04" cType="1" res="1.9197927787899971e-02" rms="3.1340426206588745e-01" purity="7.7246475219726562e-01" nType="0">
          <Node pos="l" depth="2" NCoef="0" IVar="-1" Cut="0.0000000000000000e+00" cType="1" res="1.5883311629295349e-02" rms="2.9516333341598511e-01" purity="8.1237268447875977e-01" nType="-99"/>
          <Node pos="r" depth="2" NCoef="0" IVar="-1" Cut="0.0000000000000000e+00" cType="1" res="-9.1828852891921997e-03" rms="3.5347867012023926e-01" purity="6.6715544462203979e-01" nType="-99"/>
        </Node>
      </Node>
    </BinaryTree>
    <BinaryTree type="DecisionTree" boostWeight="1.0000000000000000e+00" itree="398">
      <Node pos="s" depth="0" NCoef="0" IVar="1" Cut="2.7538886718750000e+03" cType="1" res="8.9268950978294015e-04" rms="3.0403688549995422e-01" purity="7.8458112478256226e-01" nType="0">
        <Node pos="l" depth="1" NCoef="0" IVar="-1" Cut="0.0000000000000000e+00" cType="1" res="1.0274444939568639e-03" rms="3.0258011817932129e-01" purity="7.8740590810775757e-01" nType="-99"/>
        <Node pos="r" depth="1" NCoef="0" IVar="9" Cut="4.9606521606445312e+02" cType="0" res="-1.4357566833496094e-02" rms="3.2095691561698914e-01" purity="7.4997353553771973e-01" nType="0">
          <Node pos="l" depth="2" NCoef="0" IVar="-1" Cut="0.0000000000000000e+00" cType="1" res="-2.0813167095184326e-02" rms="2.9856583476066589e-01" purity="8.3076924085617065e-01" nType="-99"/>
          <Node pos="r" depth="2" NCoef="0" IVar="-1" Cut="0.0000000000000000e+00" cType="1" res="2.8961712494492531e-02" rms="4.1186055541038513e-01" purity="3.0509641766548157e-01" nType="-99"/>
        </Node>
      </Node>
    </BinaryTree>
    <BinaryTree type="DecisionTree" boostWeight="1.0000000000000000e+00" itree="399">
      <Node pos="s" depth="0" NCoef="0" IVar="13" Cut="7.5225908203125000e+03" cType="0" res="4.6050781384110451e-04" rms="3.0294975638389587e-01" purity="7.8489816188812256e-01" nType="0">
        <Node pos="l" depth="1" NCoef="0" IVar="-1" Cut="0.0000000000000000e+00" cType="1" res="1.7286235466599464e-02" rms="2.3487269878387451e-01" purity="9.1313016414642334e-01" nType="-99"/>
        <Node pos="r" depth="1" NCoef="0" IVar="17" Cut="5.6197562500000000e+04" cType="1" res="-1.9441769109107554e-04" rms="3.0467271804809570e-01" purity="7.8117823600769043e-01" nType="0">
          <Node pos="l" depth="2" NCoef="0" IVar="-1" Cut="0.0000000000000000e+00" cType="1" res="1.3195624342188239e-03" rms="3.0129173398017883e-01" purity="7.8945869207382202e-01" nType="-99"/>
          <Node pos="r" depth="2" NCoef="0" IVar="-1" Cut="0.0000000000000000e+00" cType="1" res="-4.1421209461987019e-03" rms="3.1463915109634399e-01" purity="7.5581592321395874e-01" nType="-99"/>
        </Node>
      </Node>
    </BinaryTree>
    <BinaryTree type="DecisionTree" boostWeight="1.0000000000000000e+00" itree="400">
      <Node pos="s" depth="0" NCoef="0" IVar="1" Cut="1.1909826660156250e+03" cType="0" res="-7.8521575778722763e-04" rms="3.0414840579032898e-01" purity="7.8401440382003784e-01" nType="0">
        <Node pos="l" depth="1" NCoef="0" IVar="-1" Cut="0.0000000000000000e+00" cType="1" res="3.4955295268446207e-04" rms="3.0180966854095459e-01" purity="8.1079196929931641e-01" nType="-99"/>
        <Node pos="r" depth="1" NCoef="0" IVar="9" Cut="1.4135581970214844e+02" cType="1" res="-2.5741638615727425e-02" rms="3.3998146653175354e-01" purity="3.3542320132255554e-01" nType="0">
          <Node pos="l" depth="2" NCoef="0" IVar="-1" Cut="0.0000000000000000e+00" cType="1" res="3.7312276661396027e-02" rms="3.3959224820137024e-01" purity="4.6274510025978088e-01" nType="-99"/>
          <Node pos="r" depth="2" NCoef="0" IVar="-1" Cut="0.0000000000000000e+00" cType="1" res="-1.6691349446773529e-02" rms="3.3667841553688049e-01" purity="3.1984648108482361e-01" nType="-99"/>
        </Node>
      </Node>
    </BinaryTree>
    <BinaryTree type="DecisionTree" boostWeight="1.0000000000000000e+00" itree="401">
      <Node pos="s" depth="0" NCoef="0" IVar="0" Cut="2.8571429252624512e+00" cType="1" res="-2.1775526693090796e-04" rms="3.0381330847740173e-01" purity="7.8498643636703491e-01" nType="0">
        <Node pos="l" depth="1" NCoef="0" IVar="-1" Cut="0.0000000000000000e+00" cType="1" res="1.1663784272968769e-02" rms="2.3561382293701172e-01" purity="9.2615032196044922e-01" nType="-99"/>
        <Node pos="r" depth="1" NCoef="0" IVar="3" Cut="1.9663117675781250e+03" cType="0" res="-1.0758761782199144e-03" rms="3.0688482522964478e-01" purity="7.7773100137710571e-01" nType="0">
          <Node pos="l" depth="2" NCoef="0" IVar="-1" Cut="0.0000000000000000e+00" cType="1" res="-2.9295176500454545e-04" rms="3.0665037035942078e-01" purity="7.7960067987442017e-01" nType="-99"/>
          <Node pos="r" depth="2" NCoef="0" IVar="-1" Cut="0.0000000000000000e+00" cType="1" res="-4.6822614967823029e-02" rms="3.4003698825836182e-01" purity="3.4570312500000000e-01" nType="-99"/>
        </Node>
      </Node>
    </BinaryTree>
    <BinaryTree type="DecisionTree" boostWeight="1.0000000000000000e+00" itree="402">
      <Node pos="s" depth="0" NCoef="0" IVar="2" Cut="4.7613013535737991e-02" cType="1" res="-7.7315920498222113e-04" rms="3.0329442024230957e-01" purity="7.8365492820739746e-01" nType="0">
        <Node pos="l" depth="1" NCoef="0" IVar="-1" Cut="0.0000000000000000e+00" cType="1" res="1.5755458734929562e-03" rms="2.7136373519897461e-01" purity="8.6608147621154785e-01" nType="-99"/>
        <Node pos="r" depth="1" NCoef="0" IVar="19" Cut="7.9220664062500000e+04" cType="1" res="-5.3835730068385601e-03" rms="3.4160348773002625e-01" purity="6.7250937223434448e-01" nType="0">
          <Node pos="l" depth="2" NCoef="0" IVar="-1" Cut="0.0000000000000000e+00" cType="1" res="1.6992241144180298e-03" rms="3.3845955133438110e-01" purity="6.7812979221343994e-01" nType="-99"/>
          <Node pos="r" depth="2" NCoef="0" IVar="-1" Cut="0.0000000000000000e+00" cType="1" res="-5.1534865051507950e-03" rms="3.4396642446517944e-01" purity="6.6788768768310547e-01" nType="-99"/>
        </Node>
      </Node>
    </BinaryTree>
    <BinaryTree type="DecisionTree" boostWeight="1.0000000000000000e+00" itree="403">
      <Node pos="s" depth="0" NCoef="0" IVar="34" Cut="-8.0950444936752319e-01" cType="0" res="-4.5130072976462543e-04" rms="3.0450454354286194e-01" purity="7.8371608257293701e-01" nType="0">
        <Node pos="l" depth="1" NCoef="0" IVar="-1" Cut="0.0000000000000000e+00" cType="1" res="-2.8856648714281619e-04" rms="3.0447155237197876e-01" purity="7.8374999761581421e-01" nType="-99"/>
        <Node pos="r" depth="1" NCoef="0" IVar="23" Cut="2.0887221679687500e+03" cType="0" res="1.2898604571819305e-01" rms="3.0788692831993103e-01" purity="7.5187969207763672e-01" nType="0">
          <Node pos="l" depth="2" NCoef="0" IVar="-1" Cut="0.0000000000000000e+00" cType="1" res="6.5607570111751556e-02" rms="2.9090076684951782e-01" purity="8.2278478145599365e-01" nType="-99"/>
          <Node pos="r" depth="2" NCoef="0" IVar="-1" Cut="0.0000000000000000e+00" cType="1" res="8.8744265958666801e-03" rms="3.0128318071365356e-01" purity="6.4814811944961548e-01" nType="-99"/>
        </Node>
      </Node>
    </BinaryTree>
    <BinaryTree type="DecisionTree" boostWeight="1.0000000000000000e+00" itree="404">
      <Node pos="s" depth="0" NCoef="0" IVar="19" Cut="1.4335339062500000e+05" cType="1" res="-2.1506802295334637e-04" rms="3.0374270677566528e-01" purity="7.8477722406387329e-01" nType="0">
        <Node pos="l" depth="1" NCoef="0" IVar="-1" Cut="0.0000000000000000e+00" cType="1" res="9.0180366532877088e-04" rms="3.0064439773559570e-01" purity="7.8969615697860718e-01" nType="-99"/>
        <Node pos="r" depth="1" NCoef="0" IVar="0" Cut="1.0285714149475098e+01" cType="1" res="-9.5388703048229218e-03" rms="3.1743130087852478e-01" purity="7.6216340065002441e-01" nType="0">
          <Node pos="l" depth="2" NCoef="0" IVar="-1" Cut="0.0000000000000000e+00" cType="1" res="-1.8484232714399695e-03" rms="3.0687749385833740e-01" purity="8.1841498613357544e-01" nType="-99"/>
          <Node pos="r" depth="2" NCoef="0" IVar="-1" Cut="0.0000000000000000e+00" cType="1" res="-1.3918460346758366e-02" rms="3.7281832098960876e-01" purity="4.2380353808403015e-01" nType="-99"/>
        </Node>
      </Node>
    </BinaryTree>
    <BinaryTree type="DecisionTree" boostWeight="1.0000000000000000e+00" itree="405">
      <Node pos="s" depth="0" NCoef="0" IVar="1" Cut="1.6717883300781250e+03" cType="0" res="-2.1489197388291359e-04" rms="3.0325686931610107e-01" purity="7.8615844249725342e-01" nType="0">
        <Node pos="l" depth="1" NCoef="0" IVar="-1" Cut="0.0000000000000000e+00" cType="1" res="-2.0380502101033926e-03" rms="3.0060625076293945e-01" purity="7.8967744112014771e-01" nType="-99"/>
        <Node pos="r" depth="1" NCoef="0" IVar="9" Cut="6.3965112304687500e+02" cType="1" res="3.7337515968829393e-03" rms="3.0597013235092163e-01" purity="7.8245747089385986e-01" nType="0">
          <Node pos="l" depth="2" NCoef="0" IVar="-1" Cut="0.0000000000000000e+00" cType="1" res="3.2308539375662804e-03" rms="3.0241841077804565e-01" purity="7.8509247303009033e-01" nType="-99"/>
          <Node pos="r" depth="2" NCoef="0" IVar="-1" Cut="0.0000000000000000e+00" cType="1" res="-9.5744818449020386e-02" rms="4.4508808851242065e-01" purity="5.8895707130432129e-01" nType="-99"/>
        </Node>
      </Node>
    </BinaryTree>
    <BinaryTree type="DecisionTree" boostWeight="1.0000000000000000e+00" itree="406">
      <Node pos="s" depth="0" NCoef="0" IVar="0" Cut="1.4000000000000000e+01" cType="1" res="6.7826645681634545e-04" rms="3.0246916413307190e-01" purity="7.8560245037078857e-01" nType="0">
        <Node pos="l" depth="1" NCoef="0" IVar="-1" Cut="0.0000000000000000e+00" cType="1" res="5.1026331493631005e-04" rms="2.9939717054367065e-01" purity="8.1239587068557739e-01" nType="-99"/>
        <Node pos="r" depth="1" NCoef="0" IVar="12" Cut="-4.4936397552490234e+01" cType="1" res="-5.1048360764980316e-03" rms="3.5070228576660156e-01" purity="3.2854864001274109e-01" nType="0">
          <Node pos="l" depth="2" NCoef="0" IVar="-1" Cut="0.0000000000000000e+00" cType="1" res="1.6079671680927277e-02" rms="3.6316263675689697e-01" purity="4.7145101428031921e-01" nType="-99"/>
          <Node pos="r" depth="2" NCoef="0" IVar="-1" Cut="0.0000000000000000e+00" cType="1" res="-9.3129519373178482e-03" rms="3.4345585107803345e-01" purity="2.7385726571083069e-01" nType="-99"/>
        </Node>
      </Node>
    </BinaryTree>
    <BinaryTree type="DecisionTree" boostWeight="1.0000000000000000e+00" itree="407">
      <Node pos="s" depth="0" NCoef="0" IVar="27" Cut="1.7957015625000000e+05" cType="1" res="3.5367795499041677e-04" rms="3.0307263135910034e-01" purity="7.8427165746688843e-01" nType="0">
        <Node pos="l" depth="1" NCoef="0" IVar="-1" Cut="0.0000000000000000e+00" cType="1" res="5.2417634287849069e-04" rms="3.0187126994132996e-01" purity="7.8508603572845459e-01" nType="-99"/>
        <Node pos="r" depth="1" NCoef="0" IVar="0" Cut="7.9047617912292480e+00" cType="1" res="-2.1849460899829865e-02" rms="3.3772575855255127e-01" purity="7.5881743431091309e-01" nType="0">
          <Node pos="l" depth="2" NCoef="0" IVar="-1" Cut="0.0000000000000000e+00" cType="1" res="-4.7602192498743534e-03" rms="3.1899344921112061e-01" purity="8.2085561752319336e-01" nType="-99"/>
          <Node pos="r" depth="2" NCoef="0" IVar="-1" Cut="0.0000000000000000e+00" cType="1" res="-2.0019553601741791e-02" rms="3.9307734370231628e-01" purity="5.4398149251937866e-01" nType="-99"/>
        </Node>
      </Node>
    </BinaryTree>
    <BinaryTree type="DecisionTree" boostWeight="1.0000000000000000e+00" itree="408">
      <Node pos="s" depth="0" NCoef="0" IVar="9" Cut="4.2636135864257812e+02" cType="0" res="1.1484511196613312e-03" rms="3.0378451943397522e-01" purity="7.8492265939712524e-01" nType="0">
        <Node pos="l" depth="1" NCoef="0" IVar="-1" Cut="0.0000000000000000e+00" cType="1" res="2.9188764747232199e-03" rms="2.7242326736450195e-01" purity="8.6733067035675049e-01" nType="-99"/>
        <Node pos="r" depth="1" NCoef="0" IVar="1" Cut="2.3318398437500000e+03" cType="1" res="-1.9688596948981285e-03" rms="3.2698348164558411e-01" purity="7.1809148788452148e-01" nType="0">
          <Node pos="l" depth="2" NCoef="0" IVar="-1" Cut="0.0000000000000000e+00" cType="1" res="-2.8071987908333540e-03" rms="3.2213366031646729e-01" purity="7.3755234479904175e-01" nType="-99"/>
          <Node pos="r" depth="2" NCoef="0" IVar="-1" Cut="0.0000000000000000e+00" cType="1" res="2.5761289522051811e-02" rms="3.9433604478836060e-01" purity="3.7894174456596375e-01" nType="-99"/>
        </Node>
      </Node>
    </BinaryTree>
    <BinaryTree type="DecisionTree" boostWeight="1.0000000000000000e+00" itree="409">
      <Node pos="s" depth="0" NCoef="0" IVar="3" Cut="1.1994725585937500e+04" cType="0" res="7.0228916592895985e-04" rms="3.0299484729766846e-01" purity="7.8548294305801392e-01" nType="0">
        <Node pos="l" depth="1" NCoef="0" IVar="-1" Cut="0.0000000000000000e+00" cType="1" res="5.7826172560453415e-02" rms="2.5126537680625916e-01" purity="9.1338580846786499e-01" nType="-99"/>
        <Node pos="r" depth="1" NCoef="0" IVar="3" Cut="3.9127099609375000e+03" cType="0" res="5.7238619774580002e-04" rms="3.0301588773727417e-01" purity="7.8535223007202148e-01" nType="0">
          <Node pos="l" depth="2" NCoef="0" IVar="-1" Cut="0.0000000000000000e+00" cType="1" res="3.8443598896265030e-03" rms="3.0234155058860779e-01" purity="7.9525732994079590e-01" nType="-99"/>
          <Node pos="r" depth="2" NCoef="0" IVar="-1" Cut="0.0000000000000000e+00" cType="1" res="-1.6322974115610123e-03" rms="3.0332392454147339e-01" purity="7.7976465225219727e-01" nType="-99"/>
        </Node>
      </Node>
    </BinaryTree>
    <BinaryTree type="DecisionTree" boostWeight="1.0000000000000000e+00" itree="410">
      <Node pos="s" depth="0" NCoef="0" IVar="9" Cut="8.4069299316406250e+02" cType="0" res="1.2095372221665457e-04" rms="3.0348482728004456e-01" purity="7.8439664840698242e-01" nType="0">
        <Node pos="l" depth="1" NCoef="0" IVar="-1" Cut="0.0000000000000000e+00" cType="1" res="6.8159992806613445e-03" rms="2.3877295851707458e-01" purity="9.2874044179916382e-01" nType="-99"/>
        <Node pos="r" depth="1" NCoef="0" IVar="9" Cut="2.0931556701660156e+02" cType="0" res="-1.4584070304408669e-03" rms="3.1369504332542419e-01" purity="7.5840812921524048e-01" nType="0">
          <Node pos="l" depth="2" NCoef="0" IVar="-1" Cut="0.0000000000000000e+00" cType="1" res="1.1423659743741155e-03" rms="3.0319726467132568e-01" purity="7.8749221563339233e-01" nType="-99"/>
          <Node pos="r" depth="2" NCoef="0" IVar="-1" Cut="0.0000000000000000e+00" cType="1" res="-7.2075389325618744e-03" rms="3.5737100243568420e-01" purity="6.2509250640869141e-01" nType="-99"/>
        </Node>
      </Node>
    </BinaryTree>
    <BinaryTree type="DecisionTree" boostWeight="1.0000000000000000e+00" itree="411">
      <Node pos="s" depth="0" NCoef="0" IVar="25" Cut="1.3281748046875000e+03" cType="0" res="-3.5649305209517479e-04" rms="3.0299773812294006e-01" purity="7.8433090448379517e-01" nType="0">
        <Node pos="l" depth="1" NCoef="0" IVar="-1" Cut="0.0000000000000000e+00" cType="1" res="3.7744082510471344e-04" rms="2.9942485690116882e-01" purity="7.9129445552825928e-01" nType="-99"/>
        <Node pos="r" depth="1" NCoef="0" IVar="25" Cut="1.2111447753906250e+03" cType="1" res="-1.0990554466843605e-02" rms="3.3508580923080444e-01" purity="7.1768504381179810e-01" nType="0">
          <Node pos="l" depth="2" NCoef="0" IVar="-1" Cut="0.0000000000000000e+00" cType="1" res="-1.2732178904116154e-02" rms="3.3370143175125122e-01" purity="7.3210817575454712e-01" nType="-99"/>
          <Node pos="r" depth="2" NCoef="0" IVar="-1" Cut="0.0000000000000000e+00" cType="1" res="9.4345360994338989e-03" rms="3.3484268188476562e-01" purity="6.9009900093078613e-01" nType="-99"/>
        </Node>
      </Node>
    </BinaryTree>
    <BinaryTree type="DecisionTree" boostWeight="1.0000000000000000e+00" itree="412">
      <Node pos="s" depth="0" NCoef="0" IVar="34" Cut="-7.1427416801452637e-01" cType="0" res="-9.5869618235155940e-04" rms="3.0316919088363647e-01" purity="7.8322744369506836e-01" nType="0">
        <Node pos="l" depth="1" NCoef="0" IVar="-1" Cut="0.0000000000000000e+00" cType="1" res="-5.3899182239547372e-04" rms="3.0308666825294495e-01" purity="7.8326559066772461e-01" nType="-99"/>
        <Node pos="r" depth="1" NCoef="0" IVar="23" Cut="2.2595263671875000e+03" cType="0" res="1.2866936624050140e-01" rms="3.4801810979843140e-01" purity="7.4814814329147339e-01" nType="0">
          <Node pos="l" depth="2" NCoef="0" IVar="-1" Cut="0.0000000000000000e+00" cType="1" res="7.3400311172008514e-02" rms="3.3660334348678589e-01" purity="8.3333331346511841e-01" nType="-99"/>
          <Node pos="r" depth="2" NCoef="0" IVar="-1" Cut="0.0000000000000000e+00" cType="1" res="-3.3169183880090714e-03" rms="3.1462708115577698e-01" purity="6.3157892227172852e-01" nType="-99"/>
        </Node>
      </Node>
    </BinaryTree>
    <BinaryTree type="DecisionTree" boostWeight="1.0000000000000000e+00" itree="413">
      <Node pos="s" depth="0" NCoef="0" IVar="1" Cut="2.6440297851562500e+03" cType="1" res="-2.3560856061521918e-04" rms="3.0292680859565735e-01" purity="7.8480404615402222e-01" nType="0">
        <Node pos="l" depth="1" NCoef="0" IVar="-1" Cut="0.0000000000000000e+00" cType="1" res="5.2317610243335366e-04" rms="3.0200725793838501e-01" purity="7.8876274824142456e-01" nType="-99"/>
        <Node pos="r" depth="1" NCoef="0" IVar="4" Cut="2.3808493614196777e+00" cType="0" res="-1.3503802940249443e-02" rms="3.1171002984046936e-01" purity="7.4500751495361328e-01" nType="0">
          <Node pos="l" depth="2" NCoef="0" IVar="-1" Cut="0.0000000000000000e+00" cType="1" res="-2.3796515539288521e-02" rms="2.9717501997947693e-01" purity="7.9629355669021606e-01" nType="-99"/>
          <Node pos="r" depth="2" NCoef="0" IVar="-1" Cut="0.0000000000000000e+00" cType="1" res="8.9244442060589790e-03" rms="3.2933780550956726e-01" purity="6.7001748085021973e-01" nType="-99"/>
        </Node>
      </Node>
    </BinaryTree>
    <BinaryTree type="DecisionTree" boostWeight="1.0000000000000000e+00" itree="414">
      <Node pos="s" depth="0" NCoef="0" IVar="7" Cut="1.0732369140625000e+04" cType="0" res="4.6367771574296057e-04" rms="3.0260935425758362e-01" purity="7.8499060869216919e-01" nType="0">
        <Node pos="l" depth="1" NCoef="0" IVar="-1" Cut="0.0000000000000000e+00" cType="1" res="1.9625116139650345e-02" rms="2.3452505469322205e-01" purity="9.3578308820724487e-01" nType="-99"/>
        <Node pos="r" depth="1" NCoef="0" IVar="1" Cut="1.5721202392578125e+03" cType="0" res="-1.2414201046340168e-04" rms="3.0397194623947144e-01" purity="7.8151923418045044e-01" nType="0">
          <Node pos="l" depth="2" NCoef="0" IVar="-1" Cut="0.0000000000000000e+00" cType="1" res="-1.6883594216778874e-03" rms="3.0093821883201599e-01" purity="7.9516011476516724e-01" nType="-99"/>
          <Node pos="r" depth="2" NCoef="0" IVar="-1" Cut="0.0000000000000000e+00" cType="1" res="2.1858643740415573e-03" rms="3.0850496888160706e-01" purity="7.6058536767959595e-01" nType="-99"/>
        </Node>
      </Node>
    </BinaryTree>
    <BinaryTree type="DecisionTree" boostWeight="1.0000000000000000e+00" itree="415">
      <Node pos="s" depth="0" NCoef="0" IVar="0" Cut="6.5714287757873535e+00" cType="1" res="2.3019331274554133e-04" rms="3.0185246467590332e-01" purity="7.8495740890502930e-01" nType="0">
        <Node pos="l" depth="1" NCoef="0" IVar="-1" Cut="0.0000000000000000e+00" cType="1" res="2.6286290958523750e-03" rms="2.5756245851516724e-01" purity="8.9855200052261353e-01" nType="-99"/>
        <Node pos="r" depth="1" NCoef="0" IVar="14" Cut="8.9571716308593750e+02" cType="1" res="-4.3782070279121399e-03" rms="3.4872695803642273e-01" purity="6.4496576786041260e-01" nType="0">
          <Node pos="l" depth="2" NCoef="0" IVar="-1" Cut="0.0000000000000000e+00" cType="1" res="-8.5849722381681204e-04" rms="3.4786805510520935e-01" purity="6.4839285612106323e-01" nType="-99"/>
          <Node pos="r" depth="2" NCoef="0" IVar="-1" Cut="0.0000000000000000e+00" cType="1" res="-3.5843711346387863e-02" rms="3.7462922930717468e-01" purity="4.7868561744689941e-01" nType="-99"/>
        </Node>
      </Node>
    </BinaryTree>
    <BinaryTree type="DecisionTree" boostWeight="1.0000000000000000e+00" itree="416">
      <Node pos="s" depth="0" NCoef="0" IVar="0" Cut="2.1428571701049805e+01" cType="1" res="7.6229291153140366e-05" rms="3.0287072062492371e-01" purity="7.8462219238281250e-01" nType="0">
        <Node pos="l" depth="1" NCoef="0" IVar="-1" Cut="0.0000000000000000e+00" cType="1" res="2.4433690123260021e-04" rms="3.0330997705459595e-01" purity="7.9283314943313599e-01" nType="-99"/>
        <Node pos="r" depth="1" NCoef="0" IVar="25" Cut="8.8291650390625000e+03" cType="0" res="-3.0786342918872833e-02" rms="2.6690417528152466e-01" purity="1.8246869742870331e-01" nType="0">
          <Node pos="l" depth="2" NCoef="0" IVar="-1" Cut="0.0000000000000000e+00" cType="1" res="7.5212880969047546e-02" rms="1.8650625646114349e-01" purity="8.7272727489471436e-01" nType="-99"/>
          <Node pos="r" depth="2" NCoef="0" IVar="-1" Cut="0.0000000000000000e+00" cType="1" res="-1.8359890207648277e-02" rms="2.6271882653236389e-01" purity="1.5906289219856262e-01" nType="-99"/>
        </Node>
      </Node>
    </BinaryTree>
    <BinaryTree type="DecisionTree" boostWeight="1.0000000000000000e+00" itree="417">
      <Node pos="s" depth="0" NCoef="0" IVar="27" Cut="2.2212696875000000e+05" cType="1" res="-9.6032388682942837e-05" rms="3.0262425541877747e-01" purity="7.8492736816406250e-01" nType="0">
        <Node pos="l" depth="1" NCoef="0" IVar="-1" Cut="0.0000000000000000e+00" cType="1" res="2.0757160382345319e-04" rms="3.0172619223594666e-01" purity="7.8519451618194580e-01" nType="-99"/>
        <Node pos="r" depth="1" NCoef="0" IVar="0" Cut="1.4000000000000000e+01" cType="0" res="-3.7007357925176620e-02" rms="3.5898730158805847e-01" purity="7.6589596271514893e-01" nType="0">
          <Node pos="l" depth="2" NCoef="0" IVar="-1" Cut="0.0000000000000000e+00" cType="1" res="5.4808031767606735e-02" rms="2.3350243270397186e-01" purity="7.8048777580261230e-01" nType="-99"/>
          <Node pos="r" depth="2" NCoef="0" IVar="-1" Cut="0.0000000000000000e+00" cType="1" res="-1.8972048535943031e-02" rms="3.5943469405174255e-01" purity="7.6554173231124878e-01" nType="-99"/>
        </Node>
      </Node>
    </BinaryTree>
    <BinaryTree type="DecisionTree" boostWeight="1.0000000000000000e+00" itree="418">
      <Node pos="s" depth="0" NCoef="0" IVar="10" Cut="1.4885011911392212e+00" cType="0" res="-5.3021835628896952e-04" rms="3.0375644564628601e-01" purity="7.8399085998535156e-01" nType="0">
        <Node pos="l" depth="1" NCoef="0" IVar="-1" Cut="0.0000000000000000e+00" cType="1" res="4.5651388354599476e-03" rms="2.5768250226974487e-01" purity="8.9367836713790894e-01" nType="-99"/>
        <Node pos="r" depth="1" NCoef="0" IVar="32" Cut="4.2513432502746582e+00" cType="1" res="-2.8032553382217884e-03" rms="3.1639397144317627e-01" purity="7.5066471099853516e-01" nType="0">
          <Node pos="l" depth="2" NCoef="0" IVar="-1" Cut="0.0000000000000000e+00" cType="1" res="-8.4997725207358599e-04" rms="3.1612005829811096e-01" purity="7.5140565633773804e-01" nType="-99"/>
          <Node pos="r" depth="2" NCoef="0" IVar="-1" Cut="0.0000000000000000e+00" cType="1" res="-2.2651361301541328e-02" rms="3.2596284151077271e-01" purity="7.1578949689865112e-01" nType="-99"/>
        </Node>
      </Node>
    </BinaryTree>
    <BinaryTree type="DecisionTree" boostWeight="1.0000000000000000e+00" itree="419">
      <Node pos="s" depth="0" NCoef="0" IVar="1" Cut="2.3031530761718750e+03" cType="1" res="-1.5907020497252233e-05" rms="3.0364713072776794e-01" purity="7.8429561853408813e-01" nType="0">
        <Node pos="l" depth="1" NCoef="0" IVar="-1" Cut="0.0000000000000000e+00" cType="1" res="6.9642608286812901e-04" rms="3.0177024006843567e-01" purity="7.9445844888687134e-01" nType="-99"/>
        <Node pos="r" depth="1" NCoef="0" IVar="9" Cut="4.8389053344726562e+02" cType="0" res="-7.7746580354869366e-03" rms="3.1330621242523193e-01" purity="7.3035812377929688e-01" nType="0">
          <Node pos="l" depth="2" NCoef="0" IVar="-1" Cut="0.0000000000000000e+00" cType="1" res="-1.6744844615459442e-02" rms="2.8417572379112244e-01" purity="8.3560299873352051e-01" nType="-99"/>
          <Node pos="r" depth="2" NCoef="0" IVar="-1" Cut="0.0000000000000000e+00" cType="1" res="1.7786081880331039e-02" rms="3.9111614227294922e-01" purity="3.7049475312232971e-01" nType="-99"/>
        </Node>
      </Node>
    </BinaryTree>
    <BinaryTree type="DecisionTree" boostWeight="1.0000000000000000e+00" itree="420">
      <Node pos="s" depth="0" NCoef="0" IVar="10" Cut="4.2043747901916504e+00" cType="0" res="3.2488521537743509e-04" rms="3.0218741297721863e-01" purity="7.8436559438705444e-01" nType="0">
        <Node pos="l" depth="1" NCoef="0" IVar="-1" Cut="0.0000000000000000e+00" cType="1" res="8.8640889152884483e-03" rms="2.3046062886714935e-01" purity="9.2419135570526123e-01" nType="-99"/>
        <Node pos="r" depth="1" NCoef="0" IVar="29" Cut="1.6242761611938477e+01" cType="1" res="-8.8380405213683844e-04" rms="3.0873805284500122e-01" purity="7.6966273784637451e-01" nType="0">
          <Node pos="l" depth="2" NCoef="0" IVar="-1" Cut="0.0000000000000000e+00" cType="1" res="-1.0101734660565853e-03" rms="3.0646774172782898e-01" purity="7.7595126628875732e-01" nType="-99"/>
          <Node pos="r" depth="2" NCoef="0" IVar="-1" Cut="0.0000000000000000e+00" cType="1" res="5.4539539851248264e-03" rms="3.3367839455604553e-01" purity="6.9653242826461792e-01" nType="-99"/>
        </Node>
      </Node>
    </BinaryTree>
    <BinaryTree type="DecisionTree" boostWeight="1.0000000000000000e+00" itree="421">
      <Node pos="s" depth="0" NCoef="0" IVar="9" Cut="3.8933456420898438e+02" cType="0" res="-9.7999942954629660e-04" rms="3.0327835679054260e-01" purity="7.8308701515197754e-01" nType="0">
        <Node pos="l" depth="1" NCoef="0" IVar="-1" Cut="0.0000000000000000e+00" cType="1" res="2.2683767601847649e-03" rms="2.7579712867736816e-01" purity="8.5877776145935059e-01" nType="-99"/>
        <Node pos="r" depth="1" NCoef="0" IVar="1" Cut="1.7212968750000000e+03" cType="1" res="-5.9418869204819202e-03" rms="3.2842227816581726e-01" purity="7.0730608701705933e-01" nType="0">
          <Node pos="l" depth="2" NCoef="0" IVar="-1" Cut="0.0000000000000000e+00" cType="1" res="3.5915107000619173e-03" rms="3.0806758999824524e-01" purity="7.6765131950378418e-01" nType="-99"/>
          <Node pos="r" depth="2" NCoef="0" IVar="-1" Cut="0.0000000000000000e+00" cType="1" res="-2.0765597000718117e-02" rms="3.9188304543495178e-01" purity="4.7810980677604675e-01" nType="-99"/>
        </Node>
      </Node>
    </BinaryTree>
    <BinaryTree type="DecisionTree" boostWeight="1.0000000000000000e+00" itree="422">
      <Node pos="s" depth="0" NCoef="0" IVar="1" Cut="2.7332065429687500e+03" cType="1" res="2.0926952129229903e-04" rms="3.0141845345497131e-01" purity="7.8521001338958740e-01" nType="0">
        <Node pos="l" depth="1" NCoef="0" IVar="-1" Cut="0.0000000000000000e+00" cType="1" res="5.9495598543435335e-04" rms="3.0054572224617004e-01" purity="7.8813499212265015e-01" nType="-99"/>
        <Node pos="r" depth="1" NCoef="0" IVar="9" Cut="1.5427382812500000e+03" cType="0" res="-1.1699856258928776e-02" rms="3.1120616197586060e-01" purity="7.5096839666366577e-01" nType="0">
          <Node pos="l" depth="2" NCoef="0" IVar="-1" Cut="0.0000000000000000e+00" cType="1" res="1.4508938416838646e-02" rms="1.9068218767642975e-01" purity="9.6073818206787109e-01" nType="-99"/>
          <Node pos="r" depth="2" NCoef="0" IVar="-1" Cut="0.0000000000000000e+00" cType="1" res="-1.7341015860438347e-02" rms="4.1585239768028259e-01" purity="4.8027083277702332e-01" nType="-99"/>
        </Node>
      </Node>
    </BinaryTree>
    <BinaryTree type="DecisionTree" boostWeight="1.0000000000000000e+00" itree="423">
      <Node pos="s" depth="0" NCoef="0" IVar="1" Cut="1.2762609863281250e+03" cType="0" res="-6.7921122536063194e-05" rms="3.0251723527908325e-01" purity="7.8396028280258179e-01" nType="0">
        <Node pos="l" depth="1" NCoef="0" IVar="-1" Cut="0.0000000000000000e+00" cType="1" res="1.0472439462319016e-03" rms="2.9739004373550415e-01" purity="8.1625044345855713e-01" nType="-99"/>
        <Node pos="r" depth="1" NCoef="0" IVar="9" Cut="2.6035339355468750e+02" cType="1" res="-1.8859140574932098e-02" rms="3.4387177228927612e-01" purity="4.9920949339866638e-01" nType="0">
          <Node pos="l" depth="2" NCoef="0" IVar="-1" Cut="0.0000000000000000e+00" cType="1" res="5.2282786928117275e-03" rms="3.3552819490432739e-01" purity="5.4013222455978394e-01" nType="-99"/>
          <Node pos="r" depth="2" NCoef="0" IVar="-1" Cut="0.0000000000000000e+00" cType="1" res="-4.6001251786947250e-02" rms="3.4988349676132202e-01" purity="3.7415838241577148e-01" nType="-99"/>
        </Node>
      </Node>
    </BinaryTree>
    <BinaryTree type="DecisionTree" boostWeight="1.0000000000000000e+00" itree="424">
      <Node pos="s" depth="0" NCoef="0" IVar="0" Cut="2.8571429252624512e+00" cType="1" res="5.5886845802888274e-04" rms="3.0226486921310425e-01" purity="7.8474277257919312e-01" nType="0">
        <Node pos="l" depth="1" NCoef="0" IVar="-1" Cut="0.0000000000000000e+00" cType="1" res="1.3020017184317112e-02" rms="2.2737585008144379e-01" purity="9.2966812849044800e-01" nType="-99"/>
        <Node pos="r" depth="1" NCoef="0" IVar="3" Cut="1.9663117675781250e+03" cType="0" res="-3.3371764584444463e-04" rms="3.0558183789253235e-01" purity="7.7731621265411377e-01" nType="0">
          <Node pos="l" depth="2" NCoef="0" IVar="-1" Cut="0.0000000000000000e+00" cType="1" res="4.4904325477546081e-05" rms="3.0538538098335266e-01" purity="7.7926003932952881e-01" nType="-99"/>
          <Node pos="r" depth="2" NCoef="0" IVar="-1" Cut="0.0000000000000000e+00" cType="1" res="-4.1467495262622833e-02" rms="3.3361420035362244e-01" purity="3.3138400316238403e-01" nType="-99"/>
        </Node>
      </Node>
    </BinaryTree>
    <BinaryTree type="DecisionTree" boostWeight="1.0000000000000000e+00" itree="425">
      <Node pos="s" depth="0" NCoef="0" IVar="12" Cut="-1.8021810302734375e+03" cType="1" res="-1.0926672257483006e-03" rms="3.0379310250282288e-01" purity="7.8391569852828979e-01" nType="0">
        <Node pos="l" depth="1" NCoef="0" IVar="-1" Cut="0.0000000000000000e+00" cType="1" res="1.6171691939234734e-02" rms="1.7027075588703156e-01" purity="9.5647364854812622e-01" nType="-99"/>
        <Node pos="r" depth="1" NCoef="0" IVar="12" Cut="-4.9884887695312500e+02" cType="1" res="-2.0358066540211439e-03" rms="3.1013971567153931e-01" purity="7.7325206995010376e-01" nType="0">
          <Node pos="l" depth="2" NCoef="0" IVar="-1" Cut="0.0000000000000000e+00" cType="1" res="1.0103009641170502e-02" rms="2.2427749633789062e-01" purity="9.1854536533355713e-01" nType="-99"/>
          <Node pos="r" depth="2" NCoef="0" IVar="-1" Cut="0.0000000000000000e+00" cType="1" res="-1.9938547629863024e-03" rms="3.2179662585258484e-01" purity="7.4979418516159058e-01" nType="-99"/>
        </Node>
      </Node>
    </BinaryTree>
    <BinaryTree type="DecisionTree" boostWeight="1.0000000000000000e+00" itree="426">
      <Node pos="s" depth="0" NCoef="0" IVar="3" Cut="3.2201086425781250e+03" cType="0" res="7.9931248910725117e-04" rms="3.0251789093017578e-01" purity="7.8574126958847046e-01" nType="0">
        <Node pos="l" depth="1" NCoef="0" IVar="-1" Cut="0.0000000000000000e+00" cType="1" res="-9.8281295504420996e-04" rms="3.0092325806617737e-01" purity="7.9128634929656982e-01" nType="-99"/>
        <Node pos="r" depth="1" NCoef="0" IVar="7" Cut="1.7444460449218750e+03" cType="0" res="5.3220754489302635e-03" rms="3.0510345101356506e-01" purity="7.7649933099746704e-01" nType="0">
          <Node pos="l" depth="2" NCoef="0" IVar="-1" Cut="0.0000000000000000e+00" cType="1" res="-1.0016044834628701e-03" rms="2.9464489221572876e-01" purity="7.9229110479354858e-01" nType="-99"/>
          <Node pos="r" depth="2" NCoef="0" IVar="-1" Cut="0.0000000000000000e+00" cType="1" res="1.2838204391300678e-02" rms="3.3919507265090942e-01" purity="7.1886831521987915e-01" nType="-99"/>
        </Node>
      </Node>
    </BinaryTree>
    <BinaryTree type="DecisionTree" boostWeight="1.0000000000000000e+00" itree="427">
      <Node pos="s" depth="0" NCoef="0" IVar="11" Cut="5.9525194168090820e+00" cType="1" res="1.2444017920643091e-03" rms="3.0211049318313599e-01" purity="7.8590816259384155e-01" nType="0">
        <Node pos="l" depth="1" NCoef="0" IVar="-1" Cut="0.0000000000000000e+00" cType="1" res="4.9803145229816437e-03" rms="2.7401286363601685e-01" purity="8.6342185735702515e-01" nType="-99"/>
        <Node pos="r" depth="1" NCoef="0" IVar="5" Cut="-4.8066219687461853e-01" cType="0" res="-6.2189938034862280e-04" rms="3.0873912572860718e-01" purity="7.6643627882003784e-01" nType="0">
          <Node pos="l" depth="2" NCoef="0" IVar="-1" Cut="0.0000000000000000e+00" cType="1" res="1.0207920568063855e-03" rms="3.0191043019294739e-01" purity="7.9584002494812012e-01" nType="-99"/>
          <Node pos="r" depth="2" NCoef="0" IVar="-1" Cut="0.0000000000000000e+00" cType="1" res="-5.7580820284783840e-03" rms="3.4328922629356384e-01" purity="6.0580480098724365e-01" nType="-99"/>
        </Node>
      </Node>
    </BinaryTree>
    <BinaryTree type="DecisionTree" boostWeight="1.0000000000000000e+00" itree="428">
      <Node pos="s" depth="0" NCoef="0" IVar="11" Cut="1.6666355133056641e+01" cType="1" res="1.0811366373673081e-03" rms="3.0168282985687256e-01" purity="7.8610759973526001e-01" nType="0">
        <Node pos="l" depth="1" NCoef="0" IVar="-1" Cut="0.0000000000000000e+00" cType="1" res="-1.1175750987604260e-03" rms="2.9351234436035156e-01" purity="8.1318479776382446e-01" nType="-99"/>
        <Node pos="r" depth="1" NCoef="0" IVar="0" Cut="8.4285717010498047e+00" cType="1" res="6.1796032823622227e-03" rms="3.1416249275207520e-01" purity="7.4307888746261597e-01" nType="0">
          <Node pos="l" depth="2" NCoef="0" IVar="-1" Cut="0.0000000000000000e+00" cType="1" res="-9.1417977819219232e-04" rms="2.7680107951164246e-01" purity="8.6952292919158936e-01" nType="-99"/>
          <Node pos="r" depth="2" NCoef="0" IVar="-1" Cut="0.0000000000000000e+00" cType="1" res="6.1156223528087139e-03" rms="3.6649864912033081e-01" purity="5.3761506080627441e-01" nType="-99"/>
        </Node>
      </Node>
    </BinaryTree>
    <BinaryTree type="DecisionTree" boostWeight="1.0000000000000000e+00" itree="429">
      <Node pos="s" depth="0" NCoef="0" IVar="1" Cut="3.7159392089843750e+03" cType="0" res="5.6681281421333551e-04" rms="3.0149170756340027e-01" purity="7.8605502843856812e-01" nType="0">
        <Node pos="l" depth="1" NCoef="0" IVar="-1" Cut="0.0000000000000000e+00" cType="1" res="-2.7734635397791862e-02" rms="3.2309937477111816e-01" purity="8.3065134286880493e-01" nType="-99"/>
        <Node pos="r" depth="1" NCoef="0" IVar="9" Cut="6.8146710205078125e+02" cType="0" res="9.6903031226247549e-04" rms="3.0122894048690796e-01" purity="7.8558266162872314e-01" nType="0">
          <Node pos="l" depth="2" NCoef="0" IVar="-1" Cut="0.0000000000000000e+00" cType="1" res="6.5864901989698410e-03" rms="2.5638014078140259e-01" purity="9.0771061182022095e-01" nType="-99"/>
          <Node pos="r" depth="2" NCoef="0" IVar="-1" Cut="0.0000000000000000e+00" cType="1" res="-6.2841031467542052e-04" rms="3.1168925762176514e-01" purity="7.5414335727691650e-01" nType="-99"/>
        </Node>
      </Node>
    </BinaryTree>
    <BinaryTree type="DecisionTree" boostWeight="1.0000000000000000e+00" itree="430">
      <Node pos="s" depth="0" NCoef="0" IVar="27" Cut="1.7899925000000000e+05" cType="1" res="-1.6913926810957491e-04" rms="3.0263781547546387e-01" purity="7.8378182649612427e-01" nType="0">
        <Node pos="l" depth="1" NCoef="0" IVar="-1" Cut="0.0000000000000000e+00" cType="1" res="2.6322735357098281e-04" rms="3.0127364397048950e-01" purity="7.8471058607101440e-01" nType="-99"/>
        <Node pos="r" depth="1" NCoef="0" IVar="0" Cut="7.9047617912292480e+00" cType="1" res="-2.1830122917890549e-02" rms="3.4144094586372375e-01" purity="7.5506019592285156e-01" nType="0">
          <Node pos="l" depth="2" NCoef="0" IVar="-1" Cut="0.0000000000000000e+00" cType="1" res="-3.8685873150825500e-03" rms="3.1956318020820618e-01" purity="8.2039320468902588e-01" nType="-99"/>
          <Node pos="r" depth="2" NCoef="0" IVar="-1" Cut="0.0000000000000000e+00" cType="1" res="-2.1024899557232857e-02" rms="4.0247824788093567e-01" purity="5.3769403696060181e-01" nType="-99"/>
        </Node>
      </Node>
    </BinaryTree>
    <BinaryTree type="DecisionTree" boostWeight="1.0000000000000000e+00" itree="431">
      <Node pos="s" depth="0" NCoef="0" IVar="23" Cut="5.3690258789062500e+03" cType="0" res="-5.3540448425337672e-04" rms="3.0322936177253723e-01" purity="7.8428447246551514e-01" nType="0">
        <Node pos="l" depth="1" NCoef="0" IVar="-1" Cut="0.0000000000000000e+00" cType="1" res="2.3039104416966438e-03" rms="2.8661826252937317e-01" purity="8.3147978782653809e-01" nType="-99"/>
        <Node pos="r" depth="1" NCoef="0" IVar="27" Cut="2.0855265625000000e+04" cType="0" res="-5.0951256416738033e-03" rms="3.1806170940399170e-01" purity="7.3969036340713501e-01" nType="0">
          <Node pos="l" depth="2" NCoef="0" IVar="-1" Cut="0.0000000000000000e+00" cType="1" res="-3.5037670750170946e-03" rms="3.1787794828414917e-01" purity="7.4097794294357300e-01" nType="-99"/>
          <Node pos="r" depth="2" NCoef="0" IVar="-1" Cut="0.0000000000000000e+00" cType="1" res="1.0963217355310917e-02" rms="3.1868895888328552e-01" purity="7.2483879327774048e-01" nType="-99"/>
        </Node>
      </Node>
    </BinaryTree>
    <BinaryTree type="DecisionTree" boostWeight="1.0000000000000000e+00" itree="432">
      <Node pos="s" depth="0" NCoef="0" IVar="25" Cut="1.3395092773437500e+03" cType="0" res="-3.4806781332008541e-04" rms="3.0214726924896240e-01" purity="7.8343284130096436e-01" nType="0">
        <Node pos="l" depth="1" NCoef="0" IVar="-1" Cut="0.0000000000000000e+00" cType="1" res="4.7334458213299513e-04" rms="2.9808166623115540e-01" purity="7.9103744029998779e-01" nType="-99"/>
        <Node pos="r" depth="1" NCoef="0" IVar="3" Cut="4.0567255859375000e+03" cType="1" res="-1.2201357632875443e-02" rms="3.3702003955841064e-01" purity="7.1348732709884644e-01" nType="0">
          <Node pos="l" depth="2" NCoef="0" IVar="-1" Cut="0.0000000000000000e+00" cType="1" res="-6.1857388354837894e-03" rms="3.3441534638404846e-01" purity="7.1629911661148071e-01" nType="-99"/>
          <Node pos="r" depth="2" NCoef="0" IVar="-1" Cut="0.0000000000000000e+00" cType="1" res="1.8280747532844543e-01" rms="4.7056815028190613e-01" purity="3.9047619700431824e-01" nType="-99"/>
        </Node>
      </Node>
    </BinaryTree>
    <BinaryTree type="DecisionTree" boostWeight="1.0000000000000000e+00" itree="433">
      <Node pos="s" depth="0" NCoef="0" IVar="2" Cut="1.9045205414295197e-01" cType="1" res="-1.6853284614626318e-04" rms="3.0244755744934082e-01" purity="7.8537899255752563e-01" nType="0">
        <Node pos="l" depth="1" NCoef="0" IVar="-1" Cut="0.0000000000000000e+00" cType="1" res="-1.0114898905158043e-03" rms="2.9257404804229736e-01" purity="8.1499159336090088e-01" nType="-99"/>
        <Node pos="r" depth="1" NCoef="0" IVar="17" Cut="5.6245183593750000e+04" cType="1" res="8.2624303176999092e-03" rms="3.4575957059860229e-01" purity="6.4343386888504028e-01" nType="0">
          <Node pos="l" depth="2" NCoef="0" IVar="-1" Cut="0.0000000000000000e+00" cType="1" res="7.2788014076650143e-03" rms="3.4210115671157837e-01" purity="6.5691149234771729e-01" nType="-99"/>
          <Node pos="r" depth="2" NCoef="0" IVar="-1" Cut="0.0000000000000000e+00" cType="1" res="-7.4196457862854004e-03" rms="3.5380491614341736e-01" purity="6.0739856958389282e-01" nType="-99"/>
        </Node>
      </Node>
    </BinaryTree>
    <BinaryTree type="DecisionTree" boostWeight="1.0000000000000000e+00" itree="434">
      <Node pos="s" depth="0" NCoef="0" IVar="0" Cut="2.1428571701049805e+01" cType="1" res="4.1831837734207511e-05" rms="3.0204841494560242e-01" purity="7.8399890661239624e-01" nType="0">
        <Node pos="l" depth="1" NCoef="0" IVar="-1" Cut="0.0000000000000000e+00" cType="1" res="2.3736534058116376e-04" rms="3.0249556899070740e-01" purity="7.9235810041427612e-01" nType="-99"/>
        <Node pos="r" depth="1" NCoef="0" IVar="7" Cut="1.1517434082031250e+03" cType="0" res="-3.1802304089069366e-02" rms="2.6568976044654846e-01" purity="1.7747642099857330e-01" nType="0">
          <Node pos="l" depth="2" NCoef="0" IVar="-1" Cut="0.0000000000000000e+00" cType="1" res="4.3646399863064289e-03" rms="3.1639513373374939e-01" purity="3.0227518081665039e-01" nType="-99"/>
          <Node pos="r" depth="2" NCoef="0" IVar="-1" Cut="0.0000000000000000e+00" cType="1" res="-4.9267087131738663e-02" rms="1.7434184253215790e-01" purity="2.8460543602705002e-02" nType="-99"/>
        </Node>
      </Node>
    </BinaryTree>
    <BinaryTree type="DecisionTree" boostWeight="1.0000000000000000e+00" itree="435">
      <Node pos="s" depth="0" NCoef="0" IVar="5" Cut="9.3688599765300751e-02" cType="0" res="-4.5655513531528413e-04" rms="3.0256527662277222e-01" purity="7.8378117084503174e-01" nType="0">
        <Node pos="l" depth="1" NCoef="0" IVar="-1" Cut="0.0000000000000000e+00" cType="1" res="2.8532331343740225e-03" rms="2.7506136894226074e-01" purity="8.6116260290145874e-01" nType="-99"/>
        <Node pos="r" depth="1" NCoef="0" IVar="1" Cut="2.0616518554687500e+03" cType="1" res="-4.8571783117949963e-03" rms="3.2327407598495483e-01" purity="7.2044485807418823e-01" nType="0">
          <Node pos="l" depth="2" NCoef="0" IVar="-1" Cut="0.0000000000000000e+00" cType="1" res="-4.2942804284393787e-03" rms="3.2086315751075745e-01" purity="7.3992979526519775e-01" nType="-99"/>
          <Node pos="r" depth="2" NCoef="0" IVar="-1" Cut="0.0000000000000000e+00" cType="1" res="5.9211887419223785e-03" rms="3.3172959089279175e-01" purity="6.4540112018585205e-01" nType="-99"/>
        </Node>
      </Node>
    </BinaryTree>
    <BinaryTree type="DecisionTree" boostWeight="1.0000000000000000e+00" itree="436">
      <Node pos="s" depth="0" NCoef="0" IVar="19" Cut="2.0998990625000000e+05" cType="1" res="-4.0221846575150266e-05" rms="3.0274429917335510e-01" purity="7.8484660387039185e-01" nType="0">
        <Node pos="l" depth="1" NCoef="0" IVar="-1" Cut="0.0000000000000000e+00" cType="1" res="4.3151000863872468e-04" rms="3.0097264051437378e-01" purity="7.8789430856704712e-01" nType="-99"/>
        <Node pos="r" depth="1" NCoef="0" IVar="0" Cut="1.0285714149475098e+01" cType="1" res="-1.3859823346138000e-02" rms="3.2825353741645813e-01" purity="7.3840153217315674e-01" nType="0">
          <Node pos="l" depth="2" NCoef="0" IVar="-1" Cut="0.0000000000000000e+00" cType="1" res="-1.3539640931412578e-03" rms="3.2044303417205811e-01" purity="8.0066800117492676e-01" nType="-99"/>
          <Node pos="r" depth="2" NCoef="0" IVar="-1" Cut="0.0000000000000000e+00" cType="1" res="-2.4502325803041458e-02" rms="3.6461988091468811e-01" purity="3.6823105812072754e-01" nType="-99"/>
        </Node>
      </Node>
    </BinaryTree>
    <BinaryTree type="DecisionTree" boostWeight="1.0000000000000000e+00" itree="437">
      <Node pos="s" depth="0" NCoef="0" IVar="13" Cut="5.2141704101562500e+03" cType="0" res="-6.4718455541878939e-04" rms="3.0328565835952759e-01" purity="7.8424733877182007e-01" nType="0">
        <Node pos="l" depth="1" NCoef="0" IVar="-1" Cut="0.0000000000000000e+00" cType="1" res="6.6476222127676010e-03" rms="2.6085904240608215e-01" purity="8.7620985507965088e-01" nType="-99"/>
        <Node pos="r" depth="1" NCoef="0" IVar="14" Cut="4.8630242919921875e+02" cType="0" res="-1.7738806782290339e-03" rms="3.0735364556312561e-01" purity="7.7465140819549561e-01" nType="0">
          <Node pos="l" depth="2" NCoef="0" IVar="-1" Cut="0.0000000000000000e+00" cType="1" res="-7.1813585236668587e-03" rms="2.8930246829986572e-01" purity="8.2963514328002930e-01" nType="-99"/>
          <Node pos="r" depth="2" NCoef="0" IVar="-1" Cut="0.0000000000000000e+00" cType="1" res="1.4945771545171738e-03" rms="3.1503313779830933e-01" purity="7.4982959032058716e-01" nType="-99"/>
        </Node>
      </Node>
    </BinaryTree>
    <BinaryTree type="DecisionTree" boostWeight="1.0000000000000000e+00" itree="438">
      <Node pos="s" depth="0" NCoef="0" IVar="13" Cut="2.6134575195312500e+03" cType="0" res="5.1771500147879124e-04" rms="3.0171313881874084e-01" purity="7.8420549631118774e-01" nType="0">
        <Node pos="l" depth="1" NCoef="0" IVar="-1" Cut="0.0000000000000000e+00" cType="1" res="2.8135993052273989e-03" rms="2.8815472126007080e-01" purity="8.1891053915023804e-01" nType="-99"/>
        <Node pos="r" depth="1" NCoef="0" IVar="14" Cut="3.6246597290039062e+02" cType="0" res="-3.1892862170934677e-03" rms="3.1168690323829651e-01" purity="7.5752037763595581e-01" nType="0">
          <Node pos="l" depth="2" NCoef="0" IVar="-1" Cut="0.0000000000000000e+00" cType="1" res="-6.4844018779695034e-03" rms="2.9786753654479980e-01" purity="8.0115586519241333e-01" nType="-99"/>
          <Node pos="r" depth="2" NCoef="0" IVar="-1" Cut="0.0000000000000000e+00" cType="1" res="2.8136384207755327e-03" rms="3.2502728700637817e-01" purity="7.1255540847778320e-01" nType="-99"/>
        </Node>
      </Node>
    </BinaryTree>
    <BinaryTree type="DecisionTree" boostWeight="1.0000000000000000e+00" itree="439">
      <Node pos="s" depth="0" NCoef="0" IVar="29" Cut="1.6217962265014648e+01" cType="1" res="7.3067785706371069e-04" rms="3.0248528718948364e-01" purity="7.8551942110061646e-01" nType="0">
        <Node pos="l" depth="1" NCoef="0" IVar="-1" Cut="0.0000000000000000e+00" cType="1" res="-2.0719143503811210e-04" rms="3.0113500356674194e-01" purity="7.9053366184234619e-01" nType="-99"/>
        <Node pos="r" depth="1" NCoef="0" IVar="11" Cut="1.7680604934692383e+01" cType="0" res="1.2835214845836163e-02" rms="3.1614148616790771e-01" purity="7.3256027698516846e-01" nType="0">
          <Node pos="l" depth="2" NCoef="0" IVar="-1" Cut="0.0000000000000000e+00" cType="1" res="7.4592363089323044e-03" rms="3.1552964448928833e-01" purity="7.3731458187103271e-01" nType="-99"/>
          <Node pos="r" depth="2" NCoef="0" IVar="-1" Cut="0.0000000000000000e+00" cType="1" res="-2.9777895659208298e-02" rms="3.1759664416313171e-01" purity="6.4097744226455688e-01" nType="-99"/>
        </Node>
      </Node>
    </BinaryTree>
    <BinaryTree type="DecisionTree" boostWeight="1.0000000000000000e+00" itree="440">
      <Node pos="s" depth="0" NCoef="0" IVar="18" Cut="4.7422766685485840e-02" cType="0" res="4.6752142225159332e-05" rms="3.0225419998168945e-01" purity="7.8476291894912720e-01" nType="0">
        <Node pos="l" depth="1" NCoef="0" IVar="-1" Cut="0.0000000000000000e+00" cType="1" res="-1.0156203061342239e-02" rms="3.0483564734458923e-01" purity="8.3502417802810669e-01" nType="-99"/>
        <Node pos="r" depth="1" NCoef="0" IVar="5" Cut="-2.2470054626464844e+00" cType="0" res="6.7824049619957805e-04" rms="3.0214515328407288e-01" purity="7.8303390741348267e-01" nType="0">
          <Node pos="l" depth="2" NCoef="0" IVar="-1" Cut="0.0000000000000000e+00" cType="1" res="5.1819608779624104e-04" rms="3.0175310373306274e-01" purity="7.8461420536041260e-01" nType="-99"/>
          <Node pos="r" depth="2" NCoef="0" IVar="-1" Cut="0.0000000000000000e+00" cType="1" res="-2.6490967720746994e-02" rms="3.6362323164939880e-01" purity="4.7385621070861816e-01" nType="-99"/>
        </Node>
      </Node>
    </BinaryTree>
    <BinaryTree type="DecisionTree" boostWeight="1.0000000000000000e+00" itree="441">
      <Node pos="s" depth="0" NCoef="0" IVar="2" Cut="4.7613013535737991e-02" cType="1" res="-1.9646072178147733e-04" rms="3.0233478546142578e-01" purity="7.8459137678146362e-01" nType="0">
        <Node pos="l" depth="1" NCoef="0" IVar="-1" Cut="0.0000000000000000e+00" cType="1" res="1.8272161250934005e-03" rms="2.7028340101242065e-01" purity="8.6724442243576050e-01" nType="-99"/>
        <Node pos="r" depth="1" NCoef="0" IVar="19" Cut="1.4573198437500000e+05" cType="1" res="-4.5864381827414036e-03" rms="3.4085607528686523e-01" purity="6.7285990715026855e-01" nType="0">
          <Node pos="l" depth="2" NCoef="0" IVar="-1" Cut="0.0000000000000000e+00" cType="1" res="-4.9133686115965247e-04" rms="3.3825331926345825e-01" purity="6.7649674415588379e-01" nType="-99"/>
          <Node pos="r" depth="2" NCoef="0" IVar="-1" Cut="0.0000000000000000e+00" cType="1" res="-7.7021783217787743e-03" rms="3.5235136747360229e-01" purity="6.5584623813629150e-01" nType="-99"/>
        </Node>
      </Node>
    </BinaryTree>
    <BinaryTree type="DecisionTree" boostWeight="1.0000000000000000e+00" itree="442">
      <Node pos="s" depth="0" NCoef="0" IVar="0" Cut="4.7142858505249023e+00" cType="1" res="-1.7785874661058187e-04" rms="3.0159771442413330e-01" purity="7.8457480669021606e-01" nType="0">
        <Node pos="l" depth="1" NCoef="0" IVar="-1" Cut="0.0000000000000000e+00" cType="1" res="4.0485281497240067e-03" rms="2.3996272683143616e-01" purity="9.1761296987533569e-01" nType="-99"/>
        <Node pos="r" depth="1" NCoef="0" IVar="3" Cut="3.6584448242187500e+03" cType="0" res="-2.6511210016906261e-03" rms="3.2528457045555115e-01" purity="7.2531282901763916e-01" nType="0">
          <Node pos="l" depth="2" NCoef="0" IVar="-1" Cut="0.0000000000000000e+00" cType="1" res="2.6829596608877182e-03" rms="3.1257107853889465e-01" purity="7.6458978652954102e-01" nType="-99"/>
          <Node pos="r" depth="2" NCoef="0" IVar="-1" Cut="0.0000000000000000e+00" cType="1" res="-4.6263015829026699e-03" rms="3.3820551633834839e-01" purity="6.8302345275878906e-01" nType="-99"/>
        </Node>
      </Node>
    </BinaryTree>
    <BinaryTree type="DecisionTree" boostWeight="1.0000000000000000e+00" itree="443">
      <Node pos="s" depth="0" NCoef="0" IVar="34" Cut="-7.1427416801452637e-01" cType="0" res="-5.2635434258263558e-05" rms="3.0078846216201782e-01" purity="7.8439950942993164e-01" nType="0">
        <Node pos="l" depth="1" NCoef="0" IVar="-1" Cut="0.0000000000000000e+00" cType="1" res="-8.5559273429680616e-05" rms="3.0077782273292542e-01" purity="7.8440797328948975e-01" nType="-99"/>
        <Node pos="r" depth="1" NCoef="0" IVar="23" Cut="2.3893090820312500e+03" cType="0" res="1.1995327472686768e-01" rms="2.8710612654685974e-01" purity="7.7600002288818359e-01" nType="0">
          <Node pos="l" depth="2" NCoef="0" IVar="-1" Cut="0.0000000000000000e+00" cType="1" res="6.4848646521568298e-02" rms="2.8293415904045105e-01" purity="8.3823531866073608e-01" nType="-99"/>
          <Node pos="r" depth="2" NCoef="0" IVar="-1" Cut="0.0000000000000000e+00" cType="1" res="1.3109450228512287e-02" rms="2.6559004187583923e-01" purity="7.0175439119338989e-01" nType="-99"/>
        </Node>
      </Node>
    </BinaryTree>
    <BinaryTree type="DecisionTree" boostWeight="1.0000000000000000e+00" itree="444">
      <Node pos="s" depth="0" NCoef="0" IVar="20" Cut="9.0476191043853760e-01" cType="0" res="-2.8704729629680514e-04" rms="3.0176439881324768e-01" purity="7.8425258398056030e-01" nType="0">
        <Node pos="l" depth="1" NCoef="0" IVar="-1" Cut="0.0000000000000000e+00" cType="1" res="9.5299415988847613e-05" rms="3.0039542913436890e-01" purity="7.8933185338973999e-01" nType="-99"/>
        <Node pos="r" depth="1" NCoef="0" IVar="27" Cut="3.5225269531250000e+04" cType="0" res="-2.6591222733259201e-02" rms="3.6831048130989075e-01" purity="5.0515925884246826e-01" nType="0">
          <Node pos="l" depth="2" NCoef="0" IVar="-1" Cut="0.0000000000000000e+00" cType="1" res="-1.4636425767093897e-03" rms="3.6803975701332092e-01" purity="5.5275589227676392e-01" nType="-99"/>
          <Node pos="r" depth="2" NCoef="0" IVar="-1" Cut="0.0000000000000000e+00" cType="1" res="-6.8364724516868591e-02" rms="3.4159877896308899e-01" purity="2.2530864179134369e-01" nType="-99"/>
        </Node>
      </Node>
    </BinaryTree>
    <BinaryTree type="DecisionTree" boostWeight="1.0000000000000000e+00" itree="445">
      <Node pos="s" depth="0" NCoef="0" IVar="14" Cut="1.8541296386718750e+03" cType="0" res="5.1655794959515333e-04" rms="3.0170133709907532e-01" purity="7.8564971685409546e-01" nType="0">
        <Node pos="l" depth="1" NCoef="0" IVar="-1" Cut="0.0000000000000000e+00" cType="1" res="-1.3423150405287743e-02" rms="2.7618655562400818e-01" purity="8.8623523712158203e-01" nType="-99"/>
        <Node pos="r" depth="1" NCoef="0" IVar="14" Cut="3.2638363647460938e+02" cType="0" res="1.1489065364003181e-03" rms="3.0246439576148987e-01" purity="7.8241705894470215e-01" nType="0">
          <Node pos="l" depth="2" NCoef="0" IVar="-1" Cut="0.0000000000000000e+00" cType="1" res="-1.7048513982445002e-03" rms="2.8976005315780640e-01" purity="8.1521040201187134e-01" nType="-99"/>
          <Node pos="r" depth="2" NCoef="0" IVar="-1" Cut="0.0000000000000000e+00" cType="1" res="3.7415705155581236e-03" rms="3.2291913032531738e-01" purity="7.2627359628677368e-01" nType="-99"/>
        </Node>
      </Node>
    </BinaryTree>
    <BinaryTree type="DecisionTree" boostWeight="1.0000000000000000e+00" itree="446">
      <Node pos="s" depth="0" NCoef="0" IVar="1" Cut="3.6177341308593750e+03" cType="0" res="-4.8777309712022543e-04" rms="3.0173945426940918e-01" purity="7.8432679176330566e-01" nType="0">
        <Node pos="l" depth="1" NCoef="0" IVar="-1" Cut="0.0000000000000000e+00" cType="1" res="-2.5455389171838760e-02" rms="3.2010999321937561e-01" purity="8.0213189125061035e-01" nType="-99"/>
        <Node pos="r" depth="1" NCoef="0" IVar="9" Cut="2.8166851806640625e+02" cType="0" res="-3.4391810913803056e-05" rms="3.0148047208786011e-01" purity="7.8410989046096802e-01" nType="0">
          <Node pos="l" depth="2" NCoef="0" IVar="-1" Cut="0.0000000000000000e+00" cType="1" res="2.2522958461195230e-03" rms="2.8266611695289612e-01" purity="8.3345562219619751e-01" nType="-99"/>
          <Node pos="r" depth="2" NCoef="0" IVar="-1" Cut="0.0000000000000000e+00" cType="1" res="-3.7681320682168007e-03" rms="3.3875545859336853e-01" purity="6.7641133069992065e-01" nType="-99"/>
        </Node>
      </Node>
    </BinaryTree>
    <BinaryTree type="DecisionTree" boostWeight="1.0000000000000000e+00" itree="447">
      <Node pos="s" depth="0" NCoef="0" IVar="0" Cut="1.4000000000000000e+01" cType="1" res="-1.1704478674801067e-04" rms="3.0158305168151855e-01" purity="7.8433227539062500e-01" nType="0">
        <Node pos="l" depth="1" NCoef="0" IVar="-1" Cut="0.0000000000000000e+00" cType="1" res="1.8278455536346883e-04" rms="2.9849177598953247e-01" purity="8.1171107292175293e-01" nType="-99"/>
        <Node pos="r" depth="1" NCoef="0" IVar="14" Cut="3.2868539428710938e+02" cType="1" res="-8.1649040803313255e-03" rms="3.4935212135314941e-01" purity="3.2437840104103088e-01" nType="0">
          <Node pos="l" depth="2" NCoef="0" IVar="-1" Cut="0.0000000000000000e+00" cType="1" res="2.8163183014839888e-03" rms="3.4544873237609863e-01" purity="3.3339506387710571e-01" nType="-99"/>
          <Node pos="r" depth="2" NCoef="0" IVar="-1" Cut="0.0000000000000000e+00" cType="1" res="-2.1143725141882896e-02" rms="3.5689246654510498e-01" purity="2.9393371939659119e-01" nType="-99"/>
        </Node>
      </Node>
    </BinaryTree>
    <BinaryTree type="DecisionTree" boostWeight="1.0000000000000000e+00" itree="448">
      <Node pos="s" depth="0" NCoef="0" IVar="11" Cut="9.5265769958496094e+00" cType="1" res="8.4150384645909071e-04" rms="3.0101323127746582e-01" purity="7.8514790534973145e-01" nType="0">
        <Node pos="l" depth="1" NCoef="0" IVar="-1" Cut="0.0000000000000000e+00" cType="1" res="3.1423936598002911e-03" rms="2.7988862991333008e-01" purity="8.4425741434097290e-01" nType="-99"/>
        <Node pos="r" depth="1" NCoef="0" IVar="5" Cut="1.1256678104400635e+00" cType="0" res="-1.6402229666709900e-03" rms="3.1122756004333496e-01" purity="7.5493711233139038e-01" nType="0">
          <Node pos="l" depth="2" NCoef="0" IVar="-1" Cut="0.0000000000000000e+00" cType="1" res="7.1154218167066574e-03" rms="2.4044789373874664e-01" purity="9.1586816310882568e-01" nType="-99"/>
          <Node pos="r" depth="2" NCoef="0" IVar="-1" Cut="0.0000000000000000e+00" cType="1" res="-2.0646152552217245e-03" rms="3.2825067639350891e-01" purity="7.0987701416015625e-01" nType="-99"/>
        </Node>
      </Node>
    </BinaryTree>
    <BinaryTree type="DecisionTree" boostWeight="1.0000000000000000e+00" itree="449">
      <Node pos="s" depth="0" NCoef="0" IVar="11" Cut="5.9535317420959473e+00" cType="1" res="-4.2062764987349510e-04" rms="3.0231627821922302e-01" purity="7.8401583433151245e-01" nType="0">
        <Node pos="l" depth="1" NCoef="0" IVar="-1" Cut="0.0000000000000000e+00" cType="1" res="3.8450607098639011e-03" rms="2.7506202459335327e-01" purity="8.6135596036911011e-01" nType="-99"/>
        <Node pos="r" depth="1" NCoef="0" IVar="3" Cut="3.2201086425781250e+03" cType="0" res="-2.1985210478305817e-03" rms="3.0876120924949646e-01" purity="7.6458209753036499e-01" nType="0">
          <Node pos="l" depth="2" NCoef="0" IVar="-1" Cut="0.0000000000000000e+00" cType="1" res="-2.9488313011825085e-03" rms="3.0998602509498596e-01" purity="7.6797437667846680e-01" nType="-99"/>
          <Node pos="r" depth="2" NCoef="0" IVar="-1" Cut="0.0000000000000000e+00" cType="1" res="2.0334387663751841e-03" rms="3.0650481581687927e-01" purity="7.5868153572082520e-01" nType="-99"/>
        </Node>
      </Node>
    </BinaryTree>
    <BinaryTree type="DecisionTree" boostWeight="1.0000000000000000e+00" itree="450">
      <Node pos="s" depth="0" NCoef="0" IVar="0" Cut="1.4000000000000000e+01" cType="1" res="9.1714086011052132e-04" rms="3.0142459273338318e-01" purity="7.8583699464797974e-01" nType="0">
        <Node pos="l" depth="1" NCoef="0" IVar="-1" Cut="0.0000000000000000e+00" cType="1" res="5.6911772117018700e-04" rms="2.9857033491134644e-01" purity="8.1243079900741577e-01" nType="-99"/>
        <Node pos="r" depth="1" NCoef="0" IVar="11" Cut="1.3017855644226074e+01" cType="0" res="-2.7185804210603237e-03" rms="3.4711357951164246e-01" purity="3.2548272609710693e-01" nType="0">
          <Node pos="l" depth="2" NCoef="0" IVar="-1" Cut="0.0000000000000000e+00" cType="1" res="2.2315147798508406e-03" rms="3.4945851564407349e-01" purity="3.4029993414878845e-01" nType="-99"/>
          <Node pos="r" depth="2" NCoef="0" IVar="-1" Cut="0.0000000000000000e+00" cType="1" res="-3.6930847913026810e-02" rms="3.0254384875297546e-01" purity="1.6197183728218079e-01" nType="-99"/>
        </Node>
      </Node>
    </BinaryTree>
    <BinaryTree type="DecisionTree" boostWeight="1.0000000000000000e+00" itree="451">
      <Node pos="s" depth="0" NCoef="0" IVar="5" Cut="-2.4911761283874512e+00" cType="0" res="-4.1769002564251423e-04" rms="3.0190557241439819e-01" purity="7.8444308042526245e-01" nType="0">
        <Node pos="l" depth="1" NCoef="0" IVar="-1" Cut="0.0000000000000000e+00" cType="1" res="-7.4822215538006276e-05" rms="3.0172291398048401e-01" purity="7.8555136919021606e-01" nType="-99"/>
        <Node pos="r" depth="1" NCoef="0" IVar="0" Cut="6.9523811340332031e+00" cType="1" res="-8.9922092854976654e-02" rms="3.4659305214881897e-01" purity="4.1239893436431885e-01" nType="0">
          <Node pos="l" depth="2" NCoef="0" IVar="-1" Cut="0.0000000000000000e+00" cType="1" res="7.8218001872301102e-03" rms="3.3135139942169189e-01" purity="7.3529410362243652e-01" nType="-99"/>
          <Node pos="r" depth="2" NCoef="0" IVar="-1" Cut="0.0000000000000000e+00" cType="1" res="-5.7974718511104584e-02" rms="3.3825701475143433e-01" purity="2.2553192079067230e-01" nType="-99"/>
        </Node>
      </Node>
    </BinaryTree>
    <BinaryTree type="DecisionTree" boostWeight="1.0000000000000000e+00" itree="452">
      <Node pos="s" depth="0" NCoef="0" IVar="11" Cut="2.3812403678894043e+00" cType="1" res="4.2890646727755666e-04" rms="3.0095928907394409e-01" purity="7.8548371791839600e-01" nType="0">
        <Node pos="l" depth="1" NCoef="0" IVar="-1" Cut="0.0000000000000000e+00" cType="1" res="9.1434465721249580e-03" rms="2.6667559146881104e-01" purity="8.8881987333297729e-01" nType="-99"/>
        <Node pos="r" depth="1" NCoef="0" IVar="5" Cut="9.3688599765300751e-02" cType="0" res="-6.0678174486383796e-04" rms="3.0315825343132019e-01" purity="7.7834159135818481e-01" nType="0">
          <Node pos="l" depth="2" NCoef="0" IVar="-1" Cut="0.0000000000000000e+00" cType="1" res="2.7321930974721909e-03" rms="2.7437734603881836e-01" purity="8.6137688159942627e-01" nType="-99"/>
          <Node pos="r" depth="2" NCoef="0" IVar="-1" Cut="0.0000000000000000e+00" cType="1" res="-2.3102462291717529e-03" rms="3.2709044218063354e-01" purity="7.0275056362152100e-01" nType="-99"/>
        </Node>
      </Node>
    </BinaryTree>
    <BinaryTree type="DecisionTree" boostWeight="1.0000000000000000e+00" itree="453">
      <Node pos="s" depth="0" NCoef="0" IVar="9" Cut="8.4069299316406250e+02" cType="0" res="-5.0908455159515142e-04" rms="3.0116933584213257e-01" purity="7.8356540203094482e-01" nType="0">
        <Node pos="l" depth="1" NCoef="0" IVar="-1" Cut="0.0000000000000000e+00" cType="1" res="7.2033153846859932e-03" rms="2.3649474978446960e-01" purity="9.2994642257690430e-01" nType="-99"/>
        <Node pos="r" depth="1" NCoef="0" IVar="1" Cut="1.9015010986328125e+03" cType="1" res="-2.2541845683008432e-03" rms="3.1123512983322144e-01" purity="7.5753116607666016e-01" nType="0">
          <Node pos="l" depth="2" NCoef="0" IVar="-1" Cut="0.0000000000000000e+00" cType="1" res="9.5692381728440523e-04" rms="2.9791975021362305e-01" purity="7.9947084188461304e-01" nType="-99"/>
          <Node pos="r" depth="2" NCoef="0" IVar="-1" Cut="0.0000000000000000e+00" cType="1" res="-6.9200689904391766e-03" rms="3.5681644082069397e-01" purity="5.9842664003372192e-01" nType="-99"/>
        </Node>
      </Node>
    </BinaryTree>
    <BinaryTree type="DecisionTree" boostWeight="1.0000000000000000e+00" itree="454">
      <Node pos="s" depth="0" NCoef="0" IVar="2" Cut="1.4283904433250427e-01" cType="1" res="2.0349363330751657e-04" rms="3.0049490928649902e-01" purity="7.8469431400299072e-01" nType="0">
        <Node pos="l" depth="1" NCoef="0" IVar="-1" Cut="0.0000000000000000e+00" cType="1" res="-9.5399399287998676e-04" rms="2.8873926401138306e-01" purity="8.2220274209976196e-01" nType="-99"/>
        <Node pos="r" depth="1" NCoef="0" IVar="25" Cut="4.0317675781250000e+03" cType="0" res="7.2356886230409145e-03" rms="3.3889532089233398e-01" purity="6.5139865875244141e-01" nType="0">
          <Node pos="l" depth="2" NCoef="0" IVar="-1" Cut="0.0000000000000000e+00" cType="1" res="1.4511392451822758e-02" rms="3.2737076282501221e-01" purity="6.9887167215347290e-01" nType="-99"/>
          <Node pos="r" depth="2" NCoef="0" IVar="-1" Cut="0.0000000000000000e+00" cType="1" res="1.4213126851245761e-03" rms="3.4002256393432617e-01" purity="6.4589804410934448e-01" nType="-99"/>
        </Node>
      </Node>
    </BinaryTree>
    <BinaryTree type="DecisionTree" boostWeight="1.0000000000000000e+00" itree="455">
      <Node pos="s" depth="0" NCoef="0" IVar="29" Cut="1.1092340469360352e+01" cType="1" res="1.7611363728065044e-04" rms="3.0150848627090454e-01" purity="7.8452819585800171e-01" nType="0">
        <Node pos="l" depth="1" NCoef="0" IVar="-1" Cut="0.0000000000000000e+00" cType="1" res="-1.1397548951208591e-03" rms="2.9685488343238831e-01" purity="7.9947078227996826e-01" nType="-99"/>
        <Node pos="r" depth="1" NCoef="0" IVar="1" Cut="1.7180053710937500e+03" cType="1" res="7.2226957418024540e-03" rms="3.1468206644058228e-01" purity="7.4061077833175659e-01" nType="0">
          <Node pos="l" depth="2" NCoef="0" IVar="-1" Cut="0.0000000000000000e+00" cType="1" res="7.8424988314509392e-03" rms="3.1749227643013000e-01" purity="7.6188534498214722e-01" nType="-99"/>
          <Node pos="r" depth="2" NCoef="0" IVar="-1" Cut="0.0000000000000000e+00" cType="1" res="-2.8275200165808201e-03" rms="3.1080812215805054e-01" purity="7.1543931961059570e-01" nType="-99"/>
        </Node>
      </Node>
    </BinaryTree>
    <BinaryTree type="DecisionTree" boostWeight="1.0000000000000000e+00" itree="456">
      <Node pos="s" depth="0" NCoef="0" IVar="14" Cut="2.0681459960937500e+03" cType="0" res="6.5655831713229418e-04" rms="3.0180472135543823e-01" purity="7.8570508956909180e-01" nType="0">
        <Node pos="l" depth="1" NCoef="0" IVar="-1" Cut="0.0000000000000000e+00" cType="1" res="-1.5265304595232010e-02" rms="2.7634721994400024e-01" purity="8.9127421379089355e-01" nType="-99"/>
        <Node pos="r" depth="1" NCoef="0" IVar="14" Cut="3.3656936645507812e+02" cType="0" res="1.1667548678815365e-03" rms="3.0236622691154480e-01" purity="7.8319150209426880e-01" nType="0">
          <Node pos="l" depth="2" NCoef="0" IVar="-1" Cut="0.0000000000000000e+00" cType="1" res="-2.4720481596887112e-03" rms="2.8901386260986328e-01" purity="8.1634700298309326e-01" nType="-99"/>
          <Node pos="r" depth="2" NCoef="0" IVar="-1" Cut="0.0000000000000000e+00" cType="1" res="4.3082754127681255e-03" rms="3.2119557261466980e-01" purity="7.3336356878280640e-01" nType="-99"/>
        </Node>
      </Node>
    </BinaryTree>
    <BinaryTree type="DecisionTree" boostWeight="1.0000000000000000e+00" itree="457">
      <Node pos="s" depth="0" NCoef="0" IVar="1" Cut="3.6553598632812500e+03" cType="0" res="-5.2065157797187567e-04" rms="3.0275151133537292e-01" purity="7.8403836488723755e-01" nType="0">
        <Node pos="l" depth="1" NCoef="0" IVar="-1" Cut="0.0000000000000000e+00" cType="1" res="-2.4637974798679352e-02" rms="3.2766684889793396e-01" purity="8.0938833951950073e-01" nType="-99"/>
        <Node pos="r" depth="1" NCoef="0" IVar="1" Cut="1.2513286132812500e+03" cType="0" res="-1.0895641025854275e-04" rms="3.0243128538131714e-01" purity="7.8374987840652466e-01" nType="0">
          <Node pos="l" depth="2" NCoef="0" IVar="-1" Cut="0.0000000000000000e+00" cType="1" res="8.1575656076893210e-04" rms="2.9812273383140564e-01" purity="8.1502366065979004e-01" nType="-99"/>
          <Node pos="r" depth="2" NCoef="0" IVar="-1" Cut="0.0000000000000000e+00" cType="1" res="-6.9676814600825310e-03" rms="3.4379449486732483e-01" purity="4.5637646317481995e-01" nType="-99"/>
        </Node>
      </Node>
    </BinaryTree>
    <BinaryTree type="DecisionTree" boostWeight="1.0000000000000000e+00" itree="458">
      <Node pos="s" depth="0" NCoef="0" IVar="7" Cut="6.4405654296875000e+03" cType="0" res="-2.5288859615102410e-04" rms="3.0168470740318298e-01" purity="7.8404915332794189e-01" nType="0">
        <Node pos="l" depth="1" NCoef="0" IVar="-1" Cut="0.0000000000000000e+00" cType="1" res="5.6773726828396320e-03" rms="2.6665386557579041e-01" purity="8.8357001543045044e-01" nType="-99"/>
        <Node pos="r" depth="1" NCoef="0" IVar="7" Cut="6.1925811767578125e+02" cType="0" res="-1.5838742256164551e-03" rms="3.0634546279907227e-01" purity="7.6981270313262939e-01" nType="0">
          <Node pos="l" depth="2" NCoef="0" IVar="-1" Cut="0.0000000000000000e+00" cType="1" res="-2.1215897868387401e-04" rms="3.0484971404075623e-01" purity="7.7905577421188354e-01" nType="-99"/>
          <Node pos="r" depth="2" NCoef="0" IVar="-1" Cut="0.0000000000000000e+00" cType="1" res="-1.2831256724894047e-02" rms="3.4160253405570984e-01" purity="5.2952855825424194e-01" nType="-99"/>
        </Node>
      </Node>
    </BinaryTree>
    <BinaryTree type="DecisionTree" boostWeight="1.0000000000000000e+00" itree="459">
      <Node pos="s" depth="0" NCoef="0" IVar="13" Cut="1.9047512207031250e+03" cType="0" res="-3.7733791396021843e-04" rms="3.0171778798103333e-01" purity="7.8372234106063843e-01" nType="0">
        <Node pos="l" depth="1" NCoef="0" IVar="-1" Cut="0.0000000000000000e+00" cType="1" res="1.2058252468705177e-03" rms="2.9771310091018677e-01" purity="7.9294401407241821e-01" nType="-99"/>
        <Node pos="r" depth="1" NCoef="0" IVar="7" Cut="3.0909267578125000e+03" cType="0" res="-5.5933040566742420e-03" rms="3.0899891257286072e-01" purity="7.6647990942001343e-01" nType="0">
          <Node pos="l" depth="2" NCoef="0" IVar="-1" Cut="0.0000000000000000e+00" cType="1" res="4.9279658123850822e-03" rms="2.8234475851058960e-01" purity="8.5200715065002441e-01" nType="-99"/>
          <Node pos="r" depth="2" NCoef="0" IVar="-1" Cut="0.0000000000000000e+00" cType="1" res="-8.4622325375676155e-03" rms="3.3195307850837708e-01" purity="6.8451708555221558e-01" nType="-99"/>
        </Node>
      </Node>
    </BinaryTree>
    <BinaryTree type="DecisionTree" boostWeight="1.0000000000000000e+00" itree="460">
      <Node pos="s" depth="0" NCoef="0" IVar="3" Cut="3.2201086425781250e+03" cType="0" res="-4.3002824531868100e-04" rms="3.0200147628784180e-01" purity="7.8490924835205078e-01" nType="0">
        <Node pos="l" depth="1" NCoef="0" IVar="-1" Cut="0.0000000000000000e+00" cType="1" res="-1.8959000008180737e-03" rms="3.0009052157402039e-01" purity="7.9055142402648926e-01" nType="-99"/>
        <Node pos="r" depth="1" NCoef="0" IVar="5" Cut="7.7033323049545288e-01" cType="0" res="4.9684979021549225e-03" rms="3.0507716536521912e-01" purity="7.7552419900894165e-01" nType="0">
          <Node pos="l" depth="2" NCoef="0" IVar="-1" Cut="0.0000000000000000e+00" cType="1" res="1.6965193673968315e-02" rms="2.2881738841533661e-01" purity="9.2389601469039917e-01" nType="-99"/>
          <Node pos="r" depth="2" NCoef="0" IVar="-1" Cut="0.0000000000000000e+00" cType="1" res="-1.1425289558246732e-03" rms="3.2888147234916687e-01" purity="7.1973621845245361e-01" nType="-99"/>
        </Node>
      </Node>
    </BinaryTree>
    <BinaryTree type="DecisionTree" boostWeight="1.0000000000000000e+00" itree="461">
      <Node pos="s" depth="0" NCoef="0" IVar="9" Cut="7.2427697753906250e+02" cType="0" res="-1.1092234635725617e-03" rms="3.0152046680450439e-01" purity="7.8347015380859375e-01" nType="0">
        <Node pos="l" depth="1" NCoef="0" IVar="-1" Cut="0.0000000000000000e+00" cType="1" res="5.6806267239153385e-03" rms="2.5407087802886963e-01" purity="9.1158449649810791e-01" nType="-99"/>
        <Node pos="r" depth="1" NCoef="0" IVar="1" Cut="1.9821070556640625e+03" cType="1" res="-3.3318011555820704e-03" rms="3.1172737479209900e-01" purity="7.5292676687240601e-01" nType="0">
          <Node pos="l" depth="2" NCoef="0" IVar="-1" Cut="0.0000000000000000e+00" cType="1" res="-6.8215609644539654e-05" rms="2.9877465963363647e-01" purity="7.9516357183456421e-01" nType="-99"/>
          <Node pos="r" depth="2" NCoef="0" IVar="-1" Cut="0.0000000000000000e+00" cType="1" res="-7.8878439962863922e-03" rms="3.8000398874282837e-01" purity="4.9835881590843201e-01" nType="-99"/>
        </Node>
      </Node>
    </BinaryTree>
    <BinaryTree type="DecisionTree" boostWeight="1.0000000000000000e+00" itree="462">
      <Node pos="s" depth="0" NCoef="0" IVar="0" Cut="1.4000000000000000e+01" cType="1" res="-6.4105301862582564e-04" rms="3.0208510160446167e-01" purity="7.8253436088562012e-01" nType="0">
        <Node pos="l" depth="1" NCoef="0" IVar="-1" Cut="0.0000000000000000e+00" cType="1" res="-1.8566538346931338e-04" rms="2.9911273717880249e-01" purity="8.0969905853271484e-01" nType="-99"/>
        <Node pos="r" depth="1" NCoef="0" IVar="11" Cut="1.3017855644226074e+01" cType="0" res="-5.3047295659780502e-03" rms="3.4862220287322998e-01" purity="3.2185068726539612e-01" nType="0">
          <Node pos="l" depth="2" NCoef="0" IVar="-1" Cut="0.0000000000000000e+00" cType="1" res="1.1852591997012496e-03" rms="3.5145106911659241e-01" purity="3.3698716759681702e-01" nType="-99"/>
          <Node pos="r" depth="2" NCoef="0" IVar="-1" Cut="0.0000000000000000e+00" cType="1" res="-3.8969770073890686e-02" rms="2.9618161916732788e-01" purity="1.4673912525177002e-01" nType="-99"/>
        </Node>
      </Node>
    </BinaryTree>
    <BinaryTree type="DecisionTree" boostWeight="1.0000000000000000e+00" itree="463">
      <Node pos="s" depth="0" NCoef="0" IVar="29" Cut="3.2426727294921875e+01" cType="1" res="1.0555339977145195e-03" rms="3.0118182301521301e-01" purity="7.8546458482742310e-01" nType="0">
        <Node pos="l" depth="1" NCoef="0" IVar="34" Cut="-9.0474909543991089e-01" cType="0" res="1.1455584317445755e-03" rms="3.0119168758392334e-01" purity="7.8584837913513184e-01" nType="0">
          <Node pos="l" depth="2" NCoef="0" IVar="-1" Cut="0.0000000000000000e+00" cType="1" res="5.1042088307440281e-04" rms="3.0117940902709961e-01" purity="7.8591507673263550e-01" nType="-99"/>
          <Node pos="r" depth="2" NCoef="0" IVar="-1" Cut="0.0000000000000000e+00" cType="1" res="3.6411531269550323e-02" rms="2.9565265774726868e-01" purity="7.2972971200942993e-01" nType="-99"/>
        </Node>
        <Node pos="r" depth="1" NCoef="0" IVar="-1" Cut="0.0000000000000000e+00" cType="1" res="-8.4007218480110168e-02" rms="2.2492299973964691e-01" purity="6.0606062412261963e-02" nType="-99"/>
      </Node>
    </BinaryTree>
    <BinaryTree type="DecisionTree" boostWeight="1.0000000000000000e+00" itree="464">
      <Node pos="s" depth="0" NCoef="0" IVar="35" Cut="1.1580952453613281e+02" cType="0" res="-2.2251156042329967e-04" rms="3.0218532681465149e-01" purity="7.8511524200439453e-01" nType="0">
        <Node pos="l" depth="1" NCoef="0" IVar="-1" Cut="0.0000000000000000e+00" cType="1" res="-4.5557992416433990e-04" rms="3.0194303393363953e-01" purity="7.8578227758407593e-01" nType="-99"/>
        <Node pos="r" depth="1" NCoef="0" IVar="11" Cut="1.5482083320617676e+01" cType="1" res="1.7662789672613144e-02" rms="3.0784490704536438e-01" purity="7.6786869764328003e-01" nType="0">
          <Node pos="l" depth="2" NCoef="0" IVar="-1" Cut="0.0000000000000000e+00" cType="1" res="1.4787429943680763e-02" rms="2.9398086667060852e-01" purity="8.2229399681091309e-01" nType="-99"/>
          <Node pos="r" depth="2" NCoef="0" IVar="-1" Cut="0.0000000000000000e+00" cType="1" res="1.0850173421204090e-03" rms="3.2237553596496582e-01" purity="7.0533645153045654e-01" nType="-99"/>
        </Node>
      </Node>
    </BinaryTree>
    <BinaryTree type="DecisionTree" boostWeight="1.0000000000000000e+00" itree="465">
      <Node pos="s" depth="0" NCoef="0" IVar="20" Cut="-4.2857116460800171e-01" cType="0" res="-3.2434778404422104e-04" rms="3.0252459645271301e-01" purity="7.8478229045867920e-01" nType="0">
        <Node pos="l" depth="1" NCoef="0" IVar="-1" Cut="0.0000000000000000e+00" cType="1" res="4.2086423491127789e-05" rms="3.0167192220687866e-01" purity="7.8880524635314941e-01" nType="-99"/>
        <Node pos="r" depth="1" NCoef="0" IVar="19" Cut="1.2780479687500000e+05" cType="0" res="-3.0934957787394524e-02" rms="3.5938018560409546e-01" purity="4.8349633812904358e-01" nType="0">
          <Node pos="l" depth="2" NCoef="0" IVar="-1" Cut="0.0000000000000000e+00" cType="1" res="9.0526258572936058e-03" rms="3.5271981358528137e-01" purity="6.2357413768768311e-01" nType="-99"/>
          <Node pos="r" depth="2" NCoef="0" IVar="-1" Cut="0.0000000000000000e+00" cType="1" res="-2.9974101111292839e-02" rms="3.5732364654541016e-01" purity="3.5301062464714050e-01" nType="-99"/>
        </Node>
      </Node>
    </BinaryTree>
    <BinaryTree type="DecisionTree" boostWeight="1.0000000000000000e+00" itree="466">
      <Node pos="s" depth="0" NCoef="0" IVar="20" Cut="-4.2857107520103455e-01" cType="0" res="-5.5950881687749643e-06" rms="3.0139067769050598e-01" purity="7.8429162502288818e-01" nType="0">
        <Node pos="l" depth="1" NCoef="0" IVar="-1" Cut="0.0000000000000000e+00" cType="1" res="1.9214255735278130e-04" rms="3.0064991116523743e-01" purity="7.8833371400833130e-01" nType="-99"/>
        <Node pos="r" depth="1" NCoef="0" IVar="8" Cut="6.9482583999633789e+00" cType="1" res="-2.9975162819027901e-02" rms="3.5224914550781250e-01" purity="4.7473487257957458e-01" nType="0">
          <Node pos="l" depth="2" NCoef="0" IVar="-1" Cut="0.0000000000000000e+00" cType="1" res="-4.3714651837944984e-03" rms="3.4094822406768799e-01" purity="4.7840756177902222e-01" nType="-99"/>
          <Node pos="r" depth="2" NCoef="0" IVar="-1" Cut="0.0000000000000000e+00" cType="1" res="-9.4964504241943359e-02" rms="4.1411119699478149e-01" purity="4.2975205183029175e-01" nType="-99"/>
        </Node>
      </Node>
    </BinaryTree>
    <BinaryTree type="DecisionTree" boostWeight="1.0000000000000000e+00" itree="467">
      <Node pos="s" depth="0" NCoef="0" IVar="13" Cut="3.5594997558593750e+03" cType="0" res="-1.0112131349160336e-05" rms="3.0204144120216370e-01" purity="7.8385740518569946e-01" nType="0">
        <Node pos="l" depth="1" NCoef="0" IVar="-1" Cut="0.0000000000000000e+00" cType="1" res="3.4059132449328899e-03" rms="2.7698251605033875e-01" purity="8.4385401010513306e-01" nType="-99"/>
        <Node pos="r" depth="1" NCoef="0" IVar="14" Cut="4.0757476806640625e+02" cType="0" res="-1.9609578885138035e-03" rms="3.0979940295219421e-01" purity="7.6416677236557007e-01" nType="0">
          <Node pos="l" depth="2" NCoef="0" IVar="-1" Cut="0.0000000000000000e+00" cType="1" res="-6.7537873983383179e-03" rms="2.9575660824775696e-01" purity="8.0949103832244873e-01" nType="-99"/>
          <Node pos="r" depth="2" NCoef="0" IVar="-1" Cut="0.0000000000000000e+00" cType="1" res="2.3566801100969315e-03" rms="3.1864815950393677e-01" purity="7.3382210731506348e-01" nType="-99"/>
        </Node>
      </Node>
    </BinaryTree>
    <BinaryTree type="DecisionTree" boostWeight="1.0000000000000000e+00" itree="468">
      <Node pos="s" depth="0" NCoef="0" IVar="3" Cut="1.1996687500000000e+04" cType="0" res="9.7725854720920324e-04" rms="3.0079123377799988e-01" purity="7.8488785028457642e-01" nType="0">
        <Node pos="l" depth="1" NCoef="0" IVar="-1" Cut="0.0000000000000000e+00" cType="1" res="5.8888074010610580e-02" rms="2.3788593709468842e-01" purity="9.0833336114883423e-01" nType="-99"/>
        <Node pos="r" depth="1" NCoef="0" IVar="3" Cut="3.9151613769531250e+03" cType="0" res="8.5592753021046519e-04" rms="3.0082011222839355e-01" purity="7.8476887941360474e-01" nType="0">
          <Node pos="l" depth="2" NCoef="0" IVar="-1" Cut="0.0000000000000000e+00" cType="1" res="4.3432614766061306e-03" rms="2.9983311891555786e-01" purity="7.9556155204772949e-01" nType="-99"/>
          <Node pos="r" depth="2" NCoef="0" IVar="-1" Cut="0.0000000000000000e+00" cType="1" res="-1.6582510434091091e-03" rms="3.0128589272499084e-01" purity="7.7874290943145752e-01" nType="-99"/>
        </Node>
      </Node>
    </BinaryTree>
    <BinaryTree type="DecisionTree" boostWeight="1.0000000000000000e+00" itree="469">
      <Node pos="s" depth="0" NCoef="0" IVar="0" Cut="1.7714284896850586e+01" cType="1" res="-3.2826323149492964e-05" rms="3.0146846175193787e-01" purity="7.8485095500946045e-01" nType="0">
        <Node pos="l" depth="1" NCoef="0" IVar="-1" Cut="0.0000000000000000e+00" cType="1" res="2.8998000198043883e-04" rms="3.0118030309677124e-01" purity="7.9993563890457153e-01" nType="-99"/>
        <Node pos="r" depth="1" NCoef="0" IVar="13" Cut="4.6413652343750000e+03" cType="0" res="-2.1394925191998482e-02" rms="3.1058350205421448e-01" purity="2.5948277115821838e-01" nType="0">
          <Node pos="l" depth="2" NCoef="0" IVar="-1" Cut="0.0000000000000000e+00" cType="1" res="3.1407658010721207e-02" rms="3.4970548748970032e-01" purity="6.3513511419296265e-01" nType="-99"/>
          <Node pos="r" depth="2" NCoef="0" IVar="-1" Cut="0.0000000000000000e+00" cType="1" res="-1.3219982385635376e-02" rms="3.0418875813484192e-01" purity="2.2456030547618866e-01" nType="-99"/>
        </Node>
      </Node>
    </BinaryTree>
    <BinaryTree type="DecisionTree" boostWeight="1.0000000000000000e+00" itree="470">
      <Node pos="s" depth="0" NCoef="0" IVar="34" Cut="-9.0474152565002441e-01" cType="0" res="-6.0021632816642523e-04" rms="3.0122566223144531e-01" purity="7.8445470333099365e-01" nType="0">
        <Node pos="l" depth="1" NCoef="0" IVar="-1" Cut="0.0000000000000000e+00" cType="1" res="-3.6363539402373135e-04" rms="3.0121859908103943e-01" purity="7.8451120853424072e-01" nType="-99"/>
        <Node pos="r" depth="1" NCoef="0" IVar="23" Cut="2.3267229003906250e+03" cType="0" res="1.3065157830715179e-01" rms="2.7883243560791016e-01" purity="7.2799998521804810e-01" nType="0">
          <Node pos="l" depth="2" NCoef="0" IVar="-1" Cut="0.0000000000000000e+00" cType="1" res="7.4833869934082031e-02" rms="2.4257612228393555e-01" purity="8.3333331346511841e-01" nType="-99"/>
          <Node pos="r" depth="2" NCoef="0" IVar="-1" Cut="0.0000000000000000e+00" cType="1" res="8.5472883656620979e-03" rms="2.7702397108078003e-01" purity="6.1016947031021118e-01" nType="-99"/>
        </Node>
      </Node>
    </BinaryTree>
    <BinaryTree type="DecisionTree" boostWeight="1.0000000000000000e+00" itree="471">
      <Node pos="s" depth="0" NCoef="0" IVar="0" Cut="1.4000000000000000e+01" cType="1" res="1.5120212920010090e-03" rms="3.0048346519470215e-01" purity="7.8576403856277466e-01" nType="0">
        <Node pos="l" depth="1" NCoef="0" IVar="-1" Cut="0.0000000000000000e+00" cType="1" res="9.5088715897873044e-04" rms="2.9738417267799377e-01" purity="8.1347608566284180e-01" nType="-99"/>
        <Node pos="r" depth="1" NCoef="0" IVar="14" Cut="3.2868539428710938e+02" cType="1" res="-4.5488933101296425e-03" rms="3.4825095534324646e-01" purity="3.2173296809196472e-01" nType="0">
          <Node pos="l" depth="2" NCoef="0" IVar="-1" Cut="0.0000000000000000e+00" cType="1" res="3.7840607110410929e-03" rms="3.4660023450851440e-01" purity="3.2862386107444763e-01" nType="-99"/>
          <Node pos="r" depth="2" NCoef="0" IVar="-1" Cut="0.0000000000000000e+00" cType="1" res="-1.9278571009635925e-02" rms="3.4895440936088562e-01" purity="2.9811319708824158e-01" nType="-99"/>
        </Node>
      </Node>
    </BinaryTree>
    <BinaryTree type="DecisionTree" boostWeight="1.0000000000000000e+00" itree="472">
      <Node pos="s" depth="0" NCoef="0" IVar="13" Cut="1.9047512207031250e+03" cType="0" res="-5.9510505525395274e-04" rms="3.0191028118133545e-01" purity="7.8357881307601929e-01" nType="0">
        <Node pos="l" depth="1" NCoef="0" IVar="-1" Cut="0.0000000000000000e+00" cType="1" res="9.6925150137394667e-04" rms="2.9798495769500732e-01" purity="7.9320627450942993e-01" nType="-99"/>
        <Node pos="r" depth="1" NCoef="0" IVar="7" Cut="2.5798098144531250e+03" cType="0" res="-5.2957609295845032e-03" rms="3.0901956558227539e-01" purity="7.6568245887756348e-01" nType="0">
          <Node pos="l" depth="2" NCoef="0" IVar="-1" Cut="0.0000000000000000e+00" cType="1" res="2.5697145611047745e-03" rms="2.8833639621734619e-01" purity="8.3669561147689819e-01" nType="-99"/>
          <Node pos="r" depth="2" NCoef="0" IVar="-1" Cut="0.0000000000000000e+00" cType="1" res="-8.6680892854928970e-03" rms="3.3719179034233093e-01" purity="6.5885400772094727e-01" nType="-99"/>
        </Node>
      </Node>
    </BinaryTree>
    <BinaryTree type="DecisionTree" boostWeight="1.0000000000000000e+00" itree="473">
      <Node pos="s" depth="0" NCoef="0" IVar="0" Cut="2.7000000000000000e+01" cType="1" res="-3.9294196176342666e-04" rms="3.0148634314537048e-01" purity="7.8369742631912231e-01" nType="0">
        <Node pos="l" depth="1" NCoef="0" IVar="-1" Cut="0.0000000000000000e+00" cType="1" res="-9.3119291705079377e-05" rms="3.0191552639007568e-01" purity="7.8646785020828247e-01" nType="-99"/>
        <Node pos="r" depth="1" NCoef="0" IVar="27" Cut="6.9362523437500000e+04" cType="0" res="-5.3139720112085342e-02" rms="1.4641910791397095e-01" purity="7.0539422333240509e-02" nType="0">
          <Node pos="l" depth="2" NCoef="0" IVar="-1" Cut="0.0000000000000000e+00" cType="1" res="2.8071474283933640e-02" rms="2.3063729703426361e-01" purity="3.8666665554046631e-01" nType="-99"/>
          <Node pos="r" depth="2" NCoef="0" IVar="-1" Cut="0.0000000000000000e+00" cType="1" res="-5.2508872002363205e-02" rms="1.1177391558885574e-01" purity="1.2285011820495129e-02" nType="-99"/>
        </Node>
      </Node>
    </BinaryTree>
    <BinaryTree type="DecisionTree" boostWeight="1.0000000000000000e+00" itree="474">
      <Node pos="s" depth="0" NCoef="0" IVar="3" Cut="3.2170036621093750e+03" cType="0" res="3.0193725251592696e-05" rms="3.0069002509117126e-01" purity="7.8491777181625366e-01" nType="0">
        <Node pos="l" depth="1" NCoef="0" IVar="-1" Cut="0.0000000000000000e+00" cType="1" res="-1.4964388683438301e-03" rms="2.9977497458457947e-01" purity="7.9041427373886108e-01" nType="-99"/>
        <Node pos="r" depth="1" NCoef="0" IVar="5" Cut="2.4161243438720703e-01" cType="0" res="4.9013560637831688e-03" rms="3.0214530229568481e-01" purity="7.7576184272766113e-01" nType="0">
          <Node pos="l" depth="2" NCoef="0" IVar="-1" Cut="0.0000000000000000e+00" cType="1" res="1.1623768135905266e-02" rms="2.5774818658828735e-01" purity="8.9270722866058350e-01" nType="-99"/>
          <Node pos="r" depth="2" NCoef="0" IVar="-1" Cut="0.0000000000000000e+00" cType="1" res="-2.5417583528906107e-03" rms="3.3161538839340210e-01" purity="6.8652272224426270e-01" nType="-99"/>
        </Node>
      </Node>
    </BinaryTree>
    <BinaryTree type="DecisionTree" boostWeight="1.0000000000000000e+00" itree="475">
      <Node pos="s" depth="0" NCoef="0" IVar="2" Cut="2.3806506767868996e-02" cType="1" res="-8.1613856309559196e-05" rms="3.0212110280990601e-01" purity="7.8432756662368774e-01" nType="0">
        <Node pos="l" depth="1" NCoef="0" IVar="-1" Cut="0.0000000000000000e+00" cType="1" res="2.4819658137857914e-03" rms="2.6223269104957581e-01" purity="8.8042283058166504e-01" nType="-99"/>
        <Node pos="r" depth="1" NCoef="0" IVar="1" Cut="1.3090535888671875e+03" cType="0" res="-3.8722734898328781e-03" rms="3.3563801646232605e-01" purity="6.9295340776443481e-01" nType="0">
          <Node pos="l" depth="2" NCoef="0" IVar="-1" Cut="0.0000000000000000e+00" cType="1" res="-5.4963323054835200e-04" rms="3.3315724134445190e-01" purity="7.3570668697357178e-01" nType="-99"/>
          <Node pos="r" depth="2" NCoef="0" IVar="-1" Cut="0.0000000000000000e+00" cType="1" res="-6.8328543566167355e-03" rms="3.4892845153808594e-01" purity="4.5221808552742004e-01" nType="-99"/>
        </Node>
      </Node>
    </BinaryTree>
    <BinaryTree type="DecisionTree" boostWeight="1.0000000000000000e+00" itree="476">
      <Node pos="s" depth="0" NCoef="0" IVar="5" Cut="-2.5636949539184570e+00" cType="0" res="1.6570172738283873e-04" rms="3.0111521482467651e-01" purity="7.8457838296890259e-01" nType="0">
        <Node pos="l" depth="1" NCoef="0" IVar="-1" Cut="0.0000000000000000e+00" cType="1" res="2.1739270596299320e-04" rms="3.0088394880294800e-01" purity="7.8554445505142212e-01" nType="-99"/>
        <Node pos="r" depth="1" NCoef="0" IVar="9" Cut="2.5781451416015625e+02" cType="0" res="-1.0125457495450974e-01" rms="3.6388003826141357e-01" purity="4.2342340946197510e-01" nType="0">
          <Node pos="l" depth="2" NCoef="0" IVar="-1" Cut="0.0000000000000000e+00" cType="1" res="-4.1072550229728222e-03" rms="3.0182328820228577e-01" purity="6.5243899822235107e-01" nType="-99"/>
          <Node pos="r" depth="2" NCoef="0" IVar="-1" Cut="0.0000000000000000e+00" cType="1" res="-6.4021833240985870e-02" rms="3.9600461721420288e-01" purity="2.0118343830108643e-01" nType="-99"/>
        </Node>
      </Node>
    </BinaryTree>
    <BinaryTree type="DecisionTree" boostWeight="1.0000000000000000e+00" itree="477">
      <Node pos="s" depth="0" NCoef="0" IVar="3" Cut="3.7244675292968750e+03" cType="0" res="4.5156403211876750e-04" rms="3.0156150460243225e-01" purity="7.8385728597640991e-01" nType="0">
        <Node pos="l" depth="1" NCoef="0" IVar="-1" Cut="0.0000000000000000e+00" cType="1" res="2.7392178308218718e-03" rms="2.9995986819267273e-01" purity="7.9548746347427368e-01" nType="-99"/>
        <Node pos="r" depth="1" NCoef="0" IVar="0" Cut="7.8571429252624512e+00" cType="1" res="-3.2016923651099205e-03" rms="3.0271849036216736e-01" purity="7.7504360675811768e-01" nType="0">
          <Node pos="l" depth="2" NCoef="0" IVar="-1" Cut="0.0000000000000000e+00" cType="1" res="2.1141064353287220e-03" rms="2.7267900109291077e-01" purity="8.7507086992263794e-01" nType="-99"/>
          <Node pos="r" depth="2" NCoef="0" IVar="-1" Cut="0.0000000000000000e+00" cType="1" res="-7.5649730861186981e-03" rms="3.7587001919746399e-01" purity="4.8468884825706482e-01" nType="-99"/>
        </Node>
      </Node>
    </BinaryTree>
    <BinaryTree type="DecisionTree" boostWeight="1.0000000000000000e+00" itree="478">
      <Node pos="s" depth="0" NCoef="0" IVar="1" Cut="9.0463214111328125e+02" cType="0" res="7.3327566497027874e-04" rms="3.0035799741744995e-01" purity="7.8656989336013794e-01" nType="0">
        <Node pos="l" depth="1" NCoef="0" IVar="-1" Cut="0.0000000000000000e+00" cType="1" res="5.7539530098438263e-04" rms="3.0164340138435364e-01" purity="7.9444688558578491e-01" nType="-99"/>
        <Node pos="r" depth="1" NCoef="0" IVar="0" Cut="6.7619047164916992e+00" cType="1" res="-4.0965009480714798e-02" rms="1.1186750233173370e-01" purity="1.3513513840734959e-02" nType="0">
          <Node pos="l" depth="2" NCoef="0" IVar="-1" Cut="0.0000000000000000e+00" cType="1" res="-4.5000094920396805e-02" rms="1.8921983242034912e-01" purity="5.0420168787240982e-02" nType="-99"/>
          <Node pos="r" depth="2" NCoef="0" IVar="-1" Cut="0.0000000000000000e+00" cType="1" res="-4.3518498539924622e-02" rms="9.7589224576950073e-02" purity="9.6575943753123283e-03" nType="-99"/>
        </Node>
      </Node>
    </BinaryTree>
    <BinaryTree type="DecisionTree" boostWeight="1.0000000000000000e+00" itree="479">
      <Node pos="s" depth="0" NCoef="0" IVar="3" Cut="1.1994725585937500e+04" cType="0" res="-7.1005342761054635e-04" rms="3.0164110660552979e-01" purity="7.8458076715469360e-01" nType="0">
        <Node pos="l" depth="1" NCoef="0" IVar="-1" Cut="0.0000000000000000e+00" cType="1" res="5.7712990790605545e-02" rms="1.9994127750396729e-01" purity="9.3129771947860718e-01" nType="-99"/>
        <Node pos="r" depth="1" NCoef="0" IVar="25" Cut="1.1522659912109375e+03" cType="0" res="-8.2778366049751639e-04" rms="3.0170831084251404e-01" purity="7.8442627191543579e-01" nType="0">
          <Node pos="l" depth="2" NCoef="0" IVar="-1" Cut="0.0000000000000000e+00" cType="1" res="1.5379588876385242e-04" rms="3.0033713579177856e-01" purity="7.8539961576461792e-01" nType="-99"/>
          <Node pos="r" depth="2" NCoef="0" IVar="-1" Cut="0.0000000000000000e+00" cType="1" res="-1.0344201698899269e-02" rms="3.2631322741508484e-01" purity="7.6560968160629272e-01" nType="-99"/>
        </Node>
      </Node>
    </BinaryTree>
    <BinaryTree type="DecisionTree" boostWeight="1.0000000000000000e+00" itree="480">
      <Node pos="s" depth="0" NCoef="0" IVar="0" Cut="1.4000000000000000e+01" cType="1" res="-7.2794652078300714e-04" rms="3.0104526877403259e-01" purity="7.8440362215042114e-01" nType="0">
        <Node pos="l" depth="1" NCoef="0" IVar="-1" Cut="0.0000000000000000e+00" cType="1" res="-2.5847149663604796e-04" rms="2.9813006520271301e-01" purity="8.1120526790618896e-01" nType="-99"/>
        <Node pos="r" depth="1" NCoef="0" IVar="29" Cut="2.8579921722412109e+00" cType="0" res="-4.5514847151935101e-03" rms="3.4747204184532166e-01" purity="3.2217818498611450e-01" nType="0">
          <Node pos="l" depth="2" NCoef="0" IVar="-1" Cut="0.0000000000000000e+00" cType="1" res="2.2829193039797246e-04" rms="3.4914386272430420e-01" purity="3.3135825395584106e-01" nType="-99"/>
          <Node pos="r" depth="2" NCoef="0" IVar="-1" Cut="0.0000000000000000e+00" cType="1" res="-6.5764643251895905e-02" rms="2.5475367903709412e-01" purity="6.0606062412261963e-02" nType="-99"/>
        </Node>
      </Node>
    </BinaryTree>
    <BinaryTree type="DecisionTree" boostWeight="1.0000000000000000e+00" itree="481">
      <Node pos="s" depth="0" NCoef="0" IVar="1" Cut="1.6717883300781250e+03" cType="0" res="-6.0216709243832156e-05" rms="3.0202350020408630e-01" purity="7.8380155563354492e-01" nType="0">
        <Node pos="l" depth="1" NCoef="0" IVar="-1" Cut="0.0000000000000000e+00" cType="1" res="-1.9055146258324385e-03" rms="2.9997396469116211e-01" purity="7.8760439157485962e-01" nType="-99"/>
        <Node pos="r" depth="1" NCoef="0" IVar="9" Cut="5.8259466552734375e+02" cType="1" res="3.7517431192100048e-03" rms="3.0412447452545166e-01" purity="7.7978914976119995e-01" nType="0">
          <Node pos="l" depth="2" NCoef="0" IVar="-1" Cut="0.0000000000000000e+00" cType="1" res="3.8143966812640429e-03" rms="2.9960513114929199e-01" purity="7.8281366825103760e-01" nType="-99"/>
          <Node pos="r" depth="2" NCoef="0" IVar="-1" Cut="0.0000000000000000e+00" cType="1" res="-6.1807136982679367e-02" rms="4.0466395020484924e-01" purity="6.7686092853546143e-01" nType="-99"/>
        </Node>
      </Node>
    </BinaryTree>
    <BinaryTree type="DecisionTree" boostWeight="1.0000000000000000e+00" itree="482">
      <Node pos="s" depth="0" NCoef="0" IVar="32" Cut="2.1193847656250000e+00" cType="0" res="4.2173397378064692e-04" rms="3.0145728588104248e-01" purity="7.8428500890731812e-01" nType="0">
        <Node pos="l" depth="1" NCoef="0" IVar="-1" Cut="0.0000000000000000e+00" cType="1" res="-3.8958194199949503e-03" rms="2.7785423398017883e-01" purity="8.1970512866973877e-01" nType="-99"/>
        <Node pos="r" depth="1" NCoef="0" IVar="13" Cut="2.0681789550781250e+03" cType="0" res="2.6164890732616186e-03" rms="3.0834093689918518e-01" purity="7.7335846424102783e-01" nType="0">
          <Node pos="l" depth="2" NCoef="0" IVar="-1" Cut="0.0000000000000000e+00" cType="1" res="3.2261705491691828e-03" rms="2.9633820056915283e-01" purity="8.0225402116775513e-01" nType="-99"/>
          <Node pos="r" depth="2" NCoef="0" IVar="-1" Cut="0.0000000000000000e+00" cType="1" res="-1.7804299714043736e-03" rms="3.2832309603691101e-01" purity="7.2242903709411621e-01" nType="-99"/>
        </Node>
      </Node>
    </BinaryTree>
    <BinaryTree type="DecisionTree" boostWeight="1.0000000000000000e+00" itree="483">
      <Node pos="s" depth="0" NCoef="0" IVar="3" Cut="3.2170036621093750e+03" cType="0" res="-1.2631947174668312e-04" rms="3.0067574977874756e-01" purity="7.8472173213958740e-01" nType="0">
        <Node pos="l" depth="1" NCoef="0" IVar="-1" Cut="0.0000000000000000e+00" cType="1" res="-1.2254782486706972e-03" rms="2.9799062013626099e-01" purity="7.9127234220504761e-01" nType="-99"/>
        <Node pos="r" depth="1" NCoef="0" IVar="7" Cut="1.7011668701171875e+03" cType="0" res="3.5854694433510303e-03" rms="3.0505037307739258e-01" purity="7.7383369207382202e-01" nType="0">
          <Node pos="l" depth="2" NCoef="0" IVar="-1" Cut="0.0000000000000000e+00" cType="1" res="-1.5099991578608751e-03" rms="2.9516181349754333e-01" purity="7.8833645582199097e-01" nType="-99"/>
          <Node pos="r" depth="2" NCoef="0" IVar="-1" Cut="0.0000000000000000e+00" cType="1" res="1.1978284455835819e-02" rms="3.3949565887451172e-01" purity="7.1752059459686279e-01" nType="-99"/>
        </Node>
      </Node>
    </BinaryTree>
    <BinaryTree type="DecisionTree" boostWeight="1.0000000000000000e+00" itree="484">
      <Node pos="s" depth="0" NCoef="0" IVar="1" Cut="9.5094628906250000e+02" cType="0" res="3.0734768370166421e-04" rms="3.0161046981811523e-01" purity="7.8509747982025146e-01" nType="0">
        <Node pos="l" depth="1" NCoef="0" IVar="-1" Cut="0.0000000000000000e+00" cType="1" res="3.5815231967717409e-04" rms="3.0313044786453247e-01" purity="7.9577016830444336e-01" nType="-99"/>
        <Node pos="r" depth="1" NCoef="0" IVar="0" Cut="1.1000000000000000e+01" cType="1" res="-2.9199136421084404e-02" rms="1.5765570104122162e-01" purity="2.7697633951902390e-02" nType="0">
          <Node pos="l" depth="2" NCoef="0" IVar="-1" Cut="0.0000000000000000e+00" cType="1" res="-3.3536083996295929e-02" rms="1.8203234672546387e-01" purity="3.8845725357532501e-02" nType="-99"/>
          <Node pos="r" depth="2" NCoef="0" IVar="-1" Cut="0.0000000000000000e+00" cType="1" res="-1.8861578777432442e-02" rms="1.2282092869281769e-01" purity="1.5625000000000000e-02" nType="-99"/>
        </Node>
      </Node>
    </BinaryTree>
    <BinaryTree type="DecisionTree" boostWeight="1.0000000000000000e+00" itree="485">
      <Node pos="s" depth="0" NCoef="0" IVar="2" Cut="1.9045205414295197e-01" cType="1" res="-2.5184734840877354e-04" rms="3.0141225457191467e-01" purity="7.8457546234130859e-01" nType="0">
        <Node pos="l" depth="1" NCoef="0" IVar="-1" Cut="0.0000000000000000e+00" cType="1" res="-9.2321162810549140e-04" rms="2.9220652580261230e-01" purity="8.1434446573257446e-01" nType="-99"/>
        <Node pos="r" depth="1" NCoef="0" IVar="17" Cut="6.3661574218750000e+04" cType="1" res="6.9192121736705303e-03" rms="3.4216737747192383e-01" purity="6.4135354757308960e-01" nType="0">
          <Node pos="l" depth="2" NCoef="0" IVar="-1" Cut="0.0000000000000000e+00" cType="1" res="5.4693529382348061e-03" rms="3.3904567360877991e-01" purity="6.5378022193908691e-01" nType="-99"/>
          <Node pos="r" depth="2" NCoef="0" IVar="-1" Cut="0.0000000000000000e+00" cType="1" res="-7.3427250608801842e-03" rms="3.5238948464393616e-01" purity="5.9472048282623291e-01" nType="-99"/>
        </Node>
      </Node>
    </BinaryTree>
    <BinaryTree type="DecisionTree" boostWeight="1.0000000000000000e+00" itree="486">
      <Node pos="s" depth="0" NCoef="0" IVar="2" Cut="4.0471062064170837e-01" cType="1" res="-6.0615787515416741e-04" rms="3.0075177550315857e-01" purity="7.8495019674301147e-01" nType="0">
        <Node pos="l" depth="1" NCoef="0" IVar="-1" Cut="0.0000000000000000e+00" cType="1" res="-6.6101481206715107e-04" rms="2.9864579439163208e-01" purity="7.9172682762145996e-01" nType="-99"/>
        <Node pos="r" depth="1" NCoef="0" IVar="13" Cut="2.3516147460937500e+03" cType="0" res="1.8854854628443718e-02" rms="3.5379788279533386e-01" purity="5.9644669294357300e-01" nType="0">
          <Node pos="l" depth="2" NCoef="0" IVar="-1" Cut="0.0000000000000000e+00" cType="1" res="-8.1032114103436470e-03" rms="3.4646829962730408e-01" purity="6.0009557008743286e-01" nType="-99"/>
          <Node pos="r" depth="2" NCoef="0" IVar="-1" Cut="0.0000000000000000e+00" cType="1" res="2.0658141002058983e-02" rms="3.5647675395011902e-01" purity="5.9303879737854004e-01" nType="-99"/>
        </Node>
      </Node>
    </BinaryTree>
    <BinaryTree type="DecisionTree" boostWeight="1.0000000000000000e+00" itree="487">
      <Node pos="s" depth="0" NCoef="0" IVar="0" Cut="1.2142857551574707e+01" cType="1" res="-4.4150691246613860e-04" rms="3.0056697130203247e-01" purity="7.8391599655151367e-01" nType="0">
        <Node pos="l" depth="1" NCoef="0" IVar="-1" Cut="0.0000000000000000e+00" cType="1" res="3.8086913991719484e-04" rms="2.9467508196830750e-01" purity="8.2450145483016968e-01" nType="-99"/>
        <Node pos="r" depth="1" NCoef="0" IVar="30" Cut="2.4558434486389160e+00" cType="0" res="-1.2495748698711395e-02" rms="3.5537612438201904e-01" purity="3.6602434515953064e-01" nType="0">
          <Node pos="l" depth="2" NCoef="0" IVar="-1" Cut="0.0000000000000000e+00" cType="1" res="4.4521439122036099e-04" rms="3.6104235053062439e-01" purity="4.0344786643981934e-01" nType="-99"/>
          <Node pos="r" depth="2" NCoef="0" IVar="-1" Cut="0.0000000000000000e+00" cType="1" res="-2.3009801283478737e-02" rms="3.2886442542076111e-01" purity="2.2891055047512054e-01" nType="-99"/>
        </Node>
      </Node>
    </BinaryTree>
    <BinaryTree type="DecisionTree" boostWeight="1.0000000000000000e+00" itree="488">
      <Node pos="s" depth="0" NCoef="0" IVar="17" Cut="1.2575927343750000e+05" cType="0" res="-1.7711978580337018e-04" rms="3.0089631676673889e-01" purity="7.8387373685836792e-01" nType="0">
        <Node pos="l" depth="1" NCoef="0" IVar="-1" Cut="0.0000000000000000e+00" cType="1" res="9.6877943724393845e-03" rms="2.8856667876243591e-01" purity="8.0281352996826172e-01" nType="-99"/>
        <Node pos="r" depth="1" NCoef="0" IVar="17" Cut="5.4648414062500000e+04" cType="1" res="-8.7046303087845445e-04" rms="3.0129265785217285e-01" purity="7.8321450948715210e-01" nType="0">
          <Node pos="l" depth="2" NCoef="0" IVar="-1" Cut="0.0000000000000000e+00" cType="1" res="1.1717986781150103e-03" rms="2.9917255043983459e-01" purity="7.9018229246139526e-01" nType="-99"/>
          <Node pos="r" depth="2" NCoef="0" IVar="-1" Cut="0.0000000000000000e+00" cType="1" res="-5.0136707723140717e-03" rms="3.0733346939086914e-01" purity="7.6242893934249878e-01" nType="-99"/>
        </Node>
      </Node>
    </BinaryTree>
    <BinaryTree type="DecisionTree" boostWeight="1.0000000000000000e+00" itree="489">
      <Node pos="s" depth="0" NCoef="0" IVar="14" Cut="1.8541282958984375e+03" cType="0" res="5.1137898117303848e-04" rms="2.9936367273330688e-01" purity="7.8490251302719116e-01" nType="0">
        <Node pos="l" depth="1" NCoef="0" IVar="-1" Cut="0.0000000000000000e+00" cType="1" res="-1.2575491331517696e-02" rms="2.7475118637084961e-01" purity="8.8722378015518188e-01" nType="-99"/>
        <Node pos="r" depth="1" NCoef="0" IVar="9" Cut="7.5362072753906250e+02" cType="0" res="1.1059286771342158e-03" rms="3.0011355876922607e-01" purity="7.8156626224517822e-01" nType="0">
          <Node pos="l" depth="2" NCoef="0" IVar="-1" Cut="0.0000000000000000e+00" cType="1" res="7.8845508396625519e-03" rms="2.4991714954376221e-01" purity="9.1576564311981201e-01" nType="-99"/>
          <Node pos="r" depth="2" NCoef="0" IVar="-1" Cut="0.0000000000000000e+00" cType="1" res="-4.0035232086665928e-04" rms="3.0876615643501282e-01" purity="7.5584262609481812e-01" nType="-99"/>
        </Node>
      </Node>
    </BinaryTree>
    <BinaryTree type="DecisionTree" boostWeight="1.0000000000000000e+00" itree="490">
      <Node pos="s" depth="0" NCoef="0" IVar="11" Cut="5.9525194168090820e+00" cType="1" res="4.8139036516658962e-04" rms="2.9960361123085022e-01" purity="7.8566288948059082e-01" nType="0">
        <Node pos="l" depth="1" NCoef="0" IVar="-1" Cut="0.0000000000000000e+00" cType="1" res="4.8422217369079590e-03" rms="2.7100551128387451e-01" purity="8.6460030078887939e-01" nType="-99"/>
        <Node pos="r" depth="1" NCoef="0" IVar="1" Cut="2.3923298339843750e+03" cType="1" res="-1.4928567688912153e-03" rms="3.0634775757789612e-01" purity="7.6580065488815308e-01" nType="0">
          <Node pos="l" depth="2" NCoef="0" IVar="-1" Cut="0.0000000000000000e+00" cType="1" res="2.6422250084578991e-04" rms="3.0541247129440308e-01" purity="7.7571278810501099e-01" nType="-99"/>
          <Node pos="r" depth="2" NCoef="0" IVar="-1" Cut="0.0000000000000000e+00" cType="1" res="-8.3433361724019051e-03" rms="3.1210976839065552e-01" purity="7.0041072368621826e-01" nType="-99"/>
        </Node>
      </Node>
    </BinaryTree>
    <BinaryTree type="DecisionTree" boostWeight="1.0000000000000000e+00" itree="491">
      <Node pos="s" depth="0" NCoef="0" IVar="34" Cut="4.2857527732849121e-01" cType="0" res="8.8245060760527849e-04" rms="3.0070623755455017e-01" purity="7.8616350889205933e-01" nType="0">
        <Node pos="l" depth="1" NCoef="0" IVar="-1" Cut="0.0000000000000000e+00" cType="1" res="3.8343074265867472e-04" rms="3.0071216821670532e-01" purity="7.8622084856033325e-01" nType="-99"/>
        <Node pos="r" depth="1" NCoef="0" IVar="25" Cut="2.5174106445312500e+03" cType="0" res="9.6819862723350525e-02" rms="2.7969691157341003e-01" purity="7.3825502395629883e-01" nType="0">
          <Node pos="l" depth="2" NCoef="0" IVar="-1" Cut="0.0000000000000000e+00" cType="1" res="8.8665403425693512e-02" rms="2.3278033733367920e-01" purity="9.1489362716674805e-01" nType="-99"/>
          <Node pos="r" depth="2" NCoef="0" IVar="-1" Cut="0.0000000000000000e+00" cType="1" res="1.5916325151920319e-02" rms="2.8560668230056763e-01" purity="6.5686273574829102e-01" nType="-99"/>
        </Node>
      </Node>
    </BinaryTree>
    <BinaryTree type="DecisionTree" boostWeight="1.0000000000000000e+00" itree="492">
      <Node pos="s" depth="0" NCoef="0" IVar="2" Cut="4.0471062064170837e-01" cType="1" res="4.2914316873066127e-04" rms="3.0156153440475464e-01" purity="7.8494268655776978e-01" nType="0">
        <Node pos="l" depth="1" NCoef="0" IVar="-1" Cut="0.0000000000000000e+00" cType="1" res="-9.2011323431506753e-05" rms="2.9955181479454041e-01" purity="7.9151171445846558e-01" nType="-99"/>
        <Node pos="r" depth="1" NCoef="0" IVar="4" Cut="1.1755716800689697e+00" cType="0" res="1.7384815961122513e-02" rms="3.5235488414764404e-01" purity="6.0271763801574707e-01" nType="0">
          <Node pos="l" depth="2" NCoef="0" IVar="-1" Cut="0.0000000000000000e+00" cType="1" res="-2.6333313435316086e-03" rms="3.4857299923896790e-01" purity="6.3856428861618042e-01" nType="-99"/>
          <Node pos="r" depth="2" NCoef="0" IVar="-1" Cut="0.0000000000000000e+00" cType="1" res="1.7244033515453339e-02" rms="3.5470113158226013e-01" purity="5.5858170986175537e-01" nType="-99"/>
        </Node>
      </Node>
    </BinaryTree>
    <BinaryTree type="DecisionTree" boostWeight="1.0000000000000000e+00" itree="493">
      <Node pos="s" depth="0" NCoef="0" IVar="9" Cut="4.2636135864257812e+02" cType="0" res="-7.0094253169372678e-04" rms="3.0110499262809753e-01" purity="7.8363460302352905e-01" nType="0">
        <Node pos="l" depth="1" NCoef="0" IVar="-1" Cut="0.0000000000000000e+00" cType="1" res="1.9024978391826153e-03" rms="2.7109274268150330e-01" purity="8.6693662405014038e-01" nType="-99"/>
        <Node pos="r" depth="1" NCoef="0" IVar="1" Cut="2.3318398437500000e+03" cType="1" res="-3.8508144207298756e-03" rms="3.2336577773094177e-01" purity="7.1609550714492798e-01" nType="0">
          <Node pos="l" depth="2" NCoef="0" IVar="-1" Cut="0.0000000000000000e+00" cType="1" res="-3.6217172164469957e-03" rms="3.1812435388565063e-01" purity="7.3482173681259155e-01" nType="-99"/>
          <Node pos="r" depth="2" NCoef="0" IVar="-1" Cut="0.0000000000000000e+00" cType="1" res="2.4280086159706116e-02" rms="3.9720377326011658e-01" purity="3.8710546493530273e-01" nType="-99"/>
        </Node>
      </Node>
    </BinaryTree>
    <BinaryTree type="DecisionTree" boostWeight="1.0000000000000000e+00" itree="494">
      <Node pos="s" depth="0" NCoef="0" IVar="13" Cut="5.7044536132812500e+03" cType="0" res="-1.5850599447730929e-04" rms="3.0046975612640381e-01" purity="7.8413987159729004e-01" nType="0">
        <Node pos="l" depth="1" NCoef="0" IVar="-1" Cut="0.0000000000000000e+00" cType="1" res="9.1238748282194138e-03" rms="2.4730052053928375e-01" purity="8.8384062051773071e-01" nType="-99"/>
        <Node pos="r" depth="1" NCoef="0" IVar="25" Cut="2.1215534667968750e+03" cType="0" res="-1.1807846603915095e-03" rms="3.0416619777679443e-01" purity="7.7643895149230957e-01" nType="0">
          <Node pos="l" depth="2" NCoef="0" IVar="-1" Cut="0.0000000000000000e+00" cType="1" res="1.6833624104037881e-03" rms="2.8767338395118713e-01" purity="8.1675249338150024e-01" nType="-99"/>
          <Node pos="r" depth="2" NCoef="0" IVar="-1" Cut="0.0000000000000000e+00" cType="1" res="-2.8151115402579308e-03" rms="3.2240778207778931e-01" purity="7.2903382778167725e-01" nType="-99"/>
        </Node>
      </Node>
    </BinaryTree>
    <BinaryTree type="DecisionTree" boostWeight="1.0000000000000000e+00" itree="495">
      <Node pos="s" depth="0" NCoef="0" IVar="20" Cut="-8.0952346324920654e-01" cType="0" res="1.0595187777653337e-03" rms="2.9993438720703125e-01" purity="7.8563576936721802e-01" nType="0">
        <Node pos="l" depth="1" NCoef="0" IVar="-1" Cut="0.0000000000000000e+00" cType="1" res="7.5748877134174109e-04" rms="2.9907605051994324e-01" purity="7.8950446844100952e-01" nType="-99"/>
        <Node pos="r" depth="1" NCoef="0" IVar="32" Cut="3.6847541332244873e+00" cType="1" res="-3.6491170525550842e-02" rms="3.6234834790229797e-01" purity="4.6387577056884766e-01" nType="0">
          <Node pos="l" depth="2" NCoef="0" IVar="-1" Cut="0.0000000000000000e+00" cType="1" res="-9.7106136381626129e-03" rms="3.5816571116447449e-01" purity="4.6981263160705566e-01" nType="-99"/>
          <Node pos="r" depth="2" NCoef="0" IVar="-1" Cut="0.0000000000000000e+00" cType="1" res="-1.0488088428974152e-01" rms="3.6651140451431274e-01" purity="2.5000000000000000e-01" nType="-99"/>
        </Node>
      </Node>
    </BinaryTree>
    <BinaryTree type="DecisionTree" boostWeight="1.0000000000000000e+00" itree="496">
      <Node pos="s" depth="0" NCoef="0" IVar="1" Cut="1.2762609863281250e+03" cType="0" res="-2.9674498364329338e-04" rms="3.0116802453994751e-01" purity="7.8571373224258423e-01" nType="0">
        <Node pos="l" depth="1" NCoef="0" IVar="-1" Cut="0.0000000000000000e+00" cType="1" res="5.6268129264935851e-04" rms="2.9639035463333130e-01" purity="8.1681871414184570e-01" nType="-99"/>
        <Node pos="r" depth="1" NCoef="0" IVar="9" Cut="2.6035339355468750e+02" cType="1" res="-1.2747530825436115e-02" rms="3.4081459045410156e-01" purity="5.0652885437011719e-01" nType="0">
          <Node pos="l" depth="2" NCoef="0" IVar="-1" Cut="0.0000000000000000e+00" cType="1" res="6.8398462608456612e-03" rms="3.3628430962562561e-01" purity="5.5096626281738281e-01" nType="-99"/>
          <Node pos="r" depth="2" NCoef="0" IVar="-1" Cut="0.0000000000000000e+00" cType="1" res="-4.1767898947000504e-02" rms="3.3767896890640259e-01" purity="3.6998367309570312e-01" nType="-99"/>
        </Node>
      </Node>
    </BinaryTree>
    <BinaryTree type="DecisionTree" boostWeight="1.0000000000000000e+00" itree="497">
      <Node pos="s" depth="0" NCoef="0" IVar="9" Cut="4.9940457153320312e+02" cType="0" res="-7.7027868246659636e-04" rms="3.0048179626464844e-01" purity="7.8479385375976562e-01" nType="0">
        <Node pos="l" depth="1" NCoef="0" IVar="-1" Cut="0.0000000000000000e+00" cType="1" res="2.5802326854318380e-03" rms="2.6450109481811523e-01" purity="8.8089567422866821e-01" nType="-99"/>
        <Node pos="r" depth="1" NCoef="0" IVar="1" Cut="1.7359093017578125e+03" cType="1" res="-3.5126886796206236e-03" rms="3.1874772906303406e-01" purity="7.3122334480285645e-01" nType="0">
          <Node pos="l" depth="2" NCoef="0" IVar="-1" Cut="0.0000000000000000e+00" cType="1" res="2.5442156475037336e-03" rms="2.9977926611900330e-01" purity="7.8410100936889648e-01" nType="-99"/>
          <Node pos="r" depth="2" NCoef="0" IVar="-1" Cut="0.0000000000000000e+00" cType="1" res="-1.1885315179824829e-02" rms="3.7155032157897949e-01" purity="5.6226694583892822e-01" nType="-99"/>
        </Node>
      </Node>
    </BinaryTree>
    <BinaryTree type="DecisionTree" boostWeight="1.0000000000000000e+00" itree="498">
      <Node pos="s" depth="0" NCoef="0" IVar="12" Cut="-2.8346059570312500e+03" cType="1" res="3.2598618417978287e-05" rms="3.0109113454818726e-01" purity="7.8439736366271973e-01" nType="0">
        <Node pos="l" depth="1" NCoef="0" IVar="-1" Cut="0.0000000000000000e+00" cType="1" res="2.2584013640880585e-02" rms="1.4945055544376373e-01" purity="9.6905457973480225e-01" nType="-99"/>
        <Node pos="r" depth="1" NCoef="0" IVar="12" Cut="-1.2926753234863281e+02" cType="1" res="-5.4119084961712360e-04" rms="3.0491137504577637e-01" purity="7.7811318635940552e-01" nType="0">
          <Node pos="l" depth="2" NCoef="0" IVar="-1" Cut="0.0000000000000000e+00" cType="1" res="8.4959305822849274e-03" rms="2.4954651296138763e-01" purity="8.8461375236511230e-01" nType="-99"/>
          <Node pos="r" depth="2" NCoef="0" IVar="-1" Cut="0.0000000000000000e+00" cType="1" res="-3.8532481994479895e-03" rms="3.3499139547348022e-01" purity="7.1067351102828979e-01" nType="-99"/>
        </Node>
      </Node>
    </BinaryTree>
    <BinaryTree type="DecisionTree" boostWeight="1.0000000000000000e+00" itree="499">
      <Node pos="s" depth="0" NCoef="0" IVar="1" Cut="2.3031530761718750e+03" cType="1" res="3.0391366453841329e-04" rms="3.0031242966651917e-01" purity="7.8504097461700439e-01" nType="0">
        <Node pos="l" depth="1" NCoef="0" IVar="-1" Cut="0.0000000000000000e+00" cType="1" res="8.3351560169830918e-04" rms="2.9860809445381165e-01" purity="7.9508984088897705e-01" nType="-99"/>
        <Node pos="r" depth="1" NCoef="0" IVar="9" Cut="4.8389053344726562e+02" cType="0" res="-7.0787207223474979e-03" rms="3.0911302566528320e-01" purity="7.3160481452941895e-01" nType="0">
          <Node pos="l" depth="2" NCoef="0" IVar="-1" Cut="0.0000000000000000e+00" cType="1" res="-1.4840124174952507e-02" rms="2.7951139211654663e-01" purity="8.3948111534118652e-01" nType="-99"/>
          <Node pos="r" depth="2" NCoef="0" IVar="-1" Cut="0.0000000000000000e+00" cType="1" res="1.5011629089713097e-02" rms="3.8922995328903198e-01" purity="3.6440679430961609e-01" nType="-99"/>
        </Node>
      </Node>
    </BinaryTree>
    <BinaryTree type="DecisionTree" boostWeight="1.0000000000000000e+00" itree="500">
      <Node pos="s" depth="0" NCoef="0" IVar="29" Cut="3.2485523223876953e+01" cType="1" res="1.4976835809648037e-03" rms="3.0017098784446716e-01" purity="7.8616386651992798e-01" nType="0">
        <Node pos="l" depth="1" NCoef="0" IVar="24" Cut="1.5512563705444336e+01" cType="1" res="1.5875035896897316e-03" rms="3.0018916726112366e-01" purity="7.8658193349838257e-01" nType="0">
          <Node pos="l" depth="2" NCoef="0" IVar="-1" Cut="0.0000000000000000e+00" cType="1" res="-9.3564201961271465e-05" rms="2.9668006300926208e-01" purity="7.9914498329162598e-01" nType="-99"/>
          <Node pos="r" depth="2" NCoef="0" IVar="-1" Cut="0.0000000000000000e+00" cType="1" res="4.4534886255860329e-03" rms="3.1624460220336914e-01" purity="7.2670149803161621e-01" nType="-99"/>
        </Node>
        <Node pos="r" depth="1" NCoef="0" IVar="-1" Cut="0.0000000000000000e+00" cType="1" res="-7.5526051223278046e-02" rms="2.2070461511611938e-01" purity="8.1081077456474304e-02" nType="-99"/>
      </Node>
    </BinaryTree>
    <BinaryTree type="DecisionTree" boostWeight="1.0000000000000000e+00" itree="501">
      <Node pos="s" depth="0" NCoef="0" IVar="27" Cut="1.7315481250000000e+05" cType="1" res="-9.4358423666562885e-05" rms="3.0075091123580933e-01" purity="7.8541028499603271e-01" nType="0">
        <Node pos="l" depth="1" NCoef="0" IVar="-1" Cut="0.0000000000000000e+00" cType="1" res="2.4859679979272187e-04" rms="2.9951590299606323e-01" purity="7.8657066822052002e-01" nType="-99"/>
        <Node pos="r" depth="1" NCoef="0" IVar="0" Cut="5.1428570747375488e+00" cType="1" res="-1.6424829140305519e-02" rms="3.3282250165939331e-01" purity="7.5317186117172241e-01" nType="0">
          <Node pos="l" depth="2" NCoef="0" IVar="-1" Cut="0.0000000000000000e+00" cType="1" res="4.6094735153019428e-03" rms="2.9982304573059082e-01" purity="8.5269248485565186e-01" nType="-99"/>
          <Node pos="r" depth="2" NCoef="0" IVar="-1" Cut="0.0000000000000000e+00" cType="1" res="-1.6286246478557587e-02" rms="3.6301067471504211e-01" purity="6.4607280492782593e-01" nType="-99"/>
        </Node>
      </Node>
    </BinaryTree>
    <BinaryTree type="DecisionTree" boostWeight="1.0000000000000000e+00" itree="502">
      <Node pos="s" depth="0" NCoef="0" IVar="27" Cut="1.7899925000000000e+05" cType="1" res="-2.4698497145436704e-04" rms="3.0114161968231201e-01" purity="7.8424733877182007e-01" nType="0">
        <Node pos="l" depth="1" NCoef="0" IVar="-1" Cut="0.0000000000000000e+00" cType="1" res="1.8067298515234143e-04" rms="2.9972425103187561e-01" purity="7.8517878055572510e-01" nType="-99"/>
        <Node pos="r" depth="1" NCoef="0" IVar="31" Cut="1.3651157617568970e+00" cType="0" res="-1.9102377817034721e-02" rms="3.4176468849182129e-01" purity="7.5528079271316528e-01" nType="0">
          <Node pos="l" depth="2" NCoef="0" IVar="-1" Cut="0.0000000000000000e+00" cType="1" res="-3.4369635395705700e-03" rms="3.3172634243965149e-01" purity="7.6754099130630493e-01" nType="-99"/>
          <Node pos="r" depth="2" NCoef="0" IVar="-1" Cut="0.0000000000000000e+00" cType="1" res="-2.4596184492111206e-02" rms="3.7352082133293152e-01" purity="7.1033656597137451e-01" nType="-99"/>
        </Node>
      </Node>
    </BinaryTree>
    <BinaryTree type="DecisionTree" boostWeight="1.0000000000000000e+00" itree="503">
      <Node pos="s" depth="0" NCoef="0" IVar="0" Cut="2.8571429252624512e+00" cType="1" res="-5.9334730030968785e-04" rms="3.0045405030250549e-01" purity="7.8503406047821045e-01" nType="0">
        <Node pos="l" depth="1" NCoef="0" IVar="-1" Cut="0.0000000000000000e+00" cType="1" res="1.2008935213088989e-02" rms="2.2794398665428162e-01" purity="9.2867732048034668e-01" nType="-99"/>
        <Node pos="r" depth="1" NCoef="0" IVar="5" Cut="-1.1766139268875122e+00" cType="0" res="-1.4629838988184929e-03" rms="3.0367261171340942e-01" purity="7.7768599987030029e-01" nType="0">
          <Node pos="l" depth="2" NCoef="0" IVar="-1" Cut="0.0000000000000000e+00" cType="1" res="-1.9851032993756235e-04" rms="3.0195802450180054e-01" purity="7.8716248273849487e-01" nType="-99"/>
          <Node pos="r" depth="2" NCoef="0" IVar="-1" Cut="0.0000000000000000e+00" cType="1" res="-1.0077381506562233e-02" rms="3.4056052565574646e-01" purity="5.5484402179718018e-01" nType="-99"/>
        </Node>
      </Node>
    </BinaryTree>
    <BinaryTree type="DecisionTree" boostWeight="1.0000000000000000e+00" itree="504">
      <Node pos="s" depth="0" NCoef="0" IVar="1" Cut="2.3031530761718750e+03" cType="1" res="-4.2586678318912163e-05" rms="3.0089673399925232e-01" purity="7.8461724519729614e-01" nType="0">
        <Node pos="l" depth="1" NCoef="0" IVar="-1" Cut="0.0000000000000000e+00" cType="1" res="7.0022715954110026e-04" rms="2.9890099167823792e-01" purity="7.9501312971115112e-01" nType="-99"/>
        <Node pos="r" depth="1" NCoef="0" IVar="9" Cut="4.8389053344726562e+02" cType="0" res="-7.8176846727728844e-03" rms="3.1116726994514465e-01" purity="7.2939985990524292e-01" nType="0">
          <Node pos="l" depth="2" NCoef="0" IVar="-1" Cut="0.0000000000000000e+00" cType="1" res="-1.5546296723186970e-02" rms="2.8090089559555054e-01" purity="8.3558231592178345e-01" nType="-99"/>
          <Node pos="r" depth="2" NCoef="0" IVar="-1" Cut="0.0000000000000000e+00" cType="1" res="1.5573524869978428e-02" rms="3.9268821477890015e-01" purity="3.6749273538589478e-01" nType="-99"/>
        </Node>
      </Node>
    </BinaryTree>
    <BinaryTree type="DecisionTree" boostWeight="1.0000000000000000e+00" itree="505">
      <Node pos="s" depth="0" NCoef="0" IVar="35" Cut="2.2061904907226562e+02" cType="1" res="7.6212541898712516e-04" rms="2.9945069551467896e-01" purity="7.8568279743194580e-01" nType="0">
        <Node pos="l" depth="1" NCoef="0" IVar="-1" Cut="0.0000000000000000e+00" cType="1" res="-1.1570729548111558e-03" rms="2.9975506663322449e-01" purity="7.8817272186279297e-01" nType="-99"/>
        <Node pos="r" depth="1" NCoef="0" IVar="25" Cut="1.7124833984375000e+03" cType="0" res="3.9939521811902523e-03" rms="2.9909279942512512e-01" purity="7.8303492069244385e-01" nType="0">
          <Node pos="l" depth="2" NCoef="0" IVar="-1" Cut="0.0000000000000000e+00" cType="1" res="3.8636908866465092e-03" rms="2.9005479812622070e-01" purity="8.0836391448974609e-01" nType="-99"/>
          <Node pos="r" depth="2" NCoef="0" IVar="-1" Cut="0.0000000000000000e+00" cType="1" res="-3.2612041104584932e-03" rms="3.2796102762222290e-01" purity="6.9607913494110107e-01" nType="-99"/>
        </Node>
      </Node>
    </BinaryTree>
    <BinaryTree type="DecisionTree" boostWeight="1.0000000000000000e+00" itree="506">
      <Node pos="s" depth="0" NCoef="0" IVar="0" Cut="1.0285714149475098e+01" cType="1" res="-1.1636788258329034e-03" rms="3.0028370022773743e-01" purity="7.8429532051086426e-01" nType="0">
        <Node pos="l" depth="1" NCoef="0" IVar="-1" Cut="0.0000000000000000e+00" cType="1" res="1.2616130698006600e-04" rms="2.8804627060890198e-01" purity="8.4562963247299194e-01" nType="-99"/>
        <Node pos="r" depth="1" NCoef="0" IVar="14" Cut="3.6264083862304688e+02" cType="1" res="-9.3963500112295151e-03" rms="3.6418813467025757e-01" purity="4.2187759280204773e-01" nType="0">
          <Node pos="l" depth="2" NCoef="0" IVar="-1" Cut="0.0000000000000000e+00" cType="1" res="1.2778687523677945e-03" rms="3.6676841974258423e-01" purity="4.4075897336006165e-01" nType="-99"/>
          <Node pos="r" depth="2" NCoef="0" IVar="-1" Cut="0.0000000000000000e+00" cType="1" res="-1.8801881000399590e-02" rms="3.5120490193367004e-01" purity="3.5629335045814514e-01" nType="-99"/>
        </Node>
      </Node>
    </BinaryTree>
    <BinaryTree type="DecisionTree" boostWeight="1.0000000000000000e+00" itree="507">
      <Node pos="s" depth="0" NCoef="0" IVar="1" Cut="9.0463214111328125e+02" cType="0" res="5.7723512873053551e-04" rms="2.9991629719734192e-01" purity="7.8432554006576538e-01" nType="0">
        <Node pos="l" depth="1" NCoef="0" IVar="-1" Cut="0.0000000000000000e+00" cType="1" res="4.6644362737424672e-04" rms="3.0118411779403687e-01" purity="7.9218882322311401e-01" nType="-99"/>
        <Node pos="r" depth="1" NCoef="0" IVar="4" Cut="5.7244029045104980e+00" cType="1" res="-3.4835532307624817e-02" rms="1.1885923147201538e-01" purity="1.5067406930029392e-02" nType="0">
          <Node pos="l" depth="2" NCoef="0" IVar="-1" Cut="0.0000000000000000e+00" cType="1" res="-3.7956405431032181e-02" rms="1.1678002774715424e-01" purity="1.5561015345156193e-02" nType="-99"/>
          <Node pos="r" depth="2" NCoef="0" IVar="-1" Cut="0.0000000000000000e+00" cType="1" res="-6.6281974315643311e-02" rms="1.1835461109876633e-01" purity="0.0000000000000000e+00" nType="-99"/>
        </Node>
      </Node>
    </BinaryTree>
    <BinaryTree type="DecisionTree" boostWeight="1.0000000000000000e+00" itree="508">
      <Node pos="s" depth="0" NCoef="0" IVar="2" Cut="4.7613012790679932e-01" cType="1" res="1.8347121658734977e-04" rms="2.9959985613822937e-01" purity="7.8476262092590332e-01" nType="0">
        <Node pos="l" depth="1" NCoef="0" IVar="-1" Cut="0.0000000000000000e+00" cType="1" res="2.2901414195075631e-04" rms="2.9897254705429077e-01" purity="7.8644013404846191e-01" nType="-99"/>
        <Node pos="r" depth="1" NCoef="0" IVar="0" Cut="1.0428571701049805e+01" cType="1" res="-3.5135161131620407e-02" rms="3.7043988704681396e-01" purity="5.6708598136901855e-01" nType="0">
          <Node pos="l" depth="2" NCoef="0" IVar="-1" Cut="0.0000000000000000e+00" cType="1" res="1.3275052420794964e-02" rms="3.4310156106948853e-01" purity="8.0448067188262939e-01" nType="-99"/>
          <Node pos="r" depth="2" NCoef="0" IVar="-1" Cut="0.0000000000000000e+00" cType="1" res="-3.7444669753313065e-02" rms="3.8487756252288818e-01" purity="3.1533476710319519e-01" nType="-99"/>
        </Node>
      </Node>
    </BinaryTree>
    <BinaryTree type="DecisionTree" boostWeight="1.0000000000000000e+00" itree="509">
      <Node pos="s" depth="0" NCoef="0" IVar="5" Cut="-5.5252754688262939e-01" cType="0" res="3.0460010748356581e-05" rms="3.0151516199111938e-01" purity="7.8434747457504272e-01" nType="0">
        <Node pos="l" depth="1" NCoef="0" IVar="-1" Cut="0.0000000000000000e+00" cType="1" res="1.0144439293071628e-03" rms="2.9633489251136780e-01" purity="8.0665737390518188e-01" nType="-99"/>
        <Node pos="r" depth="1" NCoef="0" IVar="9" Cut="2.4336447143554688e+02" cType="0" res="-1.1358032003045082e-02" rms="3.3035823702812195e-01" purity="6.5196788311004639e-01" nType="0">
          <Node pos="l" depth="2" NCoef="0" IVar="-1" Cut="0.0000000000000000e+00" cType="1" res="7.2720582829788327e-04" rms="3.1335708498954773e-01" purity="7.3465937376022339e-01" nType="-99"/>
          <Node pos="r" depth="2" NCoef="0" IVar="-1" Cut="0.0000000000000000e+00" cType="1" res="-1.4269433915615082e-02" rms="3.6402747035026550e-01" purity="4.6594202518463135e-01" nType="-99"/>
        </Node>
      </Node>
    </BinaryTree>
    <BinaryTree type="DecisionTree" boostWeight="1.0000000000000000e+00" itree="510">
      <Node pos="s" depth="0" NCoef="0" IVar="17" Cut="1.0396610937500000e+05" cType="0" res="6.9172465009614825e-04" rms="2.9948282241821289e-01" purity="7.8554356098175049e-01" nType="0">
        <Node pos="l" depth="1" NCoef="0" IVar="-1" Cut="0.0000000000000000e+00" cType="1" res="5.9580635279417038e-03" rms="2.9575172066688538e-01" purity="7.9233717918395996e-01" nType="-99"/>
        <Node pos="r" depth="1" NCoef="0" IVar="17" Cut="5.5137457031250000e+04" cType="1" res="-6.7246473918203264e-05" rms="2.9971584677696228e-01" purity="7.8508841991424561e-01" nType="0">
          <Node pos="l" depth="2" NCoef="0" IVar="-1" Cut="0.0000000000000000e+00" cType="1" res="1.1673492845147848e-03" rms="2.9798153042793274e-01" purity="7.9135912656784058e-01" nType="-99"/>
          <Node pos="r" depth="2" NCoef="0" IVar="-1" Cut="0.0000000000000000e+00" cType="1" res="-3.9215423166751862e-03" rms="3.0541765689849854e-01" purity="7.6370704174041748e-01" nType="-99"/>
        </Node>
      </Node>
    </BinaryTree>
    <BinaryTree type="DecisionTree" boostWeight="1.0000000000000000e+00" itree="511">
      <Node pos="s" depth="0" NCoef="0" IVar="7" Cut="1.0729921875000000e+04" cType="0" res="1.4876997738610953e-04" rms="3.0010938644409180e-01" purity="7.8469985723495483e-01" nType="0">
        <Node pos="l" depth="1" NCoef="0" IVar="-1" Cut="0.0000000000000000e+00" cType="1" res="1.6188889741897583e-02" rms="2.4537254869937897e-01" purity="9.2887932062149048e-01" nType="-99"/>
        <Node pos="r" depth="1" NCoef="0" IVar="27" Cut="3.3922171875000000e+04" cType="0" res="-3.3381357206963003e-04" rms="3.0122718214988708e-01" purity="7.8140372037887573e-01" nType="0">
          <Node pos="l" depth="2" NCoef="0" IVar="-1" Cut="0.0000000000000000e+00" cType="1" res="-1.2665871763601899e-03" rms="3.0016911029815674e-01" purity="7.8714585304260254e-01" nType="-99"/>
          <Node pos="r" depth="2" NCoef="0" IVar="-1" Cut="0.0000000000000000e+00" cType="1" res="3.1565884128212929e-03" rms="3.0429261922836304e-01" purity="7.6411896944046021e-01" nType="-99"/>
        </Node>
      </Node>
    </BinaryTree>
    <BinaryTree type="DecisionTree" boostWeight="1.0000000000000000e+00" itree="512">
      <Node pos="s" depth="0" NCoef="0" IVar="9" Cut="8.2769177246093750e+02" cType="0" res="-2.2612829343415797e-04" rms="3.0002132058143616e-01" purity="7.8587955236434937e-01" nType="0">
        <Node pos="l" depth="1" NCoef="0" IVar="-1" Cut="0.0000000000000000e+00" cType="1" res="5.2751991897821426e-03" rms="2.4287115037441254e-01" purity="9.2588806152343750e-01" nType="-99"/>
        <Node pos="r" depth="1" NCoef="0" IVar="1" Cut="1.9015010986328125e+03" cType="1" res="-1.5434150118380785e-03" rms="3.0949780344963074e-01" purity="7.5976473093032837e-01" nType="0">
          <Node pos="l" depth="2" NCoef="0" IVar="-1" Cut="0.0000000000000000e+00" cType="1" res="1.2221240904182196e-03" rms="2.9653081297874451e-01" purity="8.0209481716156006e-01" nType="-99"/>
          <Node pos="r" depth="2" NCoef="0" IVar="-1" Cut="0.0000000000000000e+00" cType="1" res="-6.5575656481087208e-03" rms="3.5504770278930664e-01" purity="5.9508603811264038e-01" nType="-99"/>
        </Node>
      </Node>
    </BinaryTree>
    <BinaryTree type="DecisionTree" boostWeight="1.0000000000000000e+00" itree="513">
      <Node pos="s" depth="0" NCoef="0" IVar="2" Cut="4.7613013535737991e-02" cType="1" res="1.8546268984209746e-04" rms="2.9993936419487000e-01" purity="7.8481072187423706e-01" nType="0">
        <Node pos="l" depth="1" NCoef="0" IVar="-1" Cut="0.0000000000000000e+00" cType="1" res="1.6627206932753325e-03" rms="2.6829859614372253e-01" purity="8.6809295415878296e-01" nType="-99"/>
        <Node pos="r" depth="1" NCoef="0" IVar="17" Cut="1.8804087500000000e+05" cType="0" res="-3.2181451097130775e-03" rms="3.3778160810470581e-01" purity="6.7293232679367065e-01" nType="0">
          <Node pos="l" depth="2" NCoef="0" IVar="-1" Cut="0.0000000000000000e+00" cType="1" res="2.9837459325790405e-02" rms="2.9086637496948242e-01" purity="7.7608698606491089e-01" nType="-99"/>
          <Node pos="r" depth="2" NCoef="0" IVar="-1" Cut="0.0000000000000000e+00" cType="1" res="-1.5408416511490941e-03" rms="3.3810245990753174e-01" purity="6.7203259468078613e-01" nType="-99"/>
        </Node>
      </Node>
    </BinaryTree>
    <BinaryTree type="DecisionTree" boostWeight="1.0000000000000000e+00" itree="514">
      <Node pos="s" depth="0" NCoef="0" IVar="9" Cut="4.9940457153320312e+02" cType="0" res="-4.3903539335587993e-05" rms="3.0088493227958679e-01" purity="7.8546833992004395e-01" nType="0">
        <Node pos="l" depth="1" NCoef="0" IVar="-1" Cut="0.0000000000000000e+00" cType="1" res="2.8546007815748453e-03" rms="2.6555329561233521e-01" purity="8.8031995296478271e-01" nType="-99"/>
        <Node pos="r" depth="1" NCoef="0" IVar="1" Cut="1.7359093017578125e+03" cType="1" res="-2.6750543620437384e-03" rms="3.1909254193305969e-01" purity="7.3187714815139771e-01" nType="0">
          <Node pos="l" depth="2" NCoef="0" IVar="-1" Cut="0.0000000000000000e+00" cType="1" res="2.5771260261535645e-03" rms="3.0021360516548157e-01" purity="7.8446334600448608e-01" nType="-99"/>
          <Node pos="r" depth="2" NCoef="0" IVar="-1" Cut="0.0000000000000000e+00" cType="1" res="-1.0437407530844212e-02" rms="3.7163549661636353e-01" purity="5.6483334302902222e-01" nType="-99"/>
        </Node>
      </Node>
    </BinaryTree>
    <BinaryTree type="DecisionTree" boostWeight="1.0000000000000000e+00" itree="515">
      <Node pos="s" depth="0" NCoef="0" IVar="14" Cut="2.0681425781250000e+03" cType="0" res="3.9297665352933109e-05" rms="2.9992097616195679e-01" purity="7.8526341915130615e-01" nType="0">
        <Node pos="l" depth="1" NCoef="0" IVar="-1" Cut="0.0000000000000000e+00" cType="1" res="-1.5064497478306293e-02" rms="2.7753019332885742e-01" purity="8.8721048831939697e-01" nType="-99"/>
        <Node pos="r" depth="1" NCoef="0" IVar="14" Cut="3.3657449340820312e+02" cType="0" res="5.5344426073133945e-04" rms="3.0043044686317444e-01" purity="7.8276467323303223e-01" nType="0">
          <Node pos="l" depth="2" NCoef="0" IVar="-1" Cut="0.0000000000000000e+00" cType="1" res="-2.1466573234647512e-03" rms="2.8724434971809387e-01" purity="8.1674098968505859e-01" nType="-99"/>
          <Node pos="r" depth="2" NCoef="0" IVar="-1" Cut="0.0000000000000000e+00" cType="1" res="3.2655249815434217e-03" rms="3.1903940439224243e-01" purity="7.3188674449920654e-01" nType="-99"/>
        </Node>
      </Node>
    </BinaryTree>
    <BinaryTree type="DecisionTree" boostWeight="1.0000000000000000e+00" itree="516">
      <Node pos="s" depth="0" NCoef="0" IVar="7" Cut="4.2958872070312500e+03" cType="0" res="7.1305758319795132e-04" rms="2.9907733201980591e-01" purity="7.8544133901596069e-01" nType="0">
        <Node pos="l" depth="1" NCoef="0" IVar="-1" Cut="0.0000000000000000e+00" cType="1" res="3.3470944035798311e-03" rms="2.7614733576774597e-01" purity="8.5992699861526489e-01" nType="-99"/>
        <Node pos="r" depth="1" NCoef="0" IVar="3" Cut="4.9024819335937500e+03" cType="1" res="-1.6284738667309284e-03" rms="3.0919933319091797e-01" purity="7.5057458877563477e-01" nType="0">
          <Node pos="l" depth="2" NCoef="0" IVar="-1" Cut="0.0000000000000000e+00" cType="1" res="-4.8893227358348668e-05" rms="3.0583664774894714e-01" purity="7.6038277149200439e-01" nType="-99"/>
          <Node pos="r" depth="2" NCoef="0" IVar="-1" Cut="0.0000000000000000e+00" cType="1" res="-1.0247837752103806e-02" rms="3.6091536283493042e-01" purity="5.8279985189437866e-01" nType="-99"/>
        </Node>
      </Node>
    </BinaryTree>
    <BinaryTree type="DecisionTree" boostWeight="1.0000000000000000e+00" itree="517">
      <Node pos="s" depth="0" NCoef="0" IVar="2" Cut="4.7612780332565308e-01" cType="1" res="2.2513055591844022e-04" rms="2.9964405298233032e-01" purity="7.8432220220565796e-01" nType="0">
        <Node pos="l" depth="1" NCoef="0" IVar="-1" Cut="0.0000000000000000e+00" cType="1" res="2.6801467174664140e-04" rms="2.9910075664520264e-01" purity="7.8601223230361938e-01" nType="-99"/>
        <Node pos="r" depth="1" NCoef="0" IVar="11" Cut="1.9055507659912109e+01" cType="1" res="-4.0099710226058960e-02" rms="3.6181184649467468e-01" purity="5.6216788291931152e-01" nType="0">
          <Node pos="l" depth="2" NCoef="0" IVar="-1" Cut="0.0000000000000000e+00" cType="1" res="1.0526459664106369e-02" rms="3.3054199814796448e-01" purity="6.6122448444366455e-01" nType="-99"/>
          <Node pos="r" depth="2" NCoef="0" IVar="-1" Cut="0.0000000000000000e+00" cType="1" res="-4.2817354202270508e-02" rms="3.8000175356864929e-01" purity="4.5454546809196472e-01" nType="-99"/>
        </Node>
      </Node>
    </BinaryTree>
    <BinaryTree type="DecisionTree" boostWeight="1.0000000000000000e+00" itree="518">
      <Node pos="s" depth="0" NCoef="0" IVar="2" Cut="2.6187157630920410e-01" cType="1" res="-6.7155575379729271e-04" rms="2.9991194605827332e-01" purity="7.8423261642456055e-01" nType="0">
        <Node pos="l" depth="1" NCoef="0" IVar="-1" Cut="0.0000000000000000e+00" cType="1" res="-9.8103703930974007e-04" rms="2.9379984736442566e-01" purity="8.0519503355026245e-01" nType="-99"/>
        <Node pos="r" depth="1" NCoef="0" IVar="2" Cut="4.6593248844146729e-01" cType="1" res="8.1948963925242424e-03" rms="3.4147909283638000e-01" purity="6.2970656156539917e-01" nType="0">
          <Node pos="l" depth="2" NCoef="0" IVar="-1" Cut="0.0000000000000000e+00" cType="1" res="5.0705922767519951e-03" rms="3.3883881568908691e-01" purity="6.4067393541336060e-01" nType="-99"/>
          <Node pos="r" depth="2" NCoef="0" IVar="-1" Cut="0.0000000000000000e+00" cType="1" res="-1.3557820580899715e-02" rms="3.6124202609062195e-01" purity="5.3240740299224854e-01" nType="-99"/>
        </Node>
      </Node>
    </BinaryTree>
    <BinaryTree type="DecisionTree" boostWeight="1.0000000000000000e+00" itree="519">
      <Node pos="s" depth="0" NCoef="0" IVar="23" Cut="2.1316058593750000e+04" cType="0" res="-6.9712445838376880e-04" rms="3.0095916986465454e-01" purity="7.8486585617065430e-01" nType="0">
        <Node pos="l" depth="1" NCoef="0" IVar="-1" Cut="0.0000000000000000e+00" cType="1" res="3.8071569055318832e-02" rms="2.0844224095344543e-01" purity="9.4520545005798340e-01" nType="-99"/>
        <Node pos="r" depth="1" NCoef="0" IVar="23" Cut="1.1630432128906250e+03" cType="0" res="-9.1767351841554046e-04" rms="3.0126288533210754e-01" purity="7.8420335054397583e-01" nType="0">
          <Node pos="l" depth="2" NCoef="0" IVar="-1" Cut="0.0000000000000000e+00" cType="1" res="-3.0580317252315581e-04" rms="3.0118370056152344e-01" purity="7.8480106592178345e-01" nType="-99"/>
          <Node pos="r" depth="2" NCoef="0" IVar="-1" Cut="0.0000000000000000e+00" cType="1" res="-2.1835137158632278e-02" rms="3.0873191356658936e-01" purity="7.0724028348922729e-01" nType="-99"/>
        </Node>
      </Node>
    </BinaryTree>
    <BinaryTree type="DecisionTree" boostWeight="1.0000000000000000e+00" itree="520">
      <Node pos="s" depth="0" NCoef="0" IVar="0" Cut="4.7142858505249023e+00" cType="1" res="-8.4942759713158011e-04" rms="3.0075588822364807e-01" purity="7.8417032957077026e-01" nType="0">
        <Node pos="l" depth="1" NCoef="0" IVar="-1" Cut="0.0000000000000000e+00" cType="1" res="3.5798316821455956e-03" rms="2.3898868262767792e-01" purity="9.1786223649978638e-01" nType="-99"/>
        <Node pos="r" depth="1" NCoef="0" IVar="3" Cut="3.6584448242187500e+03" cType="0" res="-3.2755401916801929e-03" rms="3.2418781518936157e-01" purity="7.2537010908126831e-01" nType="0">
          <Node pos="l" depth="2" NCoef="0" IVar="-1" Cut="0.0000000000000000e+00" cType="1" res="2.1065475884824991e-03" rms="3.1249076128005981e-01" purity="7.6358294486999512e-01" nType="-99"/>
          <Node pos="r" depth="2" NCoef="0" IVar="-1" Cut="0.0000000000000000e+00" cType="1" res="-4.6692849136888981e-03" rms="3.3617335557937622e-01" purity="6.8406879901885986e-01" nType="-99"/>
        </Node>
      </Node>
    </BinaryTree>
    <BinaryTree type="DecisionTree" boostWeight="1.0000000000000000e+00" itree="521">
      <Node pos="s" depth="0" NCoef="0" IVar="9" Cut="7.6663940429687500e+02" cType="0" res="-7.1659765671938658e-04" rms="3.0069878697395325e-01" purity="7.8418427705764771e-01" nType="0">
        <Node pos="l" depth="1" NCoef="0" IVar="-1" Cut="0.0000000000000000e+00" cType="1" res="4.9437223933637142e-03" rms="2.4978904426097870e-01" purity="9.1695231199264526e-01" nType="-99"/>
        <Node pos="r" depth="1" NCoef="0" IVar="1" Cut="3.2508103027343750e+03" cType="1" res="-2.3170765489339828e-03" rms="3.1046384572982788e-01" purity="7.5584197044372559e-01" nType="0">
          <Node pos="l" depth="2" NCoef="0" IVar="-1" Cut="0.0000000000000000e+00" cType="1" res="-1.3073586160317063e-03" rms="3.0981314182281494e-01" purity="7.5767344236373901e-01" nType="-99"/>
          <Node pos="r" depth="2" NCoef="0" IVar="-1" Cut="0.0000000000000000e+00" cType="1" res="4.2549803853034973e-02" rms="4.2772415280342102e-01" purity="3.0861243605613708e-01" nType="-99"/>
        </Node>
      </Node>
    </BinaryTree>
    <BinaryTree type="DecisionTree" boostWeight="1.0000000000000000e+00" itree="522">
      <Node pos="s" depth="0" NCoef="0" IVar="13" Cut="6.8688818359375000e+03" cType="0" res="4.3775589438155293e-04" rms="3.0013218522071838e-01" purity="7.8506189584732056e-01" nType="0">
        <Node pos="l" depth="1" NCoef="0" IVar="-1" Cut="0.0000000000000000e+00" cType="1" res="1.2848703190684319e-02" rms="2.3918734490871429e-01" purity="9.0552806854248047e-01" nType="-99"/>
        <Node pos="r" depth="1" NCoef="0" IVar="17" Cut="5.6132382812500000e+04" cType="1" res="-2.3801195493433625e-04" rms="3.0232551693916321e-01" purity="7.8017604351043701e-01" nType="0">
          <Node pos="l" depth="2" NCoef="0" IVar="-1" Cut="0.0000000000000000e+00" cType="1" res="1.3766054762527347e-03" rms="2.9816824197769165e-01" purity="7.9043877124786377e-01" nType="-99"/>
          <Node pos="r" depth="2" NCoef="0" IVar="-1" Cut="0.0000000000000000e+00" cType="1" res="-4.3569388799369335e-03" rms="3.1468132138252258e-01" purity="7.4838000535964966e-01" nType="-99"/>
        </Node>
      </Node>
    </BinaryTree>
    <BinaryTree type="DecisionTree" boostWeight="1.0000000000000000e+00" itree="523">
      <Node pos="s" depth="0" NCoef="0" IVar="18" Cut="2.3711383342742920e-02" cType="0" res="-3.9155449485406280e-04" rms="2.9986426234245300e-01" purity="7.8487104177474976e-01" nType="0">
        <Node pos="l" depth="1" NCoef="0" IVar="-1" Cut="0.0000000000000000e+00" cType="1" res="-7.4010957032442093e-03" rms="3.0465546250343323e-01" purity="8.2720297574996948e-01" nType="-99"/>
        <Node pos="r" depth="1" NCoef="0" IVar="7" Cut="1.0729921875000000e+04" cType="0" res="3.1500597833655775e-04" rms="2.9958671331405640e-01" purity="7.8258144855499268e-01" nType="0">
          <Node pos="l" depth="2" NCoef="0" IVar="-1" Cut="0.0000000000000000e+00" cType="1" res="2.0382028073072433e-02" rms="2.2384437918663025e-01" purity="9.4026285409927368e-01" nType="-99"/>
          <Node pos="r" depth="2" NCoef="0" IVar="-1" Cut="0.0000000000000000e+00" cType="1" res="-1.1515682126628235e-04" rms="3.0099695920944214e-01" purity="7.7915686368942261e-01" nType="-99"/>
        </Node>
      </Node>
    </BinaryTree>
    <BinaryTree type="DecisionTree" boostWeight="1.0000000000000000e+00" itree="524">
      <Node pos="s" depth="0" NCoef="0" IVar="22" Cut="9.4342742919921875e+02" cType="0" res="-5.9714959934353828e-04" rms="3.0034026503562927e-01" purity="7.8422337770462036e-01" nType="0">
        <Node pos="l" depth="1" NCoef="0" IVar="-1" Cut="0.0000000000000000e+00" cType="1" res="8.8270325213670731e-03" rms="2.7971163392066956e-01" purity="8.0800002813339233e-01" nType="-99"/>
        <Node pos="r" depth="1" NCoef="0" IVar="21" Cut="2.2282785644531250e+03" cType="0" res="-1.1422605020925403e-03" rms="3.0089685320854187e-01" purity="7.8353738784790039e-01" nType="0">
          <Node pos="l" depth="2" NCoef="0" IVar="-1" Cut="0.0000000000000000e+00" cType="1" res="1.7937818542122841e-02" rms="1.6748009622097015e-01" purity="9.5643341541290283e-01" nType="-99"/>
          <Node pos="r" depth="2" NCoef="0" IVar="-1" Cut="0.0000000000000000e+00" cType="1" res="-8.7474292377009988e-04" rms="3.0478951334953308e-01" purity="7.7698397636413574e-01" nType="-99"/>
        </Node>
      </Node>
    </BinaryTree>
    <BinaryTree type="DecisionTree" boostWeight="1.0000000000000000e+00" itree="525">
      <Node pos="s" depth="0" NCoef="0" IVar="5" Cut="2.8174350261688232e+00" cType="0" res="-6.3162867445498705e-04" rms="3.0016201734542847e-01" purity="7.8390777111053467e-01" nType="0">
        <Node pos="l" depth="1" NCoef="0" IVar="-1" Cut="0.0000000000000000e+00" cType="1" res="1.4675649814307690e-02" rms="2.0098428428173065e-01" purity="9.4918566942214966e-01" nType="-99"/>
        <Node pos="r" depth="1" NCoef="0" IVar="32" Cut="3.6067512035369873e+00" cType="1" res="-1.2824272271245718e-03" rms="3.0330196022987366e-01" purity="7.7756863832473755e-01" nType="0">
          <Node pos="l" depth="2" NCoef="0" IVar="-1" Cut="0.0000000000000000e+00" cType="1" res="1.4647813259216491e-05" rms="3.0315947532653809e-01" purity="7.7777779102325439e-01" nType="-99"/>
          <Node pos="r" depth="2" NCoef="0" IVar="-1" Cut="0.0000000000000000e+00" cType="1" res="-1.7075372859835625e-02" rms="3.0500423908233643e-01" purity="7.7280825376510620e-01" nType="-99"/>
        </Node>
      </Node>
    </BinaryTree>
    <BinaryTree type="DecisionTree" boostWeight="1.0000000000000000e+00" itree="526">
      <Node pos="s" depth="0" NCoef="0" IVar="0" Cut="1.4000000000000000e+01" cType="1" res="2.2422253096010536e-04" rms="3.0087867379188538e-01" purity="7.8508418798446655e-01" nType="0">
        <Node pos="l" depth="1" NCoef="0" IVar="-1" Cut="0.0000000000000000e+00" cType="1" res="3.6882303538732231e-04" rms="2.9773783683776855e-01" purity="8.1198167800903320e-01" nType="-99"/>
        <Node pos="r" depth="1" NCoef="0" IVar="3" Cut="5.9385639648437500e+03" cType="0" res="-8.2890512421727180e-03" rms="3.5054004192352295e-01" purity="3.2118386030197144e-01" nType="0">
          <Node pos="l" depth="2" NCoef="0" IVar="-1" Cut="0.0000000000000000e+00" cType="1" res="1.9964618608355522e-02" rms="3.1853982806205750e-01" purity="5.1829266548156738e-01" nType="-99"/>
          <Node pos="r" depth="2" NCoef="0" IVar="-1" Cut="0.0000000000000000e+00" cType="1" res="-7.7840182930231094e-03" rms="3.5510864853858948e-01" purity="2.8156191110610962e-01" nType="-99"/>
        </Node>
      </Node>
    </BinaryTree>
    <BinaryTree type="DecisionTree" boostWeight="1.0000000000000000e+00" itree="527">
      <Node pos="s" depth="0" NCoef="0" IVar="9" Cut="4.1986074829101562e+02" cType="0" res="-9.4811921007931232e-04" rms="2.9993790388107300e-01" purity="7.8329747915267944e-01" nType="0">
        <Node pos="l" depth="1" NCoef="0" IVar="-1" Cut="0.0000000000000000e+00" cType="1" res="1.4687222428619862e-03" rms="2.7059921622276306e-01" purity="8.6432594060897827e-01" nType="-99"/>
        <Node pos="r" depth="1" NCoef="0" IVar="1" Cut="1.5686610107421875e+03" cType="1" res="-3.7972696591168642e-03" rms="3.2249212265014648e-01" purity="7.1525478363037109e-01" nType="0">
          <Node pos="l" depth="2" NCoef="0" IVar="-1" Cut="0.0000000000000000e+00" cType="1" res="4.8472383059561253e-03" rms="2.9896929860115051e-01" purity="7.6485323905944824e-01" nType="-99"/>
          <Node pos="r" depth="2" NCoef="0" IVar="-1" Cut="0.0000000000000000e+00" cType="1" res="-1.1336083523929119e-02" rms="3.5875394940376282e-01" purity="6.2820148468017578e-01" nType="-99"/>
        </Node>
      </Node>
    </BinaryTree>
    <BinaryTree type="DecisionTree" boostWeight="1.0000000000000000e+00" itree="528">
      <Node pos="s" depth="0" NCoef="0" IVar="29" Cut="1.1092340469360352e+01" cType="1" res="-2.5524612283334136e-04" rms="3.0058220028877258e-01" purity="7.8380042314529419e-01" nType="0">
        <Node pos="l" depth="1" NCoef="0" IVar="-1" Cut="0.0000000000000000e+00" cType="1" res="-1.2396993115544319e-03" rms="2.9529193043708801e-01" purity="7.9925739765167236e-01" nType="-99"/>
        <Node pos="r" depth="1" NCoef="0" IVar="0" Cut="8.0476188659667969e+00" cType="1" res="6.1137885786592960e-03" rms="3.1582590937614441e-01" purity="7.3746162652969360e-01" nType="0">
          <Node pos="l" depth="2" NCoef="0" IVar="-1" Cut="0.0000000000000000e+00" cType="1" res="-3.5957100335508585e-03" rms="2.8074258565902710e-01" purity="8.6486053466796875e-01" nType="-99"/>
          <Node pos="r" depth="2" NCoef="0" IVar="-1" Cut="0.0000000000000000e+00" cType="1" res="7.9576959833502769e-03" rms="3.6051625013351440e-01" purity="5.5027246475219727e-01" nType="-99"/>
        </Node>
      </Node>
    </BinaryTree>
    <BinaryTree type="DecisionTree" boostWeight="1.0000000000000000e+00" itree="529">
      <Node pos="s" depth="0" NCoef="0" IVar="35" Cut="1.1580952453613281e+02" cType="0" res="5.3203542483970523e-04" rms="3.0066913366317749e-01" purity="7.8474521636962891e-01" nType="0">
        <Node pos="l" depth="1" NCoef="0" IVar="-1" Cut="0.0000000000000000e+00" cType="1" res="-5.6999248045030981e-05" rms="3.0016654729843140e-01" purity="7.8542059659957886e-01" nType="-99"/>
        <Node pos="r" depth="1" NCoef="0" IVar="3" Cut="3.0739570312500000e+03" cType="1" res="1.7217490822076797e-02" rms="3.1292679905891418e-01" purity="7.6727664470672607e-01" nType="0">
          <Node pos="l" depth="2" NCoef="0" IVar="-1" Cut="0.0000000000000000e+00" cType="1" res="1.5488315373659134e-02" rms="3.2392045855522156e-01" purity="7.7257746458053589e-01" nType="-99"/>
          <Node pos="r" depth="2" NCoef="0" IVar="-1" Cut="0.0000000000000000e+00" cType="1" res="3.4427463542670012e-03" rms="3.0695390701293945e-01" purity="7.6470589637756348e-01" nType="-99"/>
        </Node>
      </Node>
    </BinaryTree>
    <BinaryTree type="DecisionTree" boostWeight="1.0000000000000000e+00" itree="530">
      <Node pos="s" depth="0" NCoef="0" IVar="12" Cut="-1.8021810302734375e+03" cType="1" res="-7.1757228579372168e-04" rms="3.0082702636718750e-01" purity="7.8377747535705566e-01" nType="0">
        <Node pos="l" depth="1" NCoef="0" IVar="-1" Cut="0.0000000000000000e+00" cType="1" res="1.4241388067603111e-02" rms="1.6932596266269684e-01" purity="9.5643758773803711e-01" nType="-99"/>
        <Node pos="r" depth="1" NCoef="0" IVar="12" Cut="-4.9884887695312500e+02" cType="1" res="-1.4745354419574142e-03" rms="3.0708554387092590e-01" purity="7.7312481403350830e-01" nType="0">
          <Node pos="l" depth="2" NCoef="0" IVar="-1" Cut="0.0000000000000000e+00" cType="1" res="9.1044055297970772e-03" rms="2.2205950319766998e-01" purity="9.1796851158142090e-01" nType="-99"/>
          <Node pos="r" depth="2" NCoef="0" IVar="-1" Cut="0.0000000000000000e+00" cType="1" res="-1.6074550803750753e-03" rms="3.1867131590843201e-01" purity="7.4968773126602173e-01" nType="-99"/>
        </Node>
      </Node>
    </BinaryTree>
    <BinaryTree type="DecisionTree" boostWeight="1.0000000000000000e+00" itree="531">
      <Node pos="s" depth="0" NCoef="0" IVar="5" Cut="-3.1373922824859619e+00" cType="0" res="6.7002366995438933e-04" rms="2.9957440495491028e-01" purity="7.8555643558502197e-01" nType="0">
        <Node pos="l" depth="1" NCoef="0" IVar="34" Cut="-9.0474152565002441e-01" cType="0" res="7.5548328459262848e-04" rms="2.9950869083404541e-01" purity="7.8576117753982544e-01" nType="0">
          <Node pos="l" depth="2" NCoef="0" IVar="-1" Cut="0.0000000000000000e+00" cType="1" res="3.2611365895718336e-04" rms="2.9947537183761597e-01" purity="7.8579330444335938e-01" nType="-99"/>
          <Node pos="r" depth="2" NCoef="0" IVar="-1" Cut="0.0000000000000000e+00" cType="1" res="3.8795720785856247e-02" rms="3.1333246827125549e-01" purity="7.5396823883056641e-01" nType="-99"/>
        </Node>
        <Node pos="r" depth="1" NCoef="0" IVar="-1" Cut="0.0000000000000000e+00" cType="1" res="-9.4284936785697937e-02" rms="3.7766805291175842e-01" purity="2.0454545319080353e-01" nType="-99"/>
      </Node>
    </BinaryTree>
    <BinaryTree type="DecisionTree" boostWeight="1.0000000000000000e+00" itree="532">
      <Node pos="s" depth="0" NCoef="0" IVar="2" Cut="2.3806506767868996e-02" cType="1" res="-1.1824348621303216e-04" rms="2.9945826530456543e-01" purity="7.8536236286163330e-01" nType="0">
        <Node pos="l" depth="1" NCoef="0" IVar="-1" Cut="0.0000000000000000e+00" cType="1" res="2.1071471273899078e-03" rms="2.6060014963150024e-01" purity="8.8155859708786011e-01" nType="-99"/>
        <Node pos="r" depth="1" NCoef="0" IVar="3" Cut="3.7215258789062500e+03" cType="0" res="-3.3067914191633463e-03" rms="3.3204275369644165e-01" purity="6.9431471824645996e-01" nType="0">
          <Node pos="l" depth="2" NCoef="0" IVar="-1" Cut="0.0000000000000000e+00" cType="1" res="1.4773448929190636e-03" rms="3.2442542910575867e-01" purity="7.2668594121932983e-01" nType="-99"/>
          <Node pos="r" depth="2" NCoef="0" IVar="-1" Cut="0.0000000000000000e+00" cType="1" res="-3.7194543983787298e-03" rms="3.3880504965782166e-01" purity="6.6444158554077148e-01" nType="-99"/>
        </Node>
      </Node>
    </BinaryTree>
    <BinaryTree type="DecisionTree" boostWeight="1.0000000000000000e+00" itree="533">
      <Node pos="s" depth="0" NCoef="0" IVar="11" Cut="9.5236740112304688e+00" cType="1" res="1.1375842150300741e-03" rms="2.9818946123123169e-01" purity="7.8608095645904541e-01" nType="0">
        <Node pos="l" depth="1" NCoef="0" IVar="-1" Cut="0.0000000000000000e+00" cType="1" res="3.7498313467949629e-03" rms="2.7741107344627380e-01" purity="8.4758424758911133e-01" nType="-99"/>
        <Node pos="r" depth="1" NCoef="0" IVar="1" Cut="2.3923298339843750e+03" cType="1" res="-1.6708580078557134e-03" rms="3.0822962522506714e-01" purity="7.5465136766433716e-01" nType="0">
          <Node pos="l" depth="2" NCoef="0" IVar="-1" Cut="0.0000000000000000e+00" cType="1" res="3.3540767617523670e-04" rms="3.0827799439430237e-01" purity="7.6556986570358276e-01" nType="-99"/>
          <Node pos="r" depth="2" NCoef="0" IVar="-1" Cut="0.0000000000000000e+00" cType="1" res="-9.9614989012479782e-03" rms="3.0740350484848022e-01" purity="6.8007969856262207e-01" nType="-99"/>
        </Node>
      </Node>
    </BinaryTree>
    <BinaryTree type="DecisionTree" boostWeight="1.0000000000000000e+00" itree="534">
      <Node pos="s" depth="0" NCoef="0" IVar="23" Cut="2.1263521484375000e+04" cType="0" res="-8.1758253509178758e-04" rms="3.0142340064048767e-01" purity="7.8371912240982056e-01" nType="0">
        <Node pos="l" depth="1" NCoef="0" IVar="-1" Cut="0.0000000000000000e+00" cType="1" res="3.3529665321111679e-02" rms="2.1053346991539001e-01" purity="9.4237917661666870e-01" nType="-99"/>
        <Node pos="r" depth="1" NCoef="0" IVar="23" Cut="5.1145336914062500e+03" cType="0" res="-1.0053896112367511e-03" rms="3.0174463987350464e-01" purity="7.8303056955337524e-01" nType="0">
          <Node pos="l" depth="2" NCoef="0" IVar="-1" Cut="0.0000000000000000e+00" cType="1" res="1.3005572836846113e-03" rms="2.8675726056098938e-01" purity="8.2627761363983154e-01" nType="-99"/>
          <Node pos="r" depth="2" NCoef="0" IVar="-1" Cut="0.0000000000000000e+00" cType="1" res="-2.1807928569614887e-03" rms="3.1728929281234741e-01" purity="7.3571932315826416e-01" nType="-99"/>
        </Node>
      </Node>
    </BinaryTree>
    <BinaryTree type="DecisionTree" boostWeight="1.0000000000000000e+00" itree="535">
      <Node pos="s" depth="0" NCoef="0" IVar="9" Cut="3.8933456420898438e+02" cType="0" res="-5.2640261128544807e-04" rms="3.0053335428237915e-01" purity="7.8364580869674683e-01" nType="0">
        <Node pos="l" depth="1" NCoef="0" IVar="-1" Cut="0.0000000000000000e+00" cType="1" res="2.1132875699549913e-03" rms="2.7302864193916321e-01" purity="8.5953480005264282e-01" nType="-99"/>
        <Node pos="r" depth="1" NCoef="0" IVar="1" Cut="1.5686610107421875e+03" cType="1" res="-4.6419608406722546e-03" rms="3.2568383216857910e-01" purity="7.0771896839141846e-01" nType="0">
          <Node pos="l" depth="2" NCoef="0" IVar="-1" Cut="0.0000000000000000e+00" cType="1" res="5.1768966950476170e-03" rms="3.0099108815193176e-01" purity="7.6287937164306641e-01" nType="-99"/>
          <Node pos="r" depth="2" NCoef="0" IVar="-1" Cut="0.0000000000000000e+00" cType="1" res="-1.3878555968403816e-02" rms="3.6754989624023438e-01" purity="5.9914183616638184e-01" nType="-99"/>
        </Node>
      </Node>
    </BinaryTree>
    <BinaryTree type="DecisionTree" boostWeight="1.0000000000000000e+00" itree="536">
      <Node pos="s" depth="0" NCoef="0" IVar="2" Cut="4.0471062064170837e-01" cType="1" res="3.0207622330635786e-04" rms="2.9958957433700562e-01" purity="7.8519743680953979e-01" nType="0">
        <Node pos="l" depth="1" NCoef="0" IVar="-1" Cut="0.0000000000000000e+00" cType="1" res="-1.5280165825970471e-04" rms="2.9742053151130676e-01" purity="7.9196828603744507e-01" nType="-99"/>
        <Node pos="r" depth="1" NCoef="0" IVar="4" Cut="2.3511161804199219e+00" cType="0" res="1.7076699063181877e-02" rms="3.5440054535865784e-01" purity="5.9624737501144409e-01" nType="0">
          <Node pos="l" depth="2" NCoef="0" IVar="-1" Cut="0.0000000000000000e+00" cType="1" res="-1.0054195299744606e-02" rms="3.4722268581390381e-01" purity="6.7253750562667847e-01" nType="-99"/>
          <Node pos="r" depth="2" NCoef="0" IVar="-1" Cut="0.0000000000000000e+00" cType="1" res="1.4715226367115974e-02" rms="3.5617709159851074e-01" purity="5.5423849821090698e-01" nType="-99"/>
        </Node>
      </Node>
    </BinaryTree>
    <BinaryTree type="DecisionTree" boostWeight="1.0000000000000000e+00" itree="537">
      <Node pos="s" depth="0" NCoef="0" IVar="13" Cut="3.5594606933593750e+03" cType="0" res="3.4390404471196234e-04" rms="2.9994907975196838e-01" purity="7.8426831960678101e-01" nType="0">
        <Node pos="l" depth="1" NCoef="0" IVar="-1" Cut="0.0000000000000000e+00" cType="1" res="3.5607693716883659e-03" rms="2.7250507473945618e-01" purity="8.4635144472122192e-01" nType="-99"/>
        <Node pos="r" depth="1" NCoef="0" IVar="14" Cut="4.0757476806640625e+02" cType="0" res="-1.4966657618060708e-03" rms="3.0837285518646240e-01" purity="7.6396393775939941e-01" nType="0">
          <Node pos="l" depth="2" NCoef="0" IVar="-1" Cut="0.0000000000000000e+00" cType="1" res="-6.6228378564119339e-03" rms="2.9590538144111633e-01" purity="8.0822825431823730e-01" nType="-99"/>
          <Node pos="r" depth="2" NCoef="0" IVar="-1" Cut="0.0000000000000000e+00" cType="1" res="2.6437016203999519e-03" rms="3.1622025370597839e-01" purity="7.3437082767486572e-01" nType="-99"/>
        </Node>
      </Node>
    </BinaryTree>
    <BinaryTree type="DecisionTree" boostWeight="1.0000000000000000e+00" itree="538">
      <Node pos="s" depth="0" NCoef="0" IVar="0" Cut="2.7000000000000000e+01" cType="1" res="-4.7797782463021576e-04" rms="3.0032306909561157e-01" purity="7.8317517042160034e-01" nType="0">
        <Node pos="l" depth="1" NCoef="0" IVar="-1" Cut="0.0000000000000000e+00" cType="1" res="-1.6420710016973317e-04" rms="3.0074942111968994e-01" purity="7.8595590591430664e-01" nType="-99"/>
        <Node pos="r" depth="1" NCoef="0" IVar="26" Cut="1.9954133300781250e+03" cType="1" res="-3.8364615291357040e-02" rms="1.5726695954799652e-01" purity="8.8531188666820526e-02" nType="0">
          <Node pos="l" depth="2" NCoef="0" IVar="-1" Cut="0.0000000000000000e+00" cType="1" res="4.3648723512887955e-02" rms="2.2460038959980011e-01" purity="2.3008850216865540e-01" nType="-99"/>
          <Node pos="r" depth="2" NCoef="0" IVar="-1" Cut="0.0000000000000000e+00" cType="1" res="-4.6090781688690186e-02" rms="1.1357484757900238e-01" purity="4.6875000000000000e-02" nType="-99"/>
        </Node>
      </Node>
    </BinaryTree>
    <BinaryTree type="DecisionTree" boostWeight="1.0000000000000000e+00" itree="539">
      <Node pos="s" depth="0" NCoef="0" IVar="1" Cut="1.3277597656250000e+03" cType="0" res="8.0032390542328358e-04" rms="2.9869148135185242e-01" purity="7.8643715381622314e-01" nType="0">
        <Node pos="l" depth="1" NCoef="0" IVar="-1" Cut="0.0000000000000000e+00" cType="1" res="1.2447033077478409e-03" rms="2.9333630204200745e-01" purity="8.1776875257492065e-01" nType="-99"/>
        <Node pos="r" depth="1" NCoef="0" IVar="9" Cut="2.9097714233398438e+02" cType="1" res="-8.9940913021564484e-03" rms="3.2999825477600098e-01" purity="5.9082716703414917e-01" nType="0">
          <Node pos="l" depth="2" NCoef="0" IVar="-1" Cut="0.0000000000000000e+00" cType="1" res="4.3079704046249390e-03" rms="3.2686379551887512e-01" purity="6.2214589118957520e-01" nType="-99"/>
          <Node pos="r" depth="2" NCoef="0" IVar="-1" Cut="0.0000000000000000e+00" cType="1" res="-3.7469457834959030e-02" rms="3.3015990257263184e-01" purity="4.5544555783271790e-01" nType="-99"/>
        </Node>
      </Node>
    </BinaryTree>
    <BinaryTree type="DecisionTree" boostWeight="1.0000000000000000e+00" itree="540">
      <Node pos="s" depth="0" NCoef="0" IVar="2" Cut="2.6187157630920410e-01" cType="1" res="6.6638836869969964e-04" rms="3.0013445019721985e-01" purity="7.8582584857940674e-01" nType="0">
        <Node pos="l" depth="1" NCoef="0" IVar="-1" Cut="0.0000000000000000e+00" cType="1" res="-2.8095912421122193e-04" rms="2.9356372356414795e-01" purity="8.0693328380584717e-01" nType="-99"/>
        <Node pos="r" depth="1" NCoef="0" IVar="20" Cut="-6.1901801824569702e-01" cType="0" res="9.5103709027171135e-03" rms="3.4454685449600220e-01" purity="6.3042604923248291e-01" nType="0">
          <Node pos="l" depth="2" NCoef="0" IVar="-1" Cut="0.0000000000000000e+00" cType="1" res="4.8804008401930332e-03" rms="3.4342640638351440e-01" purity="6.3967669010162354e-01" nType="-99"/>
          <Node pos="r" depth="2" NCoef="0" IVar="-1" Cut="0.0000000000000000e+00" cType="1" res="-2.2059375420212746e-02" rms="3.6377203464508057e-01" purity="4.0034660696983337e-01" nType="-99"/>
        </Node>
      </Node>
    </BinaryTree>
    <BinaryTree type="DecisionTree" boostWeight="1.0000000000000000e+00" itree="541">
      <Node pos="s" depth="0" NCoef="0" IVar="32" Cut="2.1350157260894775e+00" cType="0" res="5.4595730034634471e-04" rms="2.9991891980171204e-01" purity="7.8544032573699951e-01" nType="0">
        <Node pos="l" depth="1" NCoef="0" IVar="-1" Cut="0.0000000000000000e+00" cType="1" res="-3.2438812777400017e-03" rms="2.7866020798683167e-01" purity="8.1986743211746216e-01" nType="-99"/>
        <Node pos="r" depth="1" NCoef="0" IVar="13" Cut="1.4317496337890625e+03" cType="0" res="2.4051440414041281e-03" rms="3.0608347058296204e-01" purity="7.7494269609451294e-01" nType="0">
          <Node pos="l" depth="2" NCoef="0" IVar="-1" Cut="0.0000000000000000e+00" cType="1" res="2.2814022377133369e-03" rms="3.0314382910728455e-01" purity="7.7846503257751465e-01" nType="-99"/>
          <Node pos="r" depth="2" NCoef="0" IVar="-1" Cut="0.0000000000000000e+00" cType="1" res="-4.4552041217684746e-03" rms="3.2024225592613220e-01" purity="7.5718080997467041e-01" nType="-99"/>
        </Node>
      </Node>
    </BinaryTree>
    <BinaryTree type="DecisionTree" boostWeight="1.0000000000000000e+00" itree="542">
      <Node pos="s" depth="0" NCoef="0" IVar="25" Cut="7.4478876953125000e+03" cType="1" res="-5.9683545259758830e-04" rms="3.0036708712577820e-01" purity="7.8376317024230957e-01" nType="0">
        <Node pos="l" depth="1" NCoef="0" IVar="-1" Cut="0.0000000000000000e+00" cType="1" res="-4.0430392255075276e-04" rms="3.0033400654792786e-01" purity="7.8386849164962769e-01" nType="-99"/>
        <Node pos="r" depth="1" NCoef="0" IVar="2" Cut="7.1419171988964081e-02" cType="0" res="3.9938975125551224e-02" rms="3.0417039990425110e-01" purity="7.6282054185867310e-01" nType="0">
          <Node pos="l" depth="2" NCoef="0" IVar="-1" Cut="0.0000000000000000e+00" cType="1" res="3.1548395752906799e-02" rms="2.7556824684143066e-01" purity="7.6814991235733032e-01" nType="-99"/>
          <Node pos="r" depth="2" NCoef="0" IVar="-1" Cut="0.0000000000000000e+00" cType="1" res="-2.8909033164381981e-02" rms="3.3900555968284607e-01" purity="7.5126904249191284e-01" nType="-99"/>
        </Node>
      </Node>
    </BinaryTree>
    <BinaryTree type="DecisionTree" boostWeight="1.0000000000000000e+00" itree="543">
      <Node pos="s" depth="0" NCoef="0" IVar="19" Cut="1.4421093750000000e+05" cType="1" res="8.1151001722901128e-06" rms="2.9977142810821533e-01" purity="7.8455686569213867e-01" nType="0">
        <Node pos="l" depth="1" NCoef="0" IVar="-1" Cut="0.0000000000000000e+00" cType="1" res="7.1338523412123322e-04" rms="2.9720115661621094e-01" purity="7.8872650861740112e-01" nType="-99"/>
        <Node pos="r" depth="1" NCoef="0" IVar="0" Cut="8.4285717010498047e+00" cType="1" res="-6.4572622068226337e-03" rms="3.1145513057708740e-01" purity="7.6501256227493286e-01" nType="0">
          <Node pos="l" depth="2" NCoef="0" IVar="-1" Cut="0.0000000000000000e+00" cType="1" res="4.6718976227566600e-04" rms="2.9273009300231934e-01" purity="8.4823524951934814e-01" nType="-99"/>
          <Node pos="r" depth="2" NCoef="0" IVar="-1" Cut="0.0000000000000000e+00" cType="1" res="-9.9267261102795601e-03" rms="3.6364778876304626e-01" purity="5.0057315826416016e-01" nType="-99"/>
        </Node>
      </Node>
    </BinaryTree>
    <BinaryTree type="DecisionTree" boostWeight="1.0000000000000000e+00" itree="544">
      <Node pos="s" depth="0" NCoef="0" IVar="1" Cut="9.5094628906250000e+02" cType="0" res="5.1021255785599351e-04" rms="2.9833325743675232e-01" purity="7.8474342823028564e-01" nType="0">
        <Node pos="l" depth="1" NCoef="0" IVar="-1" Cut="0.0000000000000000e+00" cType="1" res="4.3888608342967927e-04" rms="2.9982152581214905e-01" purity="7.9548603296279907e-01" nType="-99"/>
        <Node pos="r" depth="1" NCoef="0" IVar="9" Cut="1.1384794616699219e+02" cType="1" res="-2.5215232744812965e-02" rms="1.6024914383888245e-01" purity="2.8702640905976295e-02" nType="0">
          <Node pos="l" depth="2" NCoef="0" IVar="-1" Cut="0.0000000000000000e+00" cType="1" res="2.8762347996234894e-02" rms="2.9506686329841614e-01" purity="1.1848340928554535e-01" nType="-99"/>
          <Node pos="r" depth="2" NCoef="0" IVar="-1" Cut="0.0000000000000000e+00" cType="1" res="-3.9017628878355026e-02" rms="1.2885773181915283e-01" purity="1.6329197213053703e-02" nType="-99"/>
        </Node>
      </Node>
    </BinaryTree>
    <BinaryTree type="DecisionTree" boostWeight="1.0000000000000000e+00" itree="545">
      <Node pos="s" depth="0" NCoef="0" IVar="8" Cut="-5.4221673011779785e+00" cType="0" res="-8.3218613872304559e-04" rms="2.9970818758010864e-01" purity="7.8380984067916870e-01" nType="0">
        <Node pos="l" depth="1" NCoef="0" IVar="5" Cut="1.5420268774032593e+00" cType="0" res="-7.4756675167009234e-04" rms="2.9966312646865845e-01" purity="7.8406631946563721e-01" nType="0">
          <Node pos="l" depth="2" NCoef="0" IVar="-1" Cut="0.0000000000000000e+00" cType="1" res="8.2294065505266190e-03" rms="2.2547335922718048e-01" purity="9.2893475294113159e-01" nType="-99"/>
          <Node pos="r" depth="2" NCoef="0" IVar="-1" Cut="0.0000000000000000e+00" cType="1" res="-1.0255537927150726e-03" rms="3.0761215090751648e-01" purity="7.6605319976806641e-01" nType="-99"/>
        </Node>
        <Node pos="r" depth="1" NCoef="0" IVar="-1" Cut="0.0000000000000000e+00" cType="1" res="-1.3494941592216492e-01" rms="3.2704508304595947e-01" purity="2.3809524253010750e-02" nType="-99"/>
      </Node>
    </BinaryTree>
    <BinaryTree type="DecisionTree" boostWeight="1.0000000000000000e+00" itree="546">
      <Node pos="s" depth="0" NCoef="0" IVar="3" Cut="3.2170036621093750e+03" cType="0" res="-2.8094940353184938e-04" rms="3.0017212033271790e-01" purity="7.8473883867263794e-01" nType="0">
        <Node pos="l" depth="1" NCoef="0" IVar="-1" Cut="0.0000000000000000e+00" cType="1" res="-1.6396678984165192e-03" rms="2.9921269416809082e-01" purity="7.8962707519531250e-01" nType="-99"/>
        <Node pos="r" depth="1" NCoef="0" IVar="0" Cut="5.4285712242126465e+00" cType="1" res="4.4745877385139465e-03" rms="3.0171617865562439e-01" purity="7.7653223276138306e-01" nType="0">
          <Node pos="l" depth="2" NCoef="0" IVar="-1" Cut="0.0000000000000000e+00" cType="1" res="1.0180179029703140e-02" rms="2.5128683447837830e-01" purity="9.0886670351028442e-01" nType="-99"/>
          <Node pos="r" depth="2" NCoef="0" IVar="-1" Cut="0.0000000000000000e+00" cType="1" res="-4.0286867879331112e-03" rms="3.5679173469543457e-01" purity="6.0239642858505249e-01" nType="-99"/>
        </Node>
      </Node>
    </BinaryTree>
    <BinaryTree type="DecisionTree" boostWeight="1.0000000000000000e+00" itree="547">
      <Node pos="s" depth="0" NCoef="0" IVar="34" Cut="-7.1426320075988770e-01" cType="0" res="1.2881646398454905e-04" rms="3.0026376247406006e-01" purity="7.8485906124114990e-01" nType="0">
        <Node pos="l" depth="1" NCoef="0" IVar="-1" Cut="0.0000000000000000e+00" cType="1" res="1.5927020285744220e-05" rms="3.0026423931121826e-01" purity="7.8486675024032593e-01" nType="-99"/>
        <Node pos="r" depth="1" NCoef="0" IVar="0" Cut="8.4285717010498047e+00" cType="1" res="9.0004779398441315e-02" rms="2.8601279854774475e-01" purity="7.7777779102325439e-01" nType="0">
          <Node pos="l" depth="2" NCoef="0" IVar="-1" Cut="0.0000000000000000e+00" cType="1" res="1.6876500099897385e-02" rms="2.5793391466140747e-01" purity="8.5057473182678223e-01" nType="-99"/>
          <Node pos="r" depth="2" NCoef="0" IVar="-1" Cut="0.0000000000000000e+00" cType="1" res="5.3773153573274612e-02" rms="3.0911180377006531e-01" purity="6.4583331346511841e-01" nType="-99"/>
        </Node>
      </Node>
    </BinaryTree>
    <BinaryTree type="DecisionTree" boostWeight="1.0000000000000000e+00" itree="548">
      <Node pos="s" depth="0" NCoef="0" IVar="9" Cut="8.4069299316406250e+02" cType="0" res="-5.5368756875395775e-04" rms="3.0027648806571960e-01" purity="7.8416627645492554e-01" nType="0">
        <Node pos="l" depth="1" NCoef="0" IVar="-1" Cut="0.0000000000000000e+00" cType="1" res="5.7672760449349880e-03" rms="2.3665292561054230e-01" purity="9.2942041158676147e-01" nType="-99"/>
        <Node pos="r" depth="1" NCoef="0" IVar="9" Cut="2.0931556701660156e+02" cType="0" res="-1.9505064701661468e-03" rms="3.1029304862022400e-01" purity="7.5810730457305908e-01" nType="0">
          <Node pos="l" depth="2" NCoef="0" IVar="-1" Cut="0.0000000000000000e+00" cType="1" res="7.0666719693690538e-04" rms="3.0007022619247437e-01" purity="7.8682386875152588e-01" nType="-99"/>
          <Node pos="r" depth="2" NCoef="0" IVar="-1" Cut="0.0000000000000000e+00" cType="1" res="-6.8056103773415089e-03" rms="3.5321387648582458e-01" purity="6.2568825483322144e-01" nType="-99"/>
        </Node>
      </Node>
    </BinaryTree>
    <BinaryTree type="DecisionTree" boostWeight="1.0000000000000000e+00" itree="549">
      <Node pos="s" depth="0" NCoef="0" IVar="11" Cut="2.3812403678894043e+00" cType="1" res="4.6648446004837751e-04" rms="2.9929652810096741e-01" purity="7.8511333465576172e-01" nType="0">
        <Node pos="l" depth="1" NCoef="0" IVar="-1" Cut="0.0000000000000000e+00" cType="1" res="6.3951304182410240e-03" rms="2.6535218954086304e-01" purity="8.8886159658432007e-01" nType="-99"/>
        <Node pos="r" depth="1" NCoef="0" IVar="32" Cut="5.9365139007568359e+00" cType="0" res="-2.1842344722244889e-04" rms="3.0150914192199707e-01" purity="7.7787864208221436e-01" nType="0">
          <Node pos="l" depth="2" NCoef="0" IVar="-1" Cut="0.0000000000000000e+00" cType="1" res="-3.3170837908983231e-02" rms="2.9289627075195312e-01" purity="8.5098040103912354e-01" nType="-99"/>
          <Node pos="r" depth="2" NCoef="0" IVar="-1" Cut="0.0000000000000000e+00" cType="1" res="-9.0962530521210283e-06" rms="3.0153116583824158e-01" purity="7.7755796909332275e-01" nType="-99"/>
        </Node>
      </Node>
    </BinaryTree>
    <BinaryTree type="DecisionTree" boostWeight="1.0000000000000000e+00" itree="550">
      <Node pos="s" depth="0" NCoef="0" IVar="20" Cut="-6.1904734373092651e-01" cType="0" res="-3.9576509152539074e-04" rms="3.0089858174324036e-01" purity="7.8286188840866089e-01" nType="0">
        <Node pos="l" depth="1" NCoef="0" IVar="-1" Cut="0.0000000000000000e+00" cType="1" res="-3.4145326935686171e-05" rms="3.0019333958625793e-01" purity="7.8686845302581787e-01" nType="-99"/>
        <Node pos="r" depth="1" NCoef="0" IVar="4" Cut="6.6040883064270020e+00" cType="0" res="-2.6527956128120422e-02" rms="3.5154241323471069e-01" purity="4.6403110027313232e-01" nType="0">
          <Node pos="l" depth="2" NCoef="0" IVar="-1" Cut="0.0000000000000000e+00" cType="1" res="-7.4632965028285980e-02" rms="4.1942629218101501e-01" purity="4.8091602325439453e-01" nType="-99"/>
          <Node pos="r" depth="2" NCoef="0" IVar="-1" Cut="0.0000000000000000e+00" cType="1" res="-3.6653217393904924e-03" rms="3.3997812867164612e-01" purity="4.6246460080146790e-01" nType="-99"/>
        </Node>
      </Node>
    </BinaryTree>
    <BinaryTree type="DecisionTree" boostWeight="1.0000000000000000e+00" itree="551">
      <Node pos="s" depth="0" NCoef="0" IVar="0" Cut="2.8571429252624512e+00" cType="1" res="-5.1030554459430277e-05" rms="2.9921948909759521e-01" purity="7.8384828567504883e-01" nType="0">
        <Node pos="l" depth="1" NCoef="0" IVar="-1" Cut="0.0000000000000000e+00" cType="1" res="9.6655311062932014e-03" rms="2.2915111482143402e-01" purity="9.2729097604751587e-01" nType="-99"/>
        <Node pos="r" depth="1" NCoef="0" IVar="3" Cut="2.4277182617187500e+03" cType="0" res="-6.9544510915875435e-04" rms="3.0230593681335449e-01" purity="7.7662140130996704e-01" nType="0">
          <Node pos="l" depth="2" NCoef="0" IVar="-1" Cut="0.0000000000000000e+00" cType="1" res="3.6987004568800330e-04" rms="2.9975283145904541e-01" purity="7.8478354215621948e-01" nType="-99"/>
          <Node pos="r" depth="2" NCoef="0" IVar="-1" Cut="0.0000000000000000e+00" cType="1" res="-1.0215566493570805e-02" rms="3.4142887592315674e-01" purity="6.3965183496475220e-01" nType="-99"/>
        </Node>
      </Node>
    </BinaryTree>
    <BinaryTree type="DecisionTree" boostWeight="1.0000000000000000e+00" itree="552">
      <Node pos="s" depth="0" NCoef="0" IVar="13" Cut="1.9047535400390625e+03" cType="0" res="1.6372009122278541e-04" rms="2.9942971467971802e-01" purity="7.8523319959640503e-01" nType="0">
        <Node pos="l" depth="1" NCoef="0" IVar="-1" Cut="0.0000000000000000e+00" cType="1" res="1.2607061071321368e-03" rms="2.9531919956207275e-01" purity="7.9436331987380981e-01" nType="-99"/>
        <Node pos="r" depth="1" NCoef="0" IVar="7" Cut="2.7331875000000000e+03" cType="0" res="-4.1816104203462601e-03" rms="3.0699795484542847e-01" purity="7.6798480749130249e-01" nType="0">
          <Node pos="l" depth="2" NCoef="0" IVar="-1" Cut="0.0000000000000000e+00" cType="1" res="2.9664039611816406e-03" rms="2.8239995241165161e-01" purity="8.4290593862533569e-01" nType="-99"/>
          <Node pos="r" depth="2" NCoef="0" IVar="-1" Cut="0.0000000000000000e+00" cType="1" res="-7.2394921444356441e-03" rms="3.3630436658859253e-01" purity="6.6913539171218872e-01" nType="-99"/>
        </Node>
      </Node>
    </BinaryTree>
    <BinaryTree type="DecisionTree" boostWeight="1.0000000000000000e+00" itree="553">
      <Node pos="s" depth="0" NCoef="0" IVar="0" Cut="1.7714284896850586e+01" cType="1" res="-7.7673676423728466e-04" rms="3.0045214295387268e-01" purity="7.8213655948638916e-01" nType="0">
        <Node pos="l" depth="1" NCoef="0" IVar="-1" Cut="0.0000000000000000e+00" cType="1" res="-1.4602691226173192e-04" rms="3.0035921931266785e-01" purity="7.9760807752609253e-01" nType="-99"/>
        <Node pos="r" depth="1" NCoef="0" IVar="25" Cut="8.7669707031250000e+03" cType="0" res="-1.7524618655443192e-02" rms="3.0313655734062195e-01" purity="2.5316813588142395e-01" nType="0">
          <Node pos="l" depth="2" NCoef="0" IVar="-1" Cut="0.0000000000000000e+00" cType="1" res="7.0026576519012451e-02" rms="1.8888369202613831e-01" purity="8.1904762983322144e-01" nType="-99"/>
          <Node pos="r" depth="2" NCoef="0" IVar="-1" Cut="0.0000000000000000e+00" cType="1" res="-1.0067026130855083e-02" rms="3.0322584509849548e-01" purity="2.3592570424079895e-01" nType="-99"/>
        </Node>
      </Node>
    </BinaryTree>
    <BinaryTree type="DecisionTree" boostWeight="1.0000000000000000e+00" itree="554">
      <Node pos="s" depth="0" NCoef="0" IVar="0" Cut="1.7714284896850586e+01" cType="1" res="3.0784780392423272e-04" rms="2.9918077588081360e-01" purity="7.8552132844924927e-01" nType="0">
        <Node pos="l" depth="1" NCoef="0" IVar="-1" Cut="0.0000000000000000e+00" cType="1" res="4.0537345921620727e-04" rms="2.9899382591247559e-01" purity="8.0104750394821167e-01" nType="-99"/>
        <Node pos="r" depth="1" NCoef="0" IVar="3" Cut="6.1396142578125000e+03" cType="0" res="-1.6333855688571930e-02" rms="3.0504238605499268e-01" purity="2.5424689054489136e-01" nType="0">
          <Node pos="l" depth="2" NCoef="0" IVar="-1" Cut="0.0000000000000000e+00" cType="1" res="2.3182379081845284e-02" rms="2.9042479395866394e-01" purity="5.0730991363525391e-01" nType="-99"/>
          <Node pos="r" depth="2" NCoef="0" IVar="-1" Cut="0.0000000000000000e+00" cType="1" res="-1.4947810210287571e-02" rms="3.0534109473228455e-01" purity="1.9346910715103149e-01" nType="-99"/>
        </Node>
      </Node>
    </BinaryTree>
    <BinaryTree type="DecisionTree" boostWeight="1.0000000000000000e+00" itree="555">
      <Node pos="s" depth="0" NCoef="0" IVar="2" Cut="2.6187157630920410e-01" cType="1" res="4.6549233957193792e-04" rms="2.9856562614440918e-01" purity="7.8453862667083740e-01" nType="0">
        <Node pos="l" depth="1" NCoef="0" IVar="-1" Cut="0.0000000000000000e+00" cType="1" res="-3.0397748923860490e-04" rms="2.9224798083305359e-01" purity="8.0649805068969727e-01" nType="-99"/>
        <Node pos="r" depth="1" NCoef="0" IVar="0" Cut="8.0476188659667969e+00" cType="1" res="8.1065604463219643e-03" rms="3.4128507971763611e-01" purity="6.2333577871322632e-01" nType="0">
          <Node pos="l" depth="2" NCoef="0" IVar="-1" Cut="0.0000000000000000e+00" cType="1" res="-5.3870142437517643e-03" rms="3.2365673780441284e-01" purity="8.0831998586654663e-01" nType="-99"/>
          <Node pos="r" depth="2" NCoef="0" IVar="-1" Cut="0.0000000000000000e+00" cType="1" res="7.7161784283816814e-03" rms="3.5275268554687500e-01" purity="4.9039900302886963e-01" nType="-99"/>
        </Node>
      </Node>
    </BinaryTree>
    <BinaryTree type="DecisionTree" boostWeight="1.0000000000000000e+00" itree="556">
      <Node pos="s" depth="0" NCoef="0" IVar="1" Cut="2.3031530761718750e+03" cType="1" res="3.2167724566534162e-04" rms="2.9940009117126465e-01" purity="7.8486591577529907e-01" nType="0">
        <Node pos="l" depth="1" NCoef="0" IVar="-1" Cut="0.0000000000000000e+00" cType="1" res="9.3539390945807099e-04" rms="2.9687434434890747e-01" purity="7.9620951414108276e-01" nType="-99"/>
        <Node pos="r" depth="1" NCoef="0" IVar="9" Cut="4.8389053344726562e+02" cType="0" res="-7.8776646405458450e-03" rms="3.1228864192962646e-01" purity="7.2488266229629517e-01" nType="0">
          <Node pos="l" depth="2" NCoef="0" IVar="-1" Cut="0.0000000000000000e+00" cType="1" res="-1.6197757795453072e-02" rms="2.8124743700027466e-01" purity="8.3345401287078857e-01" nType="-99"/>
          <Node pos="r" depth="2" NCoef="0" IVar="-1" Cut="0.0000000000000000e+00" cType="1" res="1.6335947439074516e-02" rms="3.9248245954513550e-01" purity="3.6835280060768127e-01" nType="-99"/>
        </Node>
      </Node>
    </BinaryTree>
    <BinaryTree type="DecisionTree" boostWeight="1.0000000000000000e+00" itree="557">
      <Node pos="s" depth="0" NCoef="0" IVar="25" Cut="3.7730354003906250e+03" cType="1" res="1.6656022053211927e-03" rms="2.9887926578521729e-01" purity="7.8542691469192505e-01" nType="0">
        <Node pos="l" depth="1" NCoef="0" IVar="-1" Cut="0.0000000000000000e+00" cType="1" res="4.4275901746004820e-04" rms="2.9807668924331665e-01" purity="7.8645730018615723e-01" nType="-99"/>
        <Node pos="r" depth="1" NCoef="0" IVar="1" Cut="2.7332065429687500e+03" cType="1" res="1.1734820902347565e-02" rms="3.0864632129669189e-01" purity="7.7243030071258545e-01" nType="0">
          <Node pos="l" depth="2" NCoef="0" IVar="-1" Cut="0.0000000000000000e+00" cType="1" res="8.3426022902131081e-03" rms="3.0806696414947510e-01" purity="7.7678894996643066e-01" nType="-99"/>
          <Node pos="r" depth="2" NCoef="0" IVar="-1" Cut="0.0000000000000000e+00" cType="1" res="-2.4824539199471474e-02" rms="3.0752664804458618e-01" purity="7.3598366975784302e-01" nType="-99"/>
        </Node>
      </Node>
    </BinaryTree>
    <BinaryTree type="DecisionTree" boostWeight="1.0000000000000000e+00" itree="558">
      <Node pos="s" depth="0" NCoef="0" IVar="0" Cut="2.7000000000000000e+01" cType="1" res="-1.2686960399150848e-03" rms="3.0072271823883057e-01" purity="7.8231674432754517e-01" nType="0">
        <Node pos="l" depth="1" NCoef="0" IVar="-1" Cut="0.0000000000000000e+00" cType="1" res="-5.6575873168185353e-04" rms="3.0119091272354126e-01" purity="7.8510850667953491e-01" nType="-99"/>
        <Node pos="r" depth="1" NCoef="0" IVar="31" Cut="2.6397690773010254e+00" cType="0" res="-3.8807004690170288e-02" rms="1.3233801722526550e-01" purity="7.3921971023082733e-02" nType="0">
          <Node pos="l" depth="2" NCoef="0" IVar="-1" Cut="0.0000000000000000e+00" cType="1" res="2.5792468339204788e-02" rms="1.4270949363708496e-01" purity="1.9841270148754120e-01" nType="-99"/>
          <Node pos="r" depth="2" NCoef="0" IVar="-1" Cut="0.0000000000000000e+00" cType="1" res="-4.7868400812149048e-02" rms="1.1854825913906097e-01" purity="3.0470913276076317e-02" nType="-99"/>
        </Node>
      </Node>
    </BinaryTree>
    <BinaryTree type="DecisionTree" boostWeight="1.0000000000000000e+00" itree="559">
      <Node pos="s" depth="0" NCoef="0" IVar="24" Cut="1.1256899833679199e+01" cType="1" res="5.5297167273238301e-04" rms="2.9916578531265259e-01" purity="7.8565227985382080e-01" nType="0">
        <Node pos="l" depth="1" NCoef="0" IVar="-1" Cut="0.0000000000000000e+00" cType="1" res="-9.2647958081215620e-04" rms="2.8918555378913879e-01" purity="8.1443375349044800e-01" nType="-99"/>
        <Node pos="r" depth="1" NCoef="0" IVar="2" Cut="4.7612780332565308e-01" cType="1" res="4.6573500148952007e-03" rms="3.1634619832038879e-01" purity="7.3369097709655762e-01" nType="0">
          <Node pos="l" depth="2" NCoef="0" IVar="-1" Cut="0.0000000000000000e+00" cType="1" res="2.5705830194056034e-03" rms="3.1530299782752991e-01" purity="7.3700910806655884e-01" nType="-99"/>
          <Node pos="r" depth="2" NCoef="0" IVar="-1" Cut="0.0000000000000000e+00" cType="1" res="-2.6380669325590134e-02" rms="3.8180398941040039e-01" purity="4.7508895397186279e-01" nType="-99"/>
        </Node>
      </Node>
    </BinaryTree>
    <BinaryTree type="DecisionTree" boostWeight="1.0000000000000000e+00" itree="560">
      <Node pos="s" depth="0" NCoef="0" IVar="14" Cut="2.3179079589843750e+03" cType="0" res="-7.3361844988539815e-04" rms="2.9993540048599243e-01" purity="7.8354984521865845e-01" nType="0">
        <Node pos="l" depth="1" NCoef="0" IVar="-1" Cut="0.0000000000000000e+00" cType="1" res="-1.9436310976743698e-02" rms="2.7560612559318542e-01" purity="8.8985258340835571e-01" nType="-99"/>
        <Node pos="r" depth="1" NCoef="0" IVar="14" Cut="3.4845892333984375e+02" cType="0" res="-2.6651774533092976e-04" rms="3.0035459995269775e-01" purity="7.8154981136322021e-01" nType="0">
          <Node pos="l" depth="2" NCoef="0" IVar="-1" Cut="0.0000000000000000e+00" cType="1" res="-1.9512287108227611e-03" rms="2.8448748588562012e-01" purity="8.1886583566665649e-01" nType="-99"/>
          <Node pos="r" depth="2" NCoef="0" IVar="-1" Cut="0.0000000000000000e+00" cType="1" res="1.8179203616455197e-03" rms="3.1990343332290649e-01" purity="7.3265981674194336e-01" nType="-99"/>
        </Node>
      </Node>
    </BinaryTree>
    <BinaryTree type="DecisionTree" boostWeight="1.0000000000000000e+00" itree="561">
      <Node pos="s" depth="0" NCoef="0" IVar="9" Cut="8.2769177246093750e+02" cType="0" res="1.7017507343553007e-04" rms="2.9911431670188904e-01" purity="7.8349018096923828e-01" nType="0">
        <Node pos="l" depth="1" NCoef="0" IVar="-1" Cut="0.0000000000000000e+00" cType="1" res="5.1205535419285297e-03" rms="2.4099709093570709e-01" purity="9.2581707239151001e-01" nType="-99"/>
        <Node pos="r" depth="1" NCoef="0" IVar="9" Cut="1.6738879394531250e+02" cType="0" res="-1.0184706188738346e-03" rms="3.0862808227539062e-01" purity="7.5723278522491455e-01" nType="0">
          <Node pos="l" depth="2" NCoef="0" IVar="-1" Cut="0.0000000000000000e+00" cType="1" res="4.7355910646729171e-04" rms="3.0307295918464661e-01" purity="7.7173143625259399e-01" nType="-99"/>
          <Node pos="r" depth="2" NCoef="0" IVar="-1" Cut="0.0000000000000000e+00" cType="1" res="-9.6825975924730301e-03" rms="3.7094083428382874e-01" purity="5.7361924648284912e-01" nType="-99"/>
        </Node>
      </Node>
    </BinaryTree>
    <BinaryTree type="DecisionTree" boostWeight="1.0000000000000000e+00" itree="562">
      <Node pos="s" depth="0" NCoef="0" IVar="18" Cut="2.3711383342742920e-02" cType="0" res="4.0168134728446603e-04" rms="2.9923626780509949e-01" purity="7.8554952144622803e-01" nType="0">
        <Node pos="l" depth="1" NCoef="0" IVar="-1" Cut="0.0000000000000000e+00" cType="1" res="-7.7105374075472355e-03" rms="3.0220165848731995e-01" purity="8.2599997520446777e-01" nType="-99"/>
        <Node pos="r" depth="1" NCoef="0" IVar="18" Cut="1.1288755573332310e-02" cType="0" res="1.1959992116317153e-03" rms="2.9905176162719727e-01" purity="7.8331989049911499e-01" nType="0">
          <Node pos="l" depth="2" NCoef="0" IVar="-1" Cut="0.0000000000000000e+00" cType="1" res="-7.1938247419893742e-03" rms="2.9937118291854858e-01" purity="8.2065814733505249e-01" nType="-99"/>
          <Node pos="r" depth="2" NCoef="0" IVar="-1" Cut="0.0000000000000000e+00" cType="1" res="9.4940117560327053e-04" rms="2.9901888966560364e-01" purity="7.8150373697280884e-01" nType="-99"/>
        </Node>
      </Node>
    </BinaryTree>
    <BinaryTree type="DecisionTree" boostWeight="1.0000000000000000e+00" itree="563">
      <Node pos="s" depth="0" NCoef="0" IVar="18" Cut="4.0268611907958984e-01" cType="0" res="1.2465352483559400e-04" rms="2.9993394017219543e-01" purity="7.8424793481826782e-01" nType="0">
        <Node pos="l" depth="1" NCoef="0" IVar="-1" Cut="0.0000000000000000e+00" cType="1" res="4.3069869279861450e-02" rms="2.7342200279235840e-01" purity="9.3076920509338379e-01" nType="-99"/>
        <Node pos="r" depth="1" NCoef="0" IVar="3" Cut="3.2170036621093750e+03" cType="0" res="3.4646993299247697e-05" rms="2.9994738101959229e-01" purity="7.8409528732299805e-01" nType="0">
          <Node pos="l" depth="2" NCoef="0" IVar="-1" Cut="0.0000000000000000e+00" cType="1" res="-1.0372907854616642e-03" rms="2.9708343744277954e-01" purity="7.9100567102432251e-01" nType="-99"/>
          <Node pos="r" depth="2" NCoef="0" IVar="-1" Cut="0.0000000000000000e+00" cType="1" res="1.6226373845711350e-03" rms="3.0467054247856140e-01" purity="7.7248018980026245e-01" nType="-99"/>
        </Node>
      </Node>
    </BinaryTree>
    <BinaryTree type="DecisionTree" boostWeight="1.0000000000000000e+00" itree="564">
      <Node pos="s" depth="0" NCoef="0" IVar="8" Cut="-1.5740203857421875e-01" cType="0" res="2.7115851253256551e-07" rms="2.9998701810836792e-01" purity="7.8392392396926880e-01" nType="0">
        <Node pos="l" depth="1" NCoef="0" IVar="-1" Cut="0.0000000000000000e+00" cType="1" res="1.1244431516388431e-04" rms="2.9991483688354492e-01" purity="7.8523010015487671e-01" nType="-99"/>
        <Node pos="r" depth="1" NCoef="0" IVar="17" Cut="5.0500156250000000e+04" cType="1" res="-7.2061605751514435e-02" rms="3.1437495350837708e-01" purity="3.6031332612037659e-01" nType="0">
          <Node pos="l" depth="2" NCoef="0" IVar="-1" Cut="0.0000000000000000e+00" cType="1" res="-5.9323590248823166e-03" rms="2.9468247294425964e-01" purity="3.8265305757522583e-01" nType="-99"/>
          <Node pos="r" depth="2" NCoef="0" IVar="-1" Cut="0.0000000000000000e+00" cType="1" res="-5.8597281575202942e-02" rms="3.2184627652168274e-01" purity="3.3689838647842407e-01" nType="-99"/>
        </Node>
      </Node>
    </BinaryTree>
    <BinaryTree type="DecisionTree" boostWeight="1.0000000000000000e+00" itree="565">
      <Node pos="s" depth="0" NCoef="0" IVar="25" Cut="6.2183168945312500e+03" cType="1" res="1.0610546451061964e-03" rms="2.9879939556121826e-01" purity="7.8591632843017578e-01" nType="0">
        <Node pos="l" depth="1" NCoef="0" IVar="-1" Cut="0.0000000000000000e+00" cType="1" res="3.7725799484178424e-04" rms="2.9859051108360291e-01" purity="7.8656655550003052e-01" nType="-99"/>
        <Node pos="r" depth="1" NCoef="0" IVar="10" Cut="2.6621005535125732e+00" cType="1" res="2.9942281544208527e-02" rms="3.1588339805603027e-01" purity="7.2680413722991943e-01" nType="0">
          <Node pos="l" depth="2" NCoef="0" IVar="-1" Cut="0.0000000000000000e+00" cType="1" res="1.6348917037248611e-02" rms="3.0565699934959412e-01" purity="7.2881358861923218e-01" nType="-99"/>
          <Node pos="r" depth="2" NCoef="0" IVar="-1" Cut="0.0000000000000000e+00" cType="1" res="-1.1927106231451035e-01" rms="4.2057734727859497e-01" purity="6.8333333730697632e-01" nType="-99"/>
        </Node>
      </Node>
    </BinaryTree>
    <BinaryTree type="DecisionTree" boostWeight="1.0000000000000000e+00" itree="566">
      <Node pos="s" depth="0" NCoef="0" IVar="9" Cut="1.6693563232421875e+03" cType="0" res="-1.1237016587983817e-04" rms="2.9882377386093140e-01" purity="7.8445631265640259e-01" nType="0">
        <Node pos="l" depth="1" NCoef="0" IVar="-1" Cut="0.0000000000000000e+00" cType="1" res="1.4664125628769398e-02" rms="1.8958488106727600e-01" purity="9.6127700805664062e-01" nType="-99"/>
        <Node pos="r" depth="1" NCoef="0" IVar="9" Cut="1.6984815979003906e+02" cType="0" res="-6.8636285141110420e-04" rms="3.0239635705947876e-01" purity="7.7730971574783325e-01" nType="0">
          <Node pos="l" depth="2" NCoef="0" IVar="-1" Cut="0.0000000000000000e+00" cType="1" res="3.6156005808152258e-04" rms="2.9723492264747620e-01" purity="7.9161560535430908e-01" nType="-99"/>
          <Node pos="r" depth="2" NCoef="0" IVar="-1" Cut="0.0000000000000000e+00" cType="1" res="-7.3037776164710522e-03" rms="3.6457440257072449e-01" purity="5.8384716510772705e-01" nType="-99"/>
        </Node>
      </Node>
    </BinaryTree>
    <BinaryTree type="DecisionTree" boostWeight="1.0000000000000000e+00" itree="567">
      <Node pos="s" depth="0" NCoef="0" IVar="34" Cut="-9.0474152565002441e-01" cType="0" res="7.0698978379368782e-04" rms="2.9975160956382751e-01" purity="7.8430277109146118e-01" nType="0">
        <Node pos="l" depth="1" NCoef="0" IVar="-1" Cut="0.0000000000000000e+00" cType="1" res="3.0987054924480617e-04" rms="2.9975408315658569e-01" purity="7.8434652090072632e-01" nType="-99"/>
        <Node pos="r" depth="1" NCoef="0" IVar="25" Cut="2.2411972656250000e+03" cType="0" res="9.6501775085926056e-02" rms="2.8134268522262573e-01" purity="7.3983740806579590e-01" nType="0">
          <Node pos="l" depth="2" NCoef="0" IVar="-1" Cut="0.0000000000000000e+00" cType="1" res="7.5909242033958435e-02" rms="2.5388044118881226e-01" purity="9.2156863212585449e-01" nType="-99"/>
          <Node pos="r" depth="2" NCoef="0" IVar="-1" Cut="0.0000000000000000e+00" cType="1" res="9.6930554136633873e-03" rms="2.8010016679763794e-01" purity="6.1111110448837280e-01" nType="-99"/>
        </Node>
      </Node>
    </BinaryTree>
    <BinaryTree type="DecisionTree" boostWeight="1.0000000000000000e+00" itree="568">
      <Node pos="s" depth="0" NCoef="0" IVar="35" Cut="1.1580952453613281e+02" cType="0" res="-1.0793143155751750e-04" rms="2.9802972078323364e-01" purity="7.8454065322875977e-01" nType="0">
        <Node pos="l" depth="1" NCoef="0" IVar="-1" Cut="0.0000000000000000e+00" cType="1" res="-3.8176329690031707e-04" rms="2.9767766594886780e-01" purity="7.8505927324295044e-01" nType="-99"/>
        <Node pos="r" depth="1" NCoef="0" IVar="32" Cut="4.6278041601181030e-01" cType="0" res="1.6382655128836632e-02" rms="3.0645996332168579e-01" purity="7.7123904228210449e-01" nType="0">
          <Node pos="l" depth="2" NCoef="0" IVar="-1" Cut="0.0000000000000000e+00" cType="1" res="9.8568405956029892e-03" rms="3.0124652385711670e-01" purity="7.8031808137893677e-01" nType="-99"/>
          <Node pos="r" depth="2" NCoef="0" IVar="-1" Cut="0.0000000000000000e+00" cType="1" res="-5.3186286240816116e-03" rms="3.3554840087890625e-01" purity="7.1494609117507935e-01" nType="-99"/>
        </Node>
      </Node>
    </BinaryTree>
    <BinaryTree type="DecisionTree" boostWeight="1.0000000000000000e+00" itree="569">
      <Node pos="s" depth="0" NCoef="0" IVar="20" Cut="-6.1904734373092651e-01" cType="0" res="1.0272015351802111e-03" rms="2.9860341548919678e-01" purity="7.8588759899139404e-01" nType="0">
        <Node pos="l" depth="1" NCoef="0" IVar="-1" Cut="0.0000000000000000e+00" cType="1" res="7.2050164453685284e-04" rms="2.9784363508224487e-01" purity="7.8981500864028931e-01" nType="-99"/>
        <Node pos="r" depth="1" NCoef="0" IVar="2" Cut="2.8567668795585632e-01" cType="1" res="-2.8960442170500755e-02" rms="3.5143122076988220e-01" purity="4.8037976026535034e-01" nType="0">
          <Node pos="l" depth="2" NCoef="0" IVar="-1" Cut="0.0000000000000000e+00" cType="1" res="7.1357307024300098e-04" rms="3.4278705716133118e-01" purity="5.4293626546859741e-01" nType="-99"/>
          <Node pos="r" depth="2" NCoef="0" IVar="-1" Cut="0.0000000000000000e+00" cType="1" res="-3.4080334007740021e-02" rms="3.6047980189323425e-01" purity="3.4406438469886780e-01" nType="-99"/>
        </Node>
      </Node>
    </BinaryTree>
    <BinaryTree type="DecisionTree" boostWeight="1.0000000000000000e+00" itree="570">
      <Node pos="s" depth="0" NCoef="0" IVar="11" Cut="2.3809057235717773e+01" cType="1" res="-5.5470952065661550e-04" rms="2.9896906018257141e-01" purity="7.8377598524093628e-01" nType="0">
        <Node pos="l" depth="1" NCoef="0" IVar="-1" Cut="0.0000000000000000e+00" cType="1" res="-6.7984056659042835e-04" rms="2.9842686653137207e-01" purity="7.8756666183471680e-01" nType="-99"/>
        <Node pos="r" depth="1" NCoef="0" IVar="30" Cut="3.2966182231903076e+00" cType="0" res="1.1169284582138062e-02" rms="3.0681699514389038e-01" purity="7.2642487287521362e-01" nType="0">
          <Node pos="l" depth="2" NCoef="0" IVar="-1" Cut="0.0000000000000000e+00" cType="1" res="7.0326919667422771e-03" rms="3.0336773395538330e-01" purity="7.3859262466430664e-01" nType="-99"/>
          <Node pos="r" depth="2" NCoef="0" IVar="-1" Cut="0.0000000000000000e+00" cType="1" res="-2.1896734833717346e-02" rms="3.5178777575492859e-01" purity="5.2702701091766357e-01" nType="-99"/>
        </Node>
      </Node>
    </BinaryTree>
    <BinaryTree type="DecisionTree" boostWeight="1.0000000000000000e+00" itree="571">
      <Node pos="s" depth="0" NCoef="0" IVar="2" Cut="1.4283904433250427e-01" cType="1" res="1.0797117138281465e-03" rms="2.9833507537841797e-01" purity="7.8651380538940430e-01" nType="0">
        <Node pos="l" depth="1" NCoef="0" IVar="-1" Cut="0.0000000000000000e+00" cType="1" res="-2.6335049187764525e-04" rms="2.8623655438423157e-01" purity="8.2508152723312378e-01" nType="-99"/>
        <Node pos="r" depth="1" NCoef="0" IVar="32" Cut="2.1193847656250000e+00" cType="0" res="6.6019124351441860e-03" rms="3.3769565820693970e-01" purity="6.4978116750717163e-01" nType="0">
          <Node pos="l" depth="2" NCoef="0" IVar="-1" Cut="0.0000000000000000e+00" cType="1" res="-7.6923710294067860e-03" rms="3.2360932230949402e-01" purity="6.7765289545059204e-01" nType="-99"/>
          <Node pos="r" depth="2" NCoef="0" IVar="-1" Cut="0.0000000000000000e+00" cType="1" res="4.7877291217446327e-03" rms="3.4070143103599548e-01" purity="6.4318251609802246e-01" nType="-99"/>
        </Node>
      </Node>
    </BinaryTree>
    <BinaryTree type="DecisionTree" boostWeight="1.0000000000000000e+00" itree="572">
      <Node pos="s" depth="0" NCoef="0" IVar="29" Cut="3.2485523223876953e+01" cType="1" res="4.9723032134352252e-05" rms="2.9892629384994507e-01" purity="7.8400117158889771e-01" nType="0">
        <Node pos="l" depth="1" NCoef="0" IVar="10" Cut="1.4885011911392212e+00" cType="0" res="1.0982402454828843e-04" rms="2.9895612597465515e-01" purity="7.8436666727066040e-01" nType="0">
          <Node pos="l" depth="2" NCoef="0" IVar="-1" Cut="0.0000000000000000e+00" cType="1" res="3.5370951518416405e-03" rms="2.5354576110839844e-01" purity="8.9468920230865479e-01" nType="-99"/>
          <Node pos="r" depth="2" NCoef="0" IVar="-1" Cut="0.0000000000000000e+00" cType="1" res="-6.5414654091000557e-04" rms="3.1124189496040344e-01" purity="7.5135886669158936e-01" nType="-99"/>
        </Node>
        <Node pos="r" depth="1" NCoef="0" IVar="-1" Cut="0.0000000000000000e+00" cType="1" res="-7.5148239731788635e-02" rms="1.9708846509456635e-01" purity="4.8387095332145691e-02" nType="-99"/>
      </Node>
    </BinaryTree>
    <BinaryTree type="DecisionTree" boostWeight="1.0000000000000000e+00" itree="573">
      <Node pos="s" depth="0" NCoef="0" IVar="19" Cut="5.4317243750000000e+05" cType="1" res="-5.0299306167289615e-04" rms="2.9856830835342407e-01" purity="7.8464502096176147e-01" nType="0">
        <Node pos="l" depth="1" NCoef="0" IVar="-1" Cut="0.0000000000000000e+00" cType="1" res="-2.1147115330677480e-04" rms="2.9850766062736511e-01" purity="7.8469294309616089e-01" nType="-99"/>
        <Node pos="r" depth="1" NCoef="0" IVar="31" Cut="3.4669528007507324e+00" cType="1" res="-1.0145647078752518e-01" rms="3.4792396426200867e-01" purity="7.2897195816040039e-01" nType="0">
          <Node pos="l" depth="2" NCoef="0" IVar="-1" Cut="0.0000000000000000e+00" cType="1" res="3.2864358276128769e-02" rms="2.0990848541259766e-01" purity="9.5081967115402222e-01" nType="-99"/>
          <Node pos="r" depth="2" NCoef="0" IVar="-1" Cut="0.0000000000000000e+00" cType="1" res="-1.2890113890171051e-01" rms="3.8564589619636536e-01" purity="4.3478259444236755e-01" nType="-99"/>
        </Node>
      </Node>
    </BinaryTree>
    <BinaryTree type="DecisionTree" boostWeight="1.0000000000000000e+00" itree="574">
      <Node pos="s" depth="0" NCoef="0" IVar="13" Cut="5.2141704101562500e+03" cType="0" res="1.9458666793070734e-04" rms="2.9873853921890259e-01" purity="7.8569251298904419e-01" nType="0">
        <Node pos="l" depth="1" NCoef="0" IVar="-1" Cut="0.0000000000000000e+00" cType="1" res="6.7632729187607765e-03" rms="2.5813886523246765e-01" purity="8.7881129980087280e-01" nType="-99"/>
        <Node pos="r" depth="1" NCoef="0" IVar="14" Cut="4.8626492309570312e+02" cType="0" res="-7.9255853779613972e-04" rms="3.0259737372398376e-01" purity="7.7609246969223022e-01" nType="0">
          <Node pos="l" depth="2" NCoef="0" IVar="-1" Cut="0.0000000000000000e+00" cType="1" res="-4.8999292775988579e-03" rms="2.8442725539207458e-01" purity="8.3024865388870239e-01" nType="-99"/>
          <Node pos="r" depth="2" NCoef="0" IVar="-1" Cut="0.0000000000000000e+00" cType="1" res="1.3288006884977221e-03" rms="3.1041696667671204e-01" purity="7.5154101848602295e-01" nType="-99"/>
        </Node>
      </Node>
    </BinaryTree>
    <BinaryTree type="DecisionTree" boostWeight="1.0000000000000000e+00" itree="575">
      <Node pos="s" depth="0" NCoef="0" IVar="9" Cut="1.6693563232421875e+03" cType="0" res="-8.0807536141946912e-04" rms="3.0080622434616089e-01" purity="7.8283011913299561e-01" nType="0">
        <Node pos="l" depth="1" NCoef="0" IVar="-1" Cut="0.0000000000000000e+00" cType="1" res="1.4643419533967972e-02" rms="1.8838223814964294e-01" purity="9.6146517992019653e-01" nType="-99"/>
        <Node pos="r" depth="1" NCoef="0" IVar="9" Cut="2.4875736999511719e+02" cType="0" res="-1.3888630783185363e-03" rms="3.0436390638351440e-01" purity="7.7580797672271729e-01" nType="0">
          <Node pos="l" depth="2" NCoef="0" IVar="-1" Cut="0.0000000000000000e+00" cType="1" res="8.5575733100995421e-04" rms="2.9023295640945435e-01" purity="8.1497961282730103e-01" nType="-99"/>
          <Node pos="r" depth="2" NCoef="0" IVar="-1" Cut="0.0000000000000000e+00" cType="1" res="-4.2555937543511391e-03" rms="3.4316921234130859e-01" purity="6.5815865993499756e-01" nType="-99"/>
        </Node>
      </Node>
    </BinaryTree>
    <BinaryTree type="DecisionTree" boostWeight="1.0000000000000000e+00" itree="576">
      <Node pos="s" depth="0" NCoef="0" IVar="2" Cut="4.7613013535737991e-02" cType="1" res="3.6288175033405423e-04" rms="2.9899075627326965e-01" purity="7.8543692827224731e-01" nType="0">
        <Node pos="l" depth="1" NCoef="0" IVar="-1" Cut="0.0000000000000000e+00" cType="1" res="1.7706945072859526e-03" rms="2.6800450682640076e-01" purity="8.6724805831909180e-01" nType="-99"/>
        <Node pos="r" depth="1" NCoef="0" IVar="14" Cut="1.1143753662109375e+03" cType="0" res="-3.0341581441462040e-03" rms="3.3643049001693726e-01" purity="6.7456436157226562e-01" nType="0">
          <Node pos="l" depth="2" NCoef="0" IVar="-1" Cut="0.0000000000000000e+00" cType="1" res="-1.7399625852704048e-02" rms="3.3995270729064941e-01" purity="7.5516223907470703e-01" nType="-99"/>
          <Node pos="r" depth="2" NCoef="0" IVar="-1" Cut="0.0000000000000000e+00" cType="1" res="-6.5971654839813709e-04" rms="3.3621236681938171e-01" purity="6.7135643959045410e-01" nType="-99"/>
        </Node>
      </Node>
    </BinaryTree>
    <BinaryTree type="DecisionTree" boostWeight="1.0000000000000000e+00" itree="577">
      <Node pos="s" depth="0" NCoef="0" IVar="2" Cut="1.4283904433250427e-01" cType="1" res="-6.3668953953310847e-04" rms="3.0027532577514648e-01" purity="7.8411298990249634e-01" nType="0">
        <Node pos="l" depth="1" NCoef="0" IVar="-1" Cut="0.0000000000000000e+00" cType="1" res="-1.4330145204439759e-03" rms="2.8859788179397583e-01" purity="8.2191485166549683e-01" nType="-99"/>
        <Node pos="r" depth="1" NCoef="0" IVar="9" Cut="2.6395642089843750e+02" cType="0" res="6.3653988763689995e-03" rms="3.3839407563209534e-01" purity="6.4993607997894287e-01" nType="0">
          <Node pos="l" depth="2" NCoef="0" IVar="-1" Cut="0.0000000000000000e+00" cType="1" res="6.5942015498876572e-03" rms="3.2467743754386902e-01" purity="7.1953207254409790e-01" nType="-99"/>
          <Node pos="r" depth="2" NCoef="0" IVar="-1" Cut="0.0000000000000000e+00" cType="1" res="-3.9276294410228729e-03" rms="3.6181393265724182e-01" purity="5.2095061540603638e-01" nType="-99"/>
        </Node>
      </Node>
    </BinaryTree>
    <BinaryTree type="DecisionTree" boostWeight="1.0000000000000000e+00" itree="578">
      <Node pos="s" depth="0" NCoef="0" IVar="0" Cut="1.2142857551574707e+01" cType="1" res="1.0323609458282590e-03" rms="2.9844665527343750e-01" purity="7.8598779439926147e-01" nType="0">
        <Node pos="l" depth="1" NCoef="0" IVar="-1" Cut="0.0000000000000000e+00" cType="1" res="1.1156102409586310e-03" rms="2.9245513677597046e-01" purity="8.2759171724319458e-01" nType="-99"/>
        <Node pos="r" depth="1" NCoef="0" IVar="21" Cut="1.5750352783203125e+03" cType="1" res="-9.7032384946942329e-03" rms="3.5299244523048401e-01" purity="3.6693978309631348e-01" nType="0">
          <Node pos="l" depth="2" NCoef="0" IVar="-1" Cut="0.0000000000000000e+00" cType="1" res="-2.2425048518925905e-03" rms="3.5258534550666809e-01" purity="3.6989519000053406e-01" nType="-99"/>
          <Node pos="r" depth="2" NCoef="0" IVar="-1" Cut="0.0000000000000000e+00" cType="1" res="-8.6109332740306854e-02" rms="3.0699437856674194e-01" purity="1.6249999403953552e-01" nType="-99"/>
        </Node>
      </Node>
    </BinaryTree>
    <BinaryTree type="DecisionTree" boostWeight="1.0000000000000000e+00" itree="579">
      <Node pos="s" depth="0" NCoef="0" IVar="9" Cut="6.5222729492187500e+02" cType="0" res="-9.5605035312473774e-04" rms="2.9952833056449890e-01" purity="7.8463613986968994e-01" nType="0">
        <Node pos="l" depth="1" NCoef="0" IVar="-1" Cut="0.0000000000000000e+00" cType="1" res="4.9293311312794685e-03" rms="2.5888922810554504e-01" purity="9.0169799327850342e-01" nType="-99"/>
        <Node pos="r" depth="1" NCoef="0" IVar="1" Cut="2.7806271972656250e+03" cType="1" res="-3.4654319752007723e-03" rms="3.1068423390388489e-01" purity="7.4938035011291504e-01" nType="0">
          <Node pos="l" depth="2" NCoef="0" IVar="-1" Cut="0.0000000000000000e+00" cType="1" res="-2.2617424838244915e-03" rms="3.0851814150810242e-01" purity="7.5701242685317993e-01" nType="-99"/>
          <Node pos="r" depth="2" NCoef="0" IVar="-1" Cut="0.0000000000000000e+00" cType="1" res="2.5405179709196091e-02" rms="4.0936884284019470e-01" purity="3.1390407681465149e-01" nType="-99"/>
        </Node>
      </Node>
    </BinaryTree>
    <BinaryTree type="DecisionTree" boostWeight="1.0000000000000000e+00" itree="580">
      <Node pos="s" depth="0" NCoef="0" IVar="13" Cut="6.8688798828125000e+03" cType="0" res="-4.7121258103288710e-04" rms="2.9886069893836975e-01" purity="7.8464889526367188e-01" nType="0">
        <Node pos="l" depth="1" NCoef="0" IVar="-1" Cut="0.0000000000000000e+00" cType="1" res="1.1911330744624138e-02" rms="2.3538234829902649e-01" purity="9.0581661462783813e-01" nType="-99"/>
        <Node pos="r" depth="1" NCoef="0" IVar="25" Cut="1.4823784179687500e+03" cType="0" res="-1.0977961355820298e-03" rms="3.0112814903259277e-01" purity="7.7975201606750488e-01" nType="0">
          <Node pos="l" depth="2" NCoef="0" IVar="-1" Cut="0.0000000000000000e+00" cType="1" res="4.9054925329983234e-04" rms="2.9639804363250732e-01" purity="7.9248416423797607e-01" nType="-99"/>
          <Node pos="r" depth="2" NCoef="0" IVar="-1" Cut="0.0000000000000000e+00" cType="1" res="-5.3141936659812927e-03" rms="3.2572734355926514e-01" purity="7.0961070060729980e-01" nType="-99"/>
        </Node>
      </Node>
    </BinaryTree>
    <BinaryTree type="DecisionTree" boostWeight="1.0000000000000000e+00" itree="581">
      <Node pos="s" depth="0" NCoef="0" IVar="3" Cut="3.2170036621093750e+03" cType="0" res="-4.5494377263821661e-04" rms="2.9864150285720825e-01" purity="7.8451490402221680e-01" nType="0">
        <Node pos="l" depth="1" NCoef="0" IVar="-1" Cut="0.0000000000000000e+00" cType="1" res="-1.4727154048159719e-03" rms="2.9600995779037476e-01" purity="7.9137790203094482e-01" nType="-99"/>
        <Node pos="r" depth="1" NCoef="0" IVar="0" Cut="5.4285712242126465e+00" cType="1" res="3.4010794479399920e-03" rms="3.0291840434074402e-01" purity="7.7312684059143066e-01" nType="0">
          <Node pos="l" depth="2" NCoef="0" IVar="-1" Cut="0.0000000000000000e+00" cType="1" res="8.3538303151726723e-03" rms="2.5361621379852295e-01" purity="9.0647971630096436e-01" nType="-99"/>
          <Node pos="r" depth="2" NCoef="0" IVar="-1" Cut="0.0000000000000000e+00" cType="1" res="-3.4438180737197399e-03" rms="3.5671842098236084e-01" purity="5.9922331571578979e-01" nType="-99"/>
        </Node>
      </Node>
    </BinaryTree>
    <BinaryTree type="DecisionTree" boostWeight="1.0000000000000000e+00" itree="582">
      <Node pos="s" depth="0" NCoef="0" IVar="2" Cut="1.9045205414295197e-01" cType="1" res="-6.7766936263069510e-04" rms="2.9978170990943909e-01" purity="7.8372925519943237e-01" nType="0">
        <Node pos="l" depth="1" NCoef="0" IVar="-1" Cut="0.0000000000000000e+00" cType="1" res="-1.0855010477825999e-03" rms="2.9057464003562927e-01" purity="8.1335651874542236e-01" nType="-99"/>
        <Node pos="r" depth="1" NCoef="0" IVar="0" Cut="8.4285717010498047e+00" cType="1" res="5.7478891685605049e-03" rms="3.4045398235321045e-01" purity="6.4152079820632935e-01" nType="0">
          <Node pos="l" depth="2" NCoef="0" IVar="-1" Cut="0.0000000000000000e+00" cType="1" res="-5.3419587202370167e-03" rms="3.2310420274734497e-01" purity="8.0832487344741821e-01" nType="-99"/>
          <Node pos="r" depth="2" NCoef="0" IVar="-1" Cut="0.0000000000000000e+00" cType="1" res="6.9695720449090004e-03" rms="3.5378432273864746e-01" purity="5.0098365545272827e-01" nType="-99"/>
        </Node>
      </Node>
    </BinaryTree>
    <BinaryTree type="DecisionTree" boostWeight="1.0000000000000000e+00" itree="583">
      <Node pos="s" depth="0" NCoef="0" IVar="18" Cut="2.3711383342742920e-02" cType="0" res="-1.6475794836878777e-04" rms="2.9804062843322754e-01" purity="7.8374284505844116e-01" nType="0">
        <Node pos="l" depth="1" NCoef="0" IVar="-1" Cut="0.0000000000000000e+00" cType="1" res="-7.0497030392289162e-03" rms="3.0144780874252319e-01" purity="8.2486569881439209e-01" nType="-99"/>
        <Node pos="r" depth="1" NCoef="0" IVar="0" Cut="6.5714287757873535e+00" cType="1" res="5.3664256120100617e-04" rms="2.9783588647842407e-01" purity="7.8147608041763306e-01" nType="0">
          <Node pos="l" depth="2" NCoef="0" IVar="-1" Cut="0.0000000000000000e+00" cType="1" res="2.1236394532024860e-03" rms="2.5456723570823669e-01" purity="8.9984089136123657e-01" nType="-99"/>
          <Node pos="r" depth="2" NCoef="0" IVar="-1" Cut="0.0000000000000000e+00" cType="1" res="-9.2466454952955246e-04" rms="3.4120500087738037e-01" purity="6.4414960145950317e-01" nType="-99"/>
        </Node>
      </Node>
    </BinaryTree>
    <BinaryTree type="DecisionTree" boostWeight="1.0000000000000000e+00" itree="584">
      <Node pos="s" depth="0" NCoef="0" IVar="24" Cut="8.1654911041259766e+00" cType="1" res="8.3035667194053531e-04" rms="2.9900610446929932e-01" purity="7.8590309619903564e-01" nType="0">
        <Node pos="l" depth="1" NCoef="0" IVar="-1" Cut="0.0000000000000000e+00" cType="1" res="-1.4846305130049586e-03" rms="2.8497439622879028e-01" purity="8.3093291521072388e-01" nType="-99"/>
        <Node pos="r" depth="1" NCoef="0" IVar="1" Cut="2.3749426269531250e+03" cType="1" res="3.9301426149904728e-03" rms="3.1097823381423950e-01" purity="7.4566006660461426e-01" nType="0">
          <Node pos="l" depth="2" NCoef="0" IVar="-1" Cut="0.0000000000000000e+00" cType="1" res="2.7890480123460293e-03" rms="3.0981817841529846e-01" purity="7.5877839326858521e-01" nType="-99"/>
          <Node pos="r" depth="2" NCoef="0" IVar="-1" Cut="0.0000000000000000e+00" cType="1" res="-5.5051390081644058e-03" rms="3.1815510988235474e-01" purity="6.5915656089782715e-01" nType="-99"/>
        </Node>
      </Node>
    </BinaryTree>
    <BinaryTree type="DecisionTree" boostWeight="1.0000000000000000e+00" itree="585">
      <Node pos="s" depth="0" NCoef="0" IVar="0" Cut="8.4285717010498047e+00" cType="1" res="8.0060405889526010e-04" rms="2.9777869582176208e-01" purity="7.8613018989562988e-01" nType="0">
        <Node pos="l" depth="1" NCoef="0" IVar="-1" Cut="0.0000000000000000e+00" cType="1" res="1.7120289849117398e-03" rms="2.7290025353431702e-01" purity="8.7489646673202515e-01" nType="-99"/>
        <Node pos="r" depth="1" NCoef="0" IVar="14" Cut="3.6105722045898438e+02" cType="1" res="-5.4636304266750813e-03" rms="3.6397206783294678e-01" purity="5.1193678379058838e-01" nType="0">
          <Node pos="l" depth="2" NCoef="0" IVar="-1" Cut="0.0000000000000000e+00" cType="1" res="2.3655625991523266e-03" rms="3.6423361301422119e-01" purity="5.2869981527328491e-01" nType="-99"/>
          <Node pos="r" depth="2" NCoef="0" IVar="-1" Cut="0.0000000000000000e+00" cType="1" res="-1.3152827508747578e-02" rms="3.6119934916496277e-01" purity="4.6748891472816467e-01" nType="-99"/>
        </Node>
      </Node>
    </BinaryTree>
    <BinaryTree type="DecisionTree" boostWeight="1.0000000000000000e+00" itree="586">
      <Node pos="s" depth="0" NCoef="0" IVar="11" Cut="3.5763075351715088e+00" cType="1" res="7.9689908307045698e-04" rms="2.9825004935264587e-01" purity="7.8544950485229492e-01" nType="0">
        <Node pos="l" depth="1" NCoef="0" IVar="-1" Cut="0.0000000000000000e+00" cType="1" res="6.3436711207032204e-03" rms="2.6506951451301575e-01" purity="8.8593691587448120e-01" nType="-99"/>
        <Node pos="r" depth="1" NCoef="0" IVar="1" Cut="2.3749426269531250e+03" cType="1" res="-3.5007260157726705e-04" rms="3.0199542641639709e-01" purity="7.7329754829406738e-01" nType="0">
          <Node pos="l" depth="2" NCoef="0" IVar="-1" Cut="0.0000000000000000e+00" cType="1" res="5.2911875536665320e-04" rms="3.0064254999160767e-01" purity="7.8303974866867065e-01" nType="-99"/>
          <Node pos="r" depth="2" NCoef="0" IVar="-1" Cut="0.0000000000000000e+00" cType="1" res="-5.1751718856394291e-03" rms="3.1026932597160339e-01" purity="7.1163588762283325e-01" nType="-99"/>
        </Node>
      </Node>
    </BinaryTree>
    <BinaryTree type="DecisionTree" boostWeight="1.0000000000000000e+00" itree="587">
      <Node pos="s" depth="0" NCoef="0" IVar="2" Cut="4.0471062064170837e-01" cType="1" res="3.2888234272832051e-05" rms="2.9926142096519470e-01" purity="7.8509443998336792e-01" nType="0">
        <Node pos="l" depth="1" NCoef="0" IVar="-1" Cut="0.0000000000000000e+00" cType="1" res="-3.3882044954225421e-04" rms="2.9727005958557129e-01" purity="7.9148304462432861e-01" nType="-99"/>
        <Node pos="r" depth="1" NCoef="0" IVar="17" Cut="6.3661574218750000e+04" cType="1" res="1.9276089966297150e-02" rms="3.4966322779655457e-01" purity="6.0713458061218262e-01" nType="0">
          <Node pos="l" depth="2" NCoef="0" IVar="-1" Cut="0.0000000000000000e+00" cType="1" res="1.4184335246682167e-02" rms="3.4390810132026672e-01" purity="6.3627964258193970e-01" nType="-99"/>
          <Node pos="r" depth="2" NCoef="0" IVar="-1" Cut="0.0000000000000000e+00" cType="1" res="-1.3182393275201321e-02" rms="3.6125880479812622e-01" purity="5.1869159936904907e-01" nType="-99"/>
        </Node>
      </Node>
    </BinaryTree>
    <BinaryTree type="DecisionTree" boostWeight="1.0000000000000000e+00" itree="588">
      <Node pos="s" depth="0" NCoef="0" IVar="0" Cut="1.4000000000000000e+01" cType="1" res="-1.0293091181665659e-03" rms="2.9959318041801453e-01" purity="7.8395098447799683e-01" nType="0">
        <Node pos="l" depth="1" NCoef="0" IVar="-1" Cut="0.0000000000000000e+00" cType="1" res="-4.2890981421805918e-04" rms="2.9684919118881226e-01" purity="8.1067317724227905e-01" nType="-99"/>
        <Node pos="r" depth="1" NCoef="0" IVar="29" Cut="5.7159852981567383e+00" cType="0" res="-4.5222523622214794e-03" rms="3.4293827414512634e-01" purity="3.2900619506835938e-01" nType="0">
          <Node pos="l" depth="2" NCoef="0" IVar="-1" Cut="0.0000000000000000e+00" cType="1" res="1.5932802343741059e-03" rms="3.4685465693473816e-01" purity="3.4702897071838379e-01" nType="-99"/>
          <Node pos="r" depth="2" NCoef="0" IVar="-1" Cut="0.0000000000000000e+00" cType="1" res="-2.7027480304241180e-02" rms="3.0429804325103760e-01" purity="1.9538834691047668e-01" nType="-99"/>
        </Node>
      </Node>
    </BinaryTree>
    <BinaryTree type="DecisionTree" boostWeight="1.0000000000000000e+00" itree="589">
      <Node pos="s" depth="0" NCoef="0" IVar="6" Cut="1.9840013427734375e+03" cType="0" res="-6.9250946398824453e-04" rms="2.9968953132629395e-01" purity="7.8353917598724365e-01" nType="0">
        <Node pos="l" depth="1" NCoef="0" IVar="-1" Cut="0.0000000000000000e+00" cType="1" res="2.7443185448646545e-02" rms="1.8144422769546509e-01" purity="9.5618754625320435e-01" nType="-99"/>
        <Node pos="r" depth="1" NCoef="0" IVar="6" Cut="9.4281036376953125e+01" cType="0" res="-1.0040138149634004e-03" rms="3.0067107081413269e-01" purity="7.8172260522842407e-01" nType="0">
          <Node pos="l" depth="2" NCoef="0" IVar="-1" Cut="0.0000000000000000e+00" cType="1" res="8.3401333540678024e-03" rms="2.5494787096977234e-01" purity="8.8679361343383789e-01" nType="-99"/>
          <Node pos="r" depth="2" NCoef="0" IVar="-1" Cut="0.0000000000000000e+00" cType="1" res="-2.7685659006237984e-03" rms="3.1513789296150208e-01" purity="7.4449628591537476e-01" nType="-99"/>
        </Node>
      </Node>
    </BinaryTree>
    <BinaryTree type="DecisionTree" boostWeight="1.0000000000000000e+00" itree="590">
      <Node pos="s" depth="0" NCoef="0" IVar="1" Cut="3.6553598632812500e+03" cType="0" res="-6.1308272415772080e-04" rms="2.9944476485252380e-01" purity="7.8405165672302246e-01" nType="0">
        <Node pos="l" depth="1" NCoef="0" IVar="-1" Cut="0.0000000000000000e+00" cType="1" res="-1.7480175942182541e-02" rms="3.2755240797996521e-01" purity="8.1678318977355957e-01" nType="-99"/>
        <Node pos="r" depth="1" NCoef="0" IVar="1" Cut="1.2513286132812500e+03" cType="0" res="-3.1744193984195590e-04" rms="2.9909074306488037e-01" purity="7.8367227315902710e-01" nType="0">
          <Node pos="l" depth="2" NCoef="0" IVar="-1" Cut="0.0000000000000000e+00" cType="1" res="5.4525543237105012e-04" rms="2.9498443007469177e-01" purity="8.1557321548461914e-01" nType="-99"/>
          <Node pos="r" depth="2" NCoef="0" IVar="-1" Cut="0.0000000000000000e+00" cType="1" res="-5.8035054244101048e-03" rms="3.3858701586723328e-01" purity="4.5142486691474915e-01" nType="-99"/>
        </Node>
      </Node>
    </BinaryTree>
    <BinaryTree type="DecisionTree" boostWeight="1.0000000000000000e+00" itree="591">
      <Node pos="s" depth="0" NCoef="0" IVar="34" Cut="-7.1427416801452637e-01" cType="0" res="-4.0488806553184986e-04" rms="2.9888638854026794e-01" purity="7.8402650356292725e-01" nType="0">
        <Node pos="l" depth="1" NCoef="0" IVar="-1" Cut="0.0000000000000000e+00" cType="1" res="-2.5564059615135193e-04" rms="2.9890426993370056e-01" purity="7.8403377532958984e-01" nType="-99"/>
        <Node pos="r" depth="1" NCoef="0" IVar="23" Cut="2.3893090820312500e+03" cType="0" res="8.3647318184375763e-02" rms="2.7022197842597961e-01" purity="7.7777779102325439e-01" nType="0">
          <Node pos="l" depth="2" NCoef="0" IVar="-1" Cut="0.0000000000000000e+00" cType="1" res="5.5007044225931168e-02" rms="2.7836975455284119e-01" purity="8.8888889551162720e-01" nType="-99"/>
          <Node pos="r" depth="2" NCoef="0" IVar="-1" Cut="0.0000000000000000e+00" cType="1" res="5.6727021001279354e-03" rms="2.4197922646999359e-01" purity="6.6666668653488159e-01" nType="-99"/>
        </Node>
      </Node>
    </BinaryTree>
    <BinaryTree type="DecisionTree" boostWeight="1.0000000000000000e+00" itree="592">
      <Node pos="s" depth="0" NCoef="0" IVar="19" Cut="2.0998990625000000e+05" cType="1" res="-4.8531286302022636e-04" rms="2.9913738369941711e-01" purity="7.8464424610137939e-01" nType="0">
        <Node pos="l" depth="1" NCoef="0" IVar="-1" Cut="0.0000000000000000e+00" cType="1" res="1.7535692313686013e-04" rms="2.9710832238197327e-01" purity="7.8760164976119995e-01" nType="-99"/>
        <Node pos="r" depth="1" NCoef="0" IVar="32" Cut="2.1570007801055908e+00" cType="1" res="-1.3202613219618797e-02" rms="3.2852306962013245e-01" purity="7.3913615942001343e-01" nType="0">
          <Node pos="l" depth="2" NCoef="0" IVar="-1" Cut="0.0000000000000000e+00" cType="1" res="-1.8825456500053406e-03" rms="3.1994470953941345e-01" purity="7.4723988771438599e-01" nType="-99"/>
          <Node pos="r" depth="2" NCoef="0" IVar="-1" Cut="0.0000000000000000e+00" cType="1" res="-2.0322326570749283e-02" rms="3.5613840818405151e-01" purity="7.0957899093627930e-01" nType="-99"/>
        </Node>
      </Node>
    </BinaryTree>
    <BinaryTree type="DecisionTree" boostWeight="1.0000000000000000e+00" itree="593">
      <Node pos="s" depth="0" NCoef="0" IVar="3" Cut="3.2201086425781250e+03" cType="0" res="4.1160639375448227e-04" rms="2.9944050312042236e-01" purity="7.8466904163360596e-01" nType="0">
        <Node pos="l" depth="1" NCoef="0" IVar="-1" Cut="0.0000000000000000e+00" cType="1" res="-8.6983770597726107e-04" rms="2.9748949408531189e-01" purity="7.9085278511047363e-01" nType="-99"/>
        <Node pos="r" depth="1" NCoef="0" IVar="9" Cut="2.4690718078613281e+02" cType="0" res="3.8403316866606474e-03" rms="3.0263116955757141e-01" purity="7.7436929941177368e-01" nType="0">
          <Node pos="l" depth="2" NCoef="0" IVar="-1" Cut="0.0000000000000000e+00" cType="1" res="-1.9503724761307240e-03" rms="2.9614123702049255e-01" purity="8.0926901102066040e-01" nType="-99"/>
          <Node pos="r" depth="2" NCoef="0" IVar="-1" Cut="0.0000000000000000e+00" cType="1" res="9.3998881056904793e-03" rms="3.1696039438247681e-01" purity="6.9030803442001343e-01" nType="-99"/>
        </Node>
      </Node>
    </BinaryTree>
    <BinaryTree type="DecisionTree" boostWeight="1.0000000000000000e+00" itree="594">
      <Node pos="s" depth="0" NCoef="0" IVar="5" Cut="1.4193155765533447e+00" cType="0" res="1.5093990077730268e-04" rms="2.9878297448158264e-01" purity="7.8439223766326904e-01" nType="0">
        <Node pos="l" depth="1" NCoef="0" IVar="-1" Cut="0.0000000000000000e+00" cType="1" res="7.8690815716981888e-03" rms="2.2781082987785339e-01" purity="9.2651969194412231e-01" nType="-99"/>
        <Node pos="r" depth="1" NCoef="0" IVar="32" Cut="2.2401897907257080e+00" cType="1" res="-1.2055614497512579e-03" rms="3.0735376477241516e-01" purity="7.6457870006561279e-01" nType="0">
          <Node pos="l" depth="2" NCoef="0" IVar="-1" Cut="0.0000000000000000e+00" cType="1" res="4.6207295963540673e-04" rms="3.0627086758613586e-01" purity="7.7001720666885376e-01" nType="-99"/>
          <Node pos="r" depth="2" NCoef="0" IVar="-1" Cut="0.0000000000000000e+00" cType="1" res="-7.6627237722277641e-03" rms="3.1437730789184570e-01" purity="7.2673153877258301e-01" nType="-99"/>
        </Node>
      </Node>
    </BinaryTree>
    <BinaryTree type="DecisionTree" boostWeight="1.0000000000000000e+00" itree="595">
      <Node pos="s" depth="0" NCoef="0" IVar="0" Cut="1.4000000000000000e+01" cType="1" res="-8.6346581156249158e-06" rms="2.9796719551086426e-01" purity="7.8471326828002930e-01" nType="0">
        <Node pos="l" depth="1" NCoef="0" IVar="-1" Cut="0.0000000000000000e+00" cType="1" res="4.4305426854407415e-05" rms="2.9521778225898743e-01" purity="8.1190615892410278e-01" nType="-99"/>
        <Node pos="r" depth="1" NCoef="0" IVar="9" Cut="3.3264715576171875e+02" cType="0" res="-1.6021229093894362e-03" rms="3.4135913848876953e-01" purity="3.2212439179420471e-01" nType="0">
          <Node pos="l" depth="2" NCoef="0" IVar="-1" Cut="0.0000000000000000e+00" cType="1" res="9.4055514782667160e-03" rms="3.4491500258445740e-01" purity="4.7482571005821228e-01" nType="-99"/>
          <Node pos="r" depth="2" NCoef="0" IVar="-1" Cut="0.0000000000000000e+00" cType="1" res="-7.6435063965618610e-03" rms="3.3798792958259583e-01" purity="2.3142397403717041e-01" nType="-99"/>
        </Node>
      </Node>
    </BinaryTree>
    <BinaryTree type="DecisionTree" boostWeight="1.0000000000000000e+00" itree="596">
      <Node pos="s" depth="0" NCoef="0" IVar="27" Cut="2.2158964062500000e+05" cType="1" res="1.1093111243098974e-03" rms="2.9868182539939880e-01" purity="7.8569650650024414e-01" nType="0">
        <Node pos="l" depth="1" NCoef="0" IVar="-1" Cut="0.0000000000000000e+00" cType="1" res="7.6098233694210649e-04" rms="2.9785975813865662e-01" purity="7.8600710630416870e-01" nType="-99"/>
        <Node pos="r" depth="1" NCoef="0" IVar="0" Cut="1.4000000000000000e+01" cType="0" res="-2.6270864531397820e-02" rms="3.5140377283096313e-01" purity="7.6350957155227661e-01" nType="0">
          <Node pos="l" depth="2" NCoef="0" IVar="-1" Cut="0.0000000000000000e+00" cType="1" res="5.5570561438798904e-02" rms="2.3957711458206177e-01" purity="8.0952382087707520e-01" nType="-99"/>
          <Node pos="r" depth="2" NCoef="0" IVar="-1" Cut="0.0000000000000000e+00" cType="1" res="-1.4001161791384220e-02" rms="3.5210686922073364e-01" purity="7.6235854625701904e-01" nType="-99"/>
        </Node>
      </Node>
    </BinaryTree>
    <BinaryTree type="DecisionTree" boostWeight="1.0000000000000000e+00" itree="597">
      <Node pos="s" depth="0" NCoef="0" IVar="20" Cut="-4.2857116460800171e-01" cType="0" res="-3.5198428668081760e-04" rms="2.9900866746902466e-01" purity="7.8386217355728149e-01" nType="0">
        <Node pos="l" depth="1" NCoef="0" IVar="-1" Cut="0.0000000000000000e+00" cType="1" res="-1.7374984963680618e-05" rms="2.9845270514488220e-01" purity="7.8815114498138428e-01" nType="-99"/>
        <Node pos="r" depth="1" NCoef="0" IVar="27" Cut="9.6191226562500000e+04" cType="0" res="-2.3821756243705750e-02" rms="3.3669134974479675e-01" purity="4.6734571456909180e-01" nType="0">
          <Node pos="l" depth="2" NCoef="0" IVar="-1" Cut="0.0000000000000000e+00" cType="1" res="1.4461874030530453e-02" rms="3.0321705341339111e-01" purity="6.2547528743743896e-01" nType="-99"/>
          <Node pos="r" depth="2" NCoef="0" IVar="-1" Cut="0.0000000000000000e+00" cType="1" res="-1.9302926957607269e-02" rms="3.4724360704421997e-01" purity="3.9457568526268005e-01" nType="-99"/>
        </Node>
      </Node>
    </BinaryTree>
    <BinaryTree type="DecisionTree" boostWeight="1.0000000000000000e+00" itree="598">
      <Node pos="s" depth="0" NCoef="0" IVar="14" Cut="2.3179091796875000e+03" cType="0" res="1.7125208978541195e-04" rms="2.9825398325920105e-01" purity="7.8507304191589355e-01" nType="0">
        <Node pos="l" depth="1" NCoef="0" IVar="-1" Cut="0.0000000000000000e+00" cType="1" res="-1.8017368391156197e-02" rms="2.7399942278862000e-01" purity="8.8707602024078369e-01" nType="-99"/>
        <Node pos="r" depth="1" NCoef="0" IVar="14" Cut="3.4845745849609375e+02" cType="0" res="6.2900275224819779e-04" rms="2.9867920279502869e-01" purity="7.8312551975250244e-01" nType="0">
          <Node pos="l" depth="2" NCoef="0" IVar="-1" Cut="0.0000000000000000e+00" cType="1" res="-1.6687454190105200e-03" rms="2.8276690840721130e-01" purity="8.1922930479049683e-01" nType="-99"/>
          <Node pos="r" depth="2" NCoef="0" IVar="-1" Cut="0.0000000000000000e+00" cType="1" res="2.4481376167386770e-03" rms="3.1820032000541687e-01" purity="7.3597854375839233e-01" nType="-99"/>
        </Node>
      </Node>
    </BinaryTree>
    <BinaryTree type="DecisionTree" boostWeight="1.0000000000000000e+00" itree="599">
      <Node pos="s" depth="0" NCoef="0" IVar="0" Cut="1.7714284896850586e+01" cType="1" res="5.0402636406943202e-04" rms="2.9913941025733948e-01" purity="7.8524637222290039e-01" nType="0">
        <Node pos="l" depth="1" NCoef="0" IVar="-1" Cut="0.0000000000000000e+00" cType="1" res="5.5899342987686396e-04" rms="2.9926332831382751e-01" purity="8.0098271369934082e-01" nType="-99"/>
        <Node pos="r" depth="1" NCoef="0" IVar="8" Cut="5.5869948863983154e-01" cType="0" res="-1.9448732957243919e-02" rms="2.9419973492622375e-01" purity="2.5028026103973389e-01" nType="0">
          <Node pos="l" depth="2" NCoef="0" IVar="-1" Cut="0.0000000000000000e+00" cType="1" res="3.0552949756383896e-03" rms="2.9464390873908997e-01" purity="3.0215498805046082e-01" nType="-99"/>
          <Node pos="r" depth="2" NCoef="0" IVar="-1" Cut="0.0000000000000000e+00" cType="1" res="-2.6335109025239944e-02" rms="2.8850379586219788e-01" purity="1.6870944201946259e-01" nType="-99"/>
        </Node>
      </Node>
    </BinaryTree>
    <BinaryTree type="DecisionTree" boostWeight="1.0000000000000000e+00" itree="600">
      <Node pos="s" depth="0" NCoef="0" IVar="7" Cut="1.0729921875000000e+04" cType="0" res="-4.4975933269597590e-04" rms="2.9823720455169678e-01" purity="7.8429144620895386e-01" nType="0">
        <Node pos="l" depth="1" NCoef="0" IVar="-1" Cut="0.0000000000000000e+00" cType="1" res="1.7252903431653976e-02" rms="2.3377881944179535e-01" purity="9.3460297584533691e-01" nType="-99"/>
        <Node pos="r" depth="1" NCoef="0" IVar="7" Cut="5.1712097167968750e+02" cType="0" res="-9.5012987731024623e-04" rms="2.9953399300575256e-01" purity="7.8084468841552734e-01" nType="0">
          <Node pos="l" depth="2" NCoef="0" IVar="-1" Cut="0.0000000000000000e+00" cType="1" res="-2.5068939430639148e-04" rms="2.9836434125900269e-01" purity="7.8768920898437500e-01" nType="-99"/>
          <Node pos="r" depth="2" NCoef="0" IVar="-1" Cut="0.0000000000000000e+00" cType="1" res="-7.6311756856739521e-03" rms="3.4076833724975586e-01" purity="5.1937985420227051e-01" nType="-99"/>
        </Node>
      </Node>
    </BinaryTree>
    <BinaryTree type="DecisionTree" boostWeight="1.0000000000000000e+00" itree="601">
      <Node pos="s" depth="0" NCoef="0" IVar="32" Cut="4.2731251716613770e+00" cType="0" res="3.1359100830741227e-04" rms="2.9880234599113464e-01" purity="7.8463488817214966e-01" nType="0">
        <Node pos="l" depth="1" NCoef="0" IVar="-1" Cut="0.0000000000000000e+00" cType="1" res="-9.6492897719144821e-03" rms="2.6615464687347412e-01" purity="8.4456890821456909e-01" nType="-99"/>
        <Node pos="r" depth="1" NCoef="0" IVar="5" Cut="-2.8235948085784912e+00" cType="0" res="9.2458806466311216e-04" rms="3.0007401108741760e-01" purity="7.8212994337081909e-01" nType="0">
          <Node pos="l" depth="2" NCoef="0" IVar="-1" Cut="0.0000000000000000e+00" cType="1" res="5.0544482655823231e-04" rms="3.0004563927650452e-01" purity="7.8242176771163940e-01" nType="-99"/>
          <Node pos="r" depth="2" NCoef="0" IVar="-1" Cut="0.0000000000000000e+00" cType="1" res="-8.1181757152080536e-02" rms="3.1307822465896606e-01" purity="9.8039217293262482e-02" nType="-99"/>
        </Node>
      </Node>
    </BinaryTree>
    <BinaryTree type="DecisionTree" boostWeight="1.0000000000000000e+00" itree="602">
      <Node pos="s" depth="0" NCoef="0" IVar="4" Cut="1.1902277469635010e+00" cType="0" res="7.5600302079692483e-04" rms="2.9856327176094055e-01" purity="7.8655284643173218e-01" nType="0">
        <Node pos="l" depth="1" NCoef="0" IVar="-1" Cut="0.0000000000000000e+00" cType="1" res="1.4452809700742364e-03" rms="2.8595763444900513e-01" purity="8.2875669002532959e-01" nType="-99"/>
        <Node pos="r" depth="1" NCoef="0" IVar="3" Cut="4.0638022460937500e+03" cType="0" res="-2.4865150917321444e-03" rms="3.1930819153785706e-01" purity="7.1304076910018921e-01" nType="0">
          <Node pos="l" depth="2" NCoef="0" IVar="-1" Cut="0.0000000000000000e+00" cType="1" res="7.2821816429495811e-03" rms="3.0249586701393127e-01" purity="7.6431775093078613e-01" nType="-99"/>
          <Node pos="r" depth="2" NCoef="0" IVar="-1" Cut="0.0000000000000000e+00" cType="1" res="-5.1805637776851654e-03" rms="3.2777905464172363e-01" purity="6.8489217758178711e-01" nType="-99"/>
        </Node>
      </Node>
    </BinaryTree>
    <BinaryTree type="DecisionTree" boostWeight="1.0000000000000000e+00" itree="603">
      <Node pos="s" depth="0" NCoef="0" IVar="20" Cut="-8.0952346324920654e-01" cType="0" res="-5.9921486536040902e-04" rms="2.9973062872886658e-01" purity="7.8358197212219238e-01" nType="0">
        <Node pos="l" depth="1" NCoef="0" IVar="-1" Cut="0.0000000000000000e+00" cType="1" res="-1.5285584959201515e-04" rms="2.9895383119583130e-01" purity="7.8734320402145386e-01" nType="-99"/>
        <Node pos="r" depth="1" NCoef="0" IVar="19" Cut="1.2780479687500000e+05" cType="0" res="-2.5839015841484070e-02" rms="3.5825896263122559e-01" purity="4.6689420938491821e-01" nType="0">
          <Node pos="l" depth="2" NCoef="0" IVar="-1" Cut="0.0000000000000000e+00" cType="1" res="8.6533660069108009e-03" rms="3.5169860720634460e-01" purity="5.9834939241409302e-01" nType="-99"/>
          <Node pos="r" depth="2" NCoef="0" IVar="-1" Cut="0.0000000000000000e+00" cType="1" res="-2.7486430481076241e-02" rms="3.5769531130790710e-01" purity="3.3739838004112244e-01" nType="-99"/>
        </Node>
      </Node>
    </BinaryTree>
    <BinaryTree type="DecisionTree" boostWeight="1.0000000000000000e+00" itree="604">
      <Node pos="s" depth="0" NCoef="0" IVar="34" Cut="-7.1426320075988770e-01" cType="0" res="-1.5753804473206401e-04" rms="2.9833498597145081e-01" purity="7.8403925895690918e-01" nType="0">
        <Node pos="l" depth="1" NCoef="0" IVar="-1" Cut="0.0000000000000000e+00" cType="1" res="-1.3088001287542284e-04" rms="2.9834580421447754e-01" purity="7.8404164314270020e-01" nType="-99"/>
        <Node pos="r" depth="1" NCoef="0" IVar="15" Cut="1.9607715606689453e+01" cType="1" res="1.0368832200765610e-01" rms="2.6727572083473206e-01" purity="7.8151261806488037e-01" nType="0">
          <Node pos="l" depth="2" NCoef="0" IVar="-1" Cut="0.0000000000000000e+00" cType="1" res="7.9629465937614441e-02" rms="2.1895122528076172e-01" purity="9.0909093618392944e-01" nType="-99"/>
          <Node pos="r" depth="2" NCoef="0" IVar="-1" Cut="0.0000000000000000e+00" cType="1" res="1.3480203226208687e-02" rms="2.8897532820701599e-01" purity="6.7187500000000000e-01" nType="-99"/>
        </Node>
      </Node>
    </BinaryTree>
    <BinaryTree type="DecisionTree" boostWeight="1.0000000000000000e+00" itree="605">
      <Node pos="s" depth="0" NCoef="0" IVar="3" Cut="3.2201086425781250e+03" cType="0" res="8.5304392268881202e-04" rms="2.9745411872863770e-01" purity="7.8547471761703491e-01" nType="0">
        <Node pos="l" depth="1" NCoef="0" IVar="-1" Cut="0.0000000000000000e+00" cType="1" res="-7.3316175257787108e-04" rms="2.9524740576744080e-01" purity="7.9216849803924561e-01" nType="-99"/>
        <Node pos="r" depth="1" NCoef="0" IVar="9" Cut="1.3724588012695312e+02" cType="0" res="4.5917225070297718e-03" rms="3.0106845498085022e-01" purity="7.7428895235061646e-01" nType="0">
          <Node pos="l" depth="2" NCoef="0" IVar="-1" Cut="0.0000000000000000e+00" cType="1" res="1.6157240606844425e-03" rms="3.0034929513931274e-01" purity="7.7739167213439941e-01" nType="-99"/>
          <Node pos="r" depth="2" NCoef="0" IVar="-1" Cut="0.0000000000000000e+00" cType="1" res="3.6347847431898117e-02" rms="3.3815681934356689e-01" purity="5.4084968566894531e-01" nType="-99"/>
        </Node>
      </Node>
    </BinaryTree>
    <BinaryTree type="DecisionTree" boostWeight="1.0000000000000000e+00" itree="606">
      <Node pos="s" depth="0" NCoef="0" IVar="25" Cut="2.0201478271484375e+03" cType="0" res="-6.9695606362074614e-04" rms="2.9777666926383972e-01" purity="7.8449201583862305e-01" nType="0">
        <Node pos="l" depth="1" NCoef="0" IVar="-1" Cut="0.0000000000000000e+00" cType="1" res="1.5084593323990703e-03" rms="2.8406932950019836e-01" purity="8.2102364301681519e-01" nType="-99"/>
        <Node pos="r" depth="1" NCoef="0" IVar="3" Cut="4.0169963378906250e+03" cType="1" res="-5.7630343362689018e-03" rms="3.1691980361938477e-01" purity="7.3039585351943970e-01" nType="0">
          <Node pos="l" depth="2" NCoef="0" IVar="-1" Cut="0.0000000000000000e+00" cType="1" res="-4.0976745076477528e-03" rms="3.1226077675819397e-01" purity="7.4027305841445923e-01" nType="-99"/>
          <Node pos="r" depth="2" NCoef="0" IVar="-1" Cut="0.0000000000000000e+00" cType="1" res="3.4793160855770111e-02" rms="4.3595191836357117e-01" purity="3.8837704062461853e-01" nType="-99"/>
        </Node>
      </Node>
    </BinaryTree>
    <BinaryTree type="DecisionTree" boostWeight="1.0000000000000000e+00" itree="607">
      <Node pos="s" depth="0" NCoef="0" IVar="9" Cut="1.2355228271484375e+03" cType="0" res="-1.0627234587445855e-03" rms="2.9845848679542542e-01" purity="7.8323644399642944e-01" nType="0">
        <Node pos="l" depth="1" NCoef="0" IVar="-1" Cut="0.0000000000000000e+00" cType="1" res="8.8055133819580078e-03" rms="2.0640762150287628e-01" purity="9.5201361179351807e-01" nType="-99"/>
        <Node pos="r" depth="1" NCoef="0" IVar="1" Cut="2.5198415527343750e+03" cType="1" res="-1.9286094466224313e-03" rms="3.0515217781066895e-01" purity="7.6852899789810181e-01" nType="0">
          <Node pos="l" depth="2" NCoef="0" IVar="-1" Cut="0.0000000000000000e+00" cType="1" res="-1.8064829055219889e-04" rms="2.9913485050201416e-01" purity="7.8571623563766479e-01" nType="-99"/>
          <Node pos="r" depth="2" NCoef="0" IVar="-1" Cut="0.0000000000000000e+00" cType="1" res="-1.2205541133880615e-02" rms="4.0925043821334839e-01" purity="4.1177588701248169e-01" nType="-99"/>
        </Node>
      </Node>
    </BinaryTree>
    <BinaryTree type="DecisionTree" boostWeight="1.0000000000000000e+00" itree="608">
      <Node pos="s" depth="0" NCoef="0" IVar="17" Cut="2.5019543750000000e+05" cType="0" res="2.0742452761624008e-04" rms="2.9950454831123352e-01" purity="7.8512150049209595e-01" nType="0">
        <Node pos="l" depth="1" NCoef="0" IVar="-1" Cut="0.0000000000000000e+00" cType="1" res="4.5070908963680267e-02" rms="2.0088508725166321e-01" purity="9.6124029159545898e-01" nType="-99"/>
        <Node pos="r" depth="1" NCoef="0" IVar="26" Cut="2.4481169921875000e+04" cType="0" res="7.8724995546508580e-05" rms="2.9966208338737488e-01" purity="7.8475606441497803e-01" nType="0">
          <Node pos="l" depth="2" NCoef="0" IVar="-1" Cut="0.0000000000000000e+00" cType="1" res="-6.9070649333298206e-03" rms="2.8899842500686646e-01" purity="8.5797965526580811e-01" nType="-99"/>
          <Node pos="r" depth="2" NCoef="0" IVar="-1" Cut="0.0000000000000000e+00" cType="1" res="4.9810722703114152e-04" rms="3.0046397447586060e-01" purity="7.7900946140289307e-01" nType="-99"/>
        </Node>
      </Node>
    </BinaryTree>
    <BinaryTree type="DecisionTree" boostWeight="1.0000000000000000e+00" itree="609">
      <Node pos="s" depth="0" NCoef="0" IVar="11" Cut="1.1908141374588013e+00" cType="1" res="9.0138608356937766e-04" rms="2.9791146516799927e-01" purity="7.8550887107849121e-01" nType="0">
        <Node pos="l" depth="1" NCoef="0" IVar="-1" Cut="0.0000000000000000e+00" cType="1" res="1.1300707235932350e-02" rms="2.4481354653835297e-01" purity="9.0615189075469971e-01" nType="-99"/>
        <Node pos="r" depth="1" NCoef="0" IVar="12" Cut="-1.7050732421875000e+03" cType="1" res="4.5857808436267078e-04" rms="2.9915904998779297e-01" purity="7.8235816955566406e-01" nType="0">
          <Node pos="l" depth="2" NCoef="0" IVar="-1" Cut="0.0000000000000000e+00" cType="1" res="1.4557321555912495e-02" rms="1.6331627964973450e-01" purity="9.5821171998977661e-01" nType="-99"/>
          <Node pos="r" depth="2" NCoef="0" IVar="-1" Cut="0.0000000000000000e+00" cType="1" res="-1.2576869630720466e-04" rms="3.0598261952400208e-01" purity="7.7077656984329224e-01" nType="-99"/>
        </Node>
      </Node>
    </BinaryTree>
    <BinaryTree type="DecisionTree" boostWeight="1.0000000000000000e+00" itree="610">
      <Node pos="s" depth="0" NCoef="0" IVar="17" Cut="1.8797570312500000e+05" cType="0" res="1.3342237798497081e-04" rms="2.9810819029808044e-01" purity="7.8430771827697754e-01" nType="0">
        <Node pos="l" depth="1" NCoef="0" IVar="-1" Cut="0.0000000000000000e+00" cType="1" res="1.8070736899971962e-02" rms="2.6617026329040527e-01" purity="8.4415584802627563e-01" nType="-99"/>
        <Node pos="r" depth="1" NCoef="0" IVar="17" Cut="1.1662473437500000e+05" cType="0" res="-1.1230987729504704e-04" rms="2.9834088683128357e-01" purity="7.8382194042205811e-01" nType="0">
          <Node pos="l" depth="2" NCoef="0" IVar="-1" Cut="0.0000000000000000e+00" cType="1" res="7.8511862084269524e-03" rms="2.9599103331565857e-01" purity="7.9802387952804565e-01" nType="-99"/>
          <Node pos="r" depth="2" NCoef="0" IVar="-1" Cut="0.0000000000000000e+00" cType="1" res="-3.5697140265256166e-04" rms="2.9841014742851257e-01" purity="7.8330236673355103e-01" nType="-99"/>
        </Node>
      </Node>
    </BinaryTree>
    <BinaryTree type="DecisionTree" boostWeight="1.0000000000000000e+00" itree="611">
      <Node pos="s" depth="0" NCoef="0" IVar="19" Cut="1.4395928125000000e+05" cType="1" res="-3.4439457522239536e-05" rms="2.9758706688880920e-01" purity="7.8477716445922852e-01" nType="0">
        <Node pos="l" depth="1" NCoef="0" IVar="-1" Cut="0.0000000000000000e+00" cType="1" res="7.4143492383882403e-04" rms="2.9490259289741516e-01" purity="7.8884798288345337e-01" nType="-99"/>
        <Node pos="r" depth="1" NCoef="0" IVar="0" Cut="8.4285717010498047e+00" cType="1" res="-6.8396255373954773e-03" rms="3.0968436598777771e-01" purity="7.6583081483840942e-01" nType="0">
          <Node pos="l" depth="2" NCoef="0" IVar="-1" Cut="0.0000000000000000e+00" cType="1" res="3.7133705336600542e-04" rms="2.9188433289527893e-01" purity="8.4905773401260376e-01" nType="-99"/>
          <Node pos="r" depth="2" NCoef="0" IVar="-1" Cut="0.0000000000000000e+00" cType="1" res="-1.0298499837517738e-02" rms="3.5908111929893494e-01" purity="5.0330251455307007e-01" nType="-99"/>
        </Node>
      </Node>
    </BinaryTree>
    <BinaryTree type="DecisionTree" boostWeight="1.0000000000000000e+00" itree="612">
      <Node pos="s" depth="0" NCoef="0" IVar="0" Cut="1.5857142448425293e+01" cType="1" res="9.7131403163075447e-04" rms="2.9741272330284119e-01" purity="7.8700977563858032e-01" nType="0">
        <Node pos="l" depth="1" NCoef="0" IVar="-1" Cut="0.0000000000000000e+00" cType="1" res="1.9129636348225176e-04" rms="2.9544335603713989e-01" purity="8.0818504095077515e-01" nType="-99"/>
        <Node pos="r" depth="1" NCoef="0" IVar="12" Cut="-4.2866172790527344e+01" cType="1" res="1.3938071206212044e-02" rms="3.3670365810394287e-01" purity="3.3195021748542786e-01" nType="0">
          <Node pos="l" depth="2" NCoef="0" IVar="-1" Cut="0.0000000000000000e+00" cType="1" res="2.1231358870863914e-02" rms="3.5926622152328491e-01" purity="4.7794118523597717e-01" nType="-99"/>
          <Node pos="r" depth="2" NCoef="0" IVar="-1" Cut="0.0000000000000000e+00" cType="1" res="-1.7370104324072599e-03" rms="3.2606074213981628e-01" purity="2.7798369526863098e-01" nType="-99"/>
        </Node>
      </Node>
    </BinaryTree>
    <BinaryTree type="DecisionTree" boostWeight="1.0000000000000000e+00" itree="613">
      <Node pos="s" depth="0" NCoef="0" IVar="24" Cut="1.1226819038391113e+01" cType="1" res="1.4637627173215151e-03" rms="2.9654654860496521e-01" purity="7.8591895103454590e-01" nType="0">
        <Node pos="l" depth="1" NCoef="0" IVar="-1" Cut="0.0000000000000000e+00" cType="1" res="-5.0237204413861036e-04" rms="2.8782251477241516e-01" purity="8.1431788206100464e-01" nType="-99"/>
        <Node pos="r" depth="1" NCoef="0" IVar="1" Cut="1.9284299316406250e+03" cType="1" res="5.8072065003216267e-03" rms="3.1172293424606323e-01" purity="7.3433262109756470e-01" nType="0">
          <Node pos="l" depth="2" NCoef="0" IVar="-1" Cut="0.0000000000000000e+00" cType="1" res="5.2590304985642433e-03" rms="3.1034699082374573e-01" purity="7.6153230667114258e-01" nType="-99"/>
          <Node pos="r" depth="2" NCoef="0" IVar="-1" Cut="0.0000000000000000e+00" cType="1" res="-3.8786220829933882e-03" rms="3.1455895304679871e-01" purity="6.6924905776977539e-01" nType="-99"/>
        </Node>
      </Node>
    </BinaryTree>
    <BinaryTree type="DecisionTree" boostWeight="1.0000000000000000e+00" itree="614">
      <Node pos="s" depth="0" NCoef="0" IVar="0" Cut="2.1428571701049805e+01" cType="1" res="-5.6185974972322583e-04" rms="2.9861220717430115e-01" purity="7.8479707241058350e-01" nType="0">
        <Node pos="l" depth="1" NCoef="0" IVar="-1" Cut="0.0000000000000000e+00" cType="1" res="-1.2746073480229825e-04" rms="2.9912495613098145e-01" purity="7.9294896125793457e-01" nType="-99"/>
        <Node pos="r" depth="1" NCoef="0" IVar="7" Cut="6.2132089843750000e+03" cType="0" res="-2.3810254409909248e-02" rms="2.5659576058387756e-01" purity="1.7889630794525146e-01" nType="0">
          <Node pos="l" depth="2" NCoef="0" IVar="-1" Cut="0.0000000000000000e+00" cType="1" res="5.6793022900819778e-02" rms="1.7108057439327240e-01" purity="7.2058820724487305e-01" nType="-99"/>
          <Node pos="r" depth="2" NCoef="0" IVar="-1" Cut="0.0000000000000000e+00" cType="1" res="-1.6085559502243996e-02" rms="2.5630593299865723e-01" purity="1.5559771656990051e-01" nType="-99"/>
        </Node>
      </Node>
    </BinaryTree>
    <BinaryTree type="DecisionTree" boostWeight="1.0000000000000000e+00" itree="615">
      <Node pos="s" depth="0" NCoef="0" IVar="35" Cut="1.1580952453613281e+02" cType="0" res="-3.1540673808194697e-04" rms="2.9817280173301697e-01" purity="7.8515422344207764e-01" nType="0">
        <Node pos="l" depth="1" NCoef="0" IVar="-1" Cut="0.0000000000000000e+00" cType="1" res="-4.2904791189357638e-04" rms="2.9771682620048523e-01" purity="7.8563034534454346e-01" nType="-99"/>
        <Node pos="r" depth="1" NCoef="0" IVar="35" Cut="1.1095237731933594e+01" cType="0" res="1.3152885250747204e-02" rms="3.0938908457756042e-01" purity="7.7288353443145752e-01" nType="0">
          <Node pos="l" depth="2" NCoef="0" IVar="-1" Cut="0.0000000000000000e+00" cType="1" res="1.6760280355811119e-02" rms="2.7834472060203552e-01" purity="7.9443979263305664e-01" nType="-99"/>
          <Node pos="r" depth="2" NCoef="0" IVar="-1" Cut="0.0000000000000000e+00" cType="1" res="2.5147998239845037e-03" rms="3.1895977258682251e-01" purity="7.6550328731536865e-01" nType="-99"/>
        </Node>
      </Node>
    </BinaryTree>
    <BinaryTree type="DecisionTree" boostWeight="1.0000000000000000e+00" itree="616">
      <Node pos="s" depth="0" NCoef="0" IVar="35" Cut="2.2061904907226562e+02" cType="1" res="2.3629555653315037e-04" rms="2.9820752143859863e-01" purity="7.8474104404449463e-01" nType="0">
        <Node pos="l" depth="1" NCoef="0" IVar="-1" Cut="0.0000000000000000e+00" cType="1" res="-1.4622161397710443e-03" rms="2.9830059409141541e-01" purity="7.8745234012603760e-01" nType="-99"/>
        <Node pos="r" depth="1" NCoef="0" IVar="25" Cut="1.7124833984375000e+03" cType="0" res="3.5244661848992109e-03" rms="2.9807278513908386e-01" purity="7.8183937072753906e-01" nType="0">
          <Node pos="l" depth="2" NCoef="0" IVar="-1" Cut="0.0000000000000000e+00" cType="1" res="3.5883979871869087e-03" rms="2.8859654068946838e-01" purity="8.0776000022888184e-01" nType="-99"/>
          <Node pos="r" depth="2" NCoef="0" IVar="-1" Cut="0.0000000000000000e+00" cType="1" res="-3.2341196201741695e-03" rms="3.2861503958702087e-01" purity="6.9184923171997070e-01" nType="-99"/>
        </Node>
      </Node>
    </BinaryTree>
    <BinaryTree type="DecisionTree" boostWeight="1.0000000000000000e+00" itree="617">
      <Node pos="s" depth="0" NCoef="0" IVar="11" Cut="2.3808977127075195e+01" cType="1" res="1.7666521307546645e-04" rms="2.9839050769805908e-01" purity="7.8499597311019897e-01" nType="0">
        <Node pos="l" depth="1" NCoef="0" IVar="-1" Cut="0.0000000000000000e+00" cType="1" res="-2.4350575404241681e-04" rms="2.9749089479446411e-01" purity="7.8849726915359497e-01" nType="-99"/>
        <Node pos="r" depth="1" NCoef="0" IVar="28" Cut="2.6558570861816406e+01" cType="1" res="1.0155319236218929e-02" rms="3.1170016527175903e-01" purity="7.3126715421676636e-01" nType="0">
          <Node pos="l" depth="2" NCoef="0" IVar="-1" Cut="0.0000000000000000e+00" cType="1" res="6.0157957486808300e-03" rms="3.0932849645614624e-01" purity="7.3884922266006470e-01" nType="-99"/>
          <Node pos="r" depth="2" NCoef="0" IVar="-1" Cut="0.0000000000000000e+00" cType="1" res="-3.6126542836427689e-02" rms="3.6826378107070923e-01" purity="4.8230087757110596e-01" nType="-99"/>
        </Node>
      </Node>
    </BinaryTree>
    <BinaryTree type="DecisionTree" boostWeight="1.0000000000000000e+00" itree="618">
      <Node pos="s" depth="0" NCoef="0" IVar="3" Cut="3.9036367187500000e+03" cType="0" res="5.4353545419871807e-04" rms="2.9751765727996826e-01" purity="7.8531062602996826e-01" nType="0">
        <Node pos="l" depth="1" NCoef="0" IVar="-1" Cut="0.0000000000000000e+00" cType="1" res="3.5852380096912384e-03" rms="2.9515582323074341e-01" purity="7.9649806022644043e-01" nType="-99"/>
        <Node pos="r" depth="1" NCoef="0" IVar="4" Cut="5.9521565437316895e+00" cType="0" res="-2.9763206839561462e-03" rms="2.9879507422447205e-01" purity="7.7894949913024902e-01" nType="0">
          <Node pos="l" depth="2" NCoef="0" IVar="-1" Cut="0.0000000000000000e+00" cType="1" res="9.1751264408230782e-03" rms="2.3136019706726074e-01" purity="9.1472285985946655e-01" nType="-99"/>
          <Node pos="r" depth="2" NCoef="0" IVar="-1" Cut="0.0000000000000000e+00" cType="1" res="-3.7164217792451382e-03" rms="3.1793719530105591e-01" purity="7.3370003700256348e-01" nType="-99"/>
        </Node>
      </Node>
    </BinaryTree>
    <BinaryTree type="DecisionTree" boostWeight="1.0000000000000000e+00" itree="619">
      <Node pos="s" depth="0" NCoef="0" IVar="1" Cut="1.1909826660156250e+03" cType="0" res="5.3369549277704209e-05" rms="2.9755726456642151e-01" purity="7.8477632999420166e-01" nType="0">
        <Node pos="l" depth="1" NCoef="0" IVar="-1" Cut="0.0000000000000000e+00" cType="1" res="7.5500766979530454e-04" rms="2.9535230994224548e-01" purity="8.1253236532211304e-01" nType="-99"/>
        <Node pos="r" depth="1" NCoef="0" IVar="9" Cut="2.0601887512207031e+02" cType="1" res="-2.3206679150462151e-02" rms="3.3100628852844238e-01" purity="3.2622122764587402e-01" nType="0">
          <Node pos="l" depth="2" NCoef="0" IVar="-1" Cut="0.0000000000000000e+00" cType="1" res="6.2950616702437401e-03" rms="3.2904279232025146e-01" purity="3.7876868247985840e-01" nType="-99"/>
          <Node pos="r" depth="2" NCoef="0" IVar="-1" Cut="0.0000000000000000e+00" cType="1" res="-3.0836211517453194e-02" rms="3.2718092203140259e-01" purity="2.6093798875808716e-01" nType="-99"/>
        </Node>
      </Node>
    </BinaryTree>
    <BinaryTree type="DecisionTree" boostWeight="1.0000000000000000e+00" itree="620">
      <Node pos="s" depth="0" NCoef="0" IVar="3" Cut="3.2201086425781250e+03" cType="0" res="-3.4123208024539053e-04" rms="2.9813483357429504e-01" purity="7.8535717725753784e-01" nType="0">
        <Node pos="l" depth="1" NCoef="0" IVar="-1" Cut="0.0000000000000000e+00" cType="1" res="-1.5909292269498110e-03" rms="2.9593974351882935e-01" purity="7.9073601961135864e-01" nType="-99"/>
        <Node pos="r" depth="1" NCoef="0" IVar="7" Cut="1.7700642089843750e+03" cType="0" res="4.0605580434203148e-03" rms="3.0169194936752319e-01" purity="7.7642834186553955e-01" nType="0">
          <Node pos="l" depth="2" NCoef="0" IVar="-1" Cut="0.0000000000000000e+00" cType="1" res="-7.8543706331402063e-04" rms="2.9155585169792175e-01" purity="7.9254406690597534e-01" nType="-99"/>
          <Node pos="r" depth="2" NCoef="0" IVar="-1" Cut="0.0000000000000000e+00" cType="1" res="1.0117075406014919e-02" rms="3.3493152260780334e-01" purity="7.1830987930297852e-01" nType="-99"/>
        </Node>
      </Node>
    </BinaryTree>
    <BinaryTree type="DecisionTree" boostWeight="1.0000000000000000e+00" itree="621">
      <Node pos="s" depth="0" NCoef="0" IVar="23" Cut="2.1299326171875000e+04" cType="0" res="-7.6594797428697348e-04" rms="2.9963511228561401e-01" purity="7.8452920913696289e-01" nType="0">
        <Node pos="l" depth="1" NCoef="0" IVar="-1" Cut="0.0000000000000000e+00" cType="1" res="3.7213247269392014e-02" rms="1.8709763884544373e-01" purity="9.5294117927551270e-01" nType="-99"/>
        <Node pos="r" depth="1" NCoef="0" IVar="23" Cut="1.1364645996093750e+03" cType="0" res="-9.4773399177938700e-04" rms="2.9999634623527527e-01" purity="7.8383833169937134e-01" nType="0">
          <Node pos="l" depth="2" NCoef="0" IVar="-1" Cut="0.0000000000000000e+00" cType="1" res="-3.2572349300608039e-04" rms="2.9988744854927063e-01" purity="7.8442305326461792e-01" nType="-99"/>
          <Node pos="r" depth="2" NCoef="0" IVar="-1" Cut="0.0000000000000000e+00" cType="1" res="-2.4301650002598763e-02" rms="3.1165686249732971e-01" purity="7.0419424772262573e-01" nType="-99"/>
        </Node>
      </Node>
    </BinaryTree>
    <BinaryTree type="DecisionTree" boostWeight="1.0000000000000000e+00" itree="622">
      <Node pos="s" depth="0" NCoef="0" IVar="14" Cut="2.0681425781250000e+03" cType="0" res="4.9154582666233182e-04" rms="2.9764378070831299e-01" purity="7.8590542078018188e-01" nType="0">
        <Node pos="l" depth="1" NCoef="0" IVar="-1" Cut="0.0000000000000000e+00" cType="1" res="-1.2546017765998840e-02" rms="2.7703925967216492e-01" purity="8.8734722137451172e-01" nType="-99"/>
        <Node pos="r" depth="1" NCoef="0" IVar="14" Cut="3.3656591796875000e+02" cType="0" res="9.4316992908716202e-04" rms="2.9812359809875488e-01" purity="7.8338438272476196e-01" nType="0">
          <Node pos="l" depth="2" NCoef="0" IVar="-1" Cut="0.0000000000000000e+00" cType="1" res="-1.2883046874776483e-03" rms="2.8523525595664978e-01" purity="8.1711792945861816e-01" nType="-99"/>
          <Node pos="r" depth="2" NCoef="0" IVar="-1" Cut="0.0000000000000000e+00" cType="1" res="2.6760415639728308e-03" rms="3.1634619832038879e-01" purity="7.3296469449996948e-01" nType="-99"/>
        </Node>
      </Node>
    </BinaryTree>
    <BinaryTree type="DecisionTree" boostWeight="1.0000000000000000e+00" itree="623">
      <Node pos="s" depth="0" NCoef="0" IVar="7" Cut="2.1512089843750000e+03" cType="0" res="6.9780973717570305e-04" rms="2.9754728078842163e-01" purity="7.8545439243316650e-01" nType="0">
        <Node pos="l" depth="1" NCoef="0" IVar="-1" Cut="0.0000000000000000e+00" cType="1" res="1.1764618102461100e-03" rms="2.8564879298210144e-01" purity="8.2169079780578613e-01" nType="-99"/>
        <Node pos="r" depth="1" NCoef="0" IVar="3" Cut="4.4041997070312500e+03" cType="1" res="-3.3821335528045893e-03" rms="3.2829043269157410e-01" purity="6.8486338853836060e-01" nType="0">
          <Node pos="l" depth="2" NCoef="0" IVar="-1" Cut="0.0000000000000000e+00" cType="1" res="8.2429859321564436e-04" rms="3.2569536566734314e-01" purity="7.0207440853118896e-01" nType="-99"/>
          <Node pos="r" depth="2" NCoef="0" IVar="-1" Cut="0.0000000000000000e+00" cType="1" res="-1.7839372158050537e-02" rms="3.4488472342491150e-01" purity="5.5304622650146484e-01" nType="-99"/>
        </Node>
      </Node>
    </BinaryTree>
    <BinaryTree type="DecisionTree" boostWeight="1.0000000000000000e+00" itree="624">
      <Node pos="s" depth="0" NCoef="0" IVar="22" Cut="9.4342742919921875e+02" cType="0" res="8.3947245730087161e-04" rms="2.9685461521148682e-01" purity="7.8681433200836182e-01" nType="0">
        <Node pos="l" depth="1" NCoef="0" IVar="-1" Cut="0.0000000000000000e+00" cType="1" res="8.9201023802161217e-03" rms="2.7971690893173218e-01" purity="8.1234079599380493e-01" nType="-99"/>
        <Node pos="r" depth="1" NCoef="0" IVar="2" Cut="4.7613012790679932e-01" cType="1" res="3.4421693999320269e-04" rms="2.9732427000999451e-01" purity="7.8607106208801270e-01" nType="0">
          <Node pos="l" depth="2" NCoef="0" IVar="-1" Cut="0.0000000000000000e+00" cType="1" res="2.9938152874819934e-04" rms="2.9670318961143494e-01" purity="7.8783774375915527e-01" nType="-99"/>
          <Node pos="r" depth="2" NCoef="0" IVar="-1" Cut="0.0000000000000000e+00" cType="1" res="-1.1932756751775742e-02" rms="3.6697372794151306e-01" purity="5.6004250049591064e-01" nType="-99"/>
        </Node>
      </Node>
    </BinaryTree>
    <BinaryTree type="DecisionTree" boostWeight="1.0000000000000000e+00" itree="625">
      <Node pos="s" depth="0" NCoef="0" IVar="9" Cut="8.4069299316406250e+02" cType="0" res="-1.9721849821507931e-03" rms="2.9949757456779480e-01" purity="7.8324943780899048e-01" nType="0">
        <Node pos="l" depth="1" NCoef="0" IVar="-1" Cut="0.0000000000000000e+00" cType="1" res="4.1307350620627403e-03" rms="2.3925927281379700e-01" purity="9.2828643321990967e-01" nType="-99"/>
        <Node pos="r" depth="1" NCoef="0" IVar="9" Cut="1.6985839843750000e+02" cType="0" res="-3.2561386469751596e-03" rms="3.0912840366363525e-01" purity="7.5700581073760986e-01" nType="0">
          <Node pos="l" depth="2" NCoef="0" IVar="-1" Cut="0.0000000000000000e+00" cType="1" res="-5.9364567277953029e-04" rms="3.0337631702423096e-01" purity="7.7249634265899658e-01" nType="-99"/>
          <Node pos="r" depth="2" NCoef="0" IVar="-1" Cut="0.0000000000000000e+00" cType="1" res="-1.0193614289164543e-02" rms="3.6948326230049133e-01" purity="5.7413941621780396e-01" nType="-99"/>
        </Node>
      </Node>
    </BinaryTree>
    <BinaryTree type="DecisionTree" boostWeight="1.0000000000000000e+00" itree="626">
      <Node pos="s" depth="0" NCoef="0" IVar="7" Cut="4.2958872070312500e+03" cType="0" res="-1.5682134544476867e-03" rms="2.9888764023780823e-01" purity="7.8405117988586426e-01" nType="0">
        <Node pos="l" depth="1" NCoef="0" IVar="-1" Cut="0.0000000000000000e+00" cType="1" res="1.0848261881619692e-03" rms="2.7630650997161865e-01" purity="8.5802018642425537e-01" nType="-99"/>
        <Node pos="r" depth="1" NCoef="0" IVar="13" Cut="2.3479831542968750e+03" cType="0" res="-3.1409549992531538e-03" rms="3.0880641937255859e-01" purity="7.4967998266220093e-01" nType="0">
          <Node pos="l" depth="2" NCoef="0" IVar="-1" Cut="0.0000000000000000e+00" cType="1" res="1.7994461813941598e-03" rms="2.9525518417358398e-01" purity="7.8425586223602295e-01" nType="-99"/>
          <Node pos="r" depth="2" NCoef="0" IVar="-1" Cut="0.0000000000000000e+00" cType="1" res="-4.1956012137234211e-03" rms="3.2037782669067383e-01" purity="7.1860504150390625e-01" nType="-99"/>
        </Node>
      </Node>
    </BinaryTree>
    <BinaryTree type="DecisionTree" boostWeight="1.0000000000000000e+00" itree="627">
      <Node pos="s" depth="0" NCoef="0" IVar="17" Cut="1.8797570312500000e+05" cType="0" res="1.2005362659692764e-03" rms="2.9720467329025269e-01" purity="7.8637194633483887e-01" nType="0">
        <Node pos="l" depth="1" NCoef="0" IVar="-1" Cut="0.0000000000000000e+00" cType="1" res="1.8497142940759659e-02" rms="2.7099794149398804e-01" purity="8.4442269802093506e-01" nType="-99"/>
        <Node pos="r" depth="1" NCoef="0" IVar="17" Cut="5.4535691406250000e+04" cType="1" res="9.5743156271055341e-04" rms="2.9739969968795776e-01" purity="7.8589177131652832e-01" nType="0">
          <Node pos="l" depth="2" NCoef="0" IVar="-1" Cut="0.0000000000000000e+00" cType="1" res="1.4248170191422105e-03" rms="2.9504793882369995e-01" purity="7.9275596141815186e-01" nType="-99"/>
          <Node pos="r" depth="2" NCoef="0" IVar="-1" Cut="0.0000000000000000e+00" cType="1" res="-1.8742542015388608e-03" rms="3.0351826548576355e-01" purity="7.6762378215789795e-01" nType="-99"/>
        </Node>
      </Node>
    </BinaryTree>
    <BinaryTree type="DecisionTree" boostWeight="1.0000000000000000e+00" itree="628">
      <Node pos="s" depth="0" NCoef="0" IVar="3" Cut="4.7240292968750000e+03" cType="1" res="-3.0486829928122461e-04" rms="2.9801973700523376e-01" purity="7.8477954864501953e-01" nType="0">
        <Node pos="l" depth="1" NCoef="0" IVar="-1" Cut="0.0000000000000000e+00" cType="1" res="3.4529078402556479e-04" rms="2.9475414752960205e-01" purity="7.9189407825469971e-01" nType="-99"/>
        <Node pos="r" depth="1" NCoef="0" IVar="7" Cut="3.1533105468750000e+03" cType="0" res="-7.7045476064085960e-03" rms="3.2179993391036987e-01" purity="7.3037993907928467e-01" nType="0">
          <Node pos="l" depth="2" NCoef="0" IVar="-1" Cut="0.0000000000000000e+00" cType="1" res="3.2548767048865557e-03" rms="3.0639651417732239e-01" purity="8.0033278465270996e-01" nType="-99"/>
          <Node pos="r" depth="2" NCoef="0" IVar="-1" Cut="0.0000000000000000e+00" cType="1" res="-1.8405368551611900e-02" rms="3.6071765422821045e-01" purity="5.2052134275436401e-01" nType="-99"/>
        </Node>
      </Node>
    </BinaryTree>
    <BinaryTree type="DecisionTree" boostWeight="1.0000000000000000e+00" itree="629">
      <Node pos="s" depth="0" NCoef="0" IVar="2" Cut="1.4283904433250427e-01" cType="1" res="6.5584856201894581e-05" rms="2.9803141951560974e-01" purity="7.8488820791244507e-01" nType="0">
        <Node pos="l" depth="1" NCoef="0" IVar="-1" Cut="0.0000000000000000e+00" cType="1" res="-8.4743078332394361e-04" rms="2.8598481416702271e-01" purity="8.2299113273620605e-01" nType="-99"/>
        <Node pos="r" depth="1" NCoef="0" IVar="25" Cut="4.0184240722656250e+03" cType="0" res="5.7345782406628132e-03" rms="3.3739334344863892e-01" purity="6.4920550584793091e-01" nType="0">
          <Node pos="l" depth="2" NCoef="0" IVar="-1" Cut="0.0000000000000000e+00" cType="1" res="1.2341301888227463e-02" rms="3.2052698731422424e-01" purity="7.0091164112091064e-01" nType="-99"/>
          <Node pos="r" depth="2" NCoef="0" IVar="-1" Cut="0.0000000000000000e+00" cType="1" res="1.1445607524365187e-03" rms="3.3918195962905884e-01" purity="6.4319211244583130e-01" nType="-99"/>
        </Node>
      </Node>
    </BinaryTree>
    <BinaryTree type="DecisionTree" boostWeight="1.0000000000000000e+00" itree="630">
      <Node pos="s" depth="0" NCoef="0" IVar="26" Cut="1.6127464062500000e+05" cType="0" res="-6.5879663452506065e-05" rms="2.9888015985488892e-01" purity="7.8422695398330688e-01" nType="0">
        <Node pos="l" depth="1" NCoef="0" IVar="-1" Cut="0.0000000000000000e+00" cType="1" res="-7.5295306742191315e-02" rms="3.4863945841789246e-01" purity="8.3146065473556519e-01" nType="-99"/>
        <Node pos="r" depth="1" NCoef="0" IVar="26" Cut="4.6804734375000000e+04" cType="0" res="2.4752796434768243e-06" rms="2.9883071780204773e-01" purity="7.8419321775436401e-01" nType="0">
          <Node pos="l" depth="2" NCoef="0" IVar="-1" Cut="0.0000000000000000e+00" cType="1" res="1.1301735416054726e-02" rms="2.4994410574436188e-01" purity="8.9137381315231323e-01" nType="-99"/>
          <Node pos="r" depth="2" NCoef="0" IVar="-1" Cut="0.0000000000000000e+00" cType="1" res="-1.9476951274555176e-04" rms="2.9973736405372620e-01" purity="7.8199565410614014e-01" nType="-99"/>
        </Node>
      </Node>
    </BinaryTree>
    <BinaryTree type="DecisionTree" boostWeight="1.0000000000000000e+00" itree="631">
      <Node pos="s" depth="0" NCoef="0" IVar="24" Cut="1.1266522407531738e+01" cType="1" res="-1.3563336688093841e-04" rms="2.9726886749267578e-01" purity="7.8497284650802612e-01" nType="0">
        <Node pos="l" depth="1" NCoef="0" IVar="-1" Cut="0.0000000000000000e+00" cType="1" res="-1.1507511371746659e-03" rms="2.8834223747253418e-01" purity="8.1365162134170532e-01" nType="-99"/>
        <Node pos="r" depth="1" NCoef="0" IVar="32" Cut="1.4406447410583496e+00" cType="0" res="3.4844956826418638e-03" rms="3.1288331747055054e-01" purity="7.3259454965591431e-01" nType="0">
          <Node pos="l" depth="2" NCoef="0" IVar="-1" Cut="0.0000000000000000e+00" cType="1" res="-2.0781056955456734e-03" rms="2.9364943504333496e-01" purity="7.6902377605438232e-01" nType="-99"/>
          <Node pos="r" depth="2" NCoef="0" IVar="-1" Cut="0.0000000000000000e+00" cType="1" res="4.7829491086304188e-03" rms="3.3188709616661072e-01" purity="6.9394916296005249e-01" nType="-99"/>
        </Node>
      </Node>
    </BinaryTree>
    <BinaryTree type="DecisionTree" boostWeight="1.0000000000000000e+00" itree="632">
      <Node pos="s" depth="0" NCoef="0" IVar="3" Cut="3.2170036621093750e+03" cType="0" res="-1.6489572590216994e-04" rms="2.9837235808372498e-01" purity="7.8326070308685303e-01" nType="0">
        <Node pos="l" depth="1" NCoef="0" IVar="-1" Cut="0.0000000000000000e+00" cType="1" res="-1.2514672707766294e-03" rms="2.9595950245857239e-01" purity="7.8963875770568848e-01" nType="-99"/>
        <Node pos="r" depth="1" NCoef="0" IVar="9" Cut="1.3724588012695312e+02" cType="0" res="3.4786199685186148e-03" rms="3.0230954289436340e-01" purity="7.7264755964279175e-01" nType="0">
          <Node pos="l" depth="2" NCoef="0" IVar="-1" Cut="0.0000000000000000e+00" cType="1" res="1.0397714795544744e-03" rms="3.0144041776657104e-01" purity="7.7582991123199463e-01" nType="-99"/>
          <Node pos="r" depth="2" NCoef="0" IVar="-1" Cut="0.0000000000000000e+00" cType="1" res="3.3721305429935455e-02" rms="3.4518635272979736e-01" purity="5.5373132228851318e-01" nType="-99"/>
        </Node>
      </Node>
    </BinaryTree>
    <BinaryTree type="DecisionTree" boostWeight="1.0000000000000000e+00" itree="633">
      <Node pos="s" depth="0" NCoef="0" IVar="1" Cut="3.6177341308593750e+03" cType="0" res="-4.0206269477494061e-04" rms="2.9799675941467285e-01" purity="7.8403574228286743e-01" nType="0">
        <Node pos="l" depth="1" NCoef="0" IVar="-1" Cut="0.0000000000000000e+00" cType="1" res="-1.7450517043471336e-02" rms="3.1452715396881104e-01" purity="8.0724447965621948e-01" nType="-99"/>
        <Node pos="r" depth="1" NCoef="0" IVar="9" Cut="2.7109906005859375e+02" cType="0" res="-7.5822303188033402e-05" rms="2.9776820540428162e-01" purity="7.8374326229095459e-01" nType="0">
          <Node pos="l" depth="2" NCoef="0" IVar="-1" Cut="0.0000000000000000e+00" cType="1" res="1.7405551625415683e-03" rms="2.8101402521133423e-01" purity="8.2966119050979614e-01" nType="-99"/>
          <Node pos="r" depth="2" NCoef="0" IVar="-1" Cut="0.0000000000000000e+00" cType="1" res="-3.2763930503278971e-03" rms="3.3470803499221802e-01" purity="6.7271310091018677e-01" nType="-99"/>
        </Node>
      </Node>
    </BinaryTree>
    <BinaryTree type="DecisionTree" boostWeight="1.0000000000000000e+00" itree="634">
      <Node pos="s" depth="0" NCoef="0" IVar="32" Cut="2.1423130035400391e+00" cType="0" res="-1.1927499435842037e-03" rms="2.9854145646095276e-01" purity="7.8390514850616455e-01" nType="0">
        <Node pos="l" depth="1" NCoef="0" IVar="-1" Cut="0.0000000000000000e+00" cType="1" res="-3.7479931488633156e-03" rms="2.7619937062263489e-01" purity="8.1924468278884888e-01" nType="-99"/>
        <Node pos="r" depth="1" NCoef="0" IVar="8" Cut="-5.2303355932235718e-01" cType="0" res="3.5510977613739669e-04" rms="3.0499812960624695e-01" purity="7.7315229177474976e-01" nType="0">
          <Node pos="l" depth="2" NCoef="0" IVar="-1" Cut="0.0000000000000000e+00" cType="1" res="2.4544814368709922e-04" rms="3.0483838915824890e-01" purity="7.7375936508178711e-01" nType="-99"/>
          <Node pos="r" depth="2" NCoef="0" IVar="-1" Cut="0.0000000000000000e+00" cType="1" res="-5.4614216089248657e-02" rms="3.9623305201530457e-01" purity="2.9166665673255920e-01" nType="-99"/>
        </Node>
      </Node>
    </BinaryTree>
    <BinaryTree type="DecisionTree" boostWeight="1.0000000000000000e+00" itree="635">
      <Node pos="s" depth="0" NCoef="0" IVar="3" Cut="3.2201086425781250e+03" cType="0" res="5.2166881505399942e-04" rms="2.9831963777542114e-01" purity="7.8457844257354736e-01" nType="0">
        <Node pos="l" depth="1" NCoef="0" IVar="-1" Cut="0.0000000000000000e+00" cType="1" res="-9.8278536461293697e-04" rms="2.9630714654922485e-01" purity="7.8997522592544556e-01" nType="-99"/>
        <Node pos="r" depth="1" NCoef="0" IVar="25" Cut="1.1961947021484375e+03" cType="0" res="4.4651064090430737e-03" rms="3.0159258842468262e-01" purity="7.7561110258102417e-01" nType="0">
          <Node pos="l" depth="2" NCoef="0" IVar="-1" Cut="0.0000000000000000e+00" cType="1" res="4.5376699417829514e-03" rms="2.9713407158851624e-01" purity="7.7869880199432373e-01" nType="-99"/>
          <Node pos="r" depth="2" NCoef="0" IVar="-1" Cut="0.0000000000000000e+00" cType="1" res="-1.0082642547786236e-02" rms="3.2409003376960754e-01" purity="7.5832980871200562e-01" nType="-99"/>
        </Node>
      </Node>
    </BinaryTree>
    <BinaryTree type="DecisionTree" boostWeight="1.0000000000000000e+00" itree="636">
      <Node pos="s" depth="0" NCoef="0" IVar="0" Cut="8.4285717010498047e+00" cType="1" res="-9.0128311421722174e-04" rms="2.9871189594268799e-01" purity="7.8320980072021484e-01" nType="0">
        <Node pos="l" depth="1" NCoef="0" IVar="-1" Cut="0.0000000000000000e+00" cType="1" res="6.7924108589068055e-04" rms="2.7408489584922791e-01" purity="8.7289410829544067e-01" nType="-99"/>
        <Node pos="r" depth="1" NCoef="0" IVar="14" Cut="3.6105722045898438e+02" cType="1" res="-7.0840856060385704e-03" rms="3.6394089460372925e-01" purity="5.0807851552963257e-01" nType="0">
          <Node pos="l" depth="2" NCoef="0" IVar="-1" Cut="0.0000000000000000e+00" cType="1" res="1.2378095416352153e-03" rms="3.6563211679458618e-01" purity="5.2519351243972778e-01" nType="-99"/>
          <Node pos="r" depth="2" NCoef="0" IVar="-1" Cut="0.0000000000000000e+00" cType="1" res="-1.2051129713654518e-02" rms="3.5794645547866821e-01" purity="4.6320039033889771e-01" nType="-99"/>
        </Node>
      </Node>
    </BinaryTree>
    <BinaryTree type="DecisionTree" boostWeight="1.0000000000000000e+00" itree="637">
      <Node pos="s" depth="0" NCoef="0" IVar="14" Cut="1.2839558105468750e+03" cType="0" res="3.7704009446315467e-04" rms="2.9800814390182495e-01" purity="7.8518038988113403e-01" nType="0">
        <Node pos="l" depth="1" NCoef="0" IVar="-1" Cut="0.0000000000000000e+00" cType="1" res="-6.2733860686421394e-03" rms="2.7256193757057190e-01" purity="8.7646991014480591e-01" nType="-99"/>
        <Node pos="r" depth="1" NCoef="0" IVar="9" Cut="2.8216186523437500e+02" cType="0" res="1.1471059406176209e-03" rms="2.9986965656280518e-01" purity="7.7813047170639038e-01" nType="0">
          <Node pos="l" depth="2" NCoef="0" IVar="-1" Cut="0.0000000000000000e+00" cType="1" res="2.5047759991139174e-03" rms="2.8225183486938477e-01" purity="8.2801586389541626e-01" nType="-99"/>
          <Node pos="r" depth="2" NCoef="0" IVar="-1" Cut="0.0000000000000000e+00" cType="1" res="-2.3535506334155798e-03" rms="3.3216592669487000e-01" purity="6.7851215600967407e-01" nType="-99"/>
        </Node>
      </Node>
    </BinaryTree>
    <BinaryTree type="DecisionTree" boostWeight="1.0000000000000000e+00" itree="638">
      <Node pos="s" depth="0" NCoef="0" IVar="20" Cut="9.0476191043853760e-01" cType="0" res="-4.9621355719864368e-04" rms="2.9827636480331421e-01" purity="7.8427976369857788e-01" nType="0">
        <Node pos="l" depth="1" NCoef="0" IVar="-1" Cut="0.0000000000000000e+00" cType="1" res="-5.1547351176850498e-05" rms="2.9706454277038574e-01" purity="7.8930228948593140e-01" nType="-99"/>
        <Node pos="r" depth="1" NCoef="0" IVar="0" Cut="1.2142857551574707e+01" cType="1" res="-2.3097740486264229e-02" rms="3.5997822880744934e-01" purity="4.9790599942207336e-01" nType="0">
          <Node pos="l" depth="2" NCoef="0" IVar="-1" Cut="0.0000000000000000e+00" cType="1" res="-3.6856163293123245e-02" rms="3.7931054830551147e-01" purity="6.0342556238174438e-01" nType="-99"/>
          <Node pos="r" depth="2" NCoef="0" IVar="-1" Cut="0.0000000000000000e+00" cType="1" res="5.7002720423042774e-03" rms="3.4272953867912292e-01" purity="4.4028776884078979e-01" nType="-99"/>
        </Node>
      </Node>
    </BinaryTree>
    <BinaryTree type="DecisionTree" boostWeight="1.0000000000000000e+00" itree="639">
      <Node pos="s" depth="0" NCoef="0" IVar="1" Cut="9.0463214111328125e+02" cType="0" res="-9.3637307872995734e-04" rms="2.9813888669013977e-01" purity="7.8468936681747437e-01" nType="0">
        <Node pos="l" depth="1" NCoef="0" IVar="-1" Cut="0.0000000000000000e+00" cType="1" res="-3.2931671012192965e-04" rms="2.9939535260200500e-01" purity="7.9245668649673462e-01" nType="-99"/>
        <Node pos="r" depth="1" NCoef="0" IVar="5" Cut="6.8166267871856689e-01" cType="1" res="-2.9809404164552689e-02" rms="1.1661158502101898e-01" purity="1.4492753893136978e-02" nType="0">
          <Node pos="l" depth="2" NCoef="0" IVar="-1" Cut="0.0000000000000000e+00" cType="1" res="-3.5709485411643982e-02" rms="1.1564294993877411e-01" purity="1.5164279378950596e-02" nType="-99"/>
          <Node pos="r" depth="2" NCoef="0" IVar="-1" Cut="0.0000000000000000e+00" cType="1" res="-6.4055398106575012e-02" rms="1.0970149189233780e-01" purity="0.0000000000000000e+00" nType="-99"/>
        </Node>
      </Node>
    </BinaryTree>
    <BinaryTree type="DecisionTree" boostWeight="1.0000000000000000e+00" itree="640">
      <Node pos="s" depth="0" NCoef="0" IVar="2" Cut="1.9045205414295197e-01" cType="1" res="-2.1660462152794935e-05" rms="2.9818832874298096e-01" purity="7.8458297252655029e-01" nType="0">
        <Node pos="l" depth="1" NCoef="0" IVar="-1" Cut="0.0000000000000000e+00" cType="1" res="-5.9694529045373201e-04" rms="2.8880679607391357e-01" purity="8.1419497728347778e-01" nType="-99"/>
        <Node pos="r" depth="1" NCoef="0" IVar="0" Cut="8.4285717010498047e+00" cType="1" res="5.2155787125229836e-03" rms="3.3998602628707886e-01" purity="6.4097154140472412e-01" nType="0">
          <Node pos="l" depth="2" NCoef="0" IVar="-1" Cut="0.0000000000000000e+00" cType="1" res="-3.5490035079419613e-03" rms="3.2177448272705078e-01" purity="8.1462568044662476e-01" nType="-99"/>
          <Node pos="r" depth="2" NCoef="0" IVar="-1" Cut="0.0000000000000000e+00" cType="1" res="5.5812844075262547e-03" rms="3.5436075925827026e-01" purity="4.9358528852462769e-01" nType="-99"/>
        </Node>
      </Node>
    </BinaryTree>
    <BinaryTree type="DecisionTree" boostWeight="1.0000000000000000e+00" itree="641">
      <Node pos="s" depth="0" NCoef="0" IVar="9" Cut="7.5362072753906250e+02" cType="0" res="-5.2793190116062760e-04" rms="2.9929447174072266e-01" purity="7.8341186046600342e-01" nType="0">
        <Node pos="l" depth="1" NCoef="0" IVar="-1" Cut="0.0000000000000000e+00" cType="1" res="5.1581929437816143e-03" rms="2.5001123547554016e-01" purity="9.1635000705718994e-01" nType="-99"/>
        <Node pos="r" depth="1" NCoef="0" IVar="1" Cut="2.8075524902343750e+03" cType="1" res="-2.1877144463360310e-03" rms="3.0900982022285461e-01" purity="7.5431543588638306e-01" nType="0">
          <Node pos="l" depth="2" NCoef="0" IVar="-1" Cut="0.0000000000000000e+00" cType="1" res="-1.5421095304191113e-03" rms="3.0701738595962524e-01" purity="7.6228171586990356e-01" nType="-99"/>
          <Node pos="r" depth="2" NCoef="0" IVar="-1" Cut="0.0000000000000000e+00" cType="1" res="2.0266950130462646e-02" rms="4.0271276235580444e-01" purity="2.9920363426208496e-01" nType="-99"/>
        </Node>
      </Node>
    </BinaryTree>
    <BinaryTree type="DecisionTree" boostWeight="1.0000000000000000e+00" itree="642">
      <Node pos="s" depth="0" NCoef="0" IVar="13" Cut="2.0681813964843750e+03" cType="0" res="2.3586308088852093e-05" rms="2.9780682921409607e-01" purity="7.8438001871109009e-01" nType="0">
        <Node pos="l" depth="1" NCoef="0" IVar="-1" Cut="0.0000000000000000e+00" cType="1" res="1.1553756194189191e-03" rms="2.9141351580619812e-01" purity="8.0132395029067993e-01" nType="-99"/>
        <Node pos="r" depth="1" NCoef="0" IVar="0" Cut="8.0476188659667969e+00" cType="1" res="-3.1953423749655485e-03" rms="3.0699074268341064e-01" purity="7.5931859016418457e-01" nType="0">
          <Node pos="l" depth="2" NCoef="0" IVar="-1" Cut="0.0000000000000000e+00" cType="1" res="-4.4793752022087574e-03" rms="2.9131126403808594e-01" purity="8.4497696161270142e-01" nType="-99"/>
          <Node pos="r" depth="2" NCoef="0" IVar="-1" Cut="0.0000000000000000e+00" cType="1" res="5.2334535866975784e-03" rms="3.6073020100593567e-01" purity="4.2761564254760742e-01" nType="-99"/>
        </Node>
      </Node>
    </BinaryTree>
    <BinaryTree type="DecisionTree" boostWeight="1.0000000000000000e+00" itree="643">
      <Node pos="s" depth="0" NCoef="0" IVar="11" Cut="9.5237979888916016e+00" cType="1" res="8.1425608368590474e-04" rms="2.9822111129760742e-01" purity="7.8569310903549194e-01" nType="0">
        <Node pos="l" depth="1" NCoef="0" IVar="-1" Cut="0.0000000000000000e+00" cType="1" res="2.5713737122714520e-03" rms="2.7743867039680481e-01" purity="8.4512490034103394e-01" nType="-99"/>
        <Node pos="r" depth="1" NCoef="0" IVar="5" Cut="-4.8066219687461853e-01" cType="0" res="-1.0627091396600008e-03" rms="3.0827945470809937e-01" purity="7.5533640384674072e-01" nType="0">
          <Node pos="l" depth="2" NCoef="0" IVar="-1" Cut="0.0000000000000000e+00" cType="1" res="4.7430928680114448e-04" rms="3.0204373598098755e-01" purity="7.8696596622467041e-01" nType="-99"/>
          <Node pos="r" depth="2" NCoef="0" IVar="-1" Cut="0.0000000000000000e+00" cType="1" res="-4.7464244998991489e-03" rms="3.4099611639976501e-01" purity="5.7755857706069946e-01" nType="-99"/>
        </Node>
      </Node>
    </BinaryTree>
    <BinaryTree type="DecisionTree" boostWeight="1.0000000000000000e+00" itree="644">
      <Node pos="s" depth="0" NCoef="0" IVar="0" Cut="2.7000000000000000e+01" cType="1" res="1.5296844067052007e-03" rms="2.9650604724884033e-01" purity="7.8571659326553345e-01" nType="0">
        <Node pos="l" depth="1" NCoef="0" IVar="-1" Cut="0.0000000000000000e+00" cType="1" res="8.3790236385539174e-04" rms="2.9692637920379639e-01" purity="7.8840243816375732e-01" nType="-99"/>
        <Node pos="r" depth="1" NCoef="0" IVar="21" Cut="3.3733230590820312e+02" cType="0" res="-2.8680242598056793e-02" rms="1.4776785671710968e-01" purity="8.4033615887165070e-02" nType="0">
          <Node pos="l" depth="2" NCoef="0" IVar="-1" Cut="0.0000000000000000e+00" cType="1" res="1.2983402609825134e-01" rms="2.7996805310249329e-01" purity="2.6190477609634399e-01" nType="-99"/>
          <Node pos="r" depth="2" NCoef="0" IVar="-1" Cut="0.0000000000000000e+00" cType="1" res="-3.6569233983755112e-02" rms="1.1151032894849777e-01" purity="6.6820278763771057e-02" nType="-99"/>
        </Node>
      </Node>
    </BinaryTree>
    <BinaryTree type="DecisionTree" boostWeight="1.0000000000000000e+00" itree="645">
      <Node pos="s" depth="0" NCoef="0" IVar="22" Cut="7.0675146484375000e+02" cType="0" res="9.4818847719579935e-04" rms="2.9659301042556763e-01" purity="7.8622931241989136e-01" nType="0">
        <Node pos="l" depth="1" NCoef="0" IVar="-1" Cut="0.0000000000000000e+00" cType="1" res="7.2599560953676701e-03" rms="2.8102031350135803e-01" purity="7.9626971483230591e-01" nType="-99"/>
        <Node pos="r" depth="1" NCoef="0" IVar="9" Cut="3.6815335083007812e+02" cType="0" res="3.9174477569758892e-04" rms="2.9719513654708862e-01" purity="7.8582137823104858e-01" nType="0">
          <Node pos="l" depth="2" NCoef="0" IVar="-1" Cut="0.0000000000000000e+00" cType="1" res="2.1021789871156216e-03" rms="2.7206936478614807e-01" purity="8.5697114467620850e-01" nType="-99"/>
          <Node pos="r" depth="2" NCoef="0" IVar="-1" Cut="0.0000000000000000e+00" cType="1" res="-1.4506020816043019e-03" rms="3.2422780990600586e-01" purity="7.0213305950164795e-01" nType="-99"/>
        </Node>
      </Node>
    </BinaryTree>
    <BinaryTree type="DecisionTree" boostWeight="1.0000000000000000e+00" itree="646">
      <Node pos="s" depth="0" NCoef="0" IVar="19" Cut="5.4317243750000000e+05" cType="1" res="-3.9926340105012059e-04" rms="2.9743051528930664e-01" purity="7.8471338748931885e-01" nType="0">
        <Node pos="l" depth="1" NCoef="0" IVar="-1" Cut="0.0000000000000000e+00" cType="1" res="-1.6410645912401378e-04" rms="2.9736593365669250e-01" purity="7.8475838899612427e-01" nType="-99"/>
        <Node pos="r" depth="1" NCoef="0" IVar="1" Cut="1.8685886230468750e+03" cType="1" res="-9.4695039093494415e-02" rms="3.5435509681701660e-01" purity="7.3076921701431274e-01" nType="0">
          <Node pos="l" depth="2" NCoef="0" IVar="-1" Cut="0.0000000000000000e+00" cType="1" res="7.2957584634423256e-03" rms="2.0610228180885315e-01" purity="8.5714286565780640e-01" nType="-99"/>
          <Node pos="r" depth="2" NCoef="0" IVar="-1" Cut="0.0000000000000000e+00" cType="1" res="-1.1546726524829865e-01" rms="4.5614203810691833e-01" purity="5.3658539056777954e-01" nType="-99"/>
        </Node>
      </Node>
    </BinaryTree>
    <BinaryTree type="DecisionTree" boostWeight="1.0000000000000000e+00" itree="647">
      <Node pos="s" depth="0" NCoef="0" IVar="35" Cut="2.2061904907226562e+02" cType="1" res="2.5746974279172719e-04" rms="2.9756802320480347e-01" purity="7.8491133451461792e-01" nType="0">
        <Node pos="l" depth="1" NCoef="0" IVar="-1" Cut="0.0000000000000000e+00" cType="1" res="-1.0972153395414352e-03" rms="2.9677709937095642e-01" purity="7.8859382867813110e-01" nType="-99"/>
        <Node pos="r" depth="1" NCoef="0" IVar="25" Cut="1.7091644287109375e+03" cType="0" res="2.8003533370792866e-03" rms="2.9839181900024414e-01" purity="7.8096741437911987e-01" nType="0">
          <Node pos="l" depth="2" NCoef="0" IVar="-1" Cut="0.0000000000000000e+00" cType="1" res="3.0654401052743196e-03" rms="2.8874710202217102e-01" purity="8.0733984708786011e-01" nType="-99"/>
          <Node pos="r" depth="2" NCoef="0" IVar="-1" Cut="0.0000000000000000e+00" cType="1" res="-3.1272484920918941e-03" rms="3.2925024628639221e-01" purity="6.9014084339141846e-01" nType="-99"/>
        </Node>
      </Node>
    </BinaryTree>
    <BinaryTree type="DecisionTree" boostWeight="1.0000000000000000e+00" itree="648">
      <Node pos="s" depth="0" NCoef="0" IVar="3" Cut="1.3248686523437500e+04" cType="1" res="4.6353763900697231e-04" rms="2.9913970828056335e-01" purity="7.8469789028167725e-01" nType="0">
        <Node pos="l" depth="1" NCoef="0" IVar="25" Cut="1.2235625000000000e+03" cType="0" res="5.2943278569728136e-04" rms="2.9909029603004456e-01" purity="7.8474265336990356e-01" nType="0">
          <Node pos="l" depth="2" NCoef="0" IVar="-1" Cut="0.0000000000000000e+00" cType="1" res="7.8852369915693998e-04" rms="2.9695400595664978e-01" purity="7.8789776563644409e-01" nType="-99"/>
          <Node pos="r" depth="2" NCoef="0" IVar="-1" Cut="0.0000000000000000e+00" cType="1" res="-6.2079769559204578e-03" rms="3.2826995849609375e-01" purity="7.3882091045379639e-01" nType="-99"/>
        </Node>
        <Node pos="r" depth="1" NCoef="0" IVar="-1" Cut="0.0000000000000000e+00" cType="1" res="-9.4653308391571045e-02" rms="3.5972401499748230e-01" purity="7.0149254798889160e-01" nType="-99"/>
      </Node>
    </BinaryTree>
    <BinaryTree type="DecisionTree" boostWeight="1.0000000000000000e+00" itree="649">
      <Node pos="s" depth="0" NCoef="0" IVar="3" Cut="3.2170036621093750e+03" cType="0" res="-8.5778930224478245e-04" rms="2.9778453707695007e-01" purity="7.8429132699966431e-01" nType="0">
        <Node pos="l" depth="1" NCoef="0" IVar="-1" Cut="0.0000000000000000e+00" cType="1" res="-1.9114547176286578e-03" rms="2.9592821002006531e-01" purity="7.8960126638412476e-01" nType="-99"/>
        <Node pos="r" depth="1" NCoef="0" IVar="9" Cut="2.4449406433105469e+02" cType="0" res="3.7291806656867266e-03" rms="3.0082276463508606e-01" purity="7.7536714076995850e-01" nType="0">
          <Node pos="l" depth="2" NCoef="0" IVar="-1" Cut="0.0000000000000000e+00" cType="1" res="-2.0651347003877163e-03" rms="2.9394364356994629e-01" purity="8.1003594398498535e-01" nType="-99"/>
          <Node pos="r" depth="2" NCoef="0" IVar="-1" Cut="0.0000000000000000e+00" cType="1" res="9.4463787972927094e-03" rms="3.1620985269546509e-01" purity="6.9063794612884521e-01" nType="-99"/>
        </Node>
      </Node>
    </BinaryTree>
    <BinaryTree type="DecisionTree" boostWeight="1.0000000000000000e+00" itree="650">
      <Node pos="s" depth="0" NCoef="0" IVar="27" Cut="7.5431078125000000e+04" cType="0" res="3.3535616239532828e-04" rms="2.9754206538200378e-01" purity="7.8573948144912720e-01" nType="0">
        <Node pos="l" depth="1" NCoef="0" IVar="-1" Cut="0.0000000000000000e+00" cType="1" res="-2.2809153888374567e-03" rms="3.0213373899459839e-01" purity="7.9030776023864746e-01" nType="-99"/>
        <Node pos="r" depth="1" NCoef="0" IVar="27" Cut="1.1818312500000000e+04" cType="1" res="2.2337017580866814e-03" rms="2.9572266340255737e-01" purity="7.8397011756896973e-01" nType="0">
          <Node pos="l" depth="2" NCoef="0" IVar="-1" Cut="0.0000000000000000e+00" cType="1" res="7.1694575250148773e-02" rms="2.5200533866882324e-01" purity="9.6052628755569458e-01" nType="-99"/>
          <Node pos="r" depth="2" NCoef="0" IVar="-1" Cut="0.0000000000000000e+00" cType="1" res="1.0726299369707704e-03" rms="2.9570338129997253e-01" purity="7.8382080793380737e-01" nType="-99"/>
        </Node>
      </Node>
    </BinaryTree>
    <BinaryTree type="DecisionTree" boostWeight="1.0000000000000000e+00" itree="651">
      <Node pos="s" depth="0" NCoef="0" IVar="11" Cut="3.5742452144622803e+00" cType="1" res="-5.6362117175012827e-04" rms="2.9748311638832092e-01" purity="7.8412443399429321e-01" nType="0">
        <Node pos="l" depth="1" NCoef="0" IVar="-1" Cut="0.0000000000000000e+00" cType="1" res="5.3795347921550274e-03" rms="2.6760527491569519e-01" purity="8.8156837224960327e-01" nType="-99"/>
        <Node pos="r" depth="1" NCoef="0" IVar="7" Cut="4.2958872070312500e+03" cType="0" res="-1.7167762853205204e-03" rms="3.0094769597053528e-01" purity="7.7208852767944336e-01" nType="0">
          <Node pos="l" depth="2" NCoef="0" IVar="-1" Cut="0.0000000000000000e+00" cType="1" res="2.5525628589093685e-03" rms="2.7308911085128784e-01" purity="8.5494595766067505e-01" nType="-99"/>
          <Node pos="r" depth="2" NCoef="0" IVar="-1" Cut="0.0000000000000000e+00" cType="1" res="-2.0658185239881277e-03" rms="3.1247606873512268e-01" purity="7.3532778024673462e-01" nType="-99"/>
        </Node>
      </Node>
    </BinaryTree>
    <BinaryTree type="DecisionTree" boostWeight="1.0000000000000000e+00" itree="652">
      <Node pos="s" depth="0" NCoef="0" IVar="25" Cut="3.7730354003906250e+03" cType="1" res="2.3299280655919574e-05" rms="2.9800921678543091e-01" purity="7.8500884771347046e-01" nType="0">
        <Node pos="l" depth="1" NCoef="0" IVar="-1" Cut="0.0000000000000000e+00" cType="1" res="-3.7533618160523474e-04" rms="2.9725313186645508e-01" purity="7.8607410192489624e-01" nType="-99"/>
        <Node pos="r" depth="1" NCoef="0" IVar="17" Cut="1.8818529687500000e+05" cType="1" res="9.3604885041713715e-03" rms="3.0710420012474060e-01" purity="7.7176016569137573e-01" nType="0">
          <Node pos="l" depth="2" NCoef="0" IVar="-1" Cut="0.0000000000000000e+00" cType="1" res="5.4231421090662479e-03" rms="3.0530893802642822e-01" purity="7.7591830492019653e-01" nType="-99"/>
          <Node pos="r" depth="2" NCoef="0" IVar="-1" Cut="0.0000000000000000e+00" cType="1" res="-1.1069452017545700e-01" rms="3.8616287708282471e-01" purity="4.0384614467620850e-01" nType="-99"/>
        </Node>
      </Node>
    </BinaryTree>
    <BinaryTree type="DecisionTree" boostWeight="1.0000000000000000e+00" itree="653">
      <Node pos="s" depth="0" NCoef="0" IVar="24" Cut="1.1256899833679199e+01" cType="1" res="-8.6394359823316336e-04" rms="2.9882398247718811e-01" purity="7.8338617086410522e-01" nType="0">
        <Node pos="l" depth="1" NCoef="0" IVar="-1" Cut="0.0000000000000000e+00" cType="1" res="-1.6664670547470450e-03" rms="2.9028403759002686e-01" purity="8.1169575452804565e-01" nType="-99"/>
        <Node pos="r" depth="1" NCoef="0" IVar="0" Cut="8.4285717010498047e+00" cType="1" res="3.1483438797295094e-03" rms="3.1368145346641541e-01" purity="7.3203766345977783e-01" nType="0">
          <Node pos="l" depth="2" NCoef="0" IVar="-1" Cut="0.0000000000000000e+00" cType="1" res="-2.2202914115041494e-03" rms="2.8331455588340759e-01" purity="8.5732030868530273e-01" nType="-99"/>
          <Node pos="r" depth="2" NCoef="0" IVar="-1" Cut="0.0000000000000000e+00" cType="1" res="4.9631544388830662e-03" rms="3.5706725716590881e-01" purity="5.2952986955642700e-01" nType="-99"/>
        </Node>
      </Node>
    </BinaryTree>
    <BinaryTree type="DecisionTree" boostWeight="1.0000000000000000e+00" itree="654">
      <Node pos="s" depth="0" NCoef="0" IVar="2" Cut="1.9045205414295197e-01" cType="1" res="8.1732461694628000e-05" rms="2.9751408100128174e-01" purity="7.8452444076538086e-01" nType="0">
        <Node pos="l" depth="1" NCoef="0" IVar="-1" Cut="0.0000000000000000e+00" cType="1" res="-6.6866423003375530e-04" rms="2.8858685493469238e-01" purity="8.1415063142776489e-01" nType="-99"/>
        <Node pos="r" depth="1" NCoef="0" IVar="9" Cut="2.6395642089843750e+02" cType="0" res="6.4016883261501789e-03" rms="3.3700132369995117e-01" purity="6.4238286018371582e-01" nType="0">
          <Node pos="l" depth="2" NCoef="0" IVar="-1" Cut="0.0000000000000000e+00" cType="1" res="6.9662020541727543e-03" rms="3.2314738631248474e-01" purity="7.1504873037338257e-01" nType="-99"/>
          <Node pos="r" depth="2" NCoef="0" IVar="-1" Cut="0.0000000000000000e+00" cType="1" res="-4.1201626881957054e-03" rms="3.5995945334434509e-01" purity="5.1132518053054810e-01" nType="-99"/>
        </Node>
      </Node>
    </BinaryTree>
    <BinaryTree type="DecisionTree" boostWeight="1.0000000000000000e+00" itree="655">
      <Node pos="s" depth="0" NCoef="0" IVar="17" Cut="1.8804087500000000e+05" cType="0" res="-4.1298937867395580e-04" rms="2.9796525835990906e-01" purity="7.8524756431579590e-01" nType="0">
        <Node pos="l" depth="1" NCoef="0" IVar="-1" Cut="0.0000000000000000e+00" cType="1" res="2.0830420777201653e-02" rms="2.6649302244186401e-01" purity="8.5085088014602661e-01" nType="-99"/>
        <Node pos="r" depth="1" NCoef="0" IVar="19" Cut="2.3540921875000000e+05" cType="1" res="-6.9537613308057189e-04" rms="2.9818946123123169e-01" purity="7.8471720218658447e-01" nType="0">
          <Node pos="l" depth="2" NCoef="0" IVar="-1" Cut="0.0000000000000000e+00" cType="1" res="-5.8535920288704801e-06" rms="2.9678207635879517e-01" purity="7.8707700967788696e-01" nType="-99"/>
          <Node pos="r" depth="2" NCoef="0" IVar="-1" Cut="0.0000000000000000e+00" cType="1" res="-8.4614837542176247e-03" rms="3.3494862914085388e-01" purity="7.1803975105285645e-01" nType="-99"/>
        </Node>
      </Node>
    </BinaryTree>
    <BinaryTree type="DecisionTree" boostWeight="1.0000000000000000e+00" itree="656">
      <Node pos="s" depth="0" NCoef="0" IVar="13" Cut="1.9047512207031250e+03" cType="0" res="-1.0803760233102366e-04" rms="2.9796037077903748e-01" purity="7.8408682346343994e-01" nType="0">
        <Node pos="l" depth="1" NCoef="0" IVar="-1" Cut="0.0000000000000000e+00" cType="1" res="9.1217813314870000e-04" rms="2.9338780045509338e-01" purity="7.9357129335403442e-01" nType="-99"/>
        <Node pos="r" depth="1" NCoef="0" IVar="0" Cut="1.3333333015441895e+01" cType="1" res="-3.6001417320221663e-03" rms="3.0629482865333557e-01" purity="7.6635622978210449e-01" nType="0">
          <Node pos="l" depth="2" NCoef="0" IVar="-1" Cut="0.0000000000000000e+00" cType="1" res="-3.0517717823386192e-03" rms="3.0481591820716858e-01" purity="7.9732114076614380e-01" nType="-99"/>
          <Node pos="r" depth="2" NCoef="0" IVar="-1" Cut="0.0000000000000000e+00" cType="1" res="1.3795655220746994e-02" rms="3.2596567273139954e-01" purity="2.8862863779067993e-01" nType="-99"/>
        </Node>
      </Node>
    </BinaryTree>
    <BinaryTree type="DecisionTree" boostWeight="1.0000000000000000e+00" itree="657">
      <Node pos="s" depth="0" NCoef="0" IVar="13" Cut="1.2977002929687500e+04" cType="0" res="4.3756124796345830e-04" rms="2.9802110791206360e-01" purity="7.8471893072128296e-01" nType="0">
        <Node pos="l" depth="1" NCoef="0" IVar="-1" Cut="0.0000000000000000e+00" cType="1" res="-4.9105871468782425e-02" rms="2.6971650123596191e-01" purity="8.4062498807907104e-01" nType="-99"/>
        <Node pos="r" depth="1" NCoef="0" IVar="13" Cut="2.6711989746093750e+03" cType="0" res="5.8326055295765400e-04" rms="2.9807642102241516e-01" purity="7.8457540273666382e-01" nType="0">
          <Node pos="l" depth="2" NCoef="0" IVar="-1" Cut="0.0000000000000000e+00" cType="1" res="2.3997768294066191e-03" rms="2.8331416845321655e-01" purity="8.2215833663940430e-01" nType="-99"/>
          <Node pos="r" depth="2" NCoef="0" IVar="-1" Cut="0.0000000000000000e+00" cType="1" res="-1.0180349927395582e-03" rms="3.0824097990989685e-01" purity="7.5751215219497681e-01" nType="-99"/>
        </Node>
      </Node>
    </BinaryTree>
    <BinaryTree type="DecisionTree" boostWeight="1.0000000000000000e+00" itree="658">
      <Node pos="s" depth="0" NCoef="0" IVar="0" Cut="1.4000000000000000e+01" cType="1" res="1.1925614671781659e-03" rms="2.9726865887641907e-01" purity="7.8480082750320435e-01" nType="0">
        <Node pos="l" depth="1" NCoef="0" IVar="-1" Cut="0.0000000000000000e+00" cType="1" res="7.1704009314998984e-04" rms="2.9432445764541626e-01" purity="8.1178462505340576e-01" nType="-99"/>
        <Node pos="r" depth="1" NCoef="0" IVar="22" Cut="-4.6401176452636719e+01" cType="1" res="-1.8544644117355347e-03" rms="3.4306100010871887e-01" purity="3.3038264513015747e-01" nType="0">
          <Node pos="l" depth="2" NCoef="0" IVar="-1" Cut="0.0000000000000000e+00" cType="1" res="5.2706331014633179e-02" rms="2.6879811286926270e-01" purity="8.2098764181137085e-01" nType="-99"/>
          <Node pos="r" depth="2" NCoef="0" IVar="-1" Cut="0.0000000000000000e+00" cType="1" res="-1.8594942521303892e-03" rms="3.4399303793907166e-01" purity="3.1876644492149353e-01" nType="-99"/>
        </Node>
      </Node>
    </BinaryTree>
    <BinaryTree type="DecisionTree" boostWeight="1.0000000000000000e+00" itree="659">
      <Node pos="s" depth="0" NCoef="0" IVar="2" Cut="4.7613013535737991e-02" cType="1" res="-5.4258242016658187e-04" rms="2.9891353845596313e-01" purity="7.8311336040496826e-01" nType="0">
        <Node pos="l" depth="1" NCoef="0" IVar="-1" Cut="0.0000000000000000e+00" cType="1" res="8.5806380957365036e-04" rms="2.6857715845108032e-01" purity="8.6458361148834229e-01" nType="-99"/>
        <Node pos="r" depth="1" NCoef="0" IVar="9" Cut="2.9568734741210938e+02" cType="0" res="-3.1310853082686663e-03" rms="3.3529052138328552e-01" purity="6.7388075590133667e-01" nType="0">
          <Node pos="l" depth="2" NCoef="0" IVar="-1" Cut="0.0000000000000000e+00" cType="1" res="9.7973411902785301e-04" rms="3.2083380222320557e-01" purity="7.5033211708068848e-01" nType="-99"/>
          <Node pos="r" depth="2" NCoef="0" IVar="-1" Cut="0.0000000000000000e+00" cType="1" res="-4.0748766623437405e-03" rms="3.5527434945106506e-01" purity="5.6182485818862915e-01" nType="-99"/>
        </Node>
      </Node>
    </BinaryTree>
    <BinaryTree type="DecisionTree" boostWeight="1.0000000000000000e+00" itree="660">
      <Node pos="s" depth="0" NCoef="0" IVar="17" Cut="1.2575927343750000e+05" cType="0" res="-2.9185385210439563e-04" rms="2.9825976490974426e-01" purity="7.8450930118560791e-01" nType="0">
        <Node pos="l" depth="1" NCoef="0" IVar="-1" Cut="0.0000000000000000e+00" cType="1" res="7.7904984354972839e-03" rms="2.8485801815986633e-01" purity="8.0252498388290405e-01" nType="-99"/>
        <Node pos="r" depth="1" NCoef="0" IVar="19" Cut="3.4807365625000000e+05" cType="0" res="-8.2555651897564530e-04" rms="2.9870042204856873e-01" purity="7.8388333320617676e-01" nType="0">
          <Node pos="l" depth="2" NCoef="0" IVar="-1" Cut="0.0000000000000000e+00" cType="1" res="3.0457956716418266e-02" rms="3.1957557797431946e-01" purity="8.9709764719009399e-01" nType="-99"/>
          <Node pos="r" depth="2" NCoef="0" IVar="-1" Cut="0.0000000000000000e+00" cType="1" res="-5.2855879766866565e-04" rms="2.9860910773277283e-01" purity="7.8352707624435425e-01" nType="-99"/>
        </Node>
      </Node>
    </BinaryTree>
    <BinaryTree type="DecisionTree" boostWeight="1.0000000000000000e+00" itree="661">
      <Node pos="s" depth="0" NCoef="0" IVar="31" Cut="4.6095056533813477e+00" cType="0" res="-1.1063796700909734e-03" rms="2.9824444651603699e-01" purity="7.8355449438095093e-01" nType="0">
        <Node pos="l" depth="1" NCoef="0" IVar="-1" Cut="0.0000000000000000e+00" cType="1" res="2.2305436432361603e-03" rms="2.7481186389923096e-01" purity="8.1771838665008545e-01" nType="-99"/>
        <Node pos="r" depth="1" NCoef="0" IVar="0" Cut="1.1571428298950195e+01" cType="1" res="-2.8510724660009146e-03" rms="3.0596169829368591e-01" purity="7.7166140079498291e-01" nType="0">
          <Node pos="l" depth="2" NCoef="0" IVar="-1" Cut="0.0000000000000000e+00" cType="1" res="-5.1776302279904485e-04" rms="2.9757767915725708e-01" purity="8.2781845331192017e-01" nType="-99"/>
          <Node pos="r" depth="2" NCoef="0" IVar="-1" Cut="0.0000000000000000e+00" cType="1" res="-5.3168660961091518e-03" rms="3.5715422034263611e-01" purity="3.9289304614067078e-01" nType="-99"/>
        </Node>
      </Node>
    </BinaryTree>
    <BinaryTree type="DecisionTree" boostWeight="1.0000000000000000e+00" itree="662">
      <Node pos="s" depth="0" NCoef="0" IVar="3" Cut="3.2170036621093750e+03" cType="0" res="1.2080208398401737e-04" rms="2.9793140292167664e-01" purity="7.8529918193817139e-01" nType="0">
        <Node pos="l" depth="1" NCoef="0" IVar="-1" Cut="0.0000000000000000e+00" cType="1" res="-1.0726976906880736e-03" rms="2.9505077004432678e-01" purity="7.9186683893203735e-01" nType="-99"/>
        <Node pos="r" depth="1" NCoef="0" IVar="0" Cut="5.4285712242126465e+00" cType="1" res="3.7061143666505814e-03" rms="3.0266830325126648e-01" purity="7.7428162097930908e-01" nType="0">
          <Node pos="l" depth="2" NCoef="0" IVar="-1" Cut="0.0000000000000000e+00" cType="1" res="8.4659950807690620e-03" rms="2.5416132807731628e-01" purity="9.0599066019058228e-01" nType="-99"/>
          <Node pos="r" depth="2" NCoef="0" IVar="-1" Cut="0.0000000000000000e+00" cType="1" res="-3.3355453051626682e-03" rms="3.5648608207702637e-01" purity="5.9988009929656982e-01" nType="-99"/>
        </Node>
      </Node>
    </BinaryTree>
    <BinaryTree type="DecisionTree" boostWeight="1.0000000000000000e+00" itree="663">
      <Node pos="s" depth="0" NCoef="0" IVar="0" Cut="1.4000000000000000e+01" cType="1" res="5.1651854300871491e-04" rms="2.9657670855522156e-01" purity="7.8511941432952881e-01" nType="0">
        <Node pos="l" depth="1" NCoef="0" IVar="-1" Cut="0.0000000000000000e+00" cType="1" res="4.3221231317147613e-04" rms="2.9393416643142700e-01" purity="8.1239885091781616e-01" nType="-99"/>
        <Node pos="r" depth="1" NCoef="0" IVar="27" Cut="2.1483598437500000e+05" cType="0" res="-4.7005079686641693e-03" rms="3.3817249536514282e-01" purity="3.2304823398590088e-01" nType="0">
          <Node pos="l" depth="2" NCoef="0" IVar="-1" Cut="0.0000000000000000e+00" cType="1" res="7.2881959378719330e-02" rms="2.0595151185989380e-01" purity="9.3617022037506104e-01" nType="-99"/>
          <Node pos="r" depth="2" NCoef="0" IVar="-1" Cut="0.0000000000000000e+00" cType="1" res="-2.4292450398206711e-03" rms="3.3821487426757812e-01" purity="3.1888455152511597e-01" nType="-99"/>
        </Node>
      </Node>
    </BinaryTree>
    <BinaryTree type="DecisionTree" boostWeight="1.0000000000000000e+00" itree="664">
      <Node pos="s" depth="0" NCoef="0" IVar="1" Cut="2.9267395019531250e+03" cType="1" res="-9.4885326689109206e-05" rms="2.9779201745986938e-01" purity="7.8454250097274780e-01" nType="0">
        <Node pos="l" depth="1" NCoef="0" IVar="-1" Cut="0.0000000000000000e+00" cType="1" res="2.4813046911731362e-04" rms="2.9736387729644775e-01" purity="7.8520393371582031e-01" nType="-99"/>
        <Node pos="r" depth="1" NCoef="0" IVar="9" Cut="4.5902969360351562e+02" cType="0" res="-9.9867908284068108e-03" rms="3.0477741360664368e-01" purity="7.7334672212600708e-01" nType="0">
          <Node pos="l" depth="2" NCoef="0" IVar="-1" Cut="0.0000000000000000e+00" cType="1" res="-1.3382471166551113e-02" rms="2.9159370064735413e-01" purity="8.3014929294586182e-01" nType="-99"/>
          <Node pos="r" depth="2" NCoef="0" IVar="-1" Cut="0.0000000000000000e+00" cType="1" res="2.7909087017178535e-02" rms="3.8907811045646667e-01" purity="2.9649594426155090e-01" nType="-99"/>
        </Node>
      </Node>
    </BinaryTree>
    <BinaryTree type="DecisionTree" boostWeight="1.0000000000000000e+00" itree="665">
      <Node pos="s" depth="0" NCoef="0" IVar="17" Cut="1.8797882812500000e+05" cType="0" res="2.1284139074850827e-04" rms="2.9812872409820557e-01" purity="7.8441554307937622e-01" nType="0">
        <Node pos="l" depth="1" NCoef="0" IVar="-1" Cut="0.0000000000000000e+00" cType="1" res="2.0265236496925354e-02" rms="2.5503537058830261e-01" purity="8.6080950498580933e-01" nType="-99"/>
        <Node pos="r" depth="1" NCoef="0" IVar="17" Cut="9.0023125000000000e+04" cType="0" res="-5.0614020437933505e-05" rms="2.9844188690185547e-01" purity="7.8378945589065552e-01" nType="0">
          <Node pos="l" depth="2" NCoef="0" IVar="-1" Cut="0.0000000000000000e+00" cType="1" res="5.0344332121312618e-03" rms="3.0136883258819580e-01" purity="7.8981500864028931e-01" nType="-99"/>
          <Node pos="r" depth="2" NCoef="0" IVar="-1" Cut="0.0000000000000000e+00" cType="1" res="-5.1078200340270996e-04" rms="2.9815140366554260e-01" purity="7.8323096036911011e-01" nType="-99"/>
        </Node>
      </Node>
    </BinaryTree>
    <BinaryTree type="DecisionTree" boostWeight="1.0000000000000000e+00" itree="666">
      <Node pos="s" depth="0" NCoef="0" IVar="1" Cut="2.3031530761718750e+03" cType="1" res="3.0518599669449031e-04" rms="2.9734265804290771e-01" purity="7.8546160459518433e-01" nType="0">
        <Node pos="l" depth="1" NCoef="0" IVar="-1" Cut="0.0000000000000000e+00" cType="1" res="7.7853887341916561e-04" rms="2.9549434781074524e-01" purity="7.9564189910888672e-01" nType="-99"/>
        <Node pos="r" depth="1" NCoef="0" IVar="9" Cut="4.8389053344726562e+02" cType="0" res="-6.3018160872161388e-03" rms="3.0697423219680786e-01" purity="7.3090296983718872e-01" nType="0">
          <Node pos="l" depth="2" NCoef="0" IVar="-1" Cut="0.0000000000000000e+00" cType="1" res="-1.4425400644540787e-02" rms="2.7730187773704529e-01" purity="8.3359712362289429e-01" nType="-99"/>
          <Node pos="r" depth="2" NCoef="0" IVar="-1" Cut="0.0000000000000000e+00" cType="1" res="1.6355091705918312e-02" rms="3.8767334818840027e-01" purity="3.7670609354972839e-01" nType="-99"/>
        </Node>
      </Node>
    </BinaryTree>
    <BinaryTree type="DecisionTree" boostWeight="1.0000000000000000e+00" itree="667">
      <Node pos="s" depth="0" NCoef="0" IVar="22" Cut="7.0675146484375000e+02" cType="0" res="1.0717138648033142e-03" rms="2.9731601476669312e-01" purity="7.8563767671585083e-01" nType="0">
        <Node pos="l" depth="1" NCoef="0" IVar="-1" Cut="0.0000000000000000e+00" cType="1" res="7.4550798162817955e-03" rms="2.8174480795860291e-01" purity="7.9967689514160156e-01" nType="-99"/>
        <Node pos="r" depth="1" NCoef="0" IVar="9" Cut="1.4741542968750000e+03" cType="0" res="5.0940277287736535e-04" rms="2.9792788624763489e-01" purity="7.8505820035934448e-01" nType="0">
          <Node pos="l" depth="2" NCoef="0" IVar="-1" Cut="0.0000000000000000e+00" cType="1" res="1.0062699206173420e-02" rms="1.9854570925235748e-01" purity="9.5542633533477783e-01" nType="-99"/>
          <Node pos="r" depth="2" NCoef="0" IVar="-1" Cut="0.0000000000000000e+00" cType="1" res="-2.1435578673845157e-05" rms="3.0278331041336060e-01" purity="7.7496820688247681e-01" nType="-99"/>
        </Node>
      </Node>
    </BinaryTree>
    <BinaryTree type="DecisionTree" boostWeight="1.0000000000000000e+00" itree="668">
      <Node pos="s" depth="0" NCoef="0" IVar="9" Cut="8.2769177246093750e+02" cType="0" res="-2.7472188230603933e-04" rms="2.9819506406784058e-01" purity="7.8459542989730835e-01" nType="0">
        <Node pos="l" depth="1" NCoef="0" IVar="-1" Cut="0.0000000000000000e+00" cType="1" res="4.6304007992148399e-03" rms="2.4173273146152496e-01" purity="9.2483741044998169e-01" nType="-99"/>
        <Node pos="r" depth="1" NCoef="0" IVar="1" Cut="1.7035980224609375e+03" cType="1" res="-1.4260326279327273e-03" rms="3.0756288766860962e-01" purity="7.5845181941986084e-01" nType="0">
          <Node pos="l" depth="2" NCoef="0" IVar="-1" Cut="0.0000000000000000e+00" cType="1" res="1.6330761136487126e-03" rms="2.9863804578781128e-01" purity="7.8497844934463501e-01" nType="-99"/>
          <Node pos="r" depth="2" NCoef="0" IVar="-1" Cut="0.0000000000000000e+00" cType="1" res="-4.0622684173285961e-03" rms="3.2096803188323975e-01" purity="7.1669697761535645e-01" nType="-99"/>
        </Node>
      </Node>
    </BinaryTree>
    <BinaryTree type="DecisionTree" boostWeight="1.0000000000000000e+00" itree="669">
      <Node pos="s" depth="0" NCoef="0" IVar="2" Cut="4.7613013535737991e-02" cType="1" res="-5.1374139729887247e-04" rms="2.9787418246269226e-01" purity="7.8400206565856934e-01" nType="0">
        <Node pos="l" depth="1" NCoef="0" IVar="-1" Cut="0.0000000000000000e+00" cType="1" res="1.1696162400767207e-03" rms="2.6646721363067627e-01" purity="8.6687421798706055e-01" nType="-99"/>
        <Node pos="r" depth="1" NCoef="0" IVar="25" Cut="1.1162949218750000e+03" cType="0" res="-3.7140378262847662e-03" rms="3.3537614345550537e-01" purity="6.7288076877593994e-01" nType="0">
          <Node pos="l" depth="2" NCoef="0" IVar="-1" Cut="0.0000000000000000e+00" cType="1" res="-1.0975106852129102e-03" rms="3.3449575304985046e-01" purity="6.7427146434783936e-01" nType="-99"/>
          <Node pos="r" depth="2" NCoef="0" IVar="-1" Cut="0.0000000000000000e+00" cType="1" res="-1.6927335411310196e-02" rms="3.6719629168510437e-01" purity="6.1562746763229370e-01" nType="-99"/>
        </Node>
      </Node>
    </BinaryTree>
    <BinaryTree type="DecisionTree" boostWeight="1.0000000000000000e+00" itree="670">
      <Node pos="s" depth="0" NCoef="0" IVar="34" Cut="4.2857754230499268e-01" cType="0" res="9.4984359748195857e-05" rms="2.9795157909393311e-01" purity="7.8429049253463745e-01" nType="0">
        <Node pos="l" depth="1" NCoef="0" IVar="-1" Cut="0.0000000000000000e+00" cType="1" res="-8.9844252215698361e-07" rms="2.9796162247657776e-01" purity="7.8434735536575317e-01" nType="-99"/>
        <Node pos="r" depth="1" NCoef="0" IVar="26" Cut="5.7836743164062500e+03" cType="0" res="9.0182594954967499e-02" rms="2.7398785948753357e-01" purity="7.3134326934814453e-01" nType="0">
          <Node pos="l" depth="2" NCoef="0" IVar="-1" Cut="0.0000000000000000e+00" cType="1" res="5.5239345878362656e-02" rms="2.5725686550140381e-01" purity="8.2499998807907104e-01" nType="-99"/>
          <Node pos="r" depth="2" NCoef="0" IVar="-1" Cut="0.0000000000000000e+00" cType="1" res="-1.4573211083188653e-03" rms="2.7122583985328674e-01" purity="5.9259259700775146e-01" nType="-99"/>
        </Node>
      </Node>
    </BinaryTree>
    <BinaryTree type="DecisionTree" boostWeight="1.0000000000000000e+00" itree="671">
      <Node pos="s" depth="0" NCoef="0" IVar="0" Cut="1.0285714149475098e+01" cType="1" res="-2.9975007055327296e-04" rms="2.9576739668846130e-01" purity="7.8490746021270752e-01" nType="0">
        <Node pos="l" depth="1" NCoef="0" IVar="-1" Cut="0.0000000000000000e+00" cType="1" res="5.4196990095078945e-04" rms="2.8393024206161499e-01" purity="8.4642809629440308e-01" nType="-99"/>
        <Node pos="r" depth="1" NCoef="0" IVar="22" Cut="8.7790447998046875e+02" cType="1" res="-7.7072321437299252e-03" rms="3.5720169544219971e-01" purity="4.2468470335006714e-01" nType="0">
          <Node pos="l" depth="2" NCoef="0" IVar="-1" Cut="0.0000000000000000e+00" cType="1" res="-1.5557004371657968e-03" rms="3.5673439502716064e-01" purity="4.2784312367439270e-01" nType="-99"/>
          <Node pos="r" depth="2" NCoef="0" IVar="-1" Cut="0.0000000000000000e+00" cType="1" res="-6.4716890454292297e-02" rms="3.3638015389442444e-01" purity="2.4104234576225281e-01" nType="-99"/>
        </Node>
      </Node>
    </BinaryTree>
    <BinaryTree type="DecisionTree" boostWeight="1.0000000000000000e+00" itree="672">
      <Node pos="s" depth="0" NCoef="0" IVar="3" Cut="1.3359976562500000e+04" cType="1" res="1.2709406291833147e-05" rms="2.9722297191619873e-01" purity="7.8551638126373291e-01" nType="0">
        <Node pos="l" depth="1" NCoef="0" IVar="3" Cut="1.5062932128906250e+03" cType="1" res="8.3330800407566130e-05" rms="2.9717999696731567e-01" purity="7.8558033704757690e-01" nType="0">
          <Node pos="l" depth="2" NCoef="0" IVar="-1" Cut="0.0000000000000000e+00" cType="1" res="3.1651023775339127e-02" rms="1.8529871106147766e-01" purity="9.2838197946548462e-01" nType="-99"/>
          <Node pos="r" depth="2" NCoef="0" IVar="-1" Cut="0.0000000000000000e+00" cType="1" res="-1.1209274089196697e-04" rms="2.9770621657371521e-01" purity="7.8471237421035767e-01" nType="-99"/>
        </Node>
        <Node pos="r" depth="1" NCoef="0" IVar="-1" Cut="0.0000000000000000e+00" cType="1" res="-9.4786718487739563e-02" rms="3.4353539347648621e-01" purity="6.7142856121063232e-01" nType="-99"/>
      </Node>
    </BinaryTree>
    <BinaryTree type="DecisionTree" boostWeight="1.0000000000000000e+00" itree="673">
      <Node pos="s" depth="0" NCoef="0" IVar="0" Cut="1.4000000000000000e+01" cType="1" res="9.1402902035042644e-04" rms="2.9661881923675537e-01" purity="7.8544145822525024e-01" nType="0">
        <Node pos="l" depth="1" NCoef="0" IVar="-1" Cut="0.0000000000000000e+00" cType="1" res="4.6359005500562489e-04" rms="2.9390925168991089e-01" purity="8.1239712238311768e-01" nType="-99"/>
        <Node pos="r" depth="1" NCoef="0" IVar="25" Cut="4.1843139648437500e+03" cType="0" res="1.4211664674803615e-03" rms="3.3954656124114990e-01" purity="3.2537487149238586e-01" nType="0">
          <Node pos="l" depth="2" NCoef="0" IVar="-1" Cut="0.0000000000000000e+00" cType="1" res="1.6035484150052071e-02" rms="3.2531768083572388e-01" purity="5.2019166946411133e-01" nType="-99"/>
          <Node pos="r" depth="2" NCoef="0" IVar="-1" Cut="0.0000000000000000e+00" cType="1" res="-4.0410435758531094e-03" rms="3.4230166673660278e-01" purity="2.7274408936500549e-01" nType="-99"/>
        </Node>
      </Node>
    </BinaryTree>
    <BinaryTree type="DecisionTree" boostWeight="1.0000000000000000e+00" itree="674">
      <Node pos="s" depth="0" NCoef="0" IVar="25" Cut="1.1126033935546875e+03" cType="0" res="-1.0914615122601390e-03" rms="2.9834738373756409e-01" purity="7.8412801027297974e-01" nType="0">
        <Node pos="l" depth="1" NCoef="0" IVar="-1" Cut="0.0000000000000000e+00" cType="1" res="-1.2477007112465799e-04" rms="2.9714539647102356e-01" purity="7.8422456979751587e-01" nType="-99"/>
        <Node pos="r" depth="1" NCoef="0" IVar="3" Cut="2.4542907714843750e+03" cType="1" res="-2.0753424614667892e-02" rms="3.2431873679161072e-01" purity="7.8189218044281006e-01" nType="0">
          <Node pos="l" depth="2" NCoef="0" IVar="-1" Cut="0.0000000000000000e+00" cType="1" res="-3.1838598661124706e-03" rms="3.1016871333122253e-01" purity="8.3805406093597412e-01" nType="-99"/>
          <Node pos="r" depth="2" NCoef="0" IVar="-1" Cut="0.0000000000000000e+00" cType="1" res="-4.6200279146432877e-02" rms="4.0696462988853455e-01" purity="2.9455909132957458e-01" nType="-99"/>
        </Node>
      </Node>
    </BinaryTree>
    <BinaryTree type="DecisionTree" boostWeight="1.0000000000000000e+00" itree="675">
      <Node pos="s" depth="0" NCoef="0" IVar="2" Cut="3.3329108357429504e-01" cType="1" res="1.0472922585904598e-03" rms="2.9644951224327087e-01" purity="7.8575319051742554e-01" nType="0">
        <Node pos="l" depth="1" NCoef="0" IVar="-1" Cut="0.0000000000000000e+00" cType="1" res="9.5529673853889108e-04" rms="2.9220846295356750e-01" purity="8.0124723911285400e-01" nType="-99"/>
        <Node pos="r" depth="1" NCoef="0" IVar="20" Cut="6.1905455589294434e-01" cType="0" res="-8.7599102407693863e-03" rms="3.4547269344329834e-01" purity="5.8980530500411987e-01" nType="0">
          <Node pos="l" depth="2" NCoef="0" IVar="-1" Cut="0.0000000000000000e+00" cType="1" res="-1.9444116624072194e-03" rms="3.4542390704154968e-01" purity="6.0211712121963501e-01" nType="-99"/>
          <Node pos="r" depth="2" NCoef="0" IVar="-1" Cut="0.0000000000000000e+00" cType="1" res="-3.1189015135169029e-02" rms="3.3788836002349854e-01" purity="3.5254988074302673e-01" nType="-99"/>
        </Node>
      </Node>
    </BinaryTree>
    <BinaryTree type="DecisionTree" boostWeight="1.0000000000000000e+00" itree="676">
      <Node pos="s" depth="0" NCoef="0" IVar="2" Cut="4.7613013535737991e-02" cType="1" res="-3.7141577922739089e-04" rms="2.9673808813095093e-01" purity="7.8445887565612793e-01" nType="0">
        <Node pos="l" depth="1" NCoef="0" IVar="-1" Cut="0.0000000000000000e+00" cType="1" res="1.3617343502119184e-03" rms="2.6586940884590149e-01" purity="8.6665737628936768e-01" nType="-99"/>
        <Node pos="r" depth="1" NCoef="0" IVar="9" Cut="2.9568734741210938e+02" cType="0" res="-3.8219643756747246e-03" rms="3.3397406339645386e-01" purity="6.7320460081100464e-01" nType="0">
          <Node pos="l" depth="2" NCoef="0" IVar="-1" Cut="0.0000000000000000e+00" cType="1" res="1.2057767016813159e-03" rms="3.2041653990745544e-01" purity="7.5015062093734741e-01" nType="-99"/>
          <Node pos="r" depth="2" NCoef="0" IVar="-1" Cut="0.0000000000000000e+00" cType="1" res="-5.0399578176438808e-03" rms="3.5284528136253357e-01" purity="5.5944120883941650e-01" nType="-99"/>
        </Node>
      </Node>
    </BinaryTree>
    <BinaryTree type="DecisionTree" boostWeight="1.0000000000000000e+00" itree="677">
      <Node pos="s" depth="0" NCoef="0" IVar="3" Cut="3.2170036621093750e+03" cType="0" res="6.6662745666690171e-05" rms="2.9781812429428101e-01" purity="7.8510123491287231e-01" nType="0">
        <Node pos="l" depth="1" NCoef="0" IVar="-1" Cut="0.0000000000000000e+00" cType="1" res="-1.0171342873945832e-03" rms="2.9618713259696960e-01" purity="7.9126375913619995e-01" nType="-99"/>
        <Node pos="r" depth="1" NCoef="0" IVar="7" Cut="1.7700642089843750e+03" cType="0" res="3.3633164130151272e-03" rms="3.0049189925193787e-01" purity="7.7481478452682495e-01" nType="0">
          <Node pos="l" depth="2" NCoef="0" IVar="-1" Cut="0.0000000000000000e+00" cType="1" res="-1.0732322698459029e-03" rms="2.9038915038108826e-01" purity="7.9088282585144043e-01" nType="-99"/>
          <Node pos="r" depth="2" NCoef="0" IVar="-1" Cut="0.0000000000000000e+00" cType="1" res="9.7105037420988083e-03" rms="3.3368825912475586e-01" purity="7.1680283546447754e-01" nType="-99"/>
        </Node>
      </Node>
    </BinaryTree>
    <BinaryTree type="DecisionTree" boostWeight="1.0000000000000000e+00" itree="678">
      <Node pos="s" depth="0" NCoef="0" IVar="11" Cut="9.5237979888916016e+00" cType="1" res="-7.1789597859606147e-04" rms="2.9765018820762634e-01" purity="7.8415852785110474e-01" nType="0">
        <Node pos="l" depth="1" NCoef="0" IVar="-1" Cut="0.0000000000000000e+00" cType="1" res="1.5163900097832084e-03" rms="2.7731853723526001e-01" purity="8.4369444847106934e-01" nType="-99"/>
        <Node pos="r" depth="1" NCoef="0" IVar="1" Cut="2.2270983886718750e+03" cType="1" res="-2.4285779800266027e-03" rms="3.0751466751098633e-01" purity="7.5371187925338745e-01" nType="0">
          <Node pos="l" depth="2" NCoef="0" IVar="-1" Cut="0.0000000000000000e+00" cType="1" res="-2.1935367840342224e-05" rms="3.0590322613716125e-01" purity="7.7017241716384888e-01" nType="-99"/>
          <Node pos="r" depth="2" NCoef="0" IVar="-1" Cut="0.0000000000000000e+00" cType="1" res="-7.2837881743907928e-03" rms="3.1484323740005493e-01" purity="6.7515569925308228e-01" nType="-99"/>
        </Node>
      </Node>
    </BinaryTree>
    <BinaryTree type="DecisionTree" boostWeight="1.0000000000000000e+00" itree="679">
      <Node pos="s" depth="0" NCoef="0" IVar="2" Cut="2.6187157630920410e-01" cType="1" res="-5.8700429508462548e-04" rms="2.9798972606658936e-01" purity="7.8489625453948975e-01" nType="0">
        <Node pos="l" depth="1" NCoef="0" IVar="-1" Cut="0.0000000000000000e+00" cType="1" res="-8.0307276220992208e-04" rms="2.9195356369018555e-01" purity="8.0596679449081421e-01" nType="-99"/>
        <Node pos="r" depth="1" NCoef="0" IVar="13" Cut="3.6795156250000000e+03" cType="0" res="6.1825336888432503e-03" rms="3.3921805024147034e-01" purity="6.2914127111434937e-01" nType="0">
          <Node pos="l" depth="2" NCoef="0" IVar="-1" Cut="0.0000000000000000e+00" cType="1" res="-9.4199702143669128e-03" rms="3.3100932836532593e-01" purity="6.9050973653793335e-01" nType="-99"/>
          <Node pos="r" depth="2" NCoef="0" IVar="-1" Cut="0.0000000000000000e+00" cType="1" res="5.6368815712630749e-03" rms="3.4129843115806580e-01" purity="6.1000877618789673e-01" nType="-99"/>
        </Node>
      </Node>
    </BinaryTree>
    <BinaryTree type="DecisionTree" boostWeight="1.0000000000000000e+00" itree="680">
      <Node pos="s" depth="0" NCoef="0" IVar="9" Cut="1.9615290527343750e+03" cType="0" res="2.5252063642255962e-04" rms="2.9844665527343750e-01" purity="7.8453153371810913e-01" nType="0">
        <Node pos="l" depth="1" NCoef="0" IVar="-1" Cut="0.0000000000000000e+00" cType="1" res="1.6960751265287399e-02" rms="1.8516230583190918e-01" purity="9.6285396814346313e-01" nType="-99"/>
        <Node pos="r" depth="1" NCoef="0" IVar="1" Cut="4.0337324218750000e+03" cType="1" res="-1.1026235733879730e-04" rms="3.0048349499702454e-01" purity="7.8054118156433105e-01" nType="0">
          <Node pos="l" depth="2" NCoef="0" IVar="-1" Cut="0.0000000000000000e+00" cType="1" res="7.2314119279326405e-06" rms="3.0027934908866882e-01" purity="7.8073382377624512e-01" nType="-99"/>
          <Node pos="r" depth="2" NCoef="0" IVar="-1" Cut="0.0000000000000000e+00" cType="1" res="-6.9584697484970093e-02" rms="5.2059054374694824e-01" purity="4.0322580933570862e-01" nType="-99"/>
        </Node>
      </Node>
    </BinaryTree>
    <BinaryTree type="DecisionTree" boostWeight="1.0000000000000000e+00" itree="681">
      <Node pos="s" depth="0" NCoef="0" IVar="35" Cut="1.1580952453613281e+02" cType="0" res="2.8916148585267365e-04" rms="2.9676705598831177e-01" purity="7.8588461875915527e-01" nType="0">
        <Node pos="l" depth="1" NCoef="0" IVar="-1" Cut="0.0000000000000000e+00" cType="1" res="-7.3149967647623271e-05" rms="2.9624068737030029e-01" purity="7.8671497106552124e-01" nType="-99"/>
        <Node pos="r" depth="1" NCoef="0" IVar="35" Cut="1.1095237731933594e+01" cType="0" res="1.1292644776403904e-02" rms="3.0969488620758057e-01" purity="7.6469337940216064e-01" nType="0">
          <Node pos="l" depth="2" NCoef="0" IVar="-1" Cut="0.0000000000000000e+00" cType="1" res="1.7244951799511909e-02" rms="2.8649911284446716e-01" purity="7.9232692718505859e-01" nType="-99"/>
          <Node pos="r" depth="2" NCoef="0" IVar="-1" Cut="0.0000000000000000e+00" cType="1" res="1.2835317756980658e-03" rms="3.1680878996849060e-01" purity="7.5521874427795410e-01" nType="-99"/>
        </Node>
      </Node>
    </BinaryTree>
    <BinaryTree type="DecisionTree" boostWeight="1.0000000000000000e+00" itree="682">
      <Node pos="s" depth="0" NCoef="0" IVar="24" Cut="1.1266522407531738e+01" cType="1" res="-2.2562773665413260e-04" rms="2.9759296774864197e-01" purity="7.8411674499511719e-01" nType="0">
        <Node pos="l" depth="1" NCoef="0" IVar="-1" Cut="0.0000000000000000e+00" cType="1" res="-1.1117032263427973e-03" rms="2.8883850574493408e-01" purity="8.1230664253234863e-01" nType="-99"/>
        <Node pos="r" depth="1" NCoef="0" IVar="32" Cut="1.4622232913970947e+00" cType="0" res="3.0820078682154417e-03" rms="3.1285747885704041e-01" purity="7.3285776376724243e-01" nType="0">
          <Node pos="l" depth="2" NCoef="0" IVar="-1" Cut="0.0000000000000000e+00" cType="1" res="-2.2077120374888182e-03" rms="2.9652675986289978e-01" purity="7.6918298006057739e-01" nType="-99"/>
          <Node pos="r" depth="2" NCoef="0" IVar="-1" Cut="0.0000000000000000e+00" cType="1" res="4.4711092486977577e-03" rms="3.2865947484970093e-01" purity="6.9544559717178345e-01" nType="-99"/>
        </Node>
      </Node>
    </BinaryTree>
    <BinaryTree type="DecisionTree" boostWeight="1.0000000000000000e+00" itree="683">
      <Node pos="s" depth="0" NCoef="0" IVar="7" Cut="2.1617390136718750e+03" cType="0" res="-4.0258659282699227e-04" rms="2.9676619172096252e-01" purity="7.8450649976730347e-01" nType="0">
        <Node pos="l" depth="1" NCoef="0" IVar="-1" Cut="0.0000000000000000e+00" cType="1" res="8.9932710397988558e-04" rms="2.8515672683715820e-01" purity="8.2138186693191528e-01" nType="-99"/>
        <Node pos="r" depth="1" NCoef="0" IVar="3" Cut="3.3815029296875000e+03" cType="1" res="-6.0926829464733601e-03" rms="3.2672962546348572e-01" purity="6.8229353427886963e-01" nType="0">
          <Node pos="l" depth="2" NCoef="0" IVar="-1" Cut="0.0000000000000000e+00" cType="1" res="3.5401724744588137e-03" rms="3.2645440101623535e-01" purity="7.1470803022384644e-01" nType="-99"/>
          <Node pos="r" depth="2" NCoef="0" IVar="-1" Cut="0.0000000000000000e+00" cType="1" res="-1.0056761093437672e-02" rms="3.2628253102302551e-01" purity="6.4549857378005981e-01" nType="-99"/>
        </Node>
      </Node>
    </BinaryTree>
    <BinaryTree type="DecisionTree" boostWeight="1.0000000000000000e+00" itree="684">
      <Node pos="s" depth="0" NCoef="0" IVar="1" Cut="1.2762609863281250e+03" cType="0" res="3.6401752731762826e-04" rms="2.9702964425086975e-01" purity="7.8559511899948120e-01" nType="0">
        <Node pos="l" depth="1" NCoef="0" IVar="-1" Cut="0.0000000000000000e+00" cType="1" res="8.3804450696334243e-04" rms="2.9219660162925720e-01" purity="8.1736284494400024e-01" nType="-99"/>
        <Node pos="r" depth="1" NCoef="0" IVar="9" Cut="2.6035339355468750e+02" cType="1" res="-1.0459627956151962e-02" rms="3.3684614300727844e-01" purity="5.0259524583816528e-01" nType="0">
          <Node pos="l" depth="2" NCoef="0" IVar="-1" Cut="0.0000000000000000e+00" cType="1" res="6.3261170871555805e-03" rms="3.3093476295471191e-01" purity="5.4523199796676636e-01" nType="-99"/>
          <Node pos="r" depth="2" NCoef="0" IVar="-1" Cut="0.0000000000000000e+00" cType="1" res="-3.5169515758752823e-02" rms="3.4209218621253967e-01" purity="3.7448033690452576e-01" nType="-99"/>
        </Node>
      </Node>
    </BinaryTree>
    <BinaryTree type="DecisionTree" boostWeight="1.0000000000000000e+00" itree="685">
      <Node pos="s" depth="0" NCoef="0" IVar="0" Cut="4.7142858505249023e+00" cType="1" res="-4.1601684642955661e-04" rms="2.9689496755599976e-01" purity="7.8465932607650757e-01" nType="0">
        <Node pos="l" depth="1" NCoef="0" IVar="-1" Cut="0.0000000000000000e+00" cType="1" res="3.0312128365039825e-03" rms="2.3766519129276276e-01" purity="9.1864627599716187e-01" nType="-99"/>
        <Node pos="r" depth="1" NCoef="0" IVar="3" Cut="3.6584448242187500e+03" cType="0" res="-2.2949809208512306e-03" rms="3.1962507963180542e-01" purity="7.2530794143676758e-01" nType="0">
          <Node pos="l" depth="2" NCoef="0" IVar="-1" Cut="0.0000000000000000e+00" cType="1" res="2.4688118137419224e-03" rms="3.0721676349639893e-01" purity="7.6327878236770630e-01" nType="-99"/>
          <Node pos="r" depth="2" NCoef="0" IVar="-1" Cut="0.0000000000000000e+00" cType="1" res="-4.2126853950321674e-03" rms="3.3231666684150696e-01" purity="6.8431317806243896e-01" nType="-99"/>
        </Node>
      </Node>
    </BinaryTree>
    <BinaryTree type="DecisionTree" boostWeight="1.0000000000000000e+00" itree="686">
      <Node pos="s" depth="0" NCoef="0" IVar="24" Cut="8.1354112625122070e+00" cType="1" res="7.2555223596282303e-05" rms="2.9744213819503784e-01" purity="7.8472954034805298e-01" nType="0">
        <Node pos="l" depth="1" NCoef="0" IVar="-1" Cut="0.0000000000000000e+00" cType="1" res="-1.4084938447922468e-03" rms="2.8296661376953125e-01" purity="8.3052438497543335e-01" nType="-99"/>
        <Node pos="r" depth="1" NCoef="0" IVar="27" Cut="4.2980824218750000e+04" cType="0" res="2.3253744002431631e-03" rms="3.0961778759956360e-01" purity="7.4438285827636719e-01" nType="0">
          <Node pos="l" depth="2" NCoef="0" IVar="-1" Cut="0.0000000000000000e+00" cType="1" res="-9.8165159579366446e-04" rms="3.0768251419067383e-01" purity="7.5597977638244629e-01" nType="-99"/>
          <Node pos="r" depth="2" NCoef="0" IVar="-1" Cut="0.0000000000000000e+00" cType="1" res="4.0592714212834835e-03" rms="3.1226599216461182e-01" purity="7.2774273157119751e-01" nType="-99"/>
        </Node>
      </Node>
    </BinaryTree>
    <BinaryTree type="DecisionTree" boostWeight="1.0000000000000000e+00" itree="687">
      <Node pos="s" depth="0" NCoef="0" IVar="27" Cut="2.2158964062500000e+05" cType="1" res="-7.3026318568736315e-04" rms="2.9845836758613586e-01" purity="7.8438109159469604e-01" nType="0">
        <Node pos="l" depth="1" NCoef="0" IVar="-1" Cut="0.0000000000000000e+00" cType="1" res="-1.9539508502930403e-04" rms="2.9767569899559021e-01" purity="7.8462266921997070e-01" nType="-99"/>
        <Node pos="r" depth="1" NCoef="0" IVar="0" Cut="1.4000000000000000e+01" cType="0" res="-2.5497468188405037e-02" rms="3.4854286909103394e-01" purity="7.6728111505508423e-01" nType="0">
          <Node pos="l" depth="2" NCoef="0" IVar="-1" Cut="0.0000000000000000e+00" cType="1" res="5.2474822849035263e-02" rms="2.0082592964172363e-01" purity="8.7804877758026123e-01" nType="-99"/>
          <Node pos="r" depth="2" NCoef="0" IVar="-1" Cut="0.0000000000000000e+00" cType="1" res="-1.3344435952603817e-02" rms="3.5004019737243652e-01" purity="7.6460176706314087e-01" nType="-99"/>
        </Node>
      </Node>
    </BinaryTree>
    <BinaryTree type="DecisionTree" boostWeight="1.0000000000000000e+00" itree="688">
      <Node pos="s" depth="0" NCoef="0" IVar="7" Cut="2.1512089843750000e+03" cType="0" res="9.4854296185076237e-04" rms="2.9641485214233398e-01" purity="7.8548491001129150e-01" nType="0">
        <Node pos="l" depth="1" NCoef="0" IVar="-1" Cut="0.0000000000000000e+00" cType="1" res="1.4329119585454464e-03" rms="2.8444302082061768e-01" purity="8.2274359464645386e-01" nType="-99"/>
        <Node pos="r" depth="1" NCoef="0" IVar="12" Cut="-1.4882351684570312e+02" cType="1" res="-3.7264835555106401e-03" rms="3.2755917310714722e-01" purity="6.8120408058166504e-01" nType="0">
          <Node pos="l" depth="2" NCoef="0" IVar="-1" Cut="0.0000000000000000e+00" cType="1" res="1.2557098641991615e-02" rms="2.5649040937423706e-01" purity="8.7768477201461792e-01" nType="-99"/>
          <Node pos="r" depth="2" NCoef="0" IVar="-1" Cut="0.0000000000000000e+00" cType="1" res="-5.4583027958869934e-03" rms="3.5346609354019165e-01" purity="5.9601259231567383e-01" nType="-99"/>
        </Node>
      </Node>
    </BinaryTree>
    <BinaryTree type="DecisionTree" boostWeight="1.0000000000000000e+00" itree="689">
      <Node pos="s" depth="0" NCoef="0" IVar="0" Cut="2.8571429252624512e+00" cType="1" res="6.2484975205734372e-04" rms="2.9646974802017212e-01" purity="7.8620356321334839e-01" nType="0">
        <Node pos="l" depth="1" NCoef="0" IVar="-1" Cut="0.0000000000000000e+00" cType="1" res="8.1472862511873245e-03" rms="2.3436114192008972e-01" purity="9.2412674427032471e-01" nType="-99"/>
        <Node pos="r" depth="1" NCoef="0" IVar="3" Cut="1.9663117675781250e+03" cType="0" res="1.0540553194005042e-04" rms="2.9933089017868042e-01" purity="7.7904939651489258e-01" nType="0">
          <Node pos="l" depth="2" NCoef="0" IVar="-1" Cut="0.0000000000000000e+00" cType="1" res="1.8922537856269628e-04" rms="2.9924649000167847e-01" purity="7.8074634075164795e-01" nType="-99"/>
          <Node pos="r" depth="2" NCoef="0" IVar="-1" Cut="0.0000000000000000e+00" cType="1" res="-3.1362138688564301e-02" rms="3.1275671720504761e-01" purity="3.4204792976379395e-01" nType="-99"/>
        </Node>
      </Node>
    </BinaryTree>
    <BinaryTree type="DecisionTree" boostWeight="1.0000000000000000e+00" itree="690">
      <Node pos="s" depth="0" NCoef="0" IVar="19" Cut="2.7662640625000000e+05" cType="1" res="3.8018013583496213e-04" rms="2.9637348651885986e-01" purity="7.8524404764175415e-01" nType="0">
        <Node pos="l" depth="1" NCoef="0" IVar="-1" Cut="0.0000000000000000e+00" cType="1" res="4.0687728323973715e-04" rms="2.9534551501274109e-01" purity="7.8623849153518677e-01" nType="-99"/>
        <Node pos="r" depth="1" NCoef="0" IVar="20" Cut="-1.4267672598361969e-01" cType="1" res="-1.6639547422528267e-02" rms="3.3620765805244446e-01" purity="7.4356335401535034e-01" nType="0">
          <Node pos="l" depth="2" NCoef="0" IVar="-1" Cut="0.0000000000000000e+00" cType="1" res="4.3324869126081467e-02" rms="2.8592115640640259e-01" purity="7.5641024112701416e-01" nType="-99"/>
          <Node pos="r" depth="2" NCoef="0" IVar="-1" Cut="0.0000000000000000e+00" cType="1" res="-9.2420307919383049e-03" rms="3.3662983775138855e-01" purity="7.4320989847183228e-01" nType="-99"/>
        </Node>
      </Node>
    </BinaryTree>
    <BinaryTree type="DecisionTree" boostWeight="1.0000000000000000e+00" itree="691">
      <Node pos="s" depth="0" NCoef="0" IVar="4" Cut="1.6666013717651367e+01" cType="0" res="3.9487599860876799e-04" rms="2.9695841670036316e-01" purity="7.8576648235321045e-01" nType="0">
        <Node pos="l" depth="1" NCoef="0" IVar="-1" Cut="0.0000000000000000e+00" cType="1" res="1.1108841747045517e-02" rms="1.9842603802680969e-01" purity="9.4780397415161133e-01" nType="-99"/>
        <Node pos="r" depth="1" NCoef="0" IVar="1" Cut="1.1909826660156250e+03" cType="0" res="-4.6714616473764181e-05" rms="3.0016574263572693e-01" purity="7.7939164638519287e-01" nType="0">
          <Node pos="l" depth="2" NCoef="0" IVar="-1" Cut="0.0000000000000000e+00" cType="1" res="4.6755900257267058e-04" rms="2.9800719022750854e-01" purity="8.0721867084503174e-01" nType="-99"/>
          <Node pos="r" depth="2" NCoef="0" IVar="-1" Cut="0.0000000000000000e+00" cType="1" res="-6.7030186764895916e-03" rms="3.3300697803497314e-01" purity="3.2562842965126038e-01" nType="-99"/>
        </Node>
      </Node>
    </BinaryTree>
    <BinaryTree type="DecisionTree" boostWeight="1.0000000000000000e+00" itree="692">
      <Node pos="s" depth="0" NCoef="0" IVar="26" Cut="5.8088332031250000e+04" cType="0" res="5.8374996297061443e-04" rms="2.9682189226150513e-01" purity="7.8631550073623657e-01" nType="0">
        <Node pos="l" depth="1" NCoef="0" IVar="-1" Cut="0.0000000000000000e+00" cType="1" res="1.2836586683988571e-02" rms="2.4798443913459778e-01" purity="8.9968454837799072e-01" nType="-99"/>
        <Node pos="r" depth="1" NCoef="0" IVar="1" Cut="9.0463214111328125e+02" cType="0" res="3.2222957815974951e-04" rms="2.9739078879356384e-01" purity="7.8485226631164551e-01" nType="0">
          <Node pos="l" depth="2" NCoef="0" IVar="-1" Cut="0.0000000000000000e+00" cType="1" res="3.0240952037274837e-04" rms="2.9867434501647949e-01" purity="7.9268395900726318e-01" nType="-99"/>
          <Node pos="r" depth="2" NCoef="0" IVar="-1" Cut="0.0000000000000000e+00" cType="1" res="-3.6781918257474899e-02" rms="1.1169656366109848e-01" purity="1.4563106931746006e-02" nType="-99"/>
        </Node>
      </Node>
    </BinaryTree>
    <BinaryTree type="DecisionTree" boostWeight="1.0000000000000000e+00" itree="693">
      <Node pos="s" depth="0" NCoef="0" IVar="2" Cut="4.7613013535737991e-02" cType="1" res="-1.3881355698686093e-04" rms="2.9698324203491211e-01" purity="7.8367996215820312e-01" nType="0">
        <Node pos="l" depth="1" NCoef="0" IVar="-1" Cut="0.0000000000000000e+00" cType="1" res="1.3281491119414568e-03" rms="2.6528906822204590e-01" purity="8.6723083257675171e-01" nType="-99"/>
        <Node pos="r" depth="1" NCoef="0" IVar="14" Cut="1.1143753662109375e+03" cType="0" res="-3.1451457180082798e-03" rms="3.3459547162055969e-01" purity="6.7223238945007324e-01" nType="0">
          <Node pos="l" depth="2" NCoef="0" IVar="-1" Cut="0.0000000000000000e+00" cType="1" res="-1.6304213553667068e-02" rms="3.3220422267913818e-01" purity="7.4857687950134277e-01" nType="-99"/>
          <Node pos="r" depth="2" NCoef="0" IVar="-1" Cut="0.0000000000000000e+00" cType="1" res="-7.4403762118890882e-04" rms="3.3462509512901306e-01" purity="6.6909617185592651e-01" nType="-99"/>
        </Node>
      </Node>
    </BinaryTree>
    <BinaryTree type="DecisionTree" boostWeight="1.0000000000000000e+00" itree="694">
      <Node pos="s" depth="0" NCoef="0" IVar="20" Cut="7.1428579092025757e-01" cType="0" res="1.8057866327580996e-05" rms="2.9618421196937561e-01" purity="7.8433936834335327e-01" nType="0">
        <Node pos="l" depth="1" NCoef="0" IVar="-1" Cut="0.0000000000000000e+00" cType="1" res="2.4052402295637876e-04" rms="2.9535436630249023e-01" purity="7.8922718763351440e-01" nType="-99"/>
        <Node pos="r" depth="1" NCoef="0" IVar="19" Cut="1.2780479687500000e+05" cType="0" res="-2.8637791052460670e-02" rms="3.4415799379348755e-01" purity="4.7015705704689026e-01" nType="0">
          <Node pos="l" depth="2" NCoef="0" IVar="-1" Cut="0.0000000000000000e+00" cType="1" res="7.6548610813915730e-03" rms="3.4207114577293396e-01" purity="6.2209945917129517e-01" nType="-99"/>
          <Node pos="r" depth="2" NCoef="0" IVar="-1" Cut="0.0000000000000000e+00" cType="1" res="-2.8144860640168190e-02" rms="3.3980029821395874e-01" purity="3.3333334326744080e-01" nType="-99"/>
        </Node>
      </Node>
    </BinaryTree>
    <BinaryTree type="DecisionTree" boostWeight="1.0000000000000000e+00" itree="695">
      <Node pos="s" depth="0" NCoef="0" IVar="0" Cut="1.4000000000000000e+01" cType="1" res="1.4823388773947954e-03" rms="2.9514622688293457e-01" purity="7.8639549016952515e-01" nType="0">
        <Node pos="l" depth="1" NCoef="0" IVar="-1" Cut="0.0000000000000000e+00" cType="1" res="8.1514153862372041e-04" rms="2.9241284728050232e-01" purity="8.1397110223770142e-01" nType="-99"/>
        <Node pos="r" depth="1" NCoef="0" IVar="5" Cut="-4.4590207934379578e-01" cType="0" res="4.0223976247943938e-04" rms="3.3784332871437073e-01" purity="3.2232230901718140e-01" nType="0">
          <Node pos="l" depth="2" NCoef="0" IVar="-1" Cut="0.0000000000000000e+00" cType="1" res="4.8575205728411674e-03" rms="3.4971395134925842e-01" purity="3.5882467031478882e-01" nType="-99"/>
          <Node pos="r" depth="2" NCoef="0" IVar="-1" Cut="0.0000000000000000e+00" cType="1" res="-1.4856348745524883e-02" rms="2.9964211583137512e-01" purity="2.2114346921443939e-01" nType="-99"/>
        </Node>
      </Node>
    </BinaryTree>
    <BinaryTree type="DecisionTree" boostWeight="1.0000000000000000e+00" itree="696">
      <Node pos="s" depth="0" NCoef="0" IVar="24" Cut="8.1354112625122070e+00" cType="1" res="-5.3527695126831532e-04" rms="2.9656022787094116e-01" purity="7.8489285707473755e-01" nType="0">
        <Node pos="l" depth="1" NCoef="0" IVar="-1" Cut="0.0000000000000000e+00" cType="1" res="-2.1773455664515495e-03" rms="2.8309750556945801e-01" purity="8.2955956459045410e-01" nType="-99"/>
        <Node pos="r" depth="1" NCoef="0" IVar="9" Cut="3.1780661010742188e+02" cType="0" res="2.3425791878253222e-03" rms="3.0782911181449890e-01" purity="7.4580818414688110e-01" nType="0">
          <Node pos="l" depth="2" NCoef="0" IVar="-1" Cut="0.0000000000000000e+00" cType="1" res="3.6384987179189920e-03" rms="2.8732413053512573e-01" purity="8.1705892086029053e-01" nType="-99"/>
          <Node pos="r" depth="2" NCoef="0" IVar="-1" Cut="0.0000000000000000e+00" cType="1" res="-1.7555975355207920e-03" rms="3.3552667498588562e-01" purity="6.4134317636489868e-01" nType="-99"/>
        </Node>
      </Node>
    </BinaryTree>
    <BinaryTree type="DecisionTree" boostWeight="1.0000000000000000e+00" itree="697">
      <Node pos="s" depth="0" NCoef="0" IVar="3" Cut="3.2201086425781250e+03" cType="0" res="4.3594045564532280e-04" rms="2.9712086915969849e-01" purity="7.8532969951629639e-01" nType="0">
        <Node pos="l" depth="1" NCoef="0" IVar="-1" Cut="0.0000000000000000e+00" cType="1" res="-7.6977111166343093e-04" rms="2.9486203193664551e-01" purity="7.9181945323944092e-01" nType="-99"/>
        <Node pos="r" depth="1" NCoef="0" IVar="9" Cut="2.4215420532226562e+02" cType="0" res="3.5500782541930676e-03" rms="3.0081513524055481e-01" purity="7.7453392744064331e-01" nType="0">
          <Node pos="l" depth="2" NCoef="0" IVar="-1" Cut="0.0000000000000000e+00" cType="1" res="-1.8455542158335447e-03" rms="2.9391831159591675e-01" purity="8.0994987487792969e-01" nType="-99"/>
          <Node pos="r" depth="2" NCoef="0" IVar="-1" Cut="0.0000000000000000e+00" cType="1" res="9.1072190552949905e-03" rms="3.1695085763931274e-01" purity="6.8452966213226318e-01" nType="-99"/>
        </Node>
      </Node>
    </BinaryTree>
    <BinaryTree type="DecisionTree" boostWeight="1.0000000000000000e+00" itree="698">
      <Node pos="s" depth="0" NCoef="0" IVar="0" Cut="1.4000000000000000e+01" cType="1" res="9.3120301607996225e-04" rms="2.9515781998634338e-01" purity="7.8449851274490356e-01" nType="0">
        <Node pos="l" depth="1" NCoef="0" IVar="-1" Cut="0.0000000000000000e+00" cType="1" res="5.6771398521959782e-04" rms="2.9237684607505798e-01" purity="8.1194990873336792e-01" nType="-99"/>
        <Node pos="r" depth="1" NCoef="0" IVar="24" Cut="1.8217405319213867e+01" cType="0" res="-1.5333557967096567e-03" rms="3.3871614933013916e-01" purity="3.2050547003746033e-01" nType="0">
          <Node pos="l" depth="2" NCoef="0" IVar="-1" Cut="0.0000000000000000e+00" cType="1" res="1.5023656189441681e-02" rms="3.4216862916946411e-01" purity="3.5110294818878174e-01" nType="-99"/>
          <Node pos="r" depth="2" NCoef="0" IVar="-1" Cut="0.0000000000000000e+00" cType="1" res="-5.2100382745265961e-03" rms="3.3669039607048035e-01" purity="3.1114029884338379e-01" nType="-99"/>
        </Node>
      </Node>
    </BinaryTree>
    <BinaryTree type="DecisionTree" boostWeight="1.0000000000000000e+00" itree="699">
      <Node pos="s" depth="0" NCoef="0" IVar="0" Cut="8.4285717010498047e+00" cType="1" res="-1.0797787690535188e-03" rms="2.9673519730567932e-01" purity="7.8332519531250000e-01" nType="0">
        <Node pos="l" depth="1" NCoef="0" IVar="-1" Cut="0.0000000000000000e+00" cType="1" res="2.5841651950031519e-04" rms="2.7295774221420288e-01" purity="8.7254339456558228e-01" nType="-99"/>
        <Node pos="r" depth="1" NCoef="0" IVar="14" Cut="3.6105722045898438e+02" cType="1" res="-5.6905490346252918e-03" rms="3.6010488867759705e-01" purity="5.0898945331573486e-01" nType="0">
          <Node pos="l" depth="2" NCoef="0" IVar="-1" Cut="0.0000000000000000e+00" cType="1" res="1.3898704200983047e-03" rms="3.6103993654251099e-01" purity="5.2685075998306274e-01" nType="-99"/>
          <Node pos="r" depth="2" NCoef="0" IVar="-1" Cut="0.0000000000000000e+00" cType="1" res="-1.0909066535532475e-02" rms="3.5634684562683105e-01" purity="4.6178534626960754e-01" nType="-99"/>
        </Node>
      </Node>
    </BinaryTree>
    <BinaryTree type="DecisionTree" boostWeight="1.0000000000000000e+00" itree="700">
      <Node pos="s" depth="0" NCoef="0" IVar="35" Cut="1.1580952453613281e+02" cType="0" res="2.5611472665332258e-04" rms="2.9625132679939270e-01" purity="7.8554368019104004e-01" nType="0">
        <Node pos="l" depth="1" NCoef="0" IVar="-1" Cut="0.0000000000000000e+00" cType="1" res="-1.1571445793379098e-04" rms="2.9588645696640015e-01" purity="7.8604358434677124e-01" nType="-99"/>
        <Node pos="r" depth="1" NCoef="0" IVar="1" Cut="3.2992382812500000e+03" cType="1" res="1.2828196398913860e-02" rms="3.0538448691368103e-01" purity="7.7244985103607178e-01" nType="0">
          <Node pos="l" depth="2" NCoef="0" IVar="-1" Cut="0.0000000000000000e+00" cType="1" res="6.9728349335491657e-03" rms="3.0403116345405579e-01" purity="7.7404171228408813e-01" nType="-99"/>
          <Node pos="r" depth="2" NCoef="0" IVar="-1" Cut="0.0000000000000000e+00" cType="1" res="-3.3312007784843445e-02" rms="3.4243956208229065e-01" purity="7.1653544902801514e-01" nType="-99"/>
        </Node>
      </Node>
    </BinaryTree>
    <BinaryTree type="DecisionTree" boostWeight="1.0000000000000000e+00" itree="701">
      <Node pos="s" depth="0" NCoef="0" IVar="9" Cut="1.9667266845703125e+03" cType="0" res="-5.0299224676564336e-04" rms="2.9742640256881714e-01" purity="7.8481692075729370e-01" nType="0">
        <Node pos="l" depth="1" NCoef="0" IVar="-1" Cut="0.0000000000000000e+00" cType="1" res="1.9138416275382042e-02" rms="1.7810593545436859e-01" purity="9.6603357791900635e-01" nType="-99"/>
        <Node pos="r" depth="1" NCoef="0" IVar="9" Cut="2.0399467468261719e+02" cType="0" res="-9.2023058095946908e-04" rms="2.9953944683074951e-01" purity="7.8076279163360596e-01" nType="0">
          <Node pos="l" depth="2" NCoef="0" IVar="-1" Cut="0.0000000000000000e+00" cType="1" res="1.0299545247107744e-03" rms="2.8968292474746704e-01" purity="8.0828297138214111e-01" nType="-99"/>
          <Node pos="r" depth="2" NCoef="0" IVar="-1" Cut="0.0000000000000000e+00" cType="1" res="-7.0137158036231995e-03" rms="3.5202917456626892e-01" purity="6.1711788177490234e-01" nType="-99"/>
        </Node>
      </Node>
    </BinaryTree>
    <BinaryTree type="DecisionTree" boostWeight="1.0000000000000000e+00" itree="702">
      <Node pos="s" depth="0" NCoef="0" IVar="0" Cut="2.8571429252624512e+00" cType="1" res="-1.3068158878013492e-03" rms="2.9795670509338379e-01" purity="7.8364807367324829e-01" nType="0">
        <Node pos="l" depth="1" NCoef="0" IVar="-1" Cut="0.0000000000000000e+00" cType="1" res="8.8899927213788033e-03" rms="2.2919011116027832e-01" purity="9.2706781625747681e-01" nType="-99"/>
        <Node pos="r" depth="1" NCoef="0" IVar="25" Cut="1.3806223144531250e+03" cType="0" res="-1.9506175303831697e-03" rms="3.0102032423019409e-01" purity="7.7635407447814941e-01" nType="0">
          <Node pos="l" depth="2" NCoef="0" IVar="-1" Cut="0.0000000000000000e+00" cType="1" res="-3.6417227238416672e-04" rms="2.9628390073776245e-01" purity="7.8796815872192383e-01" nType="-99"/>
          <Node pos="r" depth="2" NCoef="0" IVar="-1" Cut="0.0000000000000000e+00" cType="1" res="-5.7855290360748768e-03" rms="3.4446346759796143e-01" purity="6.6053092479705811e-01" nType="-99"/>
        </Node>
      </Node>
    </BinaryTree>
    <BinaryTree type="DecisionTree" boostWeight="1.0000000000000000e+00" itree="703">
      <Node pos="s" depth="0" NCoef="0" IVar="14" Cut="2.0681425781250000e+03" cType="0" res="4.9982132622972131e-05" rms="2.9765319824218750e-01" purity="7.8496134281158447e-01" nType="0">
        <Node pos="l" depth="1" NCoef="0" IVar="-1" Cut="0.0000000000000000e+00" cType="1" res="-1.6326902434229851e-02" rms="2.7555677294731140e-01" purity="8.8410151004791260e-01" nType="-99"/>
        <Node pos="r" depth="1" NCoef="0" IVar="7" Cut="6.1566650390625000e+03" cType="0" res="6.0083775315433741e-04" rms="2.9815301299095154e-01" purity="7.8253108263015747e-01" nType="0">
          <Node pos="l" depth="2" NCoef="0" IVar="-1" Cut="0.0000000000000000e+00" cType="1" res="5.4393033497035503e-03" rms="2.6264819502830505e-01" purity="8.8144266605377197e-01" nType="-99"/>
          <Node pos="r" depth="2" NCoef="0" IVar="-1" Cut="0.0000000000000000e+00" cType="1" res="-2.9539829120039940e-04" rms="3.0320560932159424e-01" purity="7.6738387346267700e-01" nType="-99"/>
        </Node>
      </Node>
    </BinaryTree>
    <BinaryTree type="DecisionTree" boostWeight="1.0000000000000000e+00" itree="704">
      <Node pos="s" depth="0" NCoef="0" IVar="1" Cut="2.3031530761718750e+03" cType="1" res="4.9274007324129343e-05" rms="2.9693815112113953e-01" purity="7.8504806756973267e-01" nType="0">
        <Node pos="l" depth="1" NCoef="0" IVar="-1" Cut="0.0000000000000000e+00" cType="1" res="6.1959546292200685e-04" rms="2.9485830664634705e-01" purity="7.9557800292968750e-01" nType="-99"/>
        <Node pos="r" depth="1" NCoef="0" IVar="9" Cut="4.8389053344726562e+02" cType="0" res="-6.1679361388087273e-03" rms="3.0772829055786133e-01" purity="7.2883862257003784e-01" nType="0">
          <Node pos="l" depth="2" NCoef="0" IVar="-1" Cut="0.0000000000000000e+00" cType="1" res="-1.3722729869186878e-02" rms="2.7803820371627808e-01" purity="8.3390748500823975e-01" nType="-99"/>
          <Node pos="r" depth="2" NCoef="0" IVar="-1" Cut="0.0000000000000000e+00" cType="1" res="1.4238990843296051e-02" rms="3.8685095310211182e-01" purity="3.7867078185081482e-01" nType="-99"/>
        </Node>
      </Node>
    </BinaryTree>
    <BinaryTree type="DecisionTree" boostWeight="1.0000000000000000e+00" itree="705">
      <Node pos="s" depth="0" NCoef="0" IVar="34" Cut="9.0476256608963013e-01" cType="0" res="2.9359961627051234e-04" rms="2.9722014069557190e-01" purity="7.8463351726531982e-01" nType="0">
        <Node pos="l" depth="1" NCoef="0" IVar="-1" Cut="0.0000000000000000e+00" cType="1" res="1.1209127842448652e-04" rms="2.9723387956619263e-01" purity="7.8468155860900879e-01" nType="-99"/>
        <Node pos="r" depth="1" NCoef="0" IVar="17" Cut="2.2015367187500000e+04" cType="0" res="6.6161341965198517e-02" rms="2.7735793590545654e-01" purity="7.4305558204650879e-01" nType="0">
          <Node pos="l" depth="2" NCoef="0" IVar="-1" Cut="0.0000000000000000e+00" cType="1" res="3.9240930229425430e-02" rms="2.4276433885097504e-01" purity="8.3168315887451172e-01" nType="-99"/>
          <Node pos="r" depth="2" NCoef="0" IVar="-1" Cut="0.0000000000000000e+00" cType="1" res="-1.1023612692952156e-02" rms="3.2779109477996826e-01" purity="5.3488373756408691e-01" nType="-99"/>
        </Node>
      </Node>
    </BinaryTree>
    <BinaryTree type="DecisionTree" boostWeight="1.0000000000000000e+00" itree="706">
      <Node pos="s" depth="0" NCoef="0" IVar="6" Cut="1.9840013427734375e+03" cType="0" res="-2.4486094480380416e-04" rms="2.9791784286499023e-01" purity="7.8460216522216797e-01" nType="0">
        <Node pos="l" depth="1" NCoef="0" IVar="-1" Cut="0.0000000000000000e+00" cType="1" res="2.6773311197757721e-02" rms="1.7402005195617676e-01" purity="9.6009576320648193e-01" nType="-99"/>
        <Node pos="r" depth="1" NCoef="0" IVar="6" Cut="9.4438423156738281e+01" cType="0" res="-5.0829793326556683e-04" rms="2.9890096187591553e-01" purity="7.8282040357589722e-01" nType="0">
          <Node pos="l" depth="2" NCoef="0" IVar="-1" Cut="0.0000000000000000e+00" cType="1" res="7.3587368242442608e-03" rms="2.5302997231483459e-01" purity="8.8742440938949585e-01" nType="-99"/>
          <Node pos="r" depth="2" NCoef="0" IVar="-1" Cut="0.0000000000000000e+00" cType="1" res="-2.1760400850325823e-03" rms="3.1342086195945740e-01" purity="7.4582368135452271e-01" nType="-99"/>
        </Node>
      </Node>
    </BinaryTree>
    <BinaryTree type="DecisionTree" boostWeight="1.0000000000000000e+00" itree="707">
      <Node pos="s" depth="0" NCoef="0" IVar="2" Cut="1.4283904433250427e-01" cType="1" res="6.6356667957734317e-05" rms="2.9672357439994812e-01" purity="7.8492367267608643e-01" nType="0">
        <Node pos="l" depth="1" NCoef="0" IVar="-1" Cut="0.0000000000000000e+00" cType="1" res="-8.4179546684026718e-04" rms="2.8494119644165039e-01" purity="8.2274150848388672e-01" nType="-99"/>
        <Node pos="r" depth="1" NCoef="0" IVar="31" Cut="6.5878081321716309e+00" cType="1" res="5.6853257119655609e-03" rms="3.3543252944946289e-01" purity="6.4967197179794312e-01" nType="0">
          <Node pos="l" depth="2" NCoef="0" IVar="-1" Cut="0.0000000000000000e+00" cType="1" res="3.6602753680199385e-03" rms="3.3636313676834106e-01" purity="6.4987438917160034e-01" nType="-99"/>
          <Node pos="r" depth="2" NCoef="0" IVar="-1" Cut="0.0000000000000000e+00" cType="1" res="-1.0046145878732204e-02" rms="3.2646381855010986e-01" purity="6.4803725481033325e-01" nType="-99"/>
        </Node>
      </Node>
    </BinaryTree>
    <BinaryTree type="DecisionTree" boostWeight="1.0000000000000000e+00" itree="708">
      <Node pos="s" depth="0" NCoef="0" IVar="2" Cut="3.3329108357429504e-01" cType="1" res="-2.4484697496518493e-04" rms="2.9680263996124268e-01" purity="7.8556799888610840e-01" nType="0">
        <Node pos="l" depth="1" NCoef="0" IVar="-1" Cut="0.0000000000000000e+00" cType="1" res="3.0468992190435529e-04" rms="2.9267790913581848e-01" purity="8.0148434638977051e-01" nType="-99"/>
        <Node pos="r" depth="1" NCoef="0" IVar="24" Cut="5.9303030967712402e+00" cType="1" res="-1.0592507198452950e-02" rms="3.4441477060317993e-01" purity="5.8496338129043579e-01" nType="0">
          <Node pos="l" depth="2" NCoef="0" IVar="-1" Cut="0.0000000000000000e+00" cType="1" res="-2.4418221786618233e-02" rms="3.4753119945526123e-01" purity="6.5840590000152588e-01" nType="-99"/>
          <Node pos="r" depth="2" NCoef="0" IVar="-1" Cut="0.0000000000000000e+00" cType="1" res="-5.7116913376376033e-04" rms="3.4305670857429504e-01" purity="5.7064509391784668e-01" nType="-99"/>
        </Node>
      </Node>
    </BinaryTree>
    <BinaryTree type="DecisionTree" boostWeight="1.0000000000000000e+00" itree="709">
      <Node pos="s" depth="0" NCoef="0" IVar="13" Cut="3.5594606933593750e+03" cType="0" res="4.8111460637301207e-04" rms="2.9569298028945923e-01" purity="7.8555411100387573e-01" nType="0">
        <Node pos="l" depth="1" NCoef="0" IVar="-1" Cut="0.0000000000000000e+00" cType="1" res="3.0043413862586021e-03" rms="2.6925525069236755e-01" purity="8.4734576940536499e-01" nType="-99"/>
        <Node pos="r" depth="1" NCoef="0" IVar="14" Cut="4.0757824707031250e+02" cType="0" res="-9.6777710132300854e-04" rms="3.0387407541275024e-01" purity="7.6522606611251831e-01" nType="0">
          <Node pos="l" depth="2" NCoef="0" IVar="-1" Cut="0.0000000000000000e+00" cType="1" res="-4.1306223720312119e-03" rms="2.8970083594322205e-01" purity="8.1082731485366821e-01" nType="-99"/>
          <Node pos="r" depth="2" NCoef="0" IVar="-1" Cut="0.0000000000000000e+00" cType="1" res="1.6316330293193460e-03" rms="3.1293195486068726e-01" purity="7.3467105627059937e-01" nType="-99"/>
        </Node>
      </Node>
    </BinaryTree>
    <BinaryTree type="DecisionTree" boostWeight="1.0000000000000000e+00" itree="710">
      <Node pos="s" depth="0" NCoef="0" IVar="18" Cut="2.3711383342742920e-02" cType="0" res="-1.0552718595135957e-04" rms="2.9607459902763367e-01" purity="7.8440946340560913e-01" nType="0">
        <Node pos="l" depth="1" NCoef="0" IVar="-1" Cut="0.0000000000000000e+00" cType="1" res="-6.0218102298676968e-03" rms="2.9724302887916565e-01" purity="8.2996451854705811e-01" nType="-99"/>
        <Node pos="r" depth="1" NCoef="0" IVar="32" Cut="4.3797898292541504e-01" cType="0" res="4.8433331539854407e-04" rms="2.9599902033805847e-01" purity="7.8190755844116211e-01" nType="0">
          <Node pos="l" depth="2" NCoef="0" IVar="-1" Cut="0.0000000000000000e+00" cType="1" res="9.7689800895750523e-04" rms="2.9418638348579407e-01" purity="7.8762018680572510e-01" nType="-99"/>
          <Node pos="r" depth="2" NCoef="0" IVar="-1" Cut="0.0000000000000000e+00" cType="1" res="-4.3417126871645451e-03" rms="3.0797463655471802e-01" purity="7.4272394180297852e-01" nType="-99"/>
        </Node>
      </Node>
    </BinaryTree>
    <BinaryTree type="DecisionTree" boostWeight="1.0000000000000000e+00" itree="711">
      <Node pos="s" depth="0" NCoef="0" IVar="3" Cut="3.2201086425781250e+03" cType="0" res="-1.5347944281529635e-04" rms="2.9661709070205688e-01" purity="7.8505665063858032e-01" nType="0">
        <Node pos="l" depth="1" NCoef="0" IVar="-1" Cut="0.0000000000000000e+00" cType="1" res="-1.1252159019932151e-03" rms="2.9517397284507751e-01" purity="7.9106009006500244e-01" nType="-99"/>
        <Node pos="r" depth="1" NCoef="0" IVar="0" Cut="5.4285712242126465e+00" cType="1" res="3.0962061136960983e-03" rms="2.9898163676261902e-01" purity="7.7503800392150879e-01" nType="0">
          <Node pos="l" depth="2" NCoef="0" IVar="-1" Cut="0.0000000000000000e+00" cType="1" res="7.9538617283105850e-03" rms="2.5150200724601746e-01" purity="9.0647482872009277e-01" nType="-99"/>
          <Node pos="r" depth="2" NCoef="0" IVar="-1" Cut="0.0000000000000000e+00" cType="1" res="-3.2938048243522644e-03" rms="3.5098579525947571e-01" purity="6.0377919673919678e-01" nType="-99"/>
        </Node>
      </Node>
    </BinaryTree>
    <BinaryTree type="DecisionTree" boostWeight="1.0000000000000000e+00" itree="712">
      <Node pos="s" depth="0" NCoef="0" IVar="9" Cut="7.2427697753906250e+02" cType="0" res="2.2547926346305758e-04" rms="2.9685509204864502e-01" purity="7.8584307432174683e-01" nType="0">
        <Node pos="l" depth="1" NCoef="0" IVar="-1" Cut="0.0000000000000000e+00" cType="1" res="5.3078583441674709e-03" rms="2.5295338034629822e-01" purity="9.1189706325531006e-01" nType="-99"/>
        <Node pos="r" depth="1" NCoef="0" IVar="1" Cut="3.3019829101562500e+03" cType="1" res="-1.4694655546918511e-03" rms="3.0625325441360474e-01" purity="7.5616371631622314e-01" nType="0">
          <Node pos="l" depth="2" NCoef="0" IVar="-1" Cut="0.0000000000000000e+00" cType="1" res="-8.9681596728041768e-04" rms="3.0571302771568298e-01" purity="7.5737535953521729e-01" nType="-99"/>
          <Node pos="r" depth="2" NCoef="0" IVar="-1" Cut="0.0000000000000000e+00" cType="1" res="5.3024452179670334e-02" rms="4.3799060583114624e-01" purity="3.3101046085357666e-01" nType="-99"/>
        </Node>
      </Node>
    </BinaryTree>
    <BinaryTree type="DecisionTree" boostWeight="1.0000000000000000e+00" itree="713">
      <Node pos="s" depth="0" NCoef="0" IVar="23" Cut="2.1283972656250000e+04" cType="0" res="-3.2486568670719862e-04" rms="2.9653587937355042e-01" purity="7.8383409976959229e-01" nType="0">
        <Node pos="l" depth="1" NCoef="0" IVar="-1" Cut="0.0000000000000000e+00" cType="1" res="3.4752253443002701e-02" rms="1.9035881757736206e-01" purity="9.5825052261352539e-01" nType="-99"/>
        <Node pos="r" depth="1" NCoef="0" IVar="23" Cut="1.1123886718750000e+03" cType="0" res="-4.7938872012309730e-04" rms="2.9688036441802979e-01" purity="7.8312456607818604e-01" nType="0">
          <Node pos="l" depth="2" NCoef="0" IVar="-1" Cut="0.0000000000000000e+00" cType="1" res="-9.2279798991512507e-05" rms="2.9674649238586426e-01" purity="7.8371489048004150e-01" nType="-99"/>
          <Node pos="r" depth="2" NCoef="0" IVar="-1" Cut="0.0000000000000000e+00" cType="1" res="-2.3652397096157074e-02" rms="3.1246018409729004e-01" purity="6.9883722066879272e-01" nType="-99"/>
        </Node>
      </Node>
    </BinaryTree>
    <BinaryTree type="DecisionTree" boostWeight="1.0000000000000000e+00" itree="714">
      <Node pos="s" depth="0" NCoef="0" IVar="9" Cut="2.0836879882812500e+03" cType="0" res="4.2715432937256992e-04" rms="2.9564976692199707e-01" purity="7.8577739000320435e-01" nType="0">
        <Node pos="l" depth="1" NCoef="0" IVar="-1" Cut="0.0000000000000000e+00" cType="1" res="2.3294100537896156e-02" rms="1.6717895865440369e-01" purity="9.7015631198883057e-01" nType="-99"/>
        <Node pos="r" depth="1" NCoef="0" IVar="1" Cut="4.0337324218750000e+03" cType="1" res="5.3315379773266613e-05" rms="2.9736503958702087e-01" purity="7.8259766101837158e-01" nType="0">
          <Node pos="l" depth="2" NCoef="0" IVar="-1" Cut="0.0000000000000000e+00" cType="1" res="9.1078414698131382e-05" rms="2.9713213443756104e-01" purity="7.8280699253082275e-01" nType="-99"/>
          <Node pos="r" depth="2" NCoef="0" IVar="-1" Cut="0.0000000000000000e+00" cType="1" res="-5.8520667254924774e-02" rms="5.1357436180114746e-01" purity="4.6250000596046448e-01" nType="-99"/>
        </Node>
      </Node>
    </BinaryTree>
    <BinaryTree type="DecisionTree" boostWeight="1.0000000000000000e+00" itree="715">
      <Node pos="s" depth="0" NCoef="0" IVar="1" Cut="2.3923298339843750e+03" cType="1" res="-5.2312290063127875e-04" rms="2.9745012521743774e-01" purity="7.8445088863372803e-01" nType="0">
        <Node pos="l" depth="1" NCoef="0" IVar="-1" Cut="0.0000000000000000e+00" cType="1" res="2.2367184283211827e-04" rms="2.9611998796463013e-01" purity="7.9241502285003662e-01" nType="-99"/>
        <Node pos="r" depth="1" NCoef="0" IVar="9" Cut="4.8389053344726562e+02" cType="0" res="-6.6365892998874187e-03" rms="3.0569168925285339e-01" purity="7.3387283086776733e-01" nType="0">
          <Node pos="l" depth="2" NCoef="0" IVar="-1" Cut="0.0000000000000000e+00" cType="1" res="-1.2122316285967827e-02" rms="2.7936470508575439e-01" purity="8.3676952123641968e-01" nType="-99"/>
          <Node pos="r" depth="2" NCoef="0" IVar="-1" Cut="0.0000000000000000e+00" cType="1" res="1.2900299392640591e-02" rms="3.8639587163925171e-01" purity="3.4501120448112488e-01" nType="-99"/>
        </Node>
      </Node>
    </BinaryTree>
    <BinaryTree type="DecisionTree" boostWeight="1.0000000000000000e+00" itree="716">
      <Node pos="s" depth="0" NCoef="0" IVar="9" Cut="1.5212490234375000e+03" cType="0" res="1.0356006678193808e-03" rms="2.9649707674980164e-01" purity="7.8547024726867676e-01" nType="0">
        <Node pos="l" depth="1" NCoef="0" IVar="-1" Cut="0.0000000000000000e+00" cType="1" res="1.3501616194844246e-02" rms="1.8869549036026001e-01" purity="9.6001929044723511e-01" nType="-99"/>
        <Node pos="r" depth="1" NCoef="0" IVar="1" Cut="2.8065214843750000e+03" cType="1" res="4.1790501563809812e-04" rms="3.0108621716499329e-01" purity="7.7629292011260986e-01" nType="0">
          <Node pos="l" depth="2" NCoef="0" IVar="-1" Cut="0.0000000000000000e+00" cType="1" res="6.9495663046836853e-04" rms="2.9706758260726929e-01" purity="7.8554821014404297e-01" nType="-99"/>
          <Node pos="r" depth="2" NCoef="0" IVar="-1" Cut="0.0000000000000000e+00" cType="1" res="-1.2373864650726318e-02" rms="4.1993999481201172e-01" purity="4.4165620207786560e-01" nType="-99"/>
        </Node>
      </Node>
    </BinaryTree>
    <BinaryTree type="DecisionTree" boostWeight="1.0000000000000000e+00" itree="717">
      <Node pos="s" depth="0" NCoef="0" IVar="0" Cut="1.4000000000000000e+01" cType="1" res="-4.2353573371656239e-04" rms="2.9628154635429382e-01" purity="7.8434449434280396e-01" nType="0">
        <Node pos="l" depth="1" NCoef="0" IVar="-1" Cut="0.0000000000000000e+00" cType="1" res="-1.1847232963191345e-04" rms="2.9365429282188416e-01" purity="8.1137830018997192e-01" nType="-99"/>
        <Node pos="r" depth="1" NCoef="0" IVar="17" Cut="7.4185101562500000e+04" cType="1" res="-3.8159692194312811e-03" rms="3.3790534734725952e-01" purity="3.2370775938034058e-01" nType="0">
          <Node pos="l" depth="2" NCoef="0" IVar="-1" Cut="0.0000000000000000e+00" cType="1" res="2.0924783311784267e-03" rms="3.3653146028518677e-01" purity="3.2623144984245300e-01" nType="-99"/>
          <Node pos="r" depth="2" NCoef="0" IVar="-1" Cut="0.0000000000000000e+00" cType="1" res="-2.0662836730480194e-02" rms="3.4077519178390503e-01" purity="3.0972614884376526e-01" nType="-99"/>
        </Node>
      </Node>
    </BinaryTree>
    <BinaryTree type="DecisionTree" boostWeight="1.0000000000000000e+00" itree="718">
      <Node pos="s" depth="0" NCoef="0" IVar="31" Cut="4.8100562095642090e+00" cType="0" res="-1.3881870836485177e-04" rms="2.9661947488784790e-01" purity="7.8450638055801392e-01" nType="0">
        <Node pos="l" depth="1" NCoef="0" IVar="-1" Cut="0.0000000000000000e+00" cType="1" res="3.2269596122205257e-03" rms="2.7327853441238403e-01" purity="8.2206463813781738e-01" nType="-99"/>
        <Node pos="r" depth="1" NCoef="0" IVar="0" Cut="9.8095235824584961e+00" cType="1" res="-1.9568235147744417e-03" rms="3.0364540219306946e-01" purity="7.7255976200103760e-01" nType="0">
          <Node pos="l" depth="2" NCoef="0" IVar="-1" Cut="0.0000000000000000e+00" cType="1" res="3.3911774517036974e-04" rms="2.8547605872154236e-01" purity="8.5441315174102783e-01" nType="-99"/>
          <Node pos="r" depth="2" NCoef="0" IVar="-1" Cut="0.0000000000000000e+00" cType="1" res="-3.8696299307048321e-03" rms="3.6243394017219543e-01" purity="4.7226616740226746e-01" nType="-99"/>
        </Node>
      </Node>
    </BinaryTree>
    <BinaryTree type="DecisionTree" boostWeight="1.0000000000000000e+00" itree="719">
      <Node pos="s" depth="0" NCoef="0" IVar="27" Cut="1.7957015625000000e+05" cType="1" res="-1.1434069601818919e-03" rms="2.9669404029846191e-01" purity="7.8391093015670776e-01" nType="0">
        <Node pos="l" depth="1" NCoef="0" IVar="-1" Cut="0.0000000000000000e+00" cType="1" res="-3.3343327231705189e-04" rms="2.9564502835273743e-01" purity="7.8481411933898926e-01" nType="-99"/>
        <Node pos="r" depth="1" NCoef="0" IVar="2" Cut="7.0670291781425476e-02" cType="1" res="-1.6794094815850258e-02" rms="3.2721489667892456e-01" purity="7.5586491823196411e-01" nType="0">
          <Node pos="l" depth="2" NCoef="0" IVar="-1" Cut="0.0000000000000000e+00" cType="1" res="-3.5328324884176254e-04" rms="3.0794322490692139e-01" purity="8.1592220067977905e-01" nType="-99"/>
          <Node pos="r" depth="2" NCoef="0" IVar="-1" Cut="0.0000000000000000e+00" cType="1" res="-2.0659018307924271e-02" rms="3.6822453141212463e-01" purity="6.0471439361572266e-01" nType="-99"/>
        </Node>
      </Node>
    </BinaryTree>
    <BinaryTree type="DecisionTree" boostWeight="1.0000000000000000e+00" itree="720">
      <Node pos="s" depth="0" NCoef="0" IVar="24" Cut="1.1256899833679199e+01" cType="1" res="5.0530949374660850e-04" rms="2.9681169986724854e-01" purity="7.8498148918151855e-01" nType="0">
        <Node pos="l" depth="1" NCoef="0" IVar="-1" Cut="0.0000000000000000e+00" cType="1" res="-8.0292322672903538e-04" rms="2.8759187459945679e-01" purity="8.1309354305267334e-01" nType="-99"/>
        <Node pos="r" depth="1" NCoef="0" IVar="0" Cut="8.4285717010498047e+00" cType="1" res="4.0783430449664593e-03" rms="3.1279748678207397e-01" purity="7.3403388261795044e-01" nType="0">
          <Node pos="l" depth="2" NCoef="0" IVar="-1" Cut="0.0000000000000000e+00" cType="1" res="-8.4780785255134106e-04" rms="2.8185808658599854e-01" purity="8.6075115203857422e-01" nType="-99"/>
          <Node pos="r" depth="2" NCoef="0" IVar="-1" Cut="0.0000000000000000e+00" cType="1" res="4.5334096066653728e-03" rms="3.5715952515602112e-01" purity="5.2844756841659546e-01" nType="-99"/>
        </Node>
      </Node>
    </BinaryTree>
    <BinaryTree type="DecisionTree" boostWeight="1.0000000000000000e+00" itree="721">
      <Node pos="s" depth="0" NCoef="0" IVar="11" Cut="1.1904650688171387e+01" cType="1" res="-8.0232974141836166e-04" rms="2.9746362566947937e-01" purity="7.8429681062698364e-01" nType="0">
        <Node pos="l" depth="1" NCoef="0" IVar="-1" Cut="0.0000000000000000e+00" cType="1" res="1.1209110962226987e-03" rms="2.8198790550231934e-01" purity="8.3323055505752563e-01" nType="-99"/>
        <Node pos="r" depth="1" NCoef="0" IVar="1" Cut="2.3749426269531250e+03" cType="1" res="-2.8905430808663368e-03" rms="3.0852484703063965e-01" purity="7.4766421318054199e-01" nType="0">
          <Node pos="l" depth="2" NCoef="0" IVar="-1" Cut="0.0000000000000000e+00" cType="1" res="-2.8749997727572918e-04" rms="3.0858385562896729e-01" purity="7.6043802499771118e-01" nType="-99"/>
          <Node pos="r" depth="2" NCoef="0" IVar="-1" Cut="0.0000000000000000e+00" cType="1" res="-9.6967993304133415e-03" rms="3.0773401260375977e-01" purity="6.6513615846633911e-01" nType="-99"/>
        </Node>
      </Node>
    </BinaryTree>
    <BinaryTree type="DecisionTree" boostWeight="1.0000000000000000e+00" itree="722">
      <Node pos="s" depth="0" NCoef="0" IVar="4" Cut="3.5707595348358154e+00" cType="0" res="6.9129659095779061e-04" rms="2.9672226309776306e-01" purity="7.8524667024612427e-01" nType="0">
        <Node pos="l" depth="1" NCoef="0" IVar="-1" Cut="0.0000000000000000e+00" cType="1" res="-2.2933108266443014e-03" rms="2.6699036359786987e-01" purity="8.6897253990173340e-01" nType="-99"/>
        <Node pos="r" depth="1" NCoef="0" IVar="1" Cut="2.0589724121093750e+03" cType="1" res="2.8447266668081284e-03" rms="3.1076082587242126e-01" purity="7.4257546663284302e-01" nType="0">
          <Node pos="l" depth="2" NCoef="0" IVar="-1" Cut="0.0000000000000000e+00" cType="1" res="-4.9837352707982063e-04" rms="3.0798575282096863e-01" purity="7.6145529747009277e-01" nType="-99"/>
          <Node pos="r" depth="2" NCoef="0" IVar="-1" Cut="0.0000000000000000e+00" cType="1" res="8.0456938594579697e-03" rms="3.2077071070671082e-01" purity="6.6994613409042358e-01" nType="-99"/>
        </Node>
      </Node>
    </BinaryTree>
    <BinaryTree type="DecisionTree" boostWeight="1.0000000000000000e+00" itree="723">
      <Node pos="s" depth="0" NCoef="0" IVar="32" Cut="4.2741208076477051e+00" cType="0" res="-4.6772780478931963e-05" rms="2.9617902636528015e-01" purity="7.8459018468856812e-01" nType="0">
        <Node pos="l" depth="1" NCoef="0" IVar="-1" Cut="0.0000000000000000e+00" cType="1" res="-1.0014995932579041e-02" rms="2.6522406935691833e-01" purity="8.4520685672760010e-01" nType="-99"/>
        <Node pos="r" depth="1" NCoef="0" IVar="5" Cut="3.8814648985862732e-01" cType="0" res="5.6287675397470593e-04" rms="2.9738295078277588e-01" purity="7.8206521272659302e-01" nType="0">
          <Node pos="l" depth="2" NCoef="0" IVar="-1" Cut="0.0000000000000000e+00" cType="1" res="3.5696609411388636e-03" rms="2.6177388429641724e-01" purity="8.8227331638336182e-01" nType="-99"/>
          <Node pos="r" depth="2" NCoef="0" IVar="-1" Cut="0.0000000000000000e+00" cType="1" res="-6.8659079261124134e-04" rms="3.1085103750228882e-01" purity="7.4076712131500244e-01" nType="-99"/>
        </Node>
      </Node>
    </BinaryTree>
    <BinaryTree type="DecisionTree" boostWeight="1.0000000000000000e+00" itree="724">
      <Node pos="s" depth="0" NCoef="0" IVar="13" Cut="2.0682199707031250e+03" cType="0" res="7.9342593380715698e-05" rms="2.9733538627624512e-01" purity="7.8495436906814575e-01" nType="0">
        <Node pos="l" depth="1" NCoef="0" IVar="-1" Cut="0.0000000000000000e+00" cType="1" res="1.1064378777518868e-03" rms="2.9067310690879822e-01" purity="8.0174928903579712e-01" nType="-99"/>
        <Node pos="r" depth="1" NCoef="0" IVar="7" Cut="3.0905495605468750e+03" cType="0" res="-2.8672080952674150e-03" rms="3.0686923861503601e-01" purity="7.6019597053527832e-01" nType="0">
          <Node pos="l" depth="2" NCoef="0" IVar="-1" Cut="0.0000000000000000e+00" cType="1" res="3.3035953529179096e-03" rms="2.8180068731307983e-01" purity="8.4303373098373413e-01" nType="-99"/>
          <Node pos="r" depth="2" NCoef="0" IVar="-1" Cut="0.0000000000000000e+00" cType="1" res="-4.8921611160039902e-03" rms="3.2849416136741638e-01" purity="6.8229407072067261e-01" nType="-99"/>
        </Node>
      </Node>
    </BinaryTree>
    <BinaryTree type="DecisionTree" boostWeight="1.0000000000000000e+00" itree="725">
      <Node pos="s" depth="0" NCoef="0" IVar="2" Cut="1.4283904433250427e-01" cType="1" res="6.8592501338571310e-04" rms="2.9695621132850647e-01" purity="7.8434097766876221e-01" nType="0">
        <Node pos="l" depth="1" NCoef="0" IVar="-1" Cut="0.0000000000000000e+00" cType="1" res="-4.1658148984424770e-04" rms="2.8486859798431396e-01" purity="8.2210975885391235e-01" nType="-99"/>
        <Node pos="r" depth="1" NCoef="0" IVar="14" Cut="1.4765664062500000e+03" cType="0" res="5.7569779455661774e-03" rms="3.3628088235855103e-01" purity="6.5043294429779053e-01" nType="0">
          <Node pos="l" depth="2" NCoef="0" IVar="-1" Cut="0.0000000000000000e+00" cType="1" res="-4.0953431278467178e-02" rms="3.2961454987525940e-01" purity="7.1692305803298950e-01" nType="-99"/>
          <Node pos="r" depth="2" NCoef="0" IVar="-1" Cut="0.0000000000000000e+00" cType="1" res="2.7751354500651360e-03" rms="3.3620858192443848e-01" purity="6.4963394403457642e-01" nType="-99"/>
        </Node>
      </Node>
    </BinaryTree>
    <BinaryTree type="DecisionTree" boostWeight="1.0000000000000000e+00" itree="726">
      <Node pos="s" depth="0" NCoef="0" IVar="9" Cut="8.2769177246093750e+02" cType="0" res="8.9580767962615937e-05" rms="2.9644384980201721e-01" purity="7.8568333387374878e-01" nType="0">
        <Node pos="l" depth="1" NCoef="0" IVar="-1" Cut="0.0000000000000000e+00" cType="1" res="4.5742662623524666e-03" rms="2.4023269116878510e-01" purity="9.2669141292572021e-01" nType="-99"/>
        <Node pos="r" depth="1" NCoef="0" IVar="1" Cut="2.7773076171875000e+03" cType="1" res="-9.5587142277508974e-04" rms="3.0580115318298340e-01" purity="7.5930988788604736e-01" nType="0">
          <Node pos="l" depth="2" NCoef="0" IVar="-1" Cut="0.0000000000000000e+00" cType="1" res="-8.7626406457275152e-04" rms="3.0345025658607483e-01" purity="7.6808035373687744e-01" nType="-99"/>
          <Node pos="r" depth="2" NCoef="0" IVar="-1" Cut="0.0000000000000000e+00" cType="1" res="1.4928868040442467e-02" rms="4.0743830800056458e-01" purity="3.0358043313026428e-01" nType="-99"/>
        </Node>
      </Node>
    </BinaryTree>
    <BinaryTree type="DecisionTree" boostWeight="1.0000000000000000e+00" itree="727">
      <Node pos="s" depth="0" NCoef="0" IVar="32" Cut="1.5325396060943604e+00" cType="0" res="1.1626873165369034e-03" rms="2.9504570364952087e-01" purity="7.8621125221252441e-01" nType="0">
        <Node pos="l" depth="1" NCoef="0" IVar="-1" Cut="0.0000000000000000e+00" cType="1" res="-1.9639050588011742e-03" rms="2.7955695986747742e-01" purity="8.1133192777633667e-01" nType="-99"/>
        <Node pos="r" depth="1" NCoef="0" IVar="31" Cut="6.8265676498413086e-01" cType="0" res="3.9598508737981319e-03" rms="3.0409896373748779e-01" purity="7.7084273099899292e-01" nType="0">
          <Node pos="l" depth="2" NCoef="0" IVar="-1" Cut="0.0000000000000000e+00" cType="1" res="3.1158339697867632e-03" rms="3.0188503861427307e-01" purity="7.7504545450210571e-01" nType="-99"/>
          <Node pos="r" depth="2" NCoef="0" IVar="-1" Cut="0.0000000000000000e+00" cType="1" res="-5.6035229936242104e-03" rms="3.1763270497322083e-01" purity="7.4359470605850220e-01" nType="-99"/>
        </Node>
      </Node>
    </BinaryTree>
    <BinaryTree type="DecisionTree" boostWeight="1.0000000000000000e+00" itree="728">
      <Node pos="s" depth="0" NCoef="0" IVar="29" Cut="3.2485523223876953e+01" cType="1" res="2.0738472812809050e-04" rms="2.9608941078186035e-01" purity="7.8634142875671387e-01" nType="0">
        <Node pos="l" depth="1" NCoef="0" IVar="29" Cut="4.4733824729919434e+00" cType="1" res="2.5652957265265286e-04" rms="2.9611751437187195e-01" purity="7.8664851188659668e-01" nType="0">
          <Node pos="l" depth="2" NCoef="0" IVar="-1" Cut="0.0000000000000000e+00" cType="1" res="-2.1499113645404577e-03" rms="2.8369605541229248e-01" purity="8.2463860511779785e-01" nType="-99"/>
          <Node pos="r" depth="2" NCoef="0" IVar="-1" Cut="0.0000000000000000e+00" cType="1" res="1.4303969219326973e-03" rms="3.0398049950599670e-01" purity="7.6166409254074097e-01" nType="-99"/>
        </Node>
        <Node pos="r" depth="1" NCoef="0" IVar="-1" Cut="0.0000000000000000e+00" cType="1" res="-5.2658595144748688e-02" rms="2.0691728591918945e-01" purity="1.5000000596046448e-01" nType="-99"/>
      </Node>
    </BinaryTree>
    <BinaryTree type="DecisionTree" boostWeight="1.0000000000000000e+00" itree="729">
      <Node pos="s" depth="0" NCoef="0" IVar="23" Cut="2.1263521484375000e+04" cType="0" res="-5.1131087820976973e-04" rms="2.9667580127716064e-01" purity="7.8435438871383667e-01" nType="0">
        <Node pos="l" depth="1" NCoef="0" IVar="-1" Cut="0.0000000000000000e+00" cType="1" res="3.5751871764659882e-02" rms="1.8538744747638702e-01" purity="9.5808380842208862e-01" nType="-99"/>
        <Node pos="r" depth="1" NCoef="0" IVar="23" Cut="1.0795955810546875e+03" cType="0" res="-6.6497660009190440e-04" rms="2.9703122377395630e-01" purity="7.8365206718444824e-01" nType="0">
          <Node pos="l" depth="2" NCoef="0" IVar="-1" Cut="0.0000000000000000e+00" cType="1" res="-2.2758831619285047e-04" rms="2.9688909649848938e-01" purity="7.8398567438125610e-01" nType="-99"/>
          <Node pos="r" depth="2" NCoef="0" IVar="-1" Cut="0.0000000000000000e+00" cType="1" res="-2.0288629457354546e-02" rms="3.1731465458869934e-01" purity="7.2908365726470947e-01" nType="-99"/>
        </Node>
      </Node>
    </BinaryTree>
    <BinaryTree type="DecisionTree" boostWeight="1.0000000000000000e+00" itree="730">
      <Node pos="s" depth="0" NCoef="0" IVar="9" Cut="7.2427697753906250e+02" cType="0" res="-9.7068340983241796e-04" rms="2.9815480113029480e-01" purity="7.8309214115142822e-01" nType="0">
        <Node pos="l" depth="1" NCoef="0" IVar="-1" Cut="0.0000000000000000e+00" cType="1" res="3.5924958065152168e-03" rms="2.5527071952819824e-01" purity="9.0972900390625000e-01" nType="-99"/>
        <Node pos="r" depth="1" NCoef="0" IVar="1" Cut="1.8186917724609375e+03" cType="1" res="-2.3628510534763336e-03" rms="3.0731669068336487e-01" purity="7.5343805551528931e-01" nType="0">
          <Node pos="l" depth="2" NCoef="0" IVar="-1" Cut="0.0000000000000000e+00" cType="1" res="7.9588772496208549e-04" rms="2.9640331864356995e-01" purity="7.9399573802947998e-01" nType="-99"/>
          <Node pos="r" depth="2" NCoef="0" IVar="-1" Cut="0.0000000000000000e+00" cType="1" res="-5.8241412043571472e-03" rms="3.3697122335433960e-01" purity="6.3473427295684814e-01" nType="-99"/>
        </Node>
      </Node>
    </BinaryTree>
    <BinaryTree type="DecisionTree" boostWeight="1.0000000000000000e+00" itree="731">
      <Node pos="s" depth="0" NCoef="0" IVar="35" Cut="1.1580952453613281e+02" cType="0" res="-6.2126730335876346e-04" rms="2.9625123739242554e-01" purity="7.8392875194549561e-01" nType="0">
        <Node pos="l" depth="1" NCoef="0" IVar="-1" Cut="0.0000000000000000e+00" cType="1" res="-5.6376471184194088e-04" rms="2.9585105180740356e-01" purity="7.8462052345275879e-01" nType="-99"/>
        <Node pos="r" depth="1" NCoef="0" IVar="0" Cut="1.4000000000000000e+01" cType="1" res="1.1379525065422058e-02" rms="3.0613183975219727e-01" purity="7.6611691713333130e-01" nType="0">
          <Node pos="l" depth="2" NCoef="0" IVar="-1" Cut="0.0000000000000000e+00" cType="1" res="7.1567338891327381e-03" rms="3.0020201206207275e-01" purity="8.0544567108154297e-01" nType="-99"/>
          <Node pos="r" depth="2" NCoef="0" IVar="-1" Cut="0.0000000000000000e+00" cType="1" res="-9.5062451437115669e-03" rms="3.6562913656234741e-01" purity="3.1182795763015747e-01" nType="-99"/>
        </Node>
      </Node>
    </BinaryTree>
    <BinaryTree type="DecisionTree" boostWeight="1.0000000000000000e+00" itree="732">
      <Node pos="s" depth="0" NCoef="0" IVar="13" Cut="1.9047512207031250e+03" cType="0" res="-1.4001589734107256e-03" rms="2.9686975479125977e-01" purity="7.8291523456573486e-01" nType="0">
        <Node pos="l" depth="1" NCoef="0" IVar="-1" Cut="0.0000000000000000e+00" cType="1" res="2.1695003670174628e-04" rms="2.9317733645439148e-01" purity="7.9331463575363159e-01" nType="-99"/>
        <Node pos="r" depth="1" NCoef="0" IVar="25" Cut="2.1192932128906250e+03" cType="0" res="-4.7667170874774456e-03" rms="3.0357950925827026e-01" purity="7.6360148191452026e-01" nType="0">
          <Node pos="l" depth="2" NCoef="0" IVar="-1" Cut="0.0000000000000000e+00" cType="1" res="2.9242599848657846e-03" rms="2.8804749250411987e-01" purity="8.0619317293167114e-01" nType="-99"/>
          <Node pos="r" depth="2" NCoef="0" IVar="-1" Cut="0.0000000000000000e+00" cType="1" res="-6.4409738406538963e-03" rms="3.1618008017539978e-01" purity="7.2662883996963501e-01" nType="-99"/>
        </Node>
      </Node>
    </BinaryTree>
    <BinaryTree type="DecisionTree" boostWeight="1.0000000000000000e+00" itree="733">
      <Node pos="s" depth="0" NCoef="0" IVar="0" Cut="4.7142858505249023e+00" cType="1" res="8.8371452875435352e-04" rms="2.9561004042625427e-01" purity="7.8523510694503784e-01" nType="0">
        <Node pos="l" depth="1" NCoef="0" IVar="-1" Cut="0.0000000000000000e+00" cType="1" res="3.2988579478114843e-03" rms="2.3668532073497772e-01" purity="9.1929870843887329e-01" nType="-99"/>
        <Node pos="r" depth="1" NCoef="0" IVar="18" Cut="6.0577116906642914e-02" cType="1" res="-5.5480323499068618e-04" rms="3.1827470660209656e-01" purity="7.2573655843734741e-01" nType="0">
          <Node pos="l" depth="2" NCoef="0" IVar="-1" Cut="0.0000000000000000e+00" cType="1" res="-2.7624575977824861e-06" rms="3.1772640347480774e-01" purity="7.2602272033691406e-01" nType="-99"/>
          <Node pos="r" depth="2" NCoef="0" IVar="-1" Cut="0.0000000000000000e+00" cType="1" res="-3.2087057828903198e-02" rms="3.7662771344184875e-01" purity="6.8817204236984253e-01" nType="-99"/>
        </Node>
      </Node>
    </BinaryTree>
    <BinaryTree type="DecisionTree" boostWeight="1.0000000000000000e+00" itree="734">
      <Node pos="s" depth="0" NCoef="0" IVar="3" Cut="3.2201086425781250e+03" cType="0" res="-3.5981349356006831e-05" rms="2.9713279008865356e-01" purity="7.8443497419357300e-01" nType="0">
        <Node pos="l" depth="1" NCoef="0" IVar="-1" Cut="0.0000000000000000e+00" cType="1" res="-1.1489192256703973e-03" rms="2.9442819952964783e-01" purity="7.9011172056198120e-01" nType="-99"/>
        <Node pos="r" depth="1" NCoef="0" IVar="9" Cut="2.4449406433105469e+02" cType="0" res="3.4753421787172556e-03" rms="3.0154576897621155e-01" purity="7.7499091625213623e-01" nType="0">
          <Node pos="l" depth="2" NCoef="0" IVar="-1" Cut="0.0000000000000000e+00" cType="1" res="-1.8773722695186734e-03" rms="2.9558470845222473e-01" purity="8.0994695425033569e-01" nType="-99"/>
          <Node pos="r" depth="2" NCoef="0" IVar="-1" Cut="0.0000000000000000e+00" cType="1" res="8.8712051510810852e-03" rms="3.1494271755218506e-01" purity="6.8973624706268311e-01" nType="-99"/>
        </Node>
      </Node>
    </BinaryTree>
    <BinaryTree type="DecisionTree" boostWeight="1.0000000000000000e+00" itree="735">
      <Node pos="s" depth="0" NCoef="0" IVar="3" Cut="3.2170036621093750e+03" cType="0" res="3.5698176361620426e-04" rms="2.9636263847351074e-01" purity="7.8468585014343262e-01" nType="0">
        <Node pos="l" depth="1" NCoef="0" IVar="-1" Cut="0.0000000000000000e+00" cType="1" res="-1.0440783808007836e-03" rms="2.9469278454780579e-01" purity="7.9062718152999878e-01" nType="-99"/>
        <Node pos="r" depth="1" NCoef="0" IVar="25" Cut="2.0591872558593750e+03" cType="1" res="4.2464914731681347e-03" rms="2.9911187291145325e-01" purity="7.7468580007553101e-01" nType="0">
          <Node pos="l" depth="2" NCoef="0" IVar="-1" Cut="0.0000000000000000e+00" cType="1" res="3.4956601448357105e-03" rms="2.9839494824409485e-01" purity="7.8591042757034302e-01" nType="-99"/>
          <Node pos="r" depth="2" NCoef="0" IVar="-1" Cut="0.0000000000000000e+00" cType="1" res="-2.0613608881831169e-02" rms="3.0592122673988342e-01" purity="6.1912375688552856e-01" nType="-99"/>
        </Node>
      </Node>
    </BinaryTree>
    <BinaryTree type="DecisionTree" boostWeight="1.0000000000000000e+00" itree="736">
      <Node pos="s" depth="0" NCoef="0" IVar="7" Cut="2.1617390136718750e+03" cType="0" res="1.2926140334457159e-04" rms="2.9719015955924988e-01" purity="7.8473562002182007e-01" nType="0">
        <Node pos="l" depth="1" NCoef="0" IVar="-1" Cut="0.0000000000000000e+00" cType="1" res="8.0619630170986056e-04" rms="2.8554522991180420e-01" purity="8.2122623920440674e-01" nType="-99"/>
        <Node pos="r" depth="1" NCoef="0" IVar="3" Cut="3.3815029296875000e+03" cType="1" res="-3.5569162573665380e-03" rms="3.2720190286636353e-01" purity="6.8386840820312500e-01" nType="0">
          <Node pos="l" depth="2" NCoef="0" IVar="-1" Cut="0.0000000000000000e+00" cType="1" res="4.1246437467634678e-03" rms="3.2740041613578796e-01" purity="7.1511465311050415e-01" nType="-99"/>
          <Node pos="r" depth="2" NCoef="0" IVar="-1" Cut="0.0000000000000000e+00" cType="1" res="-8.2296095788478851e-03" rms="3.2634562253952026e-01" purity="6.4842891693115234e-01" nType="-99"/>
        </Node>
      </Node>
    </BinaryTree>
    <BinaryTree type="DecisionTree" boostWeight="1.0000000000000000e+00" itree="737">
      <Node pos="s" depth="0" NCoef="0" IVar="14" Cut="2.3179091796875000e+03" cType="0" res="2.6296710711903870e-04" rms="2.9564189910888672e-01" purity="7.8542065620422363e-01" nType="0">
        <Node pos="l" depth="1" NCoef="0" IVar="-1" Cut="0.0000000000000000e+00" cType="1" res="-1.3223106972873211e-02" rms="2.6686394214630127e-01" purity="8.9229458570480347e-01" nType="-99"/>
        <Node pos="r" depth="1" NCoef="0" IVar="14" Cut="3.4846023559570312e+02" cType="0" res="6.0105655575171113e-04" rms="2.9615855216979980e-01" purity="7.8336203098297119e-01" nType="0">
          <Node pos="l" depth="2" NCoef="0" IVar="-1" Cut="0.0000000000000000e+00" cType="1" res="-1.4112601056694984e-03" rms="2.8011882305145264e-01" purity="8.2040321826934814e-01" nType="-99"/>
          <Node pos="r" depth="2" NCoef="0" IVar="-1" Cut="0.0000000000000000e+00" cType="1" res="2.1657804027199745e-03" rms="3.1594964861869812e-01" purity="7.3469811677932739e-01" nType="-99"/>
        </Node>
      </Node>
    </BinaryTree>
    <BinaryTree type="DecisionTree" boostWeight="1.0000000000000000e+00" itree="738">
      <Node pos="s" depth="0" NCoef="0" IVar="1" Cut="2.3031530761718750e+03" cType="1" res="1.9363216415513307e-04" rms="2.9630130529403687e-01" purity="7.8537482023239136e-01" nType="0">
        <Node pos="l" depth="1" NCoef="0" IVar="-1" Cut="0.0000000000000000e+00" cType="1" res="7.0193776628002524e-04" rms="2.9499077796936035e-01" purity="7.9563140869140625e-01" nType="-99"/>
        <Node pos="r" depth="1" NCoef="0" IVar="9" Cut="4.8389053344726562e+02" cType="0" res="-6.1748153530061245e-03" rms="3.0317589640617371e-01" purity="7.3019194602966309e-01" nType="0">
          <Node pos="l" depth="2" NCoef="0" IVar="-1" Cut="0.0000000000000000e+00" cType="1" res="-1.1786722578108311e-02" rms="2.7279284596443176e-01" purity="8.3484786748886108e-01" nType="-99"/>
          <Node pos="r" depth="2" NCoef="0" IVar="-1" Cut="0.0000000000000000e+00" cType="1" res="1.1702173389494419e-02" rms="3.8757273554801941e-01" purity="3.6915040016174316e-01" nType="-99"/>
        </Node>
      </Node>
    </BinaryTree>
    <BinaryTree type="DecisionTree" boostWeight="1.0000000000000000e+00" itree="739">
      <Node pos="s" depth="0" NCoef="0" IVar="0" Cut="2.8571429252624512e+00" cType="1" res="3.1787474290467799e-04" rms="2.9618528485298157e-01" purity="7.8504252433776855e-01" nType="0">
        <Node pos="l" depth="1" NCoef="0" IVar="-1" Cut="0.0000000000000000e+00" cType="1" res="8.2077896222472191e-03" rms="2.2758007049560547e-01" purity="9.2799073457717896e-01" nType="-99"/>
        <Node pos="r" depth="1" NCoef="0" IVar="0" Cut="1.1809523582458496e+01" cType="1" res="-1.9054838048759848e-04" rms="2.9924324154853821e-01" purity="7.7777779102325439e-01" nType="0">
          <Node pos="l" depth="2" NCoef="0" IVar="-1" Cut="0.0000000000000000e+00" cType="1" res="6.8216404179111123e-04" rms="2.9076364636421204e-01" purity="8.3034986257553101e-01" nType="-99"/>
          <Node pos="r" depth="2" NCoef="0" IVar="-1" Cut="0.0000000000000000e+00" cType="1" res="-3.7746892776340246e-03" rms="3.5530829429626465e-01" purity="3.9079242944717407e-01" nType="-99"/>
        </Node>
      </Node>
    </BinaryTree>
    <BinaryTree type="DecisionTree" boostWeight="1.0000000000000000e+00" itree="740">
      <Node pos="s" depth="0" NCoef="0" IVar="9" Cut="8.2769177246093750e+02" cType="0" res="-1.9971688743680716e-04" rms="2.9656052589416504e-01" purity="7.8390991687774658e-01" nType="0">
        <Node pos="l" depth="1" NCoef="0" IVar="-1" Cut="0.0000000000000000e+00" cType="1" res="4.5572733506560326e-03" rms="2.3943354189395905e-01" purity="9.2588979005813599e-01" nType="-99"/>
        <Node pos="r" depth="1" NCoef="0" IVar="9" Cut="2.0622856140136719e+02" cType="0" res="-1.2915834086015821e-03" rms="3.0596908926963806e-01" purity="7.5758844614028931e-01" nType="0">
          <Node pos="l" depth="2" NCoef="0" IVar="-1" Cut="0.0000000000000000e+00" cType="1" res="8.0711219925433397e-04" rms="2.9616212844848633e-01" purity="7.8616732358932495e-01" nType="-99"/>
          <Node pos="r" depth="2" NCoef="0" IVar="-1" Cut="0.0000000000000000e+00" cType="1" res="-6.0248859226703644e-03" rms="3.4961801767349243e-01" purity="6.1794543266296387e-01" nType="-99"/>
        </Node>
      </Node>
    </BinaryTree>
    <BinaryTree type="DecisionTree" boostWeight="1.0000000000000000e+00" itree="741">
      <Node pos="s" depth="0" NCoef="0" IVar="9" Cut="8.2769177246093750e+02" cType="0" res="-2.9086045105941594e-04" rms="2.9617393016815186e-01" purity="7.8399938344955444e-01" nType="0">
        <Node pos="l" depth="1" NCoef="0" IVar="-1" Cut="0.0000000000000000e+00" cType="1" res="3.7138292100280523e-03" rms="2.4109946191310883e-01" purity="9.2538845539093018e-01" nType="-99"/>
        <Node pos="r" depth="1" NCoef="0" IVar="1" Cut="3.3027915039062500e+03" cType="1" res="-1.2029081117361784e-03" rms="3.0530244112014771e-01" purity="7.5773853063583374e-01" nType="0">
          <Node pos="l" depth="2" NCoef="0" IVar="-1" Cut="0.0000000000000000e+00" cType="1" res="-7.4435968417674303e-04" rms="3.0471107363700867e-01" purity="7.5947189331054688e-01" nType="-99"/>
          <Node pos="r" depth="2" NCoef="0" IVar="-1" Cut="0.0000000000000000e+00" cType="1" res="3.3345114439725876e-02" rms="4.2542895674705505e-01" purity="2.9873418807983398e-01" nType="-99"/>
        </Node>
      </Node>
    </BinaryTree>
    <BinaryTree type="DecisionTree" boostWeight="1.0000000000000000e+00" itree="742">
      <Node pos="s" depth="0" NCoef="0" IVar="35" Cut="2.2061904907226562e+02" cType="1" res="5.5513693951070309e-04" rms="2.9543626308441162e-01" purity="7.8528249263763428e-01" nType="0">
        <Node pos="l" depth="1" NCoef="0" IVar="-1" Cut="0.0000000000000000e+00" cType="1" res="-1.0022034402936697e-03" rms="2.9455420374870300e-01" purity="7.8823769092559814e-01" nType="-99"/>
        <Node pos="r" depth="1" NCoef="0" IVar="25" Cut="1.7091644287109375e+03" cType="0" res="3.1900187022984028e-03" rms="2.9635313153266907e-01" purity="7.8212505578994751e-01" nType="0">
          <Node pos="l" depth="2" NCoef="0" IVar="-1" Cut="0.0000000000000000e+00" cType="1" res="3.1540996860712767e-03" rms="2.8758227825164795e-01" purity="8.0832797288894653e-01" nType="-99"/>
          <Node pos="r" depth="2" NCoef="0" IVar="-1" Cut="0.0000000000000000e+00" cType="1" res="-2.6906237471848726e-03" rms="3.2516235113143921e-01" purity="6.8993240594863892e-01" nType="-99"/>
        </Node>
      </Node>
    </BinaryTree>
    <BinaryTree type="DecisionTree" boostWeight="1.0000000000000000e+00" itree="743">
      <Node pos="s" depth="0" NCoef="0" IVar="12" Cut="-5.9496691894531250e+02" cType="1" res="2.3295191931538284e-04" rms="2.9641687870025635e-01" purity="7.8610610961914062e-01" nType="0">
        <Node pos="l" depth="1" NCoef="0" IVar="-1" Cut="0.0000000000000000e+00" cType="1" res="7.4544120579957962e-03" rms="2.0021808147430420e-01" purity="9.3382209539413452e-01" nType="-99"/>
        <Node pos="r" depth="1" NCoef="0" IVar="11" Cut="1.6666400909423828e+01" cType="1" res="-1.2173238210380077e-03" rms="3.1220304965972900e-01" purity="7.5636136531829834e-01" nType="0">
          <Node pos="l" depth="2" NCoef="0" IVar="-1" Cut="0.0000000000000000e+00" cType="1" res="-2.0009416621178389e-03" rms="3.0746841430664062e-01" purity="7.8238898515701294e-01" nType="-99"/>
          <Node pos="r" depth="2" NCoef="0" IVar="-1" Cut="0.0000000000000000e+00" cType="1" res="1.3116608606651425e-03" rms="3.1895321607589722e-01" purity="7.1830749511718750e-01" nType="-99"/>
        </Node>
      </Node>
    </BinaryTree>
    <BinaryTree type="DecisionTree" boostWeight="1.0000000000000000e+00" itree="744">
      <Node pos="s" depth="0" NCoef="0" IVar="2" Cut="1.4283904433250427e-01" cType="1" res="4.7899986384436488e-04" rms="2.9680094122886658e-01" purity="7.8490877151489258e-01" nType="0">
        <Node pos="l" depth="1" NCoef="0" IVar="-1" Cut="0.0000000000000000e+00" cType="1" res="-6.9184566382318735e-04" rms="2.8499761223793030e-01" purity="8.2226812839508057e-01" nType="-99"/>
        <Node pos="r" depth="1" NCoef="0" IVar="0" Cut="6.5714287757873535e+00" cType="1" res="6.5411203540861607e-03" rms="3.3518764376640320e-01" purity="6.5267121791839600e-01" nType="0">
          <Node pos="l" depth="2" NCoef="0" IVar="-1" Cut="0.0000000000000000e+00" cType="1" res="-4.2900098487734795e-03" rms="3.0107045173645020e-01" purity="8.4254652261734009e-01" nType="-99"/>
          <Node pos="r" depth="2" NCoef="0" IVar="-1" Cut="0.0000000000000000e+00" cType="1" res="4.4814450666308403e-03" rms="3.4732937812805176e-01" purity="5.7921141386032104e-01" nType="-99"/>
        </Node>
      </Node>
    </BinaryTree>
    <BinaryTree type="DecisionTree" boostWeight="1.0000000000000000e+00" itree="745">
      <Node pos="s" depth="0" NCoef="0" IVar="17" Cut="2.5019839062500000e+05" cType="0" res="4.1253637755289674e-04" rms="2.9592692852020264e-01" purity="7.8458219766616821e-01" nType="0">
        <Node pos="l" depth="1" NCoef="0" IVar="-1" Cut="0.0000000000000000e+00" cType="1" res="3.6864258348941803e-02" rms="2.0526190102100372e-01" purity="9.4961237907409668e-01" nType="-99"/>
        <Node pos="r" depth="1" NCoef="0" IVar="19" Cut="2.9301631250000000e+05" cType="1" res="3.0925360624678433e-04" rms="2.9607737064361572e-01" purity="7.8423994779586792e-01" nType="0">
          <Node pos="l" depth="2" NCoef="0" IVar="-1" Cut="0.0000000000000000e+00" cType="1" res="3.6698739859275520e-04" rms="2.9528349637985229e-01" purity="7.8525364398956299e-01" nType="-99"/>
          <Node pos="r" depth="2" NCoef="0" IVar="-1" Cut="0.0000000000000000e+00" cType="1" res="-1.0131324641406536e-02" rms="3.3894258737564087e-01" purity="7.2423803806304932e-01" nType="-99"/>
        </Node>
      </Node>
    </BinaryTree>
    <BinaryTree type="DecisionTree" boostWeight="1.0000000000000000e+00" itree="746">
      <Node pos="s" depth="0" NCoef="0" IVar="17" Cut="1.2575597656250000e+05" cType="0" res="-4.5598682481795549e-04" rms="2.9642012715339661e-01" purity="7.8396797180175781e-01" nType="0">
        <Node pos="l" depth="1" NCoef="0" IVar="-1" Cut="0.0000000000000000e+00" cType="1" res="7.6319649815559387e-03" rms="2.8340521454811096e-01" purity="8.0817091464996338e-01" nType="-99"/>
        <Node pos="r" depth="1" NCoef="0" IVar="19" Cut="3.8562846875000000e+05" cType="0" res="-9.8661985248327255e-04" rms="2.9685485363006592e-01" purity="7.8311425447463989e-01" nType="0">
          <Node pos="l" depth="2" NCoef="0" IVar="-1" Cut="0.0000000000000000e+00" cType="1" res="4.2754113674163818e-02" rms="2.6822689175605774e-01" purity="9.3617022037506104e-01" nType="-99"/>
          <Node pos="r" depth="2" NCoef="0" IVar="-1" Cut="0.0000000000000000e+00" cType="1" res="-5.7723227655515075e-04" rms="2.9687917232513428e-01" purity="7.8287559747695923e-01" nType="-99"/>
        </Node>
      </Node>
    </BinaryTree>
    <BinaryTree type="DecisionTree" boostWeight="1.0000000000000000e+00" itree="747">
      <Node pos="s" depth="0" NCoef="0" IVar="18" Cut="1.8949934840202332e-01" cType="0" res="-7.6251286373008043e-05" rms="2.9619777202606201e-01" purity="7.8540885448455811e-01" nType="0">
        <Node pos="l" depth="1" NCoef="0" IVar="-1" Cut="0.0000000000000000e+00" cType="1" res="1.6564067453145981e-02" rms="2.5104442238807678e-01" purity="9.1089111566543579e-01" nType="-99"/>
        <Node pos="r" depth="1" NCoef="0" IVar="18" Cut="1.8046215176582336e-01" cType="1" res="-2.9220254509709775e-04" rms="2.9652926325798035e-01" purity="7.8438186645507812e-01" nType="0">
          <Node pos="l" depth="2" NCoef="0" IVar="-1" Cut="0.0000000000000000e+00" cType="1" res="-1.0944809037027881e-04" rms="2.9647922515869141e-01" purity="7.8444188833236694e-01" nType="-99"/>
          <Node pos="r" depth="2" NCoef="0" IVar="-1" Cut="0.0000000000000000e+00" cType="1" res="-6.6721960902214050e-02" rms="3.4446048736572266e-01" purity="6.8831169605255127e-01" nType="-99"/>
        </Node>
      </Node>
    </BinaryTree>
    <BinaryTree type="DecisionTree" boostWeight="1.0000000000000000e+00" itree="748">
      <Node pos="s" depth="0" NCoef="0" IVar="1" Cut="2.7538886718750000e+03" cType="1" res="3.0467435135506094e-04" rms="2.9595160484313965e-01" purity="7.8528010845184326e-01" nType="0">
        <Node pos="l" depth="1" NCoef="0" IVar="-1" Cut="0.0000000000000000e+00" cType="1" res="6.4721761737018824e-04" rms="2.9490861296653748e-01" purity="7.8818070888519287e-01" nType="-99"/>
        <Node pos="r" depth="1" NCoef="0" IVar="8" Cut="2.0970828533172607e+00" cType="0" res="-1.1444107629358768e-02" rms="3.0816775560379028e-01" purity="7.4984079599380493e-01" nType="0">
          <Node pos="l" depth="2" NCoef="0" IVar="-1" Cut="0.0000000000000000e+00" cType="1" res="-1.9127342849969864e-02" rms="2.9658955335617065e-01" purity="7.9074448347091675e-01" nType="-99"/>
          <Node pos="r" depth="2" NCoef="0" IVar="-1" Cut="0.0000000000000000e+00" cType="1" res="9.6685364842414856e-03" rms="3.2498183846473694e-01" purity="6.7929440736770630e-01" nType="-99"/>
        </Node>
      </Node>
    </BinaryTree>
    <BinaryTree type="DecisionTree" boostWeight="1.0000000000000000e+00" itree="749">
      <Node pos="s" depth="0" NCoef="0" IVar="9" Cut="4.9940457153320312e+02" cType="0" res="7.9195026773959398e-04" rms="2.9592251777648926e-01" purity="7.8623718023300171e-01" nType="0">
        <Node pos="l" depth="1" NCoef="0" IVar="-1" Cut="0.0000000000000000e+00" cType="1" res="2.8658250812441111e-03" rms="2.6068603992462158e-01" purity="8.8175833225250244e-01" nType="-99"/>
        <Node pos="r" depth="1" NCoef="0" IVar="1" Cut="1.7359093017578125e+03" cType="1" res="-1.2578432215377688e-03" rms="3.1409087777137756e-01" purity="7.3220306634902954e-01" nType="0">
          <Node pos="l" depth="2" NCoef="0" IVar="-1" Cut="0.0000000000000000e+00" cType="1" res="2.6712794788181782e-03" rms="2.9732087254524231e-01" purity="7.8449028730392456e-01" nType="-99"/>
          <Node pos="r" depth="2" NCoef="0" IVar="-1" Cut="0.0000000000000000e+00" cType="1" res="-8.5749961435794830e-03" rms="3.6137980222702026e-01" purity="5.6633883714675903e-01" nType="-99"/>
        </Node>
      </Node>
    </BinaryTree>
    <BinaryTree type="DecisionTree" boostWeight="1.0000000000000000e+00" itree="750">
      <Node pos="s" depth="0" NCoef="0" IVar="3" Cut="3.7215258789062500e+03" cType="0" res="-6.8921234924346209e-04" rms="2.9690688848495483e-01" purity="7.8435420989990234e-01" nType="0">
        <Node pos="l" depth="1" NCoef="0" IVar="-1" Cut="0.0000000000000000e+00" cType="1" res="1.7245515482500196e-03" rms="2.9539212584495544e-01" purity="7.9620569944381714e-01" nType="-99"/>
        <Node pos="r" depth="1" NCoef="0" IVar="0" Cut="7.8571429252624512e+00" cType="1" res="-3.6293894518166780e-03" rms="2.9801201820373535e-01" purity="7.7540403604507446e-01" nType="0">
          <Node pos="l" depth="2" NCoef="0" IVar="-1" Cut="0.0000000000000000e+00" cType="1" res="1.6518392367288470e-03" rms="2.6815173029899597e-01" purity="8.7573146820068359e-01" nType="-99"/>
          <Node pos="r" depth="2" NCoef="0" IVar="-1" Cut="0.0000000000000000e+00" cType="1" res="-7.4886837974190712e-03" rms="3.7100443243980408e-01" purity="4.8285382986068726e-01" nType="-99"/>
        </Node>
      </Node>
    </BinaryTree>
    <BinaryTree type="DecisionTree" boostWeight="1.0000000000000000e+00" itree="751">
      <Node pos="s" depth="0" NCoef="0" IVar="1" Cut="2.3031530761718750e+03" cType="1" res="3.9611660758964717e-04" rms="2.9495793581008911e-01" purity="7.8495514392852783e-01" nType="0">
        <Node pos="l" depth="1" NCoef="0" IVar="-1" Cut="0.0000000000000000e+00" cType="1" res="8.0601725494489074e-04" rms="2.9317685961723328e-01" purity="7.9582023620605469e-01" nType="-99"/>
        <Node pos="r" depth="1" NCoef="0" IVar="9" Cut="4.8389053344726562e+02" cType="0" res="-5.7495790533721447e-03" rms="3.0408248305320740e-01" purity="7.2779399156570435e-01" nType="0">
          <Node pos="l" depth="2" NCoef="0" IVar="-1" Cut="0.0000000000000000e+00" cType="1" res="-1.1949181556701660e-02" rms="2.7658456563949585e-01" purity="8.3440071344375610e-01" nType="-99"/>
          <Node pos="r" depth="2" NCoef="0" IVar="-1" Cut="0.0000000000000000e+00" cType="1" res="1.2274038977921009e-02" rms="3.7894052267074585e-01" purity="3.7161570787429810e-01" nType="-99"/>
        </Node>
      </Node>
    </BinaryTree>
    <BinaryTree type="DecisionTree" boostWeight="1.0000000000000000e+00" itree="752">
      <Node pos="s" depth="0" NCoef="0" IVar="19" Cut="2.0998990625000000e+05" cType="1" res="-1.3161996321287006e-04" rms="2.9549181461334229e-01" purity="7.8490447998046875e-01" nType="0">
        <Node pos="l" depth="1" NCoef="0" IVar="-1" Cut="0.0000000000000000e+00" cType="1" res="3.0003036954440176e-04" rms="2.9408594965934753e-01" purity="7.8755605220794678e-01" nType="-99"/>
        <Node pos="r" depth="1" NCoef="0" IVar="0" Cut="1.0285714149475098e+01" cType="1" res="-1.0975384153425694e-02" rms="3.1614458560943604e-01" purity="7.4409395456314087e-01" nType="0">
          <Node pos="l" depth="2" NCoef="0" IVar="-1" Cut="0.0000000000000000e+00" cType="1" res="-1.3310824288055301e-03" rms="3.1101045012474060e-01" purity="8.0335438251495361e-01" nType="-99"/>
          <Node pos="r" depth="2" NCoef="0" IVar="-1" Cut="0.0000000000000000e+00" cType="1" res="-2.0656736567616463e-02" rms="3.4126791357994080e-01" purity="3.8682746887207031e-01" nType="-99"/>
        </Node>
      </Node>
    </BinaryTree>
    <BinaryTree type="DecisionTree" boostWeight="1.0000000000000000e+00" itree="753">
      <Node pos="s" depth="0" NCoef="0" IVar="19" Cut="1.4335339062500000e+05" cType="1" res="-4.7123126569204032e-04" rms="2.9720959067344666e-01" purity="7.8328716754913330e-01" nType="0">
        <Node pos="l" depth="1" NCoef="0" IVar="-1" Cut="0.0000000000000000e+00" cType="1" res="4.2843271512538195e-04" rms="2.9468053579330444e-01" purity="7.8775447607040405e-01" nType="-99"/>
        <Node pos="r" depth="1" NCoef="0" IVar="0" Cut="8.4285717010498047e+00" cType="1" res="-6.3960286788642406e-03" rms="3.0854091048240662e-01" purity="7.6267528533935547e-01" nType="0">
          <Node pos="l" depth="2" NCoef="0" IVar="-1" Cut="0.0000000000000000e+00" cType="1" res="5.3178897360339761e-04" rms="2.9094949364662170e-01" purity="8.4956383705139160e-01" nType="-99"/>
          <Node pos="r" depth="2" NCoef="0" IVar="-1" Cut="0.0000000000000000e+00" cType="1" res="-1.0129855014383793e-02" rms="3.5696950554847717e-01" purity="4.9138408899307251e-01" nType="-99"/>
        </Node>
      </Node>
    </BinaryTree>
    <BinaryTree type="DecisionTree" boostWeight="1.0000000000000000e+00" itree="754">
      <Node pos="s" depth="0" NCoef="0" IVar="0" Cut="1.7714284896850586e+01" cType="1" res="-1.6053554645623080e-05" rms="2.9527810215950012e-01" purity="7.8386616706848145e-01" nType="0">
        <Node pos="l" depth="1" NCoef="0" IVar="-1" Cut="0.0000000000000000e+00" cType="1" res="2.3205926117952913e-04" rms="2.9528710246086121e-01" purity="7.9892528057098389e-01" nType="-99"/>
        <Node pos="r" depth="1" NCoef="0" IVar="13" Cut="4.6413652343750000e+03" cType="0" res="-1.6292199492454529e-02" rms="2.9449814558029175e-01" purity="2.5159975886344910e-01" nType="0">
          <Node pos="l" depth="2" NCoef="0" IVar="-1" Cut="0.0000000000000000e+00" cType="1" res="3.6245871335268021e-02" rms="3.2480230927467346e-01" purity="6.4664310216903687e-01" nType="-99"/>
          <Node pos="r" depth="2" NCoef="0" IVar="-1" Cut="0.0000000000000000e+00" cType="1" res="-1.1892651207745075e-02" rms="2.8923565149307251e-01" purity="2.1616481244564056e-01" nType="-99"/>
        </Node>
      </Node>
    </BinaryTree>
    <BinaryTree type="DecisionTree" boostWeight="1.0000000000000000e+00" itree="755">
      <Node pos="s" depth="0" NCoef="0" IVar="0" Cut="1.5857142448425293e+01" cType="1" res="-3.0089518986642361e-04" rms="2.9685142636299133e-01" purity="7.8461736440658569e-01" nType="0">
        <Node pos="l" depth="1" NCoef="0" IVar="-1" Cut="0.0000000000000000e+00" cType="1" res="-4.8301692004315555e-04" rms="2.9494705796241760e-01" purity="8.0588668584823608e-01" nType="-99"/>
        <Node pos="r" depth="1" NCoef="0" IVar="7" Cut="4.0778093261718750e+03" cType="0" res="1.2808219529688358e-02" rms="3.3464333415031433e-01" purity="3.3082571625709534e-01" nType="0">
          <Node pos="l" depth="2" NCoef="0" IVar="-1" Cut="0.0000000000000000e+00" cType="1" res="2.5500152260065079e-02" rms="3.4696224331855774e-01" purity="6.1706781387329102e-01" nType="-99"/>
          <Node pos="r" depth="2" NCoef="0" IVar="-1" Cut="0.0000000000000000e+00" cType="1" res="-1.6791685993666761e-05" rms="3.3065661787986755e-01" purity="2.7479118108749390e-01" nType="-99"/>
        </Node>
      </Node>
    </BinaryTree>
    <BinaryTree type="DecisionTree" boostWeight="1.0000000000000000e+00" itree="756">
      <Node pos="s" depth="0" NCoef="0" IVar="2" Cut="4.0471062064170837e-01" cType="1" res="9.0118614025413990e-04" rms="2.9516381025314331e-01" purity="7.8590852022171021e-01" nType="0">
        <Node pos="l" depth="1" NCoef="0" IVar="-1" Cut="0.0000000000000000e+00" cType="1" res="2.4585329811088741e-04" rms="2.9326835274696350e-01" purity="7.9275101423263550e-01" nType="-99"/>
        <Node pos="r" depth="1" NCoef="0" IVar="13" Cut="2.5114086914062500e+03" cType="0" res="1.2941344641149044e-02" rms="3.4354346990585327e-01" purity="5.9541982412338257e-01" nType="0">
          <Node pos="l" depth="2" NCoef="0" IVar="-1" Cut="0.0000000000000000e+00" cType="1" res="-1.0861685499548912e-02" rms="3.3348163962364197e-01" purity="6.0157066583633423e-01" nType="-99"/>
          <Node pos="r" depth="2" NCoef="0" IVar="-1" Cut="0.0000000000000000e+00" cType="1" res="1.6895543783903122e-02" rms="3.4822252392768860e-01" purity="5.9055119752883911e-01" nType="-99"/>
        </Node>
      </Node>
    </BinaryTree>
    <BinaryTree type="DecisionTree" boostWeight="1.0000000000000000e+00" itree="757">
      <Node pos="s" depth="0" NCoef="0" IVar="2" Cut="4.7613012790679932e-01" cType="1" res="-1.0851859115064144e-03" rms="2.9690811038017273e-01" purity="7.8326517343521118e-01" nType="0">
        <Node pos="l" depth="1" NCoef="0" IVar="-1" Cut="0.0000000000000000e+00" cType="1" res="-4.2768940329551697e-04" rms="2.9628789424896240e-01" purity="7.8490287065505981e-01" nType="-99"/>
        <Node pos="r" depth="1" NCoef="0" IVar="26" Cut="3.0263608398437500e+03" cType="0" res="-3.5254240036010742e-02" rms="3.6813753843307495e-01" purity="5.6716418266296387e-01" nType="0">
          <Node pos="l" depth="2" NCoef="0" IVar="-1" Cut="0.0000000000000000e+00" cType="1" res="1.2119597522541881e-03" rms="3.7396690249443054e-01" purity="6.4295876026153564e-01" nType="-99"/>
          <Node pos="r" depth="2" NCoef="0" IVar="-1" Cut="0.0000000000000000e+00" cType="1" res="-6.7697986960411072e-02" rms="3.2399418950080872e-01" purity="3.4042552113533020e-01" nType="-99"/>
        </Node>
      </Node>
    </BinaryTree>
    <BinaryTree type="DecisionTree" boostWeight="1.0000000000000000e+00" itree="758">
      <Node pos="s" depth="0" NCoef="0" IVar="19" Cut="5.4375918750000000e+05" cType="1" res="-9.4373692991212010e-04" rms="2.9679867625236511e-01" purity="7.8471487760543823e-01" nType="0">
        <Node pos="l" depth="1" NCoef="0" IVar="-1" Cut="0.0000000000000000e+00" cType="1" res="-4.5709882397204638e-04" rms="2.9675781726837158e-01" purity="7.8473645448684692e-01" nType="-99"/>
        <Node pos="r" depth="1" NCoef="0" IVar="1" Cut="1.7972985839843750e+03" cType="1" res="-7.8749358654022217e-02" rms="3.3548685908317566e-01" purity="7.5757575035095215e-01" nType="0">
          <Node pos="l" depth="2" NCoef="0" IVar="-1" Cut="0.0000000000000000e+00" cType="1" res="3.1165484338998795e-02" rms="1.8170720338821411e-01" purity="9.2982459068298340e-01" nType="-99"/>
          <Node pos="r" depth="2" NCoef="0" IVar="-1" Cut="0.0000000000000000e+00" cType="1" res="-1.1427588760852814e-01" rms="4.1156283020973206e-01" purity="5.2380955219268799e-01" nType="-99"/>
        </Node>
      </Node>
    </BinaryTree>
    <BinaryTree type="DecisionTree" boostWeight="1.0000000000000000e+00" itree="759">
      <Node pos="s" depth="0" NCoef="0" IVar="3" Cut="1.1994725585937500e+04" cType="0" res="-2.3057058569975197e-04" rms="2.9651910066604614e-01" purity="7.8441458940505981e-01" nType="0">
        <Node pos="l" depth="1" NCoef="0" IVar="-1" Cut="0.0000000000000000e+00" cType="1" res="4.5446056872606277e-02" rms="1.9828779995441437e-01" purity="9.1964286565780640e-01" nType="-99"/>
        <Node pos="r" depth="1" NCoef="0" IVar="25" Cut="1.0883327636718750e+03" cType="1" res="-3.0905383755452931e-04" rms="2.9658156633377075e-01" purity="7.8429257869720459e-01" nType="0">
          <Node pos="l" depth="2" NCoef="0" IVar="-1" Cut="0.0000000000000000e+00" cType="1" res="-9.5393527299165726e-03" rms="3.0974105000495911e-01" purity="7.9572498798370361e-01" nType="-99"/>
          <Node pos="r" depth="2" NCoef="0" IVar="-1" Cut="0.0000000000000000e+00" cType="1" res="2.0404079987201840e-04" rms="2.9604774713516235e-01" purity="7.8385859727859497e-01" nType="-99"/>
        </Node>
      </Node>
    </BinaryTree>
    <BinaryTree type="DecisionTree" boostWeight="1.0000000000000000e+00" itree="760">
      <Node pos="s" depth="0" NCoef="0" IVar="35" Cut="2.2061904907226562e+02" cType="1" res="5.8929750230163336e-04" rms="2.9592010378837585e-01" purity="7.8553074598312378e-01" nType="0">
        <Node pos="l" depth="1" NCoef="0" IVar="-1" Cut="0.0000000000000000e+00" cType="1" res="-9.3481497606262565e-04" rms="2.9623082280158997e-01" purity="7.8848397731781006e-01" nType="-99"/>
        <Node pos="r" depth="1" NCoef="0" IVar="0" Cut="1.8285715103149414e+01" cType="1" res="3.1246179714798927e-03" rms="2.9556706547737122e-01" purity="7.8237920999526978e-01" nType="0">
          <Node pos="l" depth="2" NCoef="0" IVar="-1" Cut="0.0000000000000000e+00" cType="1" res="1.9181598909199238e-03" rms="2.9581040143966675e-01" purity="7.9627829790115356e-01" nType="-99"/>
          <Node pos="r" depth="2" NCoef="0" IVar="-1" Cut="0.0000000000000000e+00" cType="1" res="-8.9515931904315948e-03" rms="2.8495922684669495e-01" purity="2.4172185361385345e-01" nType="-99"/>
        </Node>
      </Node>
    </BinaryTree>
    <BinaryTree type="DecisionTree" boostWeight="1.0000000000000000e+00" itree="761">
      <Node pos="s" depth="0" NCoef="0" IVar="9" Cut="1.2550246582031250e+03" cType="0" res="-2.0472719916142523e-04" rms="2.9677608609199524e-01" purity="7.8502035140991211e-01" nType="0">
        <Node pos="l" depth="1" NCoef="0" IVar="-1" Cut="0.0000000000000000e+00" cType="1" res="1.1084083467721939e-02" rms="2.0177800953388214e-01" purity="9.5372319221496582e-01" nType="-99"/>
        <Node pos="r" depth="1" NCoef="0" IVar="9" Cut="2.4877886962890625e+02" cType="0" res="-1.1479026870802045e-03" rms="3.0328565835952759e-01" purity="7.7106517553329468e-01" nType="0">
          <Node pos="l" depth="2" NCoef="0" IVar="-1" Cut="0.0000000000000000e+00" cType="1" res="1.1455828789621592e-03" rms="2.8985369205474854e-01" purity="8.1065374612808228e-01" nType="-99"/>
          <Node pos="r" depth="2" NCoef="0" IVar="-1" Cut="0.0000000000000000e+00" cType="1" res="-4.3810834176838398e-03" rms="3.3861136436462402e-01" purity="6.5779840946197510e-01" nType="-99"/>
        </Node>
      </Node>
    </BinaryTree>
    <BinaryTree type="DecisionTree" boostWeight="1.0000000000000000e+00" itree="762">
      <Node pos="s" depth="0" NCoef="0" IVar="22" Cut="3.0189665527343750e+03" cType="0" res="-1.0823301272466779e-03" rms="2.9675599932670593e-01" purity="7.8398042917251587e-01" nType="0">
        <Node pos="l" depth="1" NCoef="0" IVar="-1" Cut="0.0000000000000000e+00" cType="1" res="1.8133008852601051e-02" rms="2.6052555441856384e-01" purity="8.6248129606246948e-01" nType="-99"/>
        <Node pos="r" depth="1" NCoef="0" IVar="12" Cut="-7.2350994873046875e+02" cType="1" res="-1.2600040063261986e-03" rms="2.9692912101745605e-01" purity="7.8355783224105835e-01" nType="0">
          <Node pos="l" depth="2" NCoef="0" IVar="-1" Cut="0.0000000000000000e+00" cType="1" res="7.7062924392521381e-03" rms="1.9325815141201019e-01" purity="9.4064420461654663e-01" nType="-99"/>
          <Node pos="r" depth="2" NCoef="0" IVar="-1" Cut="0.0000000000000000e+00" cType="1" res="-1.2639898341149092e-03" rms="3.1067976355552673e-01" purity="7.5768935680389404e-01" nType="-99"/>
        </Node>
      </Node>
    </BinaryTree>
    <BinaryTree type="DecisionTree" boostWeight="1.0000000000000000e+00" itree="763">
      <Node pos="s" depth="0" NCoef="0" IVar="0" Cut="1.5857142448425293e+01" cType="1" res="4.7738947614561766e-05" rms="2.9567837715148926e-01" purity="7.8437310457229614e-01" nType="0">
        <Node pos="l" depth="1" NCoef="0" IVar="-1" Cut="0.0000000000000000e+00" cType="1" res="-2.3749266983941197e-04" rms="2.9405203461647034e-01" purity="8.0593317747116089e-01" nType="-99"/>
        <Node pos="r" depth="1" NCoef="0" IVar="12" Cut="-4.2866172790527344e+01" cType="1" res="1.0589456185698509e-02" rms="3.2806572318077087e-01" purity="3.2764443755149841e-01" nType="0">
          <Node pos="l" depth="2" NCoef="0" IVar="-1" Cut="0.0000000000000000e+00" cType="1" res="1.9819041714072227e-02" rms="3.5345509648323059e-01" purity="4.8228347301483154e-01" nType="-99"/>
          <Node pos="r" depth="2" NCoef="0" IVar="-1" Cut="0.0000000000000000e+00" cType="1" res="-2.8236722573637962e-03" rms="3.1634011864662170e-01" purity="2.7017802000045776e-01" nType="-99"/>
        </Node>
      </Node>
    </BinaryTree>
    <BinaryTree type="DecisionTree" boostWeight="1.0000000000000000e+00" itree="764">
      <Node pos="s" depth="0" NCoef="0" IVar="29" Cut="3.2485527038574219e+01" cType="1" res="-7.8701373422518373e-04" rms="2.9640749096870422e-01" purity="7.8371077775955200e-01" nType="0">
        <Node pos="l" depth="1" NCoef="0" IVar="4" Cut="1.6666013717651367e+01" cType="0" res="-7.3173665441572666e-04" rms="2.9642438888549805e-01" purity="7.8404700756072998e-01" nType="0">
          <Node pos="l" depth="2" NCoef="0" IVar="-1" Cut="0.0000000000000000e+00" cType="1" res="9.5647675916552544e-03" rms="1.9933751225471497e-01" purity="9.4752186536788940e-01" nType="-99"/>
          <Node pos="r" depth="2" NCoef="0" IVar="-1" Cut="0.0000000000000000e+00" cType="1" res="-5.8586249360814691e-04" rms="2.9966077208518982e-01" purity="7.7747935056686401e-01" nType="-99"/>
        </Node>
        <Node pos="r" depth="1" NCoef="0" IVar="-1" Cut="0.0000000000000000e+00" cType="1" res="-5.6293711066246033e-02" rms="2.3395480215549469e-01" purity="9.8360657691955566e-02" nType="-99"/>
      </Node>
    </BinaryTree>
    <BinaryTree type="DecisionTree" boostWeight="1.0000000000000000e+00" itree="765">
      <Node pos="s" depth="0" NCoef="0" IVar="1" Cut="2.3031530761718750e+03" cType="1" res="5.6435971055179834e-04" rms="2.9576647281646729e-01" purity="7.8508126735687256e-01" nType="0">
        <Node pos="l" depth="1" NCoef="0" IVar="-1" Cut="0.0000000000000000e+00" cType="1" res="8.4086752030998468e-04" rms="2.9396638274192810e-01" purity="7.9528194665908813e-01" nType="-99"/>
        <Node pos="r" depth="1" NCoef="0" IVar="9" Cut="4.8389053344726562e+02" cType="0" res="-5.1102768629789352e-03" rms="3.0505147576332092e-01" purity="7.3110854625701904e-01" nType="0">
          <Node pos="l" depth="2" NCoef="0" IVar="-1" Cut="0.0000000000000000e+00" cType="1" res="-9.8038157448172569e-03" rms="2.7633228898048401e-01" purity="8.3705300092697144e-01" nType="-99"/>
          <Node pos="r" depth="2" NCoef="0" IVar="-1" Cut="0.0000000000000000e+00" cType="1" res="9.6159456297755241e-03" rms="3.8512343168258667e-01" purity="3.7137159705162048e-01" nType="-99"/>
        </Node>
      </Node>
    </BinaryTree>
    <BinaryTree type="DecisionTree" boostWeight="1.0000000000000000e+00" itree="766">
      <Node pos="s" depth="0" NCoef="0" IVar="9" Cut="1.2550246582031250e+03" cType="0" res="-5.7721539633348584e-04" rms="2.9662591218948364e-01" purity="7.8312063217163086e-01" nType="0">
        <Node pos="l" depth="1" NCoef="0" IVar="-1" Cut="0.0000000000000000e+00" cType="1" res="6.8712667562067509e-03" rms="2.0912459492683411e-01" purity="9.5066791772842407e-01" nType="-99"/>
        <Node pos="r" depth="1" NCoef="0" IVar="1" Cut="2.5198415527343750e+03" cType="1" res="-1.1881374521180987e-03" rms="3.0272179841995239e-01" purity="7.6926958560943604e-01" nType="0">
          <Node pos="l" depth="2" NCoef="0" IVar="-1" Cut="0.0000000000000000e+00" cType="1" res="4.7393976274179295e-05" rms="2.9615283012390137e-01" purity="7.8684109449386597e-01" nType="-99"/>
          <Node pos="r" depth="2" NCoef="0" IVar="-1" Cut="0.0000000000000000e+00" cType="1" res="-9.3621155247092247e-03" rms="4.1102617979049683e-01" purity="4.2096686363220215e-01" nType="-99"/>
        </Node>
      </Node>
    </BinaryTree>
    <BinaryTree type="DecisionTree" boostWeight="1.0000000000000000e+00" itree="767">
      <Node pos="s" depth="0" NCoef="0" IVar="4" Cut="3.5712995529174805e+00" cType="0" res="-5.5989203974604607e-04" rms="2.9627031087875366e-01" purity="7.8452128171920776e-01" nType="0">
        <Node pos="l" depth="1" NCoef="0" IVar="-1" Cut="0.0000000000000000e+00" cType="1" res="-2.5626064743846655e-03" rms="2.6789805293083191e-01" purity="8.6799478530883789e-01" nType="-99"/>
        <Node pos="r" depth="1" NCoef="0" IVar="1" Cut="2.0616518554687500e+03" cType="1" res="1.1635867413133383e-03" rms="3.0971848964691162e-01" purity="7.4197679758071899e-01" nType="0">
          <Node pos="l" depth="2" NCoef="0" IVar="-1" Cut="0.0000000000000000e+00" cType="1" res="-9.0146536240354180e-04" rms="3.0749827623367310e-01" purity="7.6159304380416870e-01" nType="-99"/>
          <Node pos="r" depth="2" NCoef="0" IVar="-1" Cut="0.0000000000000000e+00" cType="1" res="5.8313389308750629e-03" rms="3.1776756048202515e-01" purity="6.6720950603485107e-01" nType="-99"/>
        </Node>
      </Node>
    </BinaryTree>
    <BinaryTree type="DecisionTree" boostWeight="1.0000000000000000e+00" itree="768">
      <Node pos="s" depth="0" NCoef="0" IVar="25" Cut="2.0347781982421875e+03" cType="0" res="1.1684079800033942e-04" rms="2.9606318473815918e-01" purity="7.8344488143920898e-01" nType="0">
        <Node pos="l" depth="1" NCoef="0" IVar="-1" Cut="0.0000000000000000e+00" cType="1" res="1.5719233779236674e-03" rms="2.8118741512298584e-01" purity="8.2118791341781616e-01" nType="-99"/>
        <Node pos="r" depth="1" NCoef="0" IVar="3" Cut="4.0169963378906250e+03" cType="1" res="-3.7172955926507711e-03" rms="3.1613230705261230e-01" purity="7.2933310270309448e-01" nType="0">
          <Node pos="l" depth="2" NCoef="0" IVar="-1" Cut="0.0000000000000000e+00" cType="1" res="-3.3473637886345387e-03" rms="3.1113758683204651e-01" purity="7.3895013332366943e-01" nType="-99"/>
          <Node pos="r" depth="2" NCoef="0" IVar="-1" Cut="0.0000000000000000e+00" cType="1" res="3.4715324640274048e-02" rms="4.3482095003128052e-01" purity="4.1704618930816650e-01" nType="-99"/>
        </Node>
      </Node>
    </BinaryTree>
    <BinaryTree type="DecisionTree" boostWeight="1.0000000000000000e+00" itree="769">
      <Node pos="s" depth="0" NCoef="0" IVar="9" Cut="5.0551937866210938e+02" cType="0" res="-6.9035060005262494e-04" rms="2.9644095897674561e-01" purity="7.8451931476593018e-01" nType="0">
        <Node pos="l" depth="1" NCoef="0" IVar="-1" Cut="0.0000000000000000e+00" cType="1" res="1.9462980562821031e-03" rms="2.6106575131416321e-01" purity="8.8160854578018188e-01" nType="-99"/>
        <Node pos="r" depth="1" NCoef="0" IVar="1" Cut="1.7359093017578125e+03" cType="1" res="-2.6990950573235750e-03" rms="3.1409811973571777e-01" purity="7.3139226436614990e-01" nType="0">
          <Node pos="l" depth="2" NCoef="0" IVar="-1" Cut="0.0000000000000000e+00" cType="1" res="2.6232711970806122e-03" rms="2.9635059833526611e-01" purity="7.8500294685363770e-01" nType="-99"/>
          <Node pos="r" depth="2" NCoef="0" IVar="-1" Cut="0.0000000000000000e+00" cType="1" res="-1.0618294589221478e-02" rms="3.6325377225875854e-01" purity="5.6254833936691284e-01" nType="-99"/>
        </Node>
      </Node>
    </BinaryTree>
    <BinaryTree type="DecisionTree" boostWeight="1.0000000000000000e+00" itree="770">
      <Node pos="s" depth="0" NCoef="0" IVar="1" Cut="2.8917053222656250e+03" cType="1" res="3.7780229467898607e-04" rms="2.9576772451400757e-01" purity="7.8519845008850098e-01" nType="0">
        <Node pos="l" depth="1" NCoef="0" IVar="-1" Cut="0.0000000000000000e+00" cType="1" res="5.4428522707894444e-04" rms="2.9534325003623962e-01" purity="7.8650009632110596e-01" nType="-99"/>
        <Node pos="r" depth="1" NCoef="0" IVar="3" Cut="5.1928769531250000e+03" cType="1" res="-1.0484239086508751e-02" rms="3.0224069952964783e-01" purity="7.6446616649627686e-01" nType="0">
          <Node pos="l" depth="2" NCoef="0" IVar="-1" Cut="0.0000000000000000e+00" cType="1" res="-1.2768178712576628e-03" rms="2.9584315419197083e-01" purity="7.9583066701889038e-01" nType="-99"/>
          <Node pos="r" depth="2" NCoef="0" IVar="-1" Cut="0.0000000000000000e+00" cType="1" res="-2.7205092832446098e-02" rms="3.3277520537376404e-01" purity="5.8163267374038696e-01" nType="-99"/>
        </Node>
      </Node>
    </BinaryTree>
    <BinaryTree type="DecisionTree" boostWeight="1.0000000000000000e+00" itree="771">
      <Node pos="s" depth="0" NCoef="0" IVar="5" Cut="1.2135083228349686e-01" cType="0" res="2.2164062829688191e-04" rms="2.9551944136619568e-01" purity="7.8532272577285767e-01" nType="0">
        <Node pos="l" depth="1" NCoef="0" IVar="-1" Cut="0.0000000000000000e+00" cType="1" res="2.2557466290891171e-03" rms="2.6799768209457397e-01" purity="8.6582362651824951e-01" nType="-99"/>
        <Node pos="r" depth="1" NCoef="0" IVar="3" Cut="3.5534890136718750e+03" cType="0" res="-2.3846041876822710e-03" rms="3.1493639945983887e-01" purity="7.2371625900268555e-01" nType="0">
          <Node pos="l" depth="2" NCoef="0" IVar="-1" Cut="0.0000000000000000e+00" cType="1" res="2.6553554926067591e-03" rms="3.0093085765838623e-01" purity="7.6003468036651611e-01" nType="-99"/>
          <Node pos="r" depth="2" NCoef="0" IVar="-1" Cut="0.0000000000000000e+00" cType="1" res="-4.7996118664741516e-03" rms="3.3037769794464111e-01" purity="6.8112552165985107e-01" nType="-99"/>
        </Node>
      </Node>
    </BinaryTree>
    <BinaryTree type="DecisionTree" boostWeight="1.0000000000000000e+00" itree="772">
      <Node pos="s" depth="0" NCoef="0" IVar="2" Cut="1.4283904433250427e-01" cType="1" res="-1.8820710829459131e-04" rms="2.9579687118530273e-01" purity="7.8515285253524780e-01" nType="0">
        <Node pos="l" depth="1" NCoef="0" IVar="-1" Cut="0.0000000000000000e+00" cType="1" res="-1.0150676826015115e-03" rms="2.8466838598251343e-01" purity="8.2247424125671387e-01" nType="-99"/>
        <Node pos="r" depth="1" NCoef="0" IVar="9" Cut="2.6395642089843750e+02" cType="0" res="5.5841603316366673e-03" rms="3.3250880241394043e-01" purity="6.5163922309875488e-01" nType="0">
          <Node pos="l" depth="2" NCoef="0" IVar="-1" Cut="0.0000000000000000e+00" cType="1" res="5.3951931186020374e-03" rms="3.1966820359230042e-01" purity="7.2037380933761597e-01" nType="-99"/>
          <Node pos="r" depth="2" NCoef="0" IVar="-1" Cut="0.0000000000000000e+00" cType="1" res="-2.6021229568868876e-03" rms="3.5497996211051941e-01" purity="5.2279442548751831e-01" nType="-99"/>
        </Node>
      </Node>
    </BinaryTree>
    <BinaryTree type="DecisionTree" boostWeight="1.0000000000000000e+00" itree="773">
      <Node pos="s" depth="0" NCoef="0" IVar="17" Cut="1.0386716406250000e+05" cType="0" res="1.3352663954719901e-03" rms="2.9549288749694824e-01" purity="7.8561204671859741e-01" nType="0">
        <Node pos="l" depth="1" NCoef="0" IVar="-1" Cut="0.0000000000000000e+00" cType="1" res="6.4368052408099174e-03" rms="2.8861930966377258e-01" purity="7.9476988315582275e-01" nType="-99"/>
        <Node pos="r" depth="1" NCoef="0" IVar="17" Cut="5.5019539062500000e+04" cType="1" res="5.9728178894147277e-04" rms="2.9592967033386230e-01" purity="7.8500288724899292e-01" nType="0">
          <Node pos="l" depth="2" NCoef="0" IVar="-1" Cut="0.0000000000000000e+00" cType="1" res="1.1833793250843883e-03" rms="2.9431700706481934e-01" purity="7.9211163520812988e-01" nType="-99"/>
          <Node pos="r" depth="2" NCoef="0" IVar="-1" Cut="0.0000000000000000e+00" cType="1" res="-2.5093958247452974e-03" rms="3.0131083726882935e-01" purity="7.6069343090057373e-01" nType="-99"/>
        </Node>
      </Node>
    </BinaryTree>
    <BinaryTree type="DecisionTree" boostWeight="1.0000000000000000e+00" itree="774">
      <Node pos="s" depth="0" NCoef="0" IVar="34" Cut="-9.0474909543991089e-01" cType="0" res="-4.3970003025606275e-04" rms="2.9630035161972046e-01" purity="7.8380763530731201e-01" nType="0">
        <Node pos="l" depth="1" NCoef="0" IVar="-1" Cut="0.0000000000000000e+00" cType="1" res="-2.7403605054132640e-04" rms="2.9629620909690857e-01" purity="7.8382766246795654e-01" nType="-99"/>
        <Node pos="r" depth="1" NCoef="0" IVar="34" Cut="-9.9575412273406982e-01" cType="1" res="9.1332301497459412e-02" rms="2.8627941012382507e-01" purity="7.6271188259124756e-01" nType="0">
          <Node pos="l" depth="2" NCoef="0" IVar="-1" Cut="0.0000000000000000e+00" cType="1" res="5.3155951201915741e-02" rms="2.6352891325950623e-01" purity="7.9220777750015259e-01" nType="-99"/>
          <Node pos="r" depth="2" NCoef="0" IVar="-1" Cut="0.0000000000000000e+00" cType="1" res="-2.5572520680725574e-03" rms="3.0153355002403259e-01" purity="7.0731705427169800e-01" nType="-99"/>
        </Node>
      </Node>
    </BinaryTree>
    <BinaryTree type="DecisionTree" boostWeight="1.0000000000000000e+00" itree="775">
      <Node pos="s" depth="0" NCoef="0" IVar="0" Cut="1.4000000000000000e+01" cType="1" res="3.2284436747431755e-04" rms="2.9384478926658630e-01" purity="7.8553920984268188e-01" nType="0">
        <Node pos="l" depth="1" NCoef="0" IVar="-1" Cut="0.0000000000000000e+00" cType="1" res="1.8637989705894142e-04" rms="2.9099631309509277e-01" purity="8.1250584125518799e-01" nType="-99"/>
        <Node pos="r" depth="1" NCoef="0" IVar="5" Cut="-4.4590207934379578e-01" cType="0" res="-1.4885110431350768e-04" rms="3.3871281147003174e-01" purity="3.2610893249511719e-01" nType="0">
          <Node pos="l" depth="2" NCoef="0" IVar="-1" Cut="0.0000000000000000e+00" cType="1" res="4.8272968269884586e-03" rms="3.5083761811256409e-01" purity="3.6637762188911438e-01" nType="-99"/>
          <Node pos="r" depth="2" NCoef="0" IVar="-1" Cut="0.0000000000000000e+00" cType="1" res="-1.5746392309665680e-02" rms="2.9990071058273315e-01" purity="2.1548457443714142e-01" nType="-99"/>
        </Node>
      </Node>
    </BinaryTree>
    <BinaryTree type="DecisionTree" boostWeight="1.0000000000000000e+00" itree="776">
      <Node pos="s" depth="0" NCoef="0" IVar="9" Cut="1.4796575927734375e+03" cType="0" res="1.6287597827613354e-04" rms="2.9527577757835388e-01" purity="7.8562337160110474e-01" nType="0">
        <Node pos="l" depth="1" NCoef="0" IVar="-1" Cut="0.0000000000000000e+00" cType="1" res="1.1140703223645687e-02" rms="1.9356821477413177e-01" purity="9.5841377973556519e-01" nType="-99"/>
        <Node pos="r" depth="1" NCoef="0" IVar="9" Cut="2.2715202331542969e+02" cType="0" res="-4.2278991895727813e-04" rms="3.0002406239509583e-01" purity="7.7577775716781616e-01" nType="0">
          <Node pos="l" depth="2" NCoef="0" IVar="-1" Cut="0.0000000000000000e+00" cType="1" res="1.2614657171070576e-03" rms="2.8874769806861877e-01" purity="8.0944949388504028e-01" nType="-99"/>
          <Node pos="r" depth="2" NCoef="0" IVar="-1" Cut="0.0000000000000000e+00" cType="1" res="-4.5796213671565056e-03" rms="3.4050592780113220e-01" purity="6.4352142810821533e-01" nType="-99"/>
        </Node>
      </Node>
    </BinaryTree>
    <BinaryTree type="DecisionTree" boostWeight="1.0000000000000000e+00" itree="777">
      <Node pos="s" depth="0" NCoef="0" IVar="13" Cut="1.4317496337890625e+03" cType="1" res="-5.6463736109435558e-04" rms="2.9722028970718384e-01" purity="7.8372681140899658e-01" nType="0">
        <Node pos="l" depth="1" NCoef="0" IVar="-1" Cut="0.0000000000000000e+00" cType="1" res="-4.0046852082014084e-03" rms="2.9509747028350830e-01" purity="8.0274391174316406e-01" nType="-99"/>
        <Node pos="r" depth="1" NCoef="0" IVar="3" Cut="2.3361379394531250e+03" cType="0" res="1.1768453987315297e-03" rms="2.9775857925415039e-01" purity="7.7866482734680176e-01" nType="0">
          <Node pos="l" depth="2" NCoef="0" IVar="-1" Cut="0.0000000000000000e+00" cType="1" res="1.2073419056832790e-03" rms="2.9579809308052063e-01" purity="7.8540658950805664e-01" nType="-99"/>
          <Node pos="r" depth="2" NCoef="0" IVar="-1" Cut="0.0000000000000000e+00" cType="1" res="-1.1295003816485405e-02" rms="3.3868253231048584e-01" purity="6.2323081493377686e-01" nType="-99"/>
        </Node>
      </Node>
    </BinaryTree>
    <BinaryTree type="DecisionTree" boostWeight="1.0000000000000000e+00" itree="778">
      <Node pos="s" depth="0" NCoef="0" IVar="0" Cut="1.7714284896850586e+01" cType="1" res="-7.7240093378350139e-04" rms="2.9713732004165649e-01" purity="7.8428339958190918e-01" nType="0">
        <Node pos="l" depth="1" NCoef="0" IVar="-1" Cut="0.0000000000000000e+00" cType="1" res="-1.6991986194625497e-04" rms="2.9728695750236511e-01" purity="7.9959905147552490e-01" nType="-99"/>
        <Node pos="r" depth="1" NCoef="0" IVar="25" Cut="8.7669707031250000e+03" cType="0" res="-1.6307426616549492e-02" rms="2.9146587848663330e-01" purity="2.5222125649452209e-01" nType="0">
          <Node pos="l" depth="2" NCoef="0" IVar="-1" Cut="0.0000000000000000e+00" cType="1" res="6.5617404878139496e-02" rms="1.5361621975898743e-01" purity="8.5436892509460449e-01" nType="-99"/>
          <Node pos="r" depth="2" NCoef="0" IVar="-1" Cut="0.0000000000000000e+00" cType="1" res="-9.5223188400268555e-03" rms="2.9291862249374390e-01" purity="2.3390431702136993e-01" nType="-99"/>
        </Node>
      </Node>
    </BinaryTree>
    <BinaryTree type="DecisionTree" boostWeight="1.0000000000000000e+00" itree="779">
      <Node pos="s" depth="0" NCoef="0" IVar="18" Cut="4.0309351682662964e-01" cType="0" res="2.9362129862420261e-04" rms="2.9522234201431274e-01" purity="7.8515535593032837e-01" nType="0">
        <Node pos="l" depth="1" NCoef="0" IVar="-1" Cut="0.0000000000000000e+00" cType="1" res="3.9379484951496124e-02" rms="2.5784766674041748e-01" purity="9.3377482891082764e-01" nType="-99"/>
        <Node pos="r" depth="1" NCoef="0" IVar="19" Cut="5.4317243750000000e+05" cType="1" res="1.9995424372609705e-04" rms="2.9525271058082581e-01" purity="7.8497451543807983e-01" nType="0">
          <Node pos="l" depth="2" NCoef="0" IVar="-1" Cut="0.0000000000000000e+00" cType="1" res="1.3644638238474727e-04" rms="2.9522046446800232e-01" purity="7.8503262996673584e-01" nType="-99"/>
          <Node pos="r" depth="2" NCoef="0" IVar="-1" Cut="0.0000000000000000e+00" cType="1" res="-3.5758044570684433e-02" rms="3.2277756929397583e-01" purity="7.1698111295700073e-01" nType="-99"/>
        </Node>
      </Node>
    </BinaryTree>
    <BinaryTree type="DecisionTree" boostWeight="1.0000000000000000e+00" itree="780">
      <Node pos="s" depth="0" NCoef="0" IVar="18" Cut="1.1855691671371460e-01" cType="0" res="2.5532595464028418e-04" rms="2.9604786634445190e-01" purity="7.8402048349380493e-01" nType="0">
        <Node pos="l" depth="1" NCoef="0" IVar="-1" Cut="0.0000000000000000e+00" cType="1" res="1.4658553525805473e-02" rms="2.4706511199474335e-01" purity="8.9760881662368774e-01" nType="-99"/>
        <Node pos="r" depth="1" NCoef="0" IVar="9" Cut="8.4069299316406250e+02" cType="0" res="-4.8705078370403498e-05" rms="2.9662978649139404e-01" purity="7.8251773118972778e-01" nType="0">
          <Node pos="l" depth="2" NCoef="0" IVar="-1" Cut="0.0000000000000000e+00" cType="1" res="4.2483657598495483e-03" rms="2.3664237558841705e-01" purity="9.2767345905303955e-01" nType="-99"/>
          <Node pos="r" depth="2" NCoef="0" IVar="-1" Cut="0.0000000000000000e+00" cType="1" res="-4.7789572272449732e-04" rms="3.0610626935958862e-01" purity="7.5657355785369873e-01" nType="-99"/>
        </Node>
      </Node>
    </BinaryTree>
    <BinaryTree type="DecisionTree" boostWeight="1.0000000000000000e+00" itree="781">
      <Node pos="s" depth="0" NCoef="0" IVar="32" Cut="3.5554828643798828e+00" cType="0" res="-3.6080076824873686e-04" rms="2.9640007019042969e-01" purity="7.8502470254898071e-01" nType="0">
        <Node pos="l" depth="1" NCoef="0" IVar="-1" Cut="0.0000000000000000e+00" cType="1" res="-7.5275981798768044e-03" rms="2.6630523800849915e-01" purity="8.4426748752593994e-01" nType="-99"/>
        <Node pos="r" depth="1" NCoef="0" IVar="1" Cut="1.2469866943359375e+03" cType="0" res="5.1664776401594281e-04" rms="2.9870581626892090e-01" purity="7.8018873929977417e-01" nType="0">
          <Node pos="l" depth="2" NCoef="0" IVar="-1" Cut="0.0000000000000000e+00" cType="1" res="1.0615990031510592e-03" rms="2.9472130537033081e-01" purity="8.1188082695007324e-01" nType="-99"/>
          <Node pos="r" depth="2" NCoef="0" IVar="-1" Cut="0.0000000000000000e+00" cType="1" res="-6.3787875697016716e-03" rms="3.3817890286445618e-01" purity="4.3933990597724915e-01" nType="-99"/>
        </Node>
      </Node>
    </BinaryTree>
    <BinaryTree type="DecisionTree" boostWeight="1.0000000000000000e+00" itree="782">
      <Node pos="s" depth="0" NCoef="0" IVar="9" Cut="9.8677941894531250e+02" cType="0" res="-7.9939025454223156e-05" rms="2.9657298326492310e-01" purity="7.8422433137893677e-01" nType="0">
        <Node pos="l" depth="1" NCoef="0" IVar="-1" Cut="0.0000000000000000e+00" cType="1" res="5.2910614758729935e-03" rms="2.2254303097724915e-01" purity="9.3982172012329102e-01" nType="-99"/>
        <Node pos="r" depth="1" NCoef="0" IVar="1" Cut="3.6531142578125000e+03" cType="1" res="-8.7184779113158584e-04" rms="3.0519536137580872e-01" purity="7.6319485902786255e-01" nType="0">
          <Node pos="l" depth="2" NCoef="0" IVar="-1" Cut="0.0000000000000000e+00" cType="1" res="-5.2763789426535368e-04" rms="3.0490735173225403e-01" purity="7.6370334625244141e-01" nType="-99"/>
          <Node pos="r" depth="2" NCoef="0" IVar="-1" Cut="0.0000000000000000e+00" cType="1" res="8.9133813977241516e-02" rms="4.6432816982269287e-01" purity="3.1451612710952759e-01" nType="-99"/>
        </Node>
      </Node>
    </BinaryTree>
    <BinaryTree type="DecisionTree" boostWeight="1.0000000000000000e+00" itree="783">
      <Node pos="s" depth="0" NCoef="0" IVar="0" Cut="1.5857142448425293e+01" cType="1" res="1.1395958717912436e-03" rms="2.9508167505264282e-01" purity="7.8591793775558472e-01" nType="0">
        <Node pos="l" depth="1" NCoef="0" IVar="-1" Cut="0.0000000000000000e+00" cType="1" res="2.8884952189400792e-04" rms="2.9320386052131653e-01" purity="8.0719393491744995e-01" nType="-99"/>
        <Node pos="r" depth="1" NCoef="0" IVar="23" Cut="1.8827314453125000e+03" cType="0" res="1.3739344663918018e-02" rms="3.3221361041069031e-01" purity="3.3410507440567017e-01" nType="0">
          <Node pos="l" depth="2" NCoef="0" IVar="-1" Cut="0.0000000000000000e+00" cType="1" res="7.6699755154550076e-03" rms="3.3851534128189087e-01" purity="3.5393473505973816e-01" nType="-99"/>
          <Node pos="r" depth="2" NCoef="0" IVar="-1" Cut="0.0000000000000000e+00" cType="1" res="-4.1996315121650696e-02" rms="2.1973411738872528e-01" purity="7.9012349247932434e-02" nType="-99"/>
        </Node>
      </Node>
    </BinaryTree>
    <BinaryTree type="DecisionTree" boostWeight="1.0000000000000000e+00" itree="784">
      <Node pos="s" depth="0" NCoef="0" IVar="0" Cut="1.4000000000000000e+01" cType="1" res="-3.7565585807897151e-04" rms="2.9546770453453064e-01" purity="7.8456842899322510e-01" nType="0">
        <Node pos="l" depth="1" NCoef="0" IVar="-1" Cut="0.0000000000000000e+00" cType="1" res="-2.1112743706908077e-04" rms="2.9293203353881836e-01" purity="8.1155133247375488e-01" nType="-99"/>
        <Node pos="r" depth="1" NCoef="0" IVar="22" Cut="-4.6401176452636719e+01" cType="1" res="-1.8699704014579765e-05" rms="3.3546274900436401e-01" purity="3.2820364832878113e-01" nType="0">
          <Node pos="l" depth="2" NCoef="0" IVar="-1" Cut="0.0000000000000000e+00" cType="1" res="5.9443451464176178e-02" rms="2.4426050484180450e-01" purity="8.2781457901000977e-01" nType="-99"/>
          <Node pos="r" depth="2" NCoef="0" IVar="-1" Cut="0.0000000000000000e+00" cType="1" res="-1.1855921475216746e-03" rms="3.3654192090034485e-01" purity="3.1711262464523315e-01" nType="-99"/>
        </Node>
      </Node>
    </BinaryTree>
    <BinaryTree type="DecisionTree" boostWeight="1.0000000000000000e+00" itree="785">
      <Node pos="s" depth="0" NCoef="0" IVar="1" Cut="1.6390532226562500e+03" cType="0" res="9.6394702268298715e-05" rms="2.9617276787757874e-01" purity="7.8408390283584595e-01" nType="0">
        <Node pos="l" depth="1" NCoef="0" IVar="-1" Cut="0.0000000000000000e+00" cType="1" res="-1.4282369520515203e-03" rms="2.9300400614738464e-01" purity="7.9194134473800659e-01" nType="-99"/>
        <Node pos="r" depth="1" NCoef="0" IVar="9" Cut="5.9846948242187500e+02" cType="1" res="3.3560388255864382e-03" rms="2.9987648129463196e-01" purity="7.7471059560775757e-01" nType="0">
          <Node pos="l" depth="2" NCoef="0" IVar="-1" Cut="0.0000000000000000e+00" cType="1" res="3.2738707959651947e-03" rms="2.9630294442176819e-01" purity="7.7766430377960205e-01" nType="-99"/>
          <Node pos="r" depth="2" NCoef="0" IVar="-1" Cut="0.0000000000000000e+00" cType="1" res="-7.1045875549316406e-02" rms="4.1826570034027100e-01" purity="6.1258602142333984e-01" nType="-99"/>
        </Node>
      </Node>
    </BinaryTree>
    <BinaryTree type="DecisionTree" boostWeight="1.0000000000000000e+00" itree="786">
      <Node pos="s" depth="0" NCoef="0" IVar="3" Cut="3.2201086425781250e+03" cType="0" res="1.3706629397347569e-03" rms="2.9452133178710938e-01" purity="7.8517377376556396e-01" nType="0">
        <Node pos="l" depth="1" NCoef="0" IVar="-1" Cut="0.0000000000000000e+00" cType="1" res="-2.7990082162432373e-04" rms="2.9155075550079346e-01" purity="7.9125255346298218e-01" nType="-99"/>
        <Node pos="r" depth="1" NCoef="0" IVar="9" Cut="2.4690718078613281e+02" cType="0" res="4.5196665450930595e-03" rms="2.9937836527824402e-01" purity="7.7504652738571167e-01" nType="0">
          <Node pos="l" depth="2" NCoef="0" IVar="-1" Cut="0.0000000000000000e+00" cType="1" res="-1.3200700050219893e-03" rms="2.9225078225135803e-01" purity="8.1115972995758057e-01" nType="-99"/>
          <Node pos="r" depth="2" NCoef="0" IVar="-1" Cut="0.0000000000000000e+00" cType="1" res="9.0450365096330643e-03" rms="3.1507530808448792e-01" purity="6.8902397155761719e-01" nType="-99"/>
        </Node>
      </Node>
    </BinaryTree>
    <BinaryTree type="DecisionTree" boostWeight="1.0000000000000000e+00" itree="787">
      <Node pos="s" depth="0" NCoef="0" IVar="24" Cut="2.2481155395507812e+01" cType="1" res="-4.2930591735057533e-04" rms="2.9637047648429871e-01" purity="7.8383600711822510e-01" nType="0">
        <Node pos="l" depth="1" NCoef="0" IVar="-1" Cut="0.0000000000000000e+00" cType="1" res="-4.0414807153865695e-04" rms="2.9620164632797241e-01" purity="7.8563392162322998e-01" nType="-99"/>
        <Node pos="r" depth="1" NCoef="0" IVar="25" Cut="1.3873262939453125e+03" cType="0" res="1.3649615459144115e-02" rms="3.0281436443328857e-01" purity="7.1080720424652100e-01" nType="0">
          <Node pos="l" depth="2" NCoef="0" IVar="-1" Cut="0.0000000000000000e+00" cType="1" res="9.9948430433869362e-03" rms="2.9948350787162781e-01" purity="7.2660279273986816e-01" nType="-99"/>
          <Node pos="r" depth="2" NCoef="0" IVar="-1" Cut="0.0000000000000000e+00" cType="1" res="-2.2820912301540375e-02" rms="3.2395195960998535e-01" purity="5.5985915660858154e-01" nType="-99"/>
        </Node>
      </Node>
    </BinaryTree>
    <BinaryTree type="DecisionTree" boostWeight="1.0000000000000000e+00" itree="788">
      <Node pos="s" depth="0" NCoef="0" IVar="18" Cut="4.0309351682662964e-01" cType="0" res="-8.6217703938018531e-05" rms="2.9610621929168701e-01" purity="7.8376549482345581e-01" nType="0">
        <Node pos="l" depth="1" NCoef="0" IVar="-1" Cut="0.0000000000000000e+00" cType="1" res="4.2175773531198502e-02" rms="2.3291437327861786e-01" purity="9.5270270109176636e-01" nType="-99"/>
        <Node pos="r" depth="1" NCoef="0" IVar="11" Cut="1.1904722213745117e+01" cType="1" res="-1.7287093214690685e-04" rms="2.9616293311119080e-01" purity="7.8356391191482544e-01" nType="0">
          <Node pos="l" depth="2" NCoef="0" IVar="-1" Cut="0.0000000000000000e+00" cType="1" res="1.4049491146579385e-03" rms="2.8048303723335266e-01" purity="8.3300960063934326e-01" nType="-99"/>
          <Node pos="r" depth="2" NCoef="0" IVar="-1" Cut="0.0000000000000000e+00" cType="1" res="-1.0481724748387933e-03" rms="3.0733665823936462e-01" purity="7.4663758277893066e-01" nType="-99"/>
        </Node>
      </Node>
    </BinaryTree>
    <BinaryTree type="DecisionTree" boostWeight="1.0000000000000000e+00" itree="789">
      <Node pos="s" depth="0" NCoef="0" IVar="27" Cut="4.7722181250000000e+05" cType="1" res="2.8989845304749906e-04" rms="2.9558333754539490e-01" purity="7.8582143783569336e-01" nType="0">
        <Node pos="l" depth="1" NCoef="0" IVar="1" Cut="3.6177341308593750e+03" cType="0" res="3.2695135450921953e-04" rms="2.9557406902313232e-01" purity="7.8584903478622437e-01" nType="0">
          <Node pos="l" depth="2" NCoef="0" IVar="-1" Cut="0.0000000000000000e+00" cType="1" res="-1.2170573696494102e-02" rms="3.1513220071792603e-01" purity="8.1587505340576172e-01" nType="-99"/>
          <Node pos="r" depth="2" NCoef="0" IVar="-1" Cut="0.0000000000000000e+00" cType="1" res="2.8741048299707472e-04" rms="2.9531455039978027e-01" purity="7.8547394275665283e-01" nType="-99"/>
        </Node>
        <Node pos="r" depth="1" NCoef="0" IVar="-1" Cut="0.0000000000000000e+00" cType="1" res="-4.8208821564912796e-02" rms="3.0184069275856018e-01" purity="6.9999998807907104e-01" nType="-99"/>
      </Node>
    </BinaryTree>
    <BinaryTree type="DecisionTree" boostWeight="1.0000000000000000e+00" itree="790">
      <Node pos="s" depth="0" NCoef="0" IVar="3" Cut="3.2170036621093750e+03" cType="0" res="4.1468182462267578e-04" rms="2.9506292939186096e-01" purity="7.8647094964981079e-01" nType="0">
        <Node pos="l" depth="1" NCoef="0" IVar="-1" Cut="0.0000000000000000e+00" cType="1" res="-7.7678903471678495e-04" rms="2.9218441247940063e-01" purity="7.9338675737380981e-01" nType="-99"/>
        <Node pos="r" depth="1" NCoef="0" IVar="25" Cut="2.0553371582031250e+03" cType="1" res="3.5146186128258705e-03" rms="2.9979720711708069e-01" purity="7.7488636970520020e-01" nType="0">
          <Node pos="l" depth="2" NCoef="0" IVar="-1" Cut="0.0000000000000000e+00" cType="1" res="3.1194225884974003e-03" rms="2.9841226339340210e-01" purity="7.8565186262130737e-01" nType="-99"/>
          <Node pos="r" depth="2" NCoef="0" IVar="-1" Cut="0.0000000000000000e+00" cType="1" res="-1.9574267789721489e-02" rms="3.1544867157936096e-01" purity="6.2821316719055176e-01" nType="-99"/>
        </Node>
      </Node>
    </BinaryTree>
    <BinaryTree type="DecisionTree" boostWeight="1.0000000000000000e+00" itree="791">
      <Node pos="s" depth="0" NCoef="0" IVar="32" Cut="5.9135856628417969e+00" cType="0" res="-7.0339936064556241e-04" rms="2.9631784558296204e-01" purity="7.8408563137054443e-01" nType="0">
        <Node pos="l" depth="1" NCoef="0" IVar="-1" Cut="0.0000000000000000e+00" cType="1" res="-3.1061252579092979e-02" rms="2.9586869478225708e-01" purity="8.2818531990051270e-01" nType="-99"/>
        <Node pos="r" depth="1" NCoef="0" IVar="8" Cut="-5.3050029277801514e-01" cType="0" res="-5.1088852342218161e-04" rms="2.9630470275878906e-01" purity="7.8390103578567505e-01" nType="0">
          <Node pos="l" depth="2" NCoef="0" IVar="-1" Cut="0.0000000000000000e+00" cType="1" res="-2.1260857465676963e-04" rms="2.9616430401802063e-01" purity="7.8460979461669922e-01" nType="-99"/>
          <Node pos="r" depth="2" NCoef="0" IVar="-1" Cut="0.0000000000000000e+00" cType="1" res="-3.0222935602068901e-02" rms="3.7178748846054077e-01" purity="3.1550800800323486e-01" nType="-99"/>
        </Node>
      </Node>
    </BinaryTree>
    <BinaryTree type="DecisionTree" boostWeight="1.0000000000000000e+00" itree="792">
      <Node pos="s" depth="0" NCoef="0" IVar="25" Cut="7.4478876953125000e+03" cType="1" res="9.1452454216778278e-04" rms="2.9494234919548035e-01" purity="7.8535318374633789e-01" nType="0">
        <Node pos="l" depth="1" NCoef="0" IVar="-1" Cut="0.0000000000000000e+00" cType="1" res="3.9104602183215320e-04" rms="2.9499647021293640e-01" purity="7.8540480136871338e-01" nType="-99"/>
        <Node pos="r" depth="1" NCoef="0" IVar="28" Cut="2.1521656036376953e+01" cType="0" res="3.1179253011941910e-02" rms="2.8311604261398315e-01" purity="7.7578473091125488e-01" nType="0">
          <Node pos="l" depth="2" NCoef="0" IVar="-1" Cut="0.0000000000000000e+00" cType="1" res="4.7646533697843552e-02" rms="2.2749806940555573e-01" purity="9.0173411369323730e-01" nType="-99"/>
          <Node pos="r" depth="2" NCoef="0" IVar="-1" Cut="0.0000000000000000e+00" cType="1" res="2.0912219770252705e-03" rms="2.9557842016220093e-01" purity="7.3185485601425171e-01" nType="-99"/>
        </Node>
      </Node>
    </BinaryTree>
    <BinaryTree type="DecisionTree" boostWeight="1.0000000000000000e+00" itree="793">
      <Node pos="s" depth="0" NCoef="0" IVar="1" Cut="2.7332065429687500e+03" cType="1" res="3.5632360959425569e-04" rms="2.9449060559272766e-01" purity="7.8560489416122437e-01" nType="0">
        <Node pos="l" depth="1" NCoef="0" IVar="-1" Cut="0.0000000000000000e+00" cType="1" res="5.5221933871507645e-04" rms="2.9397979378700256e-01" purity="7.8856891393661499e-01" nType="-99"/>
        <Node pos="r" depth="1" NCoef="0" IVar="9" Cut="1.5427382812500000e+03" cType="0" res="-8.0489171668887138e-03" rms="3.0030608177185059e-01" purity="7.5074183940887451e-01" nType="0">
          <Node pos="l" depth="2" NCoef="0" IVar="-1" Cut="0.0000000000000000e+00" cType="1" res="1.2144355103373528e-02" rms="1.8953104317188263e-01" purity="9.5994949340820312e-01" nType="-99"/>
          <Node pos="r" depth="2" NCoef="0" IVar="-1" Cut="0.0000000000000000e+00" cType="1" res="-1.2757542543113232e-02" rms="4.0020152926445007e-01" purity="4.7659575939178467e-01" nType="-99"/>
        </Node>
      </Node>
    </BinaryTree>
    <BinaryTree type="DecisionTree" boostWeight="1.0000000000000000e+00" itree="794">
      <Node pos="s" depth="0" NCoef="0" IVar="1" Cut="1.7134750976562500e+03" cType="1" res="7.5027003185823560e-04" rms="2.9415410757064819e-01" purity="7.8592878580093384e-01" nType="0">
        <Node pos="l" depth="1" NCoef="0" IVar="-1" Cut="0.0000000000000000e+00" cType="1" res="1.8598175374791026e-03" rms="2.9540839791297913e-01" purity="7.8891122341156006e-01" nType="-99"/>
        <Node pos="r" depth="1" NCoef="0" IVar="9" Cut="4.3112390136718750e+02" cType="0" res="-2.4782661348581314e-03" rms="2.9272758960723877e-01" purity="7.8263229131698608e-01" nType="0">
          <Node pos="l" depth="2" NCoef="0" IVar="-1" Cut="0.0000000000000000e+00" cType="1" res="4.9903108738362789e-03" rms="2.5696745514869690e-01" purity="8.7626564502716064e-01" nType="-99"/>
          <Node pos="r" depth="2" NCoef="0" IVar="-1" Cut="0.0000000000000000e+00" cType="1" res="-1.1136170476675034e-02" rms="3.7054407596588135e-01" purity="5.3188306093215942e-01" nType="-99"/>
        </Node>
      </Node>
    </BinaryTree>
    <BinaryTree type="DecisionTree" boostWeight="1.0000000000000000e+00" itree="795">
      <Node pos="s" depth="0" NCoef="0" IVar="0" Cut="1.4000000000000000e+01" cType="1" res="-2.9603869188576937e-04" rms="2.9532587528228760e-01" purity="7.8469258546829224e-01" nType="0">
        <Node pos="l" depth="1" NCoef="0" IVar="-1" Cut="0.0000000000000000e+00" cType="1" res="-1.2939258886035532e-04" rms="2.9261168837547302e-01" purity="8.1210809946060181e-01" nType="-99"/>
        <Node pos="r" depth="1" NCoef="0" IVar="17" Cut="4.1405464843750000e+04" cType="1" res="-1.1998818954452872e-03" rms="3.3814120292663574e-01" purity="3.1871935725212097e-01" nType="0">
          <Node pos="l" depth="2" NCoef="0" IVar="-1" Cut="0.0000000000000000e+00" cType="1" res="9.1754132881760597e-03" rms="3.4285283088684082e-01" purity="3.3110165596008301e-01" nType="-99"/>
          <Node pos="r" depth="2" NCoef="0" IVar="-1" Cut="0.0000000000000000e+00" cType="1" res="-8.8968491181731224e-03" rms="3.3227515220642090e-01" purity="3.0756577849388123e-01" nType="-99"/>
        </Node>
      </Node>
    </BinaryTree>
    <BinaryTree type="DecisionTree" boostWeight="1.0000000000000000e+00" itree="796">
      <Node pos="s" depth="0" NCoef="0" IVar="32" Cut="5.1851379871368408e-01" cType="0" res="3.2222742447629571e-04" rms="2.9518947005271912e-01" purity="7.8582197427749634e-01" nType="0">
        <Node pos="l" depth="1" NCoef="0" IVar="-1" Cut="0.0000000000000000e+00" cType="1" res="8.3926721708849072e-04" rms="2.9286226630210876e-01" purity="7.9290515184402466e-01" nType="-99"/>
        <Node pos="r" depth="1" NCoef="0" IVar="1" Cut="1.8014117431640625e+03" cType="0" res="-6.0195988044142723e-03" rms="3.0652999877929688e-01" purity="7.5025349855422974e-01" nType="0">
          <Node pos="l" depth="2" NCoef="0" IVar="-1" Cut="0.0000000000000000e+00" cType="1" res="7.0317122153937817e-03" rms="2.8748300671577454e-01" purity="7.6571130752563477e-01" nType="-99"/>
          <Node pos="r" depth="2" NCoef="0" IVar="-1" Cut="0.0000000000000000e+00" cType="1" res="-8.3883032202720642e-03" rms="3.1648162007331848e-01" purity="7.4128061532974243e-01" nType="-99"/>
        </Node>
      </Node>
    </BinaryTree>
    <BinaryTree type="DecisionTree" boostWeight="1.0000000000000000e+00" itree="797">
      <Node pos="s" depth="0" NCoef="0" IVar="1" Cut="8.8823583984375000e+02" cType="0" res="1.1972115607932210e-03" rms="2.9427874088287354e-01" purity="7.8607243299484253e-01" nType="0">
        <Node pos="l" depth="1" NCoef="0" IVar="-1" Cut="0.0000000000000000e+00" cType="1" res="7.6455099042505026e-04" rms="2.9548159241676331e-01" purity="7.9314476251602173e-01" nType="-99"/>
        <Node pos="r" depth="1" NCoef="0" IVar="0" Cut="6.7619047164916992e+00" cType="1" res="-2.9025455936789513e-02" rms="8.5846871137619019e-02" purity="5.3619304671883583e-03" nType="0">
          <Node pos="l" depth="2" NCoef="0" IVar="-1" Cut="0.0000000000000000e+00" cType="1" res="-5.5908609181642532e-02" rms="1.3137900829315186e-01" purity="1.0204081423580647e-02" nType="-99"/>
          <Node pos="r" depth="2" NCoef="0" IVar="-1" Cut="0.0000000000000000e+00" cType="1" res="-4.4102102518081665e-02" rms="7.6207570731639862e-02" purity="4.8971595242619514e-03" nType="-99"/>
        </Node>
      </Node>
    </BinaryTree>
    <BinaryTree type="DecisionTree" boostWeight="1.0000000000000000e+00" itree="798">
      <Node pos="s" depth="0" NCoef="0" IVar="1" Cut="2.7538886718750000e+03" cType="1" res="-4.0271118632517755e-04" rms="2.9567816853523254e-01" purity="7.8547769784927368e-01" nType="0">
        <Node pos="l" depth="1" NCoef="0" IVar="-1" Cut="0.0000000000000000e+00" cType="1" res="1.8958516011480242e-04" rms="2.9483214020729065e-01" purity="7.8818196058273315e-01" nType="-99"/>
        <Node pos="r" depth="1" NCoef="0" IVar="3" Cut="5.0671948242187500e+03" cType="1" res="-9.9121425300836563e-03" rms="3.0578684806823730e-01" purity="7.5203686952590942e-01" nType="0">
          <Node pos="l" depth="2" NCoef="0" IVar="-1" Cut="0.0000000000000000e+00" cType="1" res="6.3460221281275153e-04" rms="2.9618066549301147e-01" purity="7.8790956735610962e-01" nType="-99"/>
          <Node pos="r" depth="2" NCoef="0" IVar="-1" Cut="0.0000000000000000e+00" cType="1" res="-3.0868668109178543e-02" rms="3.4742438793182373e-01" purity="5.5777168273925781e-01" nType="-99"/>
        </Node>
      </Node>
    </BinaryTree>
    <BinaryTree type="DecisionTree" boostWeight="1.0000000000000000e+00" itree="799">
      <Node pos="s" depth="0" NCoef="0" IVar="1" Cut="2.7158193359375000e+03" cType="1" res="-3.8442236836999655e-04" rms="2.9573971033096313e-01" purity="7.8424286842346191e-01" nType="0">
        <Node pos="l" depth="1" NCoef="0" IVar="-1" Cut="0.0000000000000000e+00" cType="1" res="1.0686244786484167e-04" rms="2.9516908526420593e-01" purity="7.8714156150817871e-01" nType="-99"/>
        <Node pos="r" depth="1" NCoef="0" IVar="3" Cut="5.0334082031250000e+03" cType="1" res="-7.1614547632634640e-03" rms="3.0211013555526733e-01" purity="7.5107383728027344e-01" nType="0">
          <Node pos="l" depth="2" NCoef="0" IVar="-1" Cut="0.0000000000000000e+00" cType="1" res="4.9147661775350571e-04" rms="2.9498705267906189e-01" purity="7.8596907854080200e-01" nType="-99"/>
          <Node pos="r" depth="2" NCoef="0" IVar="-1" Cut="0.0000000000000000e+00" cType="1" res="-2.1274974569678307e-02" rms="3.3400321006774902e-01" purity="5.6777012348175049e-01" nType="-99"/>
        </Node>
      </Node>
    </BinaryTree>
    <BinaryTree type="DecisionTree" boostWeight="1.0000000000000000e+00" itree="800">
      <Node pos="s" depth="0" NCoef="0" IVar="1" Cut="3.7159392089843750e+03" cType="0" res="-3.3093281672336161e-04" rms="2.9669696092605591e-01" purity="7.8408139944076538e-01" nType="0">
        <Node pos="l" depth="1" NCoef="0" IVar="-1" Cut="0.0000000000000000e+00" cType="1" res="-1.7657501623034477e-02" rms="3.2840064167976379e-01" purity="8.2591724395751953e-01" nType="-99"/>
        <Node pos="r" depth="1" NCoef="0" IVar="9" Cut="6.8612670898437500e+02" cType="0" res="-6.7182612838223577e-05" rms="2.9633814096450806e-01" purity="7.8364646434783936e-01" nType="0">
          <Node pos="l" depth="2" NCoef="0" IVar="-1" Cut="0.0000000000000000e+00" cType="1" res="4.7056982293725014e-03" rms="2.5363364815711975e-01" purity="9.0838396549224854e-01" nType="-99"/>
          <Node pos="r" depth="2" NCoef="0" IVar="-1" Cut="0.0000000000000000e+00" cType="1" res="-8.4136548684909940e-04" rms="3.0608507990837097e-01" purity="7.5238770246505737e-01" nType="-99"/>
        </Node>
      </Node>
    </BinaryTree>
    <BinaryTree type="DecisionTree" boostWeight="1.0000000000000000e+00" itree="801">
      <Node pos="s" depth="0" NCoef="0" IVar="20" Cut="-4.2857107520103455e-01" cType="0" res="-5.7204760378226638e-04" rms="2.9599797725677490e-01" purity="7.8502172231674194e-01" nType="0">
        <Node pos="l" depth="1" NCoef="0" IVar="-1" Cut="0.0000000000000000e+00" cType="1" res="-1.6203835548367351e-04" rms="2.9537552595138550e-01" purity="7.8898257017135620e-01" nType="-99"/>
        <Node pos="r" depth="1" NCoef="0" IVar="8" Cut="6.5734467506408691e+00" cType="0" res="-2.1121760830283165e-02" rms="3.4051439166069031e-01" purity="4.7552448511123657e-01" nType="0">
          <Node pos="l" depth="2" NCoef="0" IVar="-1" Cut="0.0000000000000000e+00" cType="1" res="-5.7467762380838394e-02" rms="4.0443497896194458e-01" purity="5.0354611873626709e-01" nType="-99"/>
          <Node pos="r" depth="2" NCoef="0" IVar="-1" Cut="0.0000000000000000e+00" cType="1" res="-2.9269477818161249e-03" rms="3.3053535223007202e-01" purity="4.7276535630226135e-01" nType="-99"/>
        </Node>
      </Node>
    </BinaryTree>
    <BinaryTree type="DecisionTree" boostWeight="1.0000000000000000e+00" itree="802">
      <Node pos="s" depth="0" NCoef="0" IVar="18" Cut="4.7422766685485840e-02" cType="0" res="1.1859852384077385e-04" rms="2.9535183310508728e-01" purity="7.8450202941894531e-01" nType="0">
        <Node pos="l" depth="1" NCoef="0" IVar="-1" Cut="0.0000000000000000e+00" cType="1" res="-7.6105552725493908e-03" rms="2.9831668734550476e-01" purity="8.3977633714675903e-01" nType="-99"/>
        <Node pos="r" depth="1" NCoef="0" IVar="0" Cut="1.5857142448425293e+01" cType="1" res="5.7790480786934495e-04" rms="2.9523926973342896e-01" purity="7.8261554241180420e-01" nType="0">
          <Node pos="l" depth="2" NCoef="0" IVar="-1" Cut="0.0000000000000000e+00" cType="1" res="5.4848704166943207e-05" rms="2.9350802302360535e-01" purity="8.0450534820556641e-01" nType="-99"/>
          <Node pos="r" depth="2" NCoef="0" IVar="-1" Cut="0.0000000000000000e+00" cType="1" res="4.0949848480522633e-03" rms="3.2899409532546997e-01" purity="3.2791328430175781e-01" nType="-99"/>
        </Node>
      </Node>
    </BinaryTree>
    <BinaryTree type="DecisionTree" boostWeight="1.0000000000000000e+00" itree="803">
      <Node pos="s" depth="0" NCoef="0" IVar="2" Cut="4.5232361555099487e-01" cType="1" res="-1.4046407886780798e-04" rms="2.9551210999488831e-01" purity="7.8395539522171021e-01" nType="0">
        <Node pos="l" depth="1" NCoef="0" IVar="-1" Cut="0.0000000000000000e+00" cType="1" res="6.3661005697213113e-05" rms="2.9454264044761658e-01" purity="7.8764629364013672e-01" nType="-99"/>
        <Node pos="r" depth="1" NCoef="0" IVar="19" Cut="1.7850889062500000e+05" cType="1" res="-1.6126791015267372e-02" rms="3.4926280379295349e-01" purity="5.5866199731826782e-01" nType="0">
          <Node pos="l" depth="2" NCoef="0" IVar="-1" Cut="0.0000000000000000e+00" cType="1" res="-3.8766393117839471e-05" rms="3.3960530161857605e-01" purity="5.6923949718475342e-01" nType="-99"/>
          <Node pos="r" depth="2" NCoef="0" IVar="-1" Cut="0.0000000000000000e+00" cType="1" res="-4.3175458908081055e-02" rms="3.9370095729827881e-01" purity="4.8132780194282532e-01" nType="-99"/>
        </Node>
      </Node>
    </BinaryTree>
    <BinaryTree type="DecisionTree" boostWeight="1.0000000000000000e+00" itree="804">
      <Node pos="s" depth="0" NCoef="0" IVar="4" Cut="2.2618156433105469e+01" cType="0" res="-1.2707483256235719e-03" rms="2.9576405882835388e-01" purity="7.8343939781188965e-01" nType="0">
        <Node pos="l" depth="1" NCoef="0" IVar="-1" Cut="0.0000000000000000e+00" cType="1" res="2.2789875045418739e-02" rms="1.6634443402290344e-01" purity="9.6273916959762573e-01" nType="-99"/>
        <Node pos="r" depth="1" NCoef="0" IVar="27" Cut="2.1428407812500000e+05" cType="1" res="-1.4628183562308550e-03" rms="2.9656931757926941e-01" purity="7.8199553489685059e-01" nType="0">
          <Node pos="l" depth="2" NCoef="0" IVar="-1" Cut="0.0000000000000000e+00" cType="1" res="-6.2858214369043708e-04" rms="2.9583302140235901e-01" purity="7.8224015235900879e-01" nType="-99"/>
          <Node pos="r" depth="2" NCoef="0" IVar="-1" Cut="0.0000000000000000e+00" cType="1" res="-7.4858004227280617e-03" rms="3.3731299638748169e-01" purity="7.6737308502197266e-01" nType="-99"/>
        </Node>
      </Node>
    </BinaryTree>
    <BinaryTree type="DecisionTree" boostWeight="1.0000000000000000e+00" itree="805">
      <Node pos="s" depth="0" NCoef="0" IVar="2" Cut="1.1903253197669983e-01" cType="1" res="-6.0467194998636842e-04" rms="2.9548972845077515e-01" purity="7.8373241424560547e-01" nType="0">
        <Node pos="l" depth="1" NCoef="0" IVar="-1" Cut="0.0000000000000000e+00" cType="1" res="-1.2102168984711170e-03" rms="2.8221660852432251e-01" purity="8.2589977979660034e-01" nType="-99"/>
        <Node pos="r" depth="1" NCoef="0" IVar="19" Cut="3.4563550000000000e+05" cType="0" res="3.9448188617825508e-03" rms="3.3219856023788452e-01" purity="6.5687066316604614e-01" nType="0">
          <Node pos="l" depth="2" NCoef="0" IVar="-1" Cut="0.0000000000000000e+00" cType="1" res="3.1736914068460464e-02" rms="2.9232621192932129e-01" purity="7.8438663482666016e-01" nType="-99"/>
          <Node pos="r" depth="2" NCoef="0" IVar="-1" Cut="0.0000000000000000e+00" cType="1" res="1.3294558739289641e-03" rms="3.3243754506111145e-01" purity="6.5575319528579712e-01" nType="-99"/>
        </Node>
      </Node>
    </BinaryTree>
    <BinaryTree type="DecisionTree" boostWeight="1.0000000000000000e+00" itree="806">
      <Node pos="s" depth="0" NCoef="0" IVar="0" Cut="1.4000000000000000e+01" cType="1" res="-9.3397880846168846e-05" rms="2.9522535204887390e-01" purity="7.8462761640548706e-01" nType="0">
        <Node pos="l" depth="1" NCoef="0" IVar="-1" Cut="0.0000000000000000e+00" cType="1" res="6.1985054344404489e-05" rms="2.9281878471374512e-01" purity="8.1188094615936279e-01" nType="-99"/>
        <Node pos="r" depth="1" NCoef="0" IVar="22" Cut="4.4417816162109375e+01" cType="1" res="-3.6566590424627066e-03" rms="3.3345818519592285e-01" purity="3.2147505879402161e-01" nType="0">
          <Node pos="l" depth="2" NCoef="0" IVar="-1" Cut="0.0000000000000000e+00" cType="1" res="9.7895758226513863e-03" rms="3.4040737152099609e-01" purity="3.9102101325988770e-01" nType="-99"/>
          <Node pos="r" depth="2" NCoef="0" IVar="-1" Cut="0.0000000000000000e+00" cType="1" res="-1.9744677469134331e-02" rms="3.1755059957504272e-01" purity="2.1753247082233429e-01" nType="-99"/>
        </Node>
      </Node>
    </BinaryTree>
    <BinaryTree type="DecisionTree" boostWeight="1.0000000000000000e+00" itree="807">
      <Node pos="s" depth="0" NCoef="0" IVar="9" Cut="1.6693563232421875e+03" cType="0" res="-7.8086776193231344e-04" rms="2.9643207788467407e-01" purity="7.8287595510482788e-01" nType="0">
        <Node pos="l" depth="1" NCoef="0" IVar="-1" Cut="0.0000000000000000e+00" cType="1" res="1.1519663967192173e-02" rms="1.8815810978412628e-01" purity="9.6108537912368774e-01" nType="-99"/>
        <Node pos="r" depth="1" NCoef="0" IVar="9" Cut="1.6986952209472656e+02" cType="0" res="-1.2192074209451675e-03" rms="2.9991820454597473e-01" purity="7.7579766511917114e-01" nType="0">
          <Node pos="l" depth="2" NCoef="0" IVar="-1" Cut="0.0000000000000000e+00" cType="1" res="1.7769465921446681e-04" rms="2.9446184635162354e-01" purity="7.9054266214370728e-01" nType="-99"/>
          <Node pos="r" depth="2" NCoef="0" IVar="-1" Cut="0.0000000000000000e+00" cType="1" res="-8.3832554519176483e-03" rms="3.6529496312141418e-01" purity="5.7589393854141235e-01" nType="-99"/>
        </Node>
      </Node>
    </BinaryTree>
    <BinaryTree type="DecisionTree" boostWeight="1.0000000000000000e+00" itree="808">
      <Node pos="s" depth="0" NCoef="0" IVar="4" Cut="3.5712995529174805e+00" cType="0" res="-7.8596603998448700e-06" rms="2.9468122124671936e-01" purity="7.8451615571975708e-01" nType="0">
        <Node pos="l" depth="1" NCoef="0" IVar="-1" Cut="0.0000000000000000e+00" cType="1" res="-2.3134280927479267e-03" rms="2.6553869247436523e-01" purity="8.6898231506347656e-01" nType="-99"/>
        <Node pos="r" depth="1" NCoef="0" IVar="1" Cut="2.0589724121093750e+03" cType="1" res="1.7740514595061541e-03" rms="3.0838078260421753e-01" purity="7.4172419309616089e-01" nType="0">
          <Node pos="l" depth="2" NCoef="0" IVar="-1" Cut="0.0000000000000000e+00" cType="1" res="-7.3286425322294235e-04" rms="3.0606821179389954e-01" purity="7.5964814424514771e-01" nType="-99"/>
          <Node pos="r" depth="2" NCoef="0" IVar="-1" Cut="0.0000000000000000e+00" cType="1" res="6.6010998561978340e-03" rms="3.1668543815612793e-01" purity="6.7373418807983398e-01" nType="-99"/>
        </Node>
      </Node>
    </BinaryTree>
    <BinaryTree type="DecisionTree" boostWeight="1.0000000000000000e+00" itree="809">
      <Node pos="s" depth="0" NCoef="0" IVar="6" Cut="8.0599462890625000e+03" cType="0" res="6.4513116376474500e-04" rms="2.9536092281341553e-01" purity="7.8571659326553345e-01" nType="0">
        <Node pos="l" depth="1" NCoef="0" IVar="-1" Cut="0.0000000000000000e+00" cType="1" res="7.0419877767562866e-02" rms="1.2626308202743530e-01" purity="1.0000000000000000e+00" nType="-99"/>
        <Node pos="r" depth="1" NCoef="0" IVar="6" Cut="3.8114334106445312e+02" cType="0" res="5.7859183289110661e-04" rms="2.9546257853507996e-01" purity="7.8552144765853882e-01" nType="0">
          <Node pos="l" depth="2" NCoef="0" IVar="-1" Cut="0.0000000000000000e+00" cType="1" res="1.0273672640323639e-02" rms="2.1811999380588531e-01" purity="9.2085206508636475e-01" nType="-99"/>
          <Node pos="r" depth="2" NCoef="0" IVar="-1" Cut="0.0000000000000000e+00" cType="1" res="-2.5357512640766799e-04" rms="3.0142006278038025e-01" purity="7.7335840463638306e-01" nType="-99"/>
        </Node>
      </Node>
    </BinaryTree>
    <BinaryTree type="DecisionTree" boostWeight="1.0000000000000000e+00" itree="810">
      <Node pos="s" depth="0" NCoef="0" IVar="19" Cut="2.7662640625000000e+05" cType="1" res="-2.8407730860635638e-04" rms="2.9566696286201477e-01" purity="7.8441578149795532e-01" nType="0">
        <Node pos="l" depth="1" NCoef="0" IVar="-1" Cut="0.0000000000000000e+00" cType="1" res="7.5113828643225133e-05" rms="2.9478213191032410e-01" purity="7.8545200824737549e-01" nType="-99"/>
        <Node pos="r" depth="1" NCoef="0" IVar="26" Cut="3.6783976562500000e+04" cType="1" res="-1.8435668200254440e-02" rms="3.3054333925247192e-01" purity="7.4043142795562744e-01" nType="0">
          <Node pos="l" depth="2" NCoef="0" IVar="-1" Cut="0.0000000000000000e+00" cType="1" res="-4.7865980304777622e-03" rms="3.2295432686805725e-01" purity="7.4346977472305298e-01" nType="-99"/>
          <Node pos="r" depth="2" NCoef="0" IVar="-1" Cut="0.0000000000000000e+00" cType="1" res="-4.0520079433917999e-02" rms="3.8153296709060669e-01" purity="7.1521037817001343e-01" nType="-99"/>
        </Node>
      </Node>
    </BinaryTree>
    <BinaryTree type="DecisionTree" boostWeight="1.0000000000000000e+00" itree="811">
      <Node pos="s" depth="0" NCoef="0" IVar="14" Cut="2.3179091796875000e+03" cType="0" res="-4.5970355131430551e-05" rms="2.9598313570022583e-01" purity="7.8356105089187622e-01" nType="0">
        <Node pos="l" depth="1" NCoef="0" IVar="-1" Cut="0.0000000000000000e+00" cType="1" res="-1.4451956376433372e-02" rms="2.7234509587287903e-01" purity="8.8941890001296997e-01" nType="-99"/>
        <Node pos="r" depth="1" NCoef="0" IVar="14" Cut="3.4846023559570312e+02" cType="0" res="3.1537862378172576e-04" rms="2.9639840126037598e-01" purity="7.8156703710556030e-01" nType="0">
          <Node pos="l" depth="2" NCoef="0" IVar="-1" Cut="0.0000000000000000e+00" cType="1" res="-1.6482223290950060e-03" rms="2.8134602308273315e-01" purity="8.1897044181823730e-01" nType="-99"/>
          <Node pos="r" depth="2" NCoef="0" IVar="-1" Cut="0.0000000000000000e+00" cType="1" res="2.1232364233583212e-03" rms="3.1510028243064880e-01" purity="7.3224365711212158e-01" nType="-99"/>
        </Node>
      </Node>
    </BinaryTree>
    <BinaryTree type="DecisionTree" boostWeight="1.0000000000000000e+00" itree="812">
      <Node pos="s" depth="0" NCoef="0" IVar="2" Cut="3.3329108357429504e-01" cType="1" res="1.4541971904691309e-04" rms="2.9622080922126770e-01" purity="7.8470015525817871e-01" nType="0">
        <Node pos="l" depth="1" NCoef="0" IVar="-1" Cut="0.0000000000000000e+00" cType="1" res="5.1957607502117753e-04" rms="2.9200053215026855e-01" purity="8.0036908388137817e-01" nType="-99"/>
        <Node pos="r" depth="1" NCoef="0" IVar="0" Cut="8.0476188659667969e+00" cType="1" res="-1.0379490442574024e-02" rms="3.4509721398353577e-01" purity="5.8609706163406372e-01" nType="0">
          <Node pos="l" depth="2" NCoef="0" IVar="-1" Cut="0.0000000000000000e+00" cType="1" res="-1.4521076343953609e-02" rms="3.4273916482925415e-01" purity="7.8088110685348511e-01" nType="-99"/>
          <Node pos="r" depth="2" NCoef="0" IVar="-1" Cut="0.0000000000000000e+00" cType="1" res="7.2363490471616387e-04" rms="3.4596601128578186e-01" purity="4.6600389480590820e-01" nType="-99"/>
        </Node>
      </Node>
    </BinaryTree>
    <BinaryTree type="DecisionTree" boostWeight="1.0000000000000000e+00" itree="813">
      <Node pos="s" depth="0" NCoef="0" IVar="23" Cut="2.1283972656250000e+04" cType="0" res="1.1038227967219427e-04" rms="2.9479435086250305e-01" purity="7.8535461425781250e-01" nType="0">
        <Node pos="l" depth="1" NCoef="0" IVar="-1" Cut="0.0000000000000000e+00" cType="1" res="3.3486355096101761e-02" rms="1.8848131597042084e-01" purity="9.5634919404983521e-01" nType="-99"/>
        <Node pos="r" depth="1" NCoef="0" IVar="23" Cut="1.1123886718750000e+03" cType="0" res="-3.3121559681603685e-05" rms="2.9513797163963318e-01" purity="7.8466290235519409e-01" nType="0">
          <Node pos="l" depth="2" NCoef="0" IVar="-1" Cut="0.0000000000000000e+00" cType="1" res="9.5276256615761667e-05" rms="2.9497602581977844e-01" purity="7.8522193431854248e-01" nType="-99"/>
          <Node pos="r" depth="2" NCoef="0" IVar="-1" Cut="0.0000000000000000e+00" cType="1" res="-1.6649603843688965e-02" rms="3.1629353761672974e-01" purity="7.0318019390106201e-01" nType="-99"/>
        </Node>
      </Node>
    </BinaryTree>
    <BinaryTree type="DecisionTree" boostWeight="1.0000000000000000e+00" itree="814">
      <Node pos="s" depth="0" NCoef="0" IVar="35" Cut="2.2061904907226562e+02" cType="1" res="-4.4002215872751549e-05" rms="2.9589450359344482e-01" purity="7.8506243228912354e-01" nType="0">
        <Node pos="l" depth="1" NCoef="0" IVar="-1" Cut="0.0000000000000000e+00" cType="1" res="-1.2072849785909057e-03" rms="2.9509976506233215e-01" purity="7.8797376155853271e-01" nType="-99"/>
        <Node pos="r" depth="1" NCoef="0" IVar="25" Cut="1.7091644287109375e+03" cType="0" res="2.3719505406916142e-03" rms="2.9672822356224060e-01" purity="7.8193014860153198e-01" nType="0">
          <Node pos="l" depth="2" NCoef="0" IVar="-1" Cut="0.0000000000000000e+00" cType="1" res="2.6717253495007753e-03" rms="2.8777199983596802e-01" purity="8.0709356069564819e-01" nType="-99"/>
          <Node pos="r" depth="2" NCoef="0" IVar="-1" Cut="0.0000000000000000e+00" cType="1" res="-2.8183837421238422e-03" rms="3.2608458399772644e-01" purity="6.9355326890945435e-01" nType="-99"/>
        </Node>
      </Node>
    </BinaryTree>
    <BinaryTree type="DecisionTree" boostWeight="1.0000000000000000e+00" itree="815">
      <Node pos="s" depth="0" NCoef="0" IVar="27" Cut="7.5431078125000000e+04" cType="0" res="-9.6794807177502662e-05" rms="2.9462093114852905e-01" purity="7.8575879335403442e-01" nType="0">
        <Node pos="l" depth="1" NCoef="0" IVar="-1" Cut="0.0000000000000000e+00" cType="1" res="-2.1727280691266060e-03" rms="2.9917487502098083e-01" purity="7.9155558347702026e-01" nType="-99"/>
        <Node pos="r" depth="1" NCoef="0" IVar="27" Cut="1.4998938476562500e+04" cType="0" res="1.5140358591452241e-03" rms="2.9282554984092712e-01" purity="7.8351783752441406e-01" nType="0">
          <Node pos="l" depth="2" NCoef="0" IVar="-1" Cut="0.0000000000000000e+00" cType="1" res="5.1291141426190734e-04" rms="2.9279056191444397e-01" purity="7.8368896245956421e-01" nType="-99"/>
          <Node pos="r" depth="2" NCoef="0" IVar="-1" Cut="0.0000000000000000e+00" cType="1" res="2.9530324041843414e-02" rms="2.9002782702445984e-01" purity="7.6363635063171387e-01" nType="-99"/>
        </Node>
      </Node>
    </BinaryTree>
    <BinaryTree type="DecisionTree" boostWeight="1.0000000000000000e+00" itree="816">
      <Node pos="s" depth="0" NCoef="0" IVar="13" Cut="3.5594606933593750e+03" cType="0" res="1.2889374920632690e-04" rms="2.9499134421348572e-01" purity="7.8425830602645874e-01" nType="0">
        <Node pos="l" depth="1" NCoef="0" IVar="-1" Cut="0.0000000000000000e+00" cType="1" res="2.5435045827180147e-03" rms="2.7019745111465454e-01" purity="8.4630149602890015e-01" nType="-99"/>
        <Node pos="r" depth="1" NCoef="0" IVar="14" Cut="4.0757476806640625e+02" cType="0" res="-1.1752235004678369e-03" rms="3.0266278982162476e-01" purity="7.6392841339111328e-01" nType="0">
          <Node pos="l" depth="2" NCoef="0" IVar="-1" Cut="0.0000000000000000e+00" cType="1" res="-3.8779454771429300e-03" rms="2.8796389698982239e-01" purity="8.1033158302307129e-01" nType="-99"/>
          <Node pos="r" depth="2" NCoef="0" IVar="-1" Cut="0.0000000000000000e+00" cType="1" res="1.3235775986686349e-03" rms="3.1209713220596313e-01" purity="7.3271530866622925e-01" nType="-99"/>
        </Node>
      </Node>
    </BinaryTree>
    <BinaryTree type="DecisionTree" boostWeight="1.0000000000000000e+00" itree="817">
      <Node pos="s" depth="0" NCoef="0" IVar="27" Cut="7.5431078125000000e+04" cType="0" res="1.0173830669373274e-03" rms="2.9563909769058228e-01" purity="7.8582656383514404e-01" nType="0">
        <Node pos="l" depth="1" NCoef="0" IVar="-1" Cut="0.0000000000000000e+00" cType="1" res="-1.8004482844844460e-03" rms="3.0174344778060913e-01" purity="7.8962343931198120e-01" nType="-99"/>
        <Node pos="r" depth="1" NCoef="0" IVar="27" Cut="2.1360191406250000e+04" cType="0" res="2.7908624615520239e-03" rms="2.9322370886802673e-01" purity="7.8435736894607544e-01" nType="0">
          <Node pos="l" depth="2" NCoef="0" IVar="-1" Cut="0.0000000000000000e+00" cType="1" res="6.1392819043248892e-04" rms="2.9273667931556702e-01" purity="7.8699159622192383e-01" nType="-99"/>
          <Node pos="r" depth="2" NCoef="0" IVar="-1" Cut="0.0000000000000000e+00" cType="1" res="1.1352914385497570e-02" rms="2.9826670885086060e-01" purity="7.5304573774337769e-01" nType="-99"/>
        </Node>
      </Node>
    </BinaryTree>
    <BinaryTree type="DecisionTree" boostWeight="1.0000000000000000e+00" itree="818">
      <Node pos="s" depth="0" NCoef="0" IVar="11" Cut="2.3808914184570312e+01" cType="1" res="-8.8744860840961337e-04" rms="2.9483085870742798e-01" purity="7.8316038846969604e-01" nType="0">
        <Node pos="l" depth="1" NCoef="0" IVar="-1" Cut="0.0000000000000000e+00" cType="1" res="-8.0496538430452347e-04" rms="2.9452329874038696e-01" purity="7.8691715002059937e-01" nType="-99"/>
        <Node pos="r" depth="1" NCoef="0" IVar="29" Cut="8.1213808059692383e+00" cType="0" res="8.8560823351144791e-03" rms="2.9927438497543335e-01" purity="7.2634565830230713e-01" nType="0">
          <Node pos="l" depth="2" NCoef="0" IVar="-1" Cut="0.0000000000000000e+00" cType="1" res="7.8279236331582069e-03" rms="2.9533192515373230e-01" purity="7.2641354799270630e-01" nType="-99"/>
          <Node pos="r" depth="2" NCoef="0" IVar="-1" Cut="0.0000000000000000e+00" cType="1" res="-1.0383426211774349e-02" rms="3.1208550930023193e-01" purity="7.2608697414398193e-01" nType="-99"/>
        </Node>
      </Node>
    </BinaryTree>
    <BinaryTree type="DecisionTree" boostWeight="1.0000000000000000e+00" itree="819">
      <Node pos="s" depth="0" NCoef="0" IVar="4" Cut="1.6666013717651367e+01" cType="0" res="-1.9472259737085551e-04" rms="2.9572963714599609e-01" purity="7.8472733497619629e-01" nType="0">
        <Node pos="l" depth="1" NCoef="0" IVar="-1" Cut="0.0000000000000000e+00" cType="1" res="1.1702989228069782e-02" rms="1.9434805214405060e-01" purity="9.4789081811904907e-01" nType="-99"/>
        <Node pos="r" depth="1" NCoef="0" IVar="7" Cut="6.4405654296875000e+03" cType="0" res="-6.8661384284496307e-04" rms="2.9908719658851624e-01" purity="7.7814835309982300e-01" nType="0">
          <Node pos="l" depth="2" NCoef="0" IVar="-1" Cut="0.0000000000000000e+00" cType="1" res="4.1493251919746399e-03" rms="2.6349815726280212e-01" purity="8.8198840618133545e-01" nType="-99"/>
          <Node pos="r" depth="2" NCoef="0" IVar="-1" Cut="0.0000000000000000e+00" cType="1" res="-8.2581251626834273e-04" rms="3.0370852351188660e-01" purity="7.6366019248962402e-01" nType="-99"/>
        </Node>
      </Node>
    </BinaryTree>
    <BinaryTree type="DecisionTree" boostWeight="1.0000000000000000e+00" itree="820">
      <Node pos="s" depth="0" NCoef="0" IVar="9" Cut="2.9362788085937500e+03" cType="0" res="1.1450297461124137e-04" rms="2.9555588960647583e-01" purity="7.8476858139038086e-01" nType="0">
        <Node pos="l" depth="1" NCoef="0" IVar="-1" Cut="0.0000000000000000e+00" cType="1" res="3.9495564997196198e-02" rms="1.2151227146387100e-01" purity="9.8536586761474609e-01" nType="-99"/>
        <Node pos="r" depth="1" NCoef="0" IVar="1" Cut="3.8770063476562500e+03" cType="0" res="-1.5436567991855554e-05" rms="2.9595199227333069e-01" purity="7.8410691022872925e-01" nType="0">
          <Node pos="l" depth="2" NCoef="0" IVar="-1" Cut="0.0000000000000000e+00" cType="1" res="-3.6865033209323883e-02" rms="3.6261528730392456e-01" purity="7.8782290220260620e-01" nType="-99"/>
          <Node pos="r" depth="2" NCoef="0" IVar="-1" Cut="0.0000000000000000e+00" cType="1" res="1.2883296585641801e-04" rms="2.9560014605522156e-01" purity="7.8409063816070557e-01" nType="-99"/>
        </Node>
      </Node>
    </BinaryTree>
    <BinaryTree type="DecisionTree" boostWeight="1.0000000000000000e+00" itree="821">
      <Node pos="s" depth="0" NCoef="0" IVar="14" Cut="2.0681425781250000e+03" cType="0" res="4.0805374737828970e-04" rms="2.9576820135116577e-01" purity="7.8391087055206299e-01" nType="0">
        <Node pos="l" depth="1" NCoef="0" IVar="-1" Cut="0.0000000000000000e+00" cType="1" res="-9.3829436227679253e-03" rms="2.6769155263900757e-01" purity="8.8594162464141846e-01" nType="-99"/>
        <Node pos="r" depth="1" NCoef="0" IVar="13" Cut="2.6134575195312500e+03" cType="0" res="7.4517057510092854e-04" rms="2.9642403125762939e-01" purity="7.8137588500976562e-01" nType="0">
          <Node pos="l" depth="2" NCoef="0" IVar="-1" Cut="0.0000000000000000e+00" cType="1" res="2.5636511854827404e-03" rms="2.8154104948043823e-01" purity="8.1706541776657104e-01" nType="-99"/>
          <Node pos="r" depth="2" NCoef="0" IVar="-1" Cut="0.0000000000000000e+00" cType="1" res="-1.0554147884249687e-03" rms="3.0708506703376770e-01" purity="7.5459945201873779e-01" nType="-99"/>
        </Node>
      </Node>
    </BinaryTree>
    <BinaryTree type="DecisionTree" boostWeight="1.0000000000000000e+00" itree="822">
      <Node pos="s" depth="0" NCoef="0" IVar="13" Cut="1.2977002929687500e+04" cType="0" res="-2.5586254196241498e-04" rms="2.9510575532913208e-01" purity="7.8466230630874634e-01" nType="0">
        <Node pos="l" depth="1" NCoef="0" IVar="-1" Cut="0.0000000000000000e+00" cType="1" res="-4.4353887438774109e-02" rms="2.5938645005226135e-01" purity="8.6833858489990234e-01" nType="-99"/>
        <Node pos="r" depth="1" NCoef="0" IVar="13" Cut="4.4870668945312500e+03" cType="0" res="-1.3645378930959851e-04" rms="2.9518243670463562e-01" purity="7.8444749116897583e-01" nType="0">
          <Node pos="l" depth="2" NCoef="0" IVar="-1" Cut="0.0000000000000000e+00" cType="1" res="4.3596783652901649e-03" rms="2.6245579123497009e-01" purity="8.5975575447082520e-01" nType="-99"/>
          <Node pos="r" depth="2" NCoef="0" IVar="-1" Cut="0.0000000000000000e+00" cType="1" res="-6.3286331715062261e-04" rms="3.0022624135017395e-01" purity="7.7201861143112183e-01" nType="-99"/>
        </Node>
      </Node>
    </BinaryTree>
    <BinaryTree type="DecisionTree" boostWeight="1.0000000000000000e+00" itree="823">
      <Node pos="s" depth="0" NCoef="0" IVar="0" Cut="1.4000000000000000e+01" cType="1" res="2.3250831873156130e-04" rms="2.9407045245170593e-01" purity="7.8572863340377808e-01" nType="0">
        <Node pos="l" depth="1" NCoef="0" IVar="-1" Cut="0.0000000000000000e+00" cType="1" res="2.9439621721394360e-04" rms="2.9157829284667969e-01" purity="8.1252443790435791e-01" nType="-99"/>
        <Node pos="r" depth="1" NCoef="0" IVar="17" Cut="7.4185101562500000e+04" cType="1" res="-5.2721416577696800e-03" rms="3.3399268984794617e-01" purity="3.2480630278587341e-01" nType="0">
          <Node pos="l" depth="2" NCoef="0" IVar="-1" Cut="0.0000000000000000e+00" cType="1" res="1.0538143105804920e-03" rms="3.3100160956382751e-01" purity="3.2613170146942139e-01" nType="-99"/>
          <Node pos="r" depth="2" NCoef="0" IVar="-1" Cut="0.0000000000000000e+00" cType="1" res="-1.8881274387240410e-02" rms="3.4718480706214905e-01" purity="3.1714567542076111e-01" nType="-99"/>
        </Node>
      </Node>
    </BinaryTree>
    <BinaryTree type="DecisionTree" boostWeight="1.0000000000000000e+00" itree="824">
      <Node pos="s" depth="0" NCoef="0" IVar="20" Cut="-8.0952346324920654e-01" cType="0" res="-6.5308675402775407e-05" rms="2.9644587635993958e-01" purity="7.8407090902328491e-01" nType="0">
        <Node pos="l" depth="1" NCoef="0" IVar="-1" Cut="0.0000000000000000e+00" cType="1" res="8.9320412371307611e-05" rms="2.9586637020111084e-01" purity="7.8766286373138428e-01" nType="-99"/>
        <Node pos="r" depth="1" NCoef="0" IVar="2" Cut="2.8567668795585632e-01" cType="1" res="-1.9887851551175117e-02" rms="3.4101730585098267e-01" purity="4.8257005214691162e-01" nType="0">
          <Node pos="l" depth="2" NCoef="0" IVar="-1" Cut="0.0000000000000000e+00" cType="1" res="3.3117537386715412e-03" rms="3.3449816703796387e-01" purity="5.4218107461929321e-01" nType="-99"/>
          <Node pos="r" depth="2" NCoef="0" IVar="-1" Cut="0.0000000000000000e+00" cType="1" res="-2.7916615828871727e-02" rms="3.4664046764373779e-01" purity="3.6456212401390076e-01" nType="-99"/>
        </Node>
      </Node>
    </BinaryTree>
    <BinaryTree type="DecisionTree" boostWeight="1.0000000000000000e+00" itree="825">
      <Node pos="s" depth="0" NCoef="0" IVar="2" Cut="2.6187157630920410e-01" cType="1" res="5.3060165373608470e-04" rms="2.9549959301948547e-01" purity="7.8571945428848267e-01" nType="0">
        <Node pos="l" depth="1" NCoef="0" IVar="-1" Cut="0.0000000000000000e+00" cType="1" res="-2.8434110572561622e-04" rms="2.8951877355575562e-01" purity="8.0673456192016602e-01" nType="-99"/>
        <Node pos="r" depth="1" NCoef="0" IVar="13" Cut="2.3481125488281250e+03" cType="0" res="8.3238594233989716e-03" rms="3.3635044097900391e-01" purity="6.3027477264404297e-01" nType="0">
          <Node pos="l" depth="2" NCoef="0" IVar="-1" Cut="0.0000000000000000e+00" cType="1" res="-2.0842787344008684e-03" rms="3.2843923568725586e-01" purity="6.6275501251220703e-01" nType="-99"/>
          <Node pos="r" depth="2" NCoef="0" IVar="-1" Cut="0.0000000000000000e+00" cType="1" res="8.7846750393509865e-03" rms="3.4373807907104492e-01" purity="5.9696388244628906e-01" nType="-99"/>
        </Node>
      </Node>
    </BinaryTree>
    <BinaryTree type="DecisionTree" boostWeight="1.0000000000000000e+00" itree="826">
      <Node pos="s" depth="0" NCoef="0" IVar="7" Cut="1.0729921875000000e+04" cType="0" res="-1.9843083282466978e-04" rms="2.9613178968429565e-01" purity="7.8461253643035889e-01" nType="0">
        <Node pos="l" depth="1" NCoef="0" IVar="-1" Cut="0.0000000000000000e+00" cType="1" res="1.1304030194878578e-02" rms="2.3080690205097198e-01" purity="9.3107223510742188e-01" nType="-99"/>
        <Node pos="r" depth="1" NCoef="0" IVar="27" Cut="3.4593839843750000e+04" cType="0" res="-5.0154316704720259e-04" rms="2.9742750525474548e-01" purity="7.8132247924804688e-01" nType="0">
          <Node pos="l" depth="2" NCoef="0" IVar="-1" Cut="0.0000000000000000e+00" cType="1" res="-1.0439642937853932e-03" rms="2.9690724611282349e-01" purity="7.8707665205001831e-01" nType="-99"/>
          <Node pos="r" depth="2" NCoef="0" IVar="-1" Cut="0.0000000000000000e+00" cType="1" res="1.9894917495548725e-03" rms="2.9885202646255493e-01" purity="7.6504719257354736e-01" nType="-99"/>
        </Node>
      </Node>
    </BinaryTree>
    <BinaryTree type="DecisionTree" boostWeight="1.0000000000000000e+00" itree="827">
      <Node pos="s" depth="0" NCoef="0" IVar="35" Cut="1.1580952453613281e+02" cType="0" res="3.0740292277187109e-04" rms="2.9435443878173828e-01" purity="7.8533387184143066e-01" nType="0">
        <Node pos="l" depth="1" NCoef="0" IVar="-1" Cut="0.0000000000000000e+00" cType="1" res="-9.7262302006129175e-05" rms="2.9394575953483582e-01" purity="7.8606957197189331e-01" nType="-99"/>
        <Node pos="r" depth="1" NCoef="0" IVar="1" Cut="1.3887021484375000e+03" cType="0" res="1.2915334664285183e-02" rms="3.0434975028038025e-01" purity="7.6651698350906372e-01" nType="0">
          <Node pos="l" depth="2" NCoef="0" IVar="-1" Cut="0.0000000000000000e+00" cType="1" res="2.7967519126832485e-03" rms="3.0130669474601746e-01" purity="7.8643977642059326e-01" nType="-99"/>
          <Node pos="r" depth="2" NCoef="0" IVar="-1" Cut="0.0000000000000000e+00" cType="1" res="1.6359401866793633e-02" rms="3.1349423527717590e-01" purity="6.9632494449615479e-01" nType="-99"/>
        </Node>
      </Node>
    </BinaryTree>
    <BinaryTree type="DecisionTree" boostWeight="1.0000000000000000e+00" itree="828">
      <Node pos="s" depth="0" NCoef="0" IVar="19" Cut="2.0998990625000000e+05" cType="1" res="5.0839775940403342e-04" rms="2.9439863562583923e-01" purity="7.8585231304168701e-01" nType="0">
        <Node pos="l" depth="1" NCoef="0" IVar="-1" Cut="0.0000000000000000e+00" cType="1" res="5.6895607849583030e-04" rms="2.9298904538154602e-01" purity="7.8865271806716919e-01" nType="-99"/>
        <Node pos="r" depth="1" NCoef="0" IVar="0" Cut="1.0285714149475098e+01" cType="1" res="-8.4004001691937447e-03" rms="3.1539523601531982e-01" purity="7.4226254224777222e-01" nType="0">
          <Node pos="l" depth="2" NCoef="0" IVar="-1" Cut="0.0000000000000000e+00" cType="1" res="3.5516673233360052e-04" rms="3.1110173463821411e-01" purity="8.0031102895736694e-01" nType="-99"/>
          <Node pos="r" depth="2" NCoef="0" IVar="-1" Cut="0.0000000000000000e+00" cType="1" res="-2.1285189315676689e-02" rms="3.3490642905235291e-01" purity="3.9212006330490112e-01" nType="-99"/>
        </Node>
      </Node>
    </BinaryTree>
    <BinaryTree type="DecisionTree" boostWeight="1.0000000000000000e+00" itree="829">
      <Node pos="s" depth="0" NCoef="0" IVar="0" Cut="1.7714284896850586e+01" cType="1" res="7.5464064138941467e-05" rms="2.9449599981307983e-01" purity="7.8475266695022583e-01" nType="0">
        <Node pos="l" depth="1" NCoef="0" IVar="-1" Cut="0.0000000000000000e+00" cType="1" res="2.7806183788925409e-04" rms="2.9434689879417419e-01" purity="7.9993379116058350e-01" nType="-99"/>
        <Node pos="r" depth="1" NCoef="0" IVar="21" Cut="5.0170883178710938e+02" cType="0" res="-1.5593213029205799e-02" rms="2.9918727278709412e-01" purity="2.5952449440956116e-01" nType="0">
          <Node pos="l" depth="2" NCoef="0" IVar="-1" Cut="0.0000000000000000e+00" cType="1" res="9.1322049498558044e-02" rms="3.3234241604804993e-01" purity="3.7272727489471436e-01" nType="-99"/>
          <Node pos="r" depth="2" NCoef="0" IVar="-1" Cut="0.0000000000000000e+00" cType="1" res="-9.4338189810514450e-03" rms="2.9580068588256836e-01" purity="2.5584146380424500e-01" nType="-99"/>
        </Node>
      </Node>
    </BinaryTree>
    <BinaryTree type="DecisionTree" boostWeight="1.0000000000000000e+00" itree="830">
      <Node pos="s" depth="0" NCoef="0" IVar="22" Cut="8.1142612304687500e+03" cType="0" res="2.1691386064048856e-04" rms="2.9505610466003418e-01" purity="7.8402936458587646e-01" nType="0">
        <Node pos="l" depth="1" NCoef="0" IVar="-1" Cut="0.0000000000000000e+00" cType="1" res="4.4290594756603241e-02" rms="2.2090390324592590e-01" purity="9.4230771064758301e-01" nType="-99"/>
        <Node pos="r" depth="1" NCoef="0" IVar="22" Cut="-4.1888226318359375e+02" cType="1" res="1.3437093002721667e-04" rms="2.9512786865234375e-01" purity="7.8383159637451172e-01" nType="0">
          <Node pos="l" depth="2" NCoef="0" IVar="-1" Cut="0.0000000000000000e+00" cType="1" res="1.0777105577290058e-02" rms="1.7298625409603119e-01" purity="9.6382164955139160e-01" nType="-99"/>
          <Node pos="r" depth="2" NCoef="0" IVar="-1" Cut="0.0000000000000000e+00" cType="1" res="-3.2810468110255897e-04" rms="3.0503606796264648e-01" purity="7.6509028673171997e-01" nType="-99"/>
        </Node>
      </Node>
    </BinaryTree>
    <BinaryTree type="DecisionTree" boostWeight="1.0000000000000000e+00" itree="831">
      <Node pos="s" depth="0" NCoef="0" IVar="19" Cut="3.4326293750000000e+05" cType="0" res="-9.8700169473886490e-04" rms="2.9551100730895996e-01" purity="7.8296577930450439e-01" nType="0">
        <Node pos="l" depth="1" NCoef="0" IVar="-1" Cut="0.0000000000000000e+00" cType="1" res="9.8279323428869247e-03" rms="3.1870961189270020e-01" purity="8.2173913717269897e-01" nType="-99"/>
        <Node pos="r" depth="1" NCoef="0" IVar="17" Cut="1.1494321875000000e+05" cType="0" res="-1.1885936837643385e-03" rms="2.9527923464775085e-01" purity="7.8260517120361328e-01" nType="0">
          <Node pos="l" depth="2" NCoef="0" IVar="-1" Cut="0.0000000000000000e+00" cType="1" res="6.5140998922288418e-03" rms="2.8644406795501709e-01" purity="8.0552750825881958e-01" nType="-99"/>
          <Node pos="r" depth="2" NCoef="0" IVar="-1" Cut="0.0000000000000000e+00" cType="1" res="-9.0935145271942019e-04" rms="2.9562953114509583e-01" purity="7.8164786100387573e-01" nType="-99"/>
        </Node>
      </Node>
    </BinaryTree>
    <BinaryTree type="DecisionTree" boostWeight="1.0000000000000000e+00" itree="832">
      <Node pos="s" depth="0" NCoef="0" IVar="25" Cut="5.0241274414062500e+03" cType="1" res="6.0789030976593494e-04" rms="2.9446181654930115e-01" purity="7.8571254014968872e-01" nType="0">
        <Node pos="l" depth="1" NCoef="0" IVar="-1" Cut="0.0000000000000000e+00" cType="1" res="1.3624467828776687e-04" rms="2.9392802715301514e-01" purity="7.8718125820159912e-01" nType="-99"/>
        <Node pos="r" depth="1" NCoef="0" IVar="27" Cut="4.8898707031250000e+04" cType="0" res="1.4286928810179234e-02" rms="3.1442317366600037e-01" purity="7.2797930240631104e-01" nType="0">
          <Node pos="l" depth="2" NCoef="0" IVar="-1" Cut="0.0000000000000000e+00" cType="1" res="1.1872382834553719e-02" rms="3.0322000384330750e-01" purity="7.3836570978164673e-01" nType="-99"/>
          <Node pos="r" depth="2" NCoef="0" IVar="-1" Cut="0.0000000000000000e+00" cType="1" res="-3.9896424859762192e-02" rms="3.7537881731987000e-01" purity="6.4902508258819580e-01" nType="-99"/>
        </Node>
      </Node>
    </BinaryTree>
    <BinaryTree type="DecisionTree" boostWeight="1.0000000000000000e+00" itree="833">
      <Node pos="s" depth="0" NCoef="0" IVar="14" Cut="8.2706279296875000e+03" cType="0" res="3.0674206209369004e-04" rms="2.9456463456153870e-01" purity="7.8502094745635986e-01" nType="0">
        <Node pos="l" depth="1" NCoef="0" IVar="-1" Cut="0.0000000000000000e+00" cType="1" res="-1.5069630742073059e-01" rms="2.9360905289649963e-01" purity="8.8505744934082031e-01" nType="-99"/>
        <Node pos="r" depth="1" NCoef="0" IVar="18" Cut="4.0309351682662964e-01" cType="0" res="3.6602016189135611e-04" rms="2.9455679655075073e-01" purity="7.8495091199874878e-01" nType="0">
          <Node pos="l" depth="2" NCoef="0" IVar="-1" Cut="0.0000000000000000e+00" cType="1" res="3.7750396877527237e-02" rms="2.4055609107017517e-01" purity="9.4375002384185791e-01" nType="-99"/>
          <Node pos="r" depth="2" NCoef="0" IVar="-1" Cut="0.0000000000000000e+00" cType="1" res="1.4946048031561077e-04" rms="2.9461169242858887e-01" purity="7.8474617004394531e-01" nType="-99"/>
        </Node>
      </Node>
    </BinaryTree>
    <BinaryTree type="DecisionTree" boostWeight="1.0000000000000000e+00" itree="834">
      <Node pos="s" depth="0" NCoef="0" IVar="0" Cut="1.4000000000000000e+01" cType="1" res="-2.4642163771204650e-04" rms="2.9541218280792236e-01" purity="7.8433740139007568e-01" nType="0">
        <Node pos="l" depth="1" NCoef="0" IVar="-1" Cut="0.0000000000000000e+00" cType="1" res="-7.5325653597246855e-05" rms="2.9300045967102051e-01" purity="8.1136131286621094e-01" nType="-99"/>
        <Node pos="r" depth="1" NCoef="0" IVar="24" Cut="1.8217405319213867e+01" cType="0" res="-2.0432639867067337e-03" rms="3.3401206135749817e-01" purity="3.2160583138465881e-01" nType="0">
          <Node pos="l" depth="2" NCoef="0" IVar="-1" Cut="0.0000000000000000e+00" cType="1" res="1.3646757230162621e-02" rms="3.4563112258911133e-01" purity="3.6166253685951233e-01" nType="-99"/>
          <Node pos="r" depth="2" NCoef="0" IVar="-1" Cut="0.0000000000000000e+00" cType="1" res="-5.1663643680512905e-03" rms="3.2952395081520081e-01" purity="3.0927833914756775e-01" nType="-99"/>
        </Node>
      </Node>
    </BinaryTree>
    <BinaryTree type="DecisionTree" boostWeight="1.0000000000000000e+00" itree="835">
      <Node pos="s" depth="0" NCoef="0" IVar="31" Cut="2.3098530769348145e+00" cType="0" res="7.6757790520787239e-04" rms="2.9422292113304138e-01" purity="7.8501868247985840e-01" nType="0">
        <Node pos="l" depth="1" NCoef="0" IVar="-1" Cut="0.0000000000000000e+00" cType="1" res="1.6132342861965299e-03" rms="2.8513672947883606e-01" purity="8.0220788717269897e-01" nType="-99"/>
        <Node pos="r" depth="1" NCoef="0" IVar="23" Cut="8.3069902343750000e+03" cType="0" res="-2.0038606598973274e-03" rms="3.0537366867065430e-01" purity="7.6314204931259155e-01" nType="0">
          <Node pos="l" depth="2" NCoef="0" IVar="-1" Cut="0.0000000000000000e+00" cType="1" res="7.9257087782025337e-03" rms="2.5418034195899963e-01" purity="8.8496190309524536e-01" nType="-99"/>
          <Node pos="r" depth="2" NCoef="0" IVar="-1" Cut="0.0000000000000000e+00" cType="1" res="-2.3815054446458817e-03" rms="3.1570979952812195e-01" purity="7.3561650514602661e-01" nType="-99"/>
        </Node>
      </Node>
    </BinaryTree>
    <BinaryTree type="DecisionTree" boostWeight="1.0000000000000000e+00" itree="836">
      <Node pos="s" depth="0" NCoef="0" IVar="1" Cut="2.7538886718750000e+03" cType="1" res="-1.4141676365397871e-04" rms="2.9535451531410217e-01" purity="7.8491175174713135e-01" nType="0">
        <Node pos="l" depth="1" NCoef="0" IVar="-1" Cut="0.0000000000000000e+00" cType="1" res="3.0269633862189949e-04" rms="2.9408574104309082e-01" purity="7.8740245103836060e-01" nType="-99"/>
        <Node pos="r" depth="1" NCoef="0" IVar="9" Cut="4.9606521606445312e+02" cType="0" res="-9.0866079553961754e-03" rms="3.1043556332588196e-01" purity="7.5419652462005615e-01" nType="0">
          <Node pos="l" depth="2" NCoef="0" IVar="-1" Cut="0.0000000000000000e+00" cType="1" res="-1.2796202674508095e-02" rms="2.9223999381065369e-01" purity="8.3560091257095337e-01" nType="-99"/>
          <Node pos="r" depth="2" NCoef="0" IVar="-1" Cut="0.0000000000000000e+00" cType="1" res="1.6141319647431374e-02" rms="3.9325729012489319e-01" purity="2.9752650856971741e-01" nType="-99"/>
        </Node>
      </Node>
    </BinaryTree>
    <BinaryTree type="DecisionTree" boostWeight="1.0000000000000000e+00" itree="837">
      <Node pos="s" depth="0" NCoef="0" IVar="2" Cut="1.1903253197669983e-01" cType="1" res="6.4298865618184209e-04" rms="2.9490712285041809e-01" purity="7.8535807132720947e-01" nType="0">
        <Node pos="l" depth="1" NCoef="0" IVar="-1" Cut="0.0000000000000000e+00" cType="1" res="-5.2448542555794120e-04" rms="2.8157255053520203e-01" purity="8.2762664556503296e-01" nType="-99"/>
        <Node pos="r" depth="1" NCoef="0" IVar="13" Cut="2.5364448242187500e+03" cType="0" res="5.3630913607776165e-03" rms="3.3193352818489075e-01" purity="6.5757352113723755e-01" nType="0">
          <Node pos="l" depth="2" NCoef="0" IVar="-1" Cut="0.0000000000000000e+00" cType="1" res="-8.5074815433472395e-04" rms="3.2525646686553955e-01" purity="7.0642966032028198e-01" nType="-99"/>
          <Node pos="r" depth="2" NCoef="0" IVar="-1" Cut="0.0000000000000000e+00" cType="1" res="4.6531329862773418e-03" rms="3.3747598528862000e-01" purity="6.1530607938766479e-01" nType="-99"/>
        </Node>
      </Node>
    </BinaryTree>
    <BinaryTree type="DecisionTree" boostWeight="1.0000000000000000e+00" itree="838">
      <Node pos="s" depth="0" NCoef="0" IVar="1" Cut="2.3031530761718750e+03" cType="1" res="-6.4675102476030588e-04" rms="2.9527187347412109e-01" purity="7.8466475009918213e-01" nType="0">
        <Node pos="l" depth="1" NCoef="0" IVar="-1" Cut="0.0000000000000000e+00" cType="1" res="1.9506861281115562e-04" rms="2.9393455386161804e-01" purity="7.9514241218566895e-01" nType="-99"/>
        <Node pos="r" depth="1" NCoef="0" IVar="9" Cut="4.8389053344726562e+02" cType="0" res="-6.1116819269955158e-03" rms="3.0224525928497314e-01" purity="7.2878777980804443e-01" nType="0">
          <Node pos="l" depth="2" NCoef="0" IVar="-1" Cut="0.0000000000000000e+00" cType="1" res="-1.0699832811951637e-02" rms="2.7222189307212830e-01" purity="8.3491647243499756e-01" nType="-99"/>
          <Node pos="r" depth="2" NCoef="0" IVar="-1" Cut="0.0000000000000000e+00" cType="1" res="9.4327684491872787e-03" rms="3.8565009832382202e-01" purity="3.6684539914131165e-01" nType="-99"/>
        </Node>
      </Node>
    </BinaryTree>
    <BinaryTree type="DecisionTree" boostWeight="1.0000000000000000e+00" itree="839">
      <Node pos="s" depth="0" NCoef="0" IVar="27" Cut="4.7760518750000000e+05" cType="1" res="-1.5910054789856076e-03" rms="2.9669427871704102e-01" purity="7.8380072116851807e-01" nType="0">
        <Node pos="l" depth="1" NCoef="0" IVar="19" Cut="3.8967562500000000e+05" cType="0" res="-1.5474389074370265e-03" rms="2.9668560624122620e-01" purity="7.8383684158325195e-01" nType="0">
          <Node pos="l" depth="2" NCoef="0" IVar="-1" Cut="0.0000000000000000e+00" cType="1" res="1.4631407335400581e-02" rms="2.9020389914512634e-01" purity="8.2529115676879883e-01" nType="-99"/>
          <Node pos="r" depth="2" NCoef="0" IVar="-1" Cut="0.0000000000000000e+00" cType="1" res="-8.9009205112233758e-04" rms="2.9670849442481995e-01" purity="7.8363531827926636e-01" nType="-99"/>
        </Node>
        <Node pos="r" depth="1" NCoef="0" IVar="-1" Cut="0.0000000000000000e+00" cType="1" res="-5.1354244351387024e-02" rms="2.9562205076217651e-01" purity="6.8181818723678589e-01" nType="-99"/>
      </Node>
    </BinaryTree>
    <BinaryTree type="DecisionTree" boostWeight="1.0000000000000000e+00" itree="840">
      <Node pos="s" depth="0" NCoef="0" IVar="3" Cut="4.6986040039062500e+03" cType="1" res="-2.6099788374267519e-04" rms="2.9556661844253540e-01" purity="7.8417295217514038e-01" nType="0">
        <Node pos="l" depth="1" NCoef="0" IVar="-1" Cut="0.0000000000000000e+00" cType="1" res="3.1283951830118895e-04" rms="2.9320657253265381e-01" purity="7.9088175296783447e-01" nType="-99"/>
        <Node pos="r" depth="1" NCoef="0" IVar="7" Cut="3.1533105468750000e+03" cType="0" res="-6.4842919819056988e-03" rms="3.1221294403076172e-01" purity="7.3511308431625366e-01" nType="0">
          <Node pos="l" depth="2" NCoef="0" IVar="-1" Cut="0.0000000000000000e+00" cType="1" res="3.1770823989063501e-03" rms="2.9685544967651367e-01" purity="8.0538231134414673e-01" nType="-99"/>
          <Node pos="r" depth="2" NCoef="0" IVar="-1" Cut="0.0000000000000000e+00" cType="1" res="-1.6798458993434906e-02" rms="3.5170581936836243e-01" purity="5.2336198091506958e-01" nType="-99"/>
        </Node>
      </Node>
    </BinaryTree>
    <BinaryTree type="DecisionTree" boostWeight="1.0000000000000000e+00" itree="841">
      <Node pos="s" depth="0" NCoef="0" IVar="0" Cut="1.5857142448425293e+01" cType="1" res="-4.5802798922522925e-06" rms="2.9462674260139465e-01" purity="7.8524047136306763e-01" nType="0">
        <Node pos="l" depth="1" NCoef="0" IVar="-1" Cut="0.0000000000000000e+00" cType="1" res="-2.7777467039413750e-04" rms="2.9279714822769165e-01" purity="8.0673861503601074e-01" nType="-99"/>
        <Node pos="r" depth="1" NCoef="0" IVar="0" Cut="1.8285715103149414e+01" cType="1" res="1.1073005385696888e-02" rms="3.3112892508506775e-01" purity="3.2577800750732422e-01" nType="0">
          <Node pos="l" depth="2" NCoef="0" IVar="-1" Cut="0.0000000000000000e+00" cType="1" res="1.3254968449473381e-02" rms="3.7162870168685913e-01" purity="4.1293901205062866e-01" nType="-99"/>
          <Node pos="r" depth="2" NCoef="0" IVar="-1" Cut="0.0000000000000000e+00" cType="1" res="-6.8384641781449318e-03" rms="2.8507351875305176e-01" purity="2.4316748976707458e-01" nType="-99"/>
        </Node>
      </Node>
    </BinaryTree>
    <BinaryTree type="DecisionTree" boostWeight="1.0000000000000000e+00" itree="842">
      <Node pos="s" depth="0" NCoef="0" IVar="17" Cut="1.2575597656250000e+05" cType="0" res="-1.8613528227433562e-03" rms="2.9582864046096802e-01" purity="7.8318053483963013e-01" nType="0">
        <Node pos="l" depth="1" NCoef="0" IVar="-1" Cut="0.0000000000000000e+00" cType="1" res="5.6415861472487450e-03" rms="2.8156965970993042e-01" purity="7.9576468467712402e-01" nType="-99"/>
        <Node pos="r" depth="1" NCoef="0" IVar="17" Cut="1.1982721093750000e+05" cType="0" res="-2.2978759370744228e-03" rms="2.9631075263023376e-01" purity="7.8273564577102661e-01" nType="0">
          <Node pos="l" depth="2" NCoef="0" IVar="-1" Cut="0.0000000000000000e+00" cType="1" res="2.4293350055813789e-02" rms="2.9260805249214172e-01" purity="8.4626233577728271e-01" nType="-99"/>
          <Node pos="r" depth="2" NCoef="0" IVar="-1" Cut="0.0000000000000000e+00" cType="1" res="-1.3420161558315158e-03" rms="2.9631105065345764e-01" purity="7.8235876560211182e-01" nType="-99"/>
        </Node>
      </Node>
    </BinaryTree>
    <BinaryTree type="DecisionTree" boostWeight="1.0000000000000000e+00" itree="843">
      <Node pos="s" depth="0" NCoef="0" IVar="35" Cut="2.2061904907226562e+02" cType="1" res="3.1006644712761045e-04" rms="2.9448345303535461e-01" purity="7.8492003679275513e-01" nType="0">
        <Node pos="l" depth="1" NCoef="0" IVar="-1" Cut="0.0000000000000000e+00" cType="1" res="-1.0418052552267909e-03" rms="2.9461291432380676e-01" purity="7.8881561756134033e-01" nType="-99"/>
        <Node pos="r" depth="1" NCoef="0" IVar="0" Cut="1.1047618865966797e+01" cType="1" res="2.7449792250990868e-03" rms="2.9432553052902222e-01" purity="7.8075659275054932e-01" nType="0">
          <Node pos="l" depth="2" NCoef="0" IVar="-1" Cut="0.0000000000000000e+00" cType="1" res="2.3398802150040865e-03" rms="2.8574761748313904e-01" purity="8.3576595783233643e-01" nType="-99"/>
          <Node pos="r" depth="2" NCoef="0" IVar="-1" Cut="0.0000000000000000e+00" cType="1" res="-2.7835613582283258e-03" rms="3.4864392876625061e-01" purity="3.9323440194129944e-01" nType="-99"/>
        </Node>
      </Node>
    </BinaryTree>
    <BinaryTree type="DecisionTree" boostWeight="1.0000000000000000e+00" itree="844">
      <Node pos="s" depth="0" NCoef="0" IVar="0" Cut="1.4000000000000000e+01" cType="1" res="8.8851718464866281e-04" rms="2.9493403434753418e-01" purity="7.8606545925140381e-01" nType="0">
        <Node pos="l" depth="1" NCoef="0" IVar="-1" Cut="0.0000000000000000e+00" cType="1" res="4.3065904174000025e-04" rms="2.9236584901809692e-01" purity="8.1276667118072510e-01" nType="-99"/>
        <Node pos="r" depth="1" NCoef="0" IVar="25" Cut="4.1843139648437500e+03" cType="0" res="2.2809710353612900e-03" rms="3.3599737286567688e-01" purity="3.2738444209098816e-01" nType="0">
          <Node pos="l" depth="2" NCoef="0" IVar="-1" Cut="0.0000000000000000e+00" cType="1" res="1.7075164243578911e-02" rms="3.1294813752174377e-01" purity="5.1878708600997925e-01" nType="-99"/>
          <Node pos="r" depth="2" NCoef="0" IVar="-1" Cut="0.0000000000000000e+00" cType="1" res="-4.0254029445350170e-03" rms="3.4123805165290833e-01" purity="2.7279564738273621e-01" nType="-99"/>
        </Node>
      </Node>
    </BinaryTree>
    <BinaryTree type="DecisionTree" boostWeight="1.0000000000000000e+00" itree="845">
      <Node pos="s" depth="0" NCoef="0" IVar="9" Cut="8.4829193115234375e+02" cType="0" res="-1.2201293429825455e-04" rms="2.9530596733093262e-01" purity="7.8440439701080322e-01" nType="0">
        <Node pos="l" depth="1" NCoef="0" IVar="-1" Cut="0.0000000000000000e+00" cType="1" res="4.9544749781489372e-03" rms="2.3447345197200775e-01" purity="9.2950934171676636e-01" nType="-99"/>
        <Node pos="r" depth="1" NCoef="0" IVar="1" Cut="2.7773076171875000e+03" cType="1" res="-1.2023854069411755e-03" rms="3.0482250452041626e-01" purity="7.5865519046783447e-01" nType="0">
          <Node pos="l" depth="2" NCoef="0" IVar="-1" Cut="0.0000000000000000e+00" cType="1" res="-1.0428820969536901e-03" rms="3.0256474018096924e-01" purity="7.6767450571060181e-01" nType="-99"/>
          <Node pos="r" depth="2" NCoef="0" IVar="-1" Cut="0.0000000000000000e+00" cType="1" res="1.6062268987298012e-02" rms="4.0006220340728760e-01" purity="3.0286824703216553e-01" nType="-99"/>
        </Node>
      </Node>
    </BinaryTree>
    <BinaryTree type="DecisionTree" boostWeight="1.0000000000000000e+00" itree="846">
      <Node pos="s" depth="0" NCoef="0" IVar="11" Cut="8.3333721160888672e+00" cType="1" res="-1.4030038437340409e-04" rms="2.9564180970191956e-01" purity="7.8455829620361328e-01" nType="0">
        <Node pos="l" depth="1" NCoef="0" IVar="-1" Cut="0.0000000000000000e+00" cType="1" res="2.1379739046096802e-03" rms="2.7419778704643250e-01" purity="8.5206305980682373e-01" nType="-99"/>
        <Node pos="r" depth="1" NCoef="0" IVar="1" Cut="1.9284299316406250e+03" cType="1" res="-1.6779655124992132e-03" rms="3.0404150485992432e-01" purity="7.5668698549270630e-01" nType="0">
          <Node pos="l" depth="2" NCoef="0" IVar="-1" Cut="0.0000000000000000e+00" cType="1" res="3.3566416823305190e-04" rms="3.0227079987525940e-01" purity="7.7724868059158325e-01" nType="-99"/>
          <Node pos="r" depth="2" NCoef="0" IVar="-1" Cut="0.0000000000000000e+00" cType="1" res="-3.6546541377902031e-03" rms="3.0808630585670471e-01" purity="7.0842963457107544e-01" nType="-99"/>
        </Node>
      </Node>
    </BinaryTree>
    <BinaryTree type="DecisionTree" boostWeight="1.0000000000000000e+00" itree="847">
      <Node pos="s" depth="0" NCoef="0" IVar="3" Cut="8.2352958984375000e+03" cType="1" res="-1.8985499627888203e-04" rms="2.9513528943061829e-01" purity="7.8463482856750488e-01" nType="0">
        <Node pos="l" depth="1" NCoef="0" IVar="-1" Cut="0.0000000000000000e+00" cType="1" res="-2.1612567070405930e-04" rms="2.9517066478729248e-01" purity="7.8518313169479370e-01" nType="-99"/>
        <Node pos="r" depth="1" NCoef="0" IVar="3" Cut="9.1363828125000000e+03" cType="1" res="2.8862996026873589e-02" rms="2.8903707861900330e-01" purity="7.1338248252868652e-01" nType="0">
          <Node pos="l" depth="2" NCoef="0" IVar="-1" Cut="0.0000000000000000e+00" cType="1" res="3.5075377672910690e-02" rms="2.5786554813385010e-01" purity="7.5741237401962280e-01" nType="-99"/>
          <Node pos="r" depth="2" NCoef="0" IVar="-1" Cut="0.0000000000000000e+00" cType="1" res="-4.1226479224860668e-03" rms="3.0129024386405945e-01" purity="6.8512111902236938e-01" nType="-99"/>
        </Node>
      </Node>
    </BinaryTree>
    <BinaryTree type="DecisionTree" boostWeight="1.0000000000000000e+00" itree="848">
      <Node pos="s" depth="0" NCoef="0" IVar="31" Cut="2.2443437576293945e+01" cType="0" res="-4.0885948692448437e-04" rms="2.9620513319969177e-01" purity="7.8391104936599731e-01" nType="0">
        <Node pos="l" depth="1" NCoef="0" IVar="-1" Cut="0.0000000000000000e+00" cType="1" res="3.4187205135822296e-02" rms="2.0929729938507080e-01" purity="9.2893403768539429e-01" nType="-99"/>
        <Node pos="r" depth="1" NCoef="0" IVar="31" Cut="1.0781885385513306e+00" cType="0" res="-4.8949127085506916e-04" rms="2.9631534218788147e-01" purity="7.8368186950683594e-01" nType="0">
          <Node pos="l" depth="2" NCoef="0" IVar="-1" Cut="0.0000000000000000e+00" cType="1" res="3.6483604344539344e-04" rms="2.9358890652656555e-01" purity="7.9102861881256104e-01" nType="-99"/>
          <Node pos="r" depth="2" NCoef="0" IVar="-1" Cut="0.0000000000000000e+00" cType="1" res="-2.9789244290441275e-03" rms="3.0910319089889526e-01" purity="7.4813842773437500e-01" nType="-99"/>
        </Node>
      </Node>
    </BinaryTree>
    <BinaryTree type="DecisionTree" boostWeight="1.0000000000000000e+00" itree="849">
      <Node pos="s" depth="0" NCoef="0" IVar="19" Cut="4.7653593750000000e+05" cType="1" res="3.9331204607151449e-04" rms="2.9489850997924805e-01" purity="7.8466963768005371e-01" nType="0">
        <Node pos="l" depth="1" NCoef="0" IVar="-1" Cut="0.0000000000000000e+00" cType="1" res="2.5532435392960906e-04" rms="2.9485285282135010e-01" purity="7.8468024730682373e-01" nType="-99"/>
        <Node pos="r" depth="1" NCoef="0" IVar="1" Cut="1.8481252441406250e+03" cType="1" res="-4.9727164208889008e-02" rms="3.1370499730110168e-01" purity="7.7916663885116577e-01" nType="0">
          <Node pos="l" depth="2" NCoef="0" IVar="-1" Cut="0.0000000000000000e+00" cType="1" res="8.4352605044841766e-03" rms="2.0928688347339630e-01" purity="8.8028168678283691e-01" nType="-99"/>
          <Node pos="r" depth="2" NCoef="0" IVar="-1" Cut="0.0000000000000000e+00" cType="1" res="-6.5519630908966064e-02" rms="4.0393051505088806e-01" purity="6.3265305757522583e-01" nType="-99"/>
        </Node>
      </Node>
    </BinaryTree>
    <BinaryTree type="DecisionTree" boostWeight="1.0000000000000000e+00" itree="850">
      <Node pos="s" depth="0" NCoef="0" IVar="0" Cut="1.4000000000000000e+01" cType="1" res="8.7427446851506829e-04" rms="2.9451894760131836e-01" purity="7.8611934185028076e-01" nType="0">
        <Node pos="l" depth="1" NCoef="0" IVar="-1" Cut="0.0000000000000000e+00" cType="1" res="4.4941686792299151e-04" rms="2.9196289181709290e-01" purity="8.1283849477767944e-01" nType="-99"/>
        <Node pos="r" depth="1" NCoef="0" IVar="25" Cut="4.1843139648437500e+03" cType="0" res="1.4248485676944256e-03" rms="3.3544147014617920e-01" purity="3.2662877440452576e-01" nType="0">
          <Node pos="l" depth="2" NCoef="0" IVar="-1" Cut="0.0000000000000000e+00" cType="1" res="1.5586524270474911e-02" rms="3.1230273842811584e-01" purity="5.2478754520416260e-01" nType="-99"/>
          <Node pos="r" depth="2" NCoef="0" IVar="-1" Cut="0.0000000000000000e+00" cType="1" res="-3.6835719365626574e-03" rms="3.4034523367881775e-01" purity="2.7527987957000732e-01" nType="-99"/>
        </Node>
      </Node>
    </BinaryTree>
    <BinaryTree type="DecisionTree" boostWeight="1.0000000000000000e+00" itree="851">
      <Node pos="s" depth="0" NCoef="0" IVar="10" Cut="5.0638337135314941e+00" cType="0" res="4.9672264140099287e-04" rms="2.9407691955566406e-01" purity="7.8597748279571533e-01" nType="0">
        <Node pos="l" depth="1" NCoef="0" IVar="-1" Cut="0.0000000000000000e+00" cType="1" res="7.1597779169678688e-03" rms="2.1517316997051239e-01" purity="9.3083542585372925e-01" nType="-99"/>
        <Node pos="r" depth="1" NCoef="0" IVar="5" Cut="2.8174350261688232e+00" cType="0" res="-1.4619584544561803e-04" rms="2.9966029524803162e-01" purity="7.7400696277618408e-01" nType="0">
          <Node pos="l" depth="2" NCoef="0" IVar="-1" Cut="0.0000000000000000e+00" cType="1" res="1.9872464239597321e-02" rms="1.8981823325157166e-01" purity="9.5241427421569824e-01" nType="-99"/>
          <Node pos="r" depth="2" NCoef="0" IVar="-1" Cut="0.0000000000000000e+00" cType="1" res="-2.0679416775237769e-04" rms="3.0077457427978516e-01" purity="7.7176803350448608e-01" nType="-99"/>
        </Node>
      </Node>
    </BinaryTree>
    <BinaryTree type="DecisionTree" boostWeight="1.0000000000000000e+00" itree="852">
      <Node pos="s" depth="0" NCoef="0" IVar="13" Cut="1.1833007812500000e+04" cType="0" res="3.5254241083748639e-04" rms="2.9411482810974121e-01" purity="7.8499841690063477e-01" nType="0">
        <Node pos="l" depth="1" NCoef="0" IVar="-1" Cut="0.0000000000000000e+00" cType="1" res="-3.4054279327392578e-02" rms="2.4669073522090912e-01" purity="8.8559323549270630e-01" nType="-99"/>
        <Node pos="r" depth="1" NCoef="0" IVar="13" Cut="3.0078784179687500e+03" cType="0" res="4.7965746489353478e-04" rms="2.9427328705787659e-01" purity="7.8461599349975586e-01" nType="0">
          <Node pos="l" depth="2" NCoef="0" IVar="-1" Cut="0.0000000000000000e+00" cType="1" res="3.0279047787189484e-03" rms="2.7529433369636536e-01" purity="8.3333331346511841e-01" nType="-99"/>
          <Node pos="r" depth="2" NCoef="0" IVar="-1" Cut="0.0000000000000000e+00" cType="1" res="-9.5449172658845782e-04" rms="3.0357235670089722e-01" purity="7.5948375463485718e-01" nType="-99"/>
        </Node>
      </Node>
    </BinaryTree>
    <BinaryTree type="DecisionTree" boostWeight="1.0000000000000000e+00" itree="853">
      <Node pos="s" depth="0" NCoef="0" IVar="2" Cut="3.3329108357429504e-01" cType="1" res="3.1278029200620949e-04" rms="2.9462289810180664e-01" purity="7.8534001111984253e-01" nType="0">
        <Node pos="l" depth="1" NCoef="0" IVar="-1" Cut="0.0000000000000000e+00" cType="1" res="6.4810283947736025e-04" rms="2.9067283868789673e-01" purity="8.0123227834701538e-01" nType="-99"/>
        <Node pos="r" depth="1" NCoef="0" IVar="27" Cut="2.5618679687500000e+05" cType="0" res="-1.0945118032395840e-02" rms="3.3988255262374878e-01" purity="5.8699643611907959e-01" nType="0">
          <Node pos="l" depth="2" NCoef="0" IVar="-1" Cut="0.0000000000000000e+00" cType="1" res="4.7778550535440445e-02" rms="2.9446125030517578e-01" purity="8.7058824300765991e-01" nType="-99"/>
          <Node pos="r" depth="2" NCoef="0" IVar="-1" Cut="0.0000000000000000e+00" cType="1" res="-4.9281041137874126e-03" rms="3.4001576900482178e-01" purity="5.8436888456344604e-01" nType="-99"/>
        </Node>
      </Node>
    </BinaryTree>
    <BinaryTree type="DecisionTree" boostWeight="1.0000000000000000e+00" itree="854">
      <Node pos="s" depth="0" NCoef="0" IVar="17" Cut="1.2575597656250000e+05" cType="0" res="8.7920221267268062e-04" rms="2.9439488053321838e-01" purity="7.8655350208282471e-01" nType="0">
        <Node pos="l" depth="1" NCoef="0" IVar="-1" Cut="0.0000000000000000e+00" cType="1" res="7.2578317485749722e-03" rms="2.7788689732551575e-01" purity="8.1466019153594971e-01" nType="-99"/>
        <Node pos="r" depth="1" NCoef="0" IVar="17" Cut="1.9093115234375000e+04" cType="1" res="4.3577793985605240e-04" rms="2.9495844244956970e-01" purity="7.8554838895797729e-01" nType="0">
          <Node pos="l" depth="2" NCoef="0" IVar="-1" Cut="0.0000000000000000e+00" cType="1" res="-4.1119749657809734e-03" rms="2.8100320696830750e-01" purity="8.3944147825241089e-01" nType="-99"/>
          <Node pos="r" depth="2" NCoef="0" IVar="-1" Cut="0.0000000000000000e+00" cType="1" res="9.9589547608047724e-04" rms="2.9788839817047119e-01" purity="7.7381360530853271e-01" nType="-99"/>
        </Node>
      </Node>
    </BinaryTree>
    <BinaryTree type="DecisionTree" boostWeight="1.0000000000000000e+00" itree="855">
      <Node pos="s" depth="0" NCoef="0" IVar="32" Cut="5.9375619888305664e+00" cType="0" res="-6.0137681430205703e-04" rms="2.9456630349159241e-01" purity="7.8449434041976929e-01" nType="0">
        <Node pos="l" depth="1" NCoef="0" IVar="-1" Cut="0.0000000000000000e+00" cType="1" res="-2.5967780500650406e-02" rms="2.9391193389892578e-01" purity="8.4332686662673950e-01" nType="-99"/>
        <Node pos="r" depth="1" NCoef="0" IVar="5" Cut="-7.8583574295043945e-01" cType="0" res="-4.4182428973726928e-04" rms="2.9455858469009399e-01" purity="7.8424966335296631e-01" nType="0">
          <Node pos="l" depth="2" NCoef="0" IVar="-1" Cut="0.0000000000000000e+00" cType="1" res="3.3518666168674827e-04" rms="2.9191794991493225e-01" purity="7.9931539297103882e-01" nType="-99"/>
          <Node pos="r" depth="2" NCoef="0" IVar="-1" Cut="0.0000000000000000e+00" cType="1" res="-4.9217934720218182e-03" rms="3.2110974192619324e-01" purity="6.2385237216949463e-01" nType="-99"/>
        </Node>
      </Node>
    </BinaryTree>
    <BinaryTree type="DecisionTree" boostWeight="1.0000000000000000e+00" itree="856">
      <Node pos="s" depth="0" NCoef="0" IVar="34" Cut="9.0476256608963013e-01" cType="0" res="6.4360897522419691e-04" rms="2.9362937808036804e-01" purity="7.8555721044540405e-01" nType="0">
        <Node pos="l" depth="1" NCoef="0" IVar="-1" Cut="0.0000000000000000e+00" cType="1" res="2.9877177439630032e-04" rms="2.9364520311355591e-01" purity="7.8563851118087769e-01" nType="-99"/>
        <Node pos="r" depth="1" NCoef="0" IVar="25" Cut="2.3954614257812500e+03" cType="0" res="6.9909714162349701e-02" rms="2.6931369304656982e-01" purity="7.0769232511520386e-01" nType="0">
          <Node pos="l" depth="2" NCoef="0" IVar="-1" Cut="0.0000000000000000e+00" cType="1" res="7.3223136365413666e-02" rms="1.7186449468135834e-01" purity="9.5121949911117554e-01" nType="-99"/>
          <Node pos="r" depth="2" NCoef="0" IVar="-1" Cut="0.0000000000000000e+00" cType="1" res="1.2819723226130009e-02" rms="2.9657787084579468e-01" purity="5.9550559520721436e-01" nType="-99"/>
        </Node>
      </Node>
    </BinaryTree>
    <BinaryTree type="DecisionTree" boostWeight="1.0000000000000000e+00" itree="857">
      <Node pos="s" depth="0" NCoef="0" IVar="23" Cut="1.0667191406250000e+04" cType="0" res="-3.2166804885491729e-04" rms="2.9493772983551025e-01" purity="7.8503924608230591e-01" nType="0">
        <Node pos="l" depth="1" NCoef="0" IVar="-1" Cut="0.0000000000000000e+00" cType="1" res="-6.3426648266613483e-03" rms="2.6250326633453369e-01" purity="8.8063633441925049e-01" nType="-99"/>
        <Node pos="r" depth="1" NCoef="0" IVar="7" Cut="5.1314074707031250e+02" cType="0" res="4.8684005741961300e-04" rms="2.9787451028823853e-01" purity="7.7579492330551147e-01" nType="0">
          <Node pos="l" depth="2" NCoef="0" IVar="-1" Cut="0.0000000000000000e+00" cType="1" res="5.8784917928278446e-04" rms="2.9684051871299744e-01" purity="7.8343260288238525e-01" nType="-99"/>
          <Node pos="r" depth="2" NCoef="0" IVar="-1" Cut="0.0000000000000000e+00" cType="1" res="-1.0017605498433113e-02" rms="3.3192902803421021e-01" purity="5.0226539373397827e-01" nType="-99"/>
        </Node>
      </Node>
    </BinaryTree>
    <BinaryTree type="DecisionTree" boostWeight="1.0000000000000000e+00" itree="858">
      <Node pos="s" depth="0" NCoef="0" IVar="3" Cut="3.2201086425781250e+03" cType="0" res="7.3362130206078291e-04" rms="2.9376402497291565e-01" purity="7.8592270612716675e-01" nType="0">
        <Node pos="l" depth="1" NCoef="0" IVar="-1" Cut="0.0000000000000000e+00" cType="1" res="-6.0105306329205632e-04" rms="2.9169595241546631e-01" purity="7.9139465093612671e-01" nType="-99"/>
        <Node pos="r" depth="1" NCoef="0" IVar="9" Cut="3.4943902587890625e+02" cType="0" res="3.8218318950384855e-03" rms="2.9716980457305908e-01" purity="7.7675813436508179e-01" nType="0">
          <Node pos="l" depth="2" NCoef="0" IVar="-1" Cut="0.0000000000000000e+00" cType="1" res="-3.6329729482531548e-03" rms="2.9262757301330566e-01" purity="8.3045029640197754e-01" nType="-99"/>
          <Node pos="r" depth="2" NCoef="0" IVar="-1" Cut="0.0000000000000000e+00" cType="1" res="6.3946042209863663e-03" rms="3.0107569694519043e-01" purity="7.2576397657394409e-01" nType="-99"/>
        </Node>
      </Node>
    </BinaryTree>
    <BinaryTree type="DecisionTree" boostWeight="1.0000000000000000e+00" itree="859">
      <Node pos="s" depth="0" NCoef="0" IVar="9" Cut="4.9940457153320312e+02" cType="0" res="-4.1514518670737743e-05" rms="2.9516744613647461e-01" purity="7.8511363267898560e-01" nType="0">
        <Node pos="l" depth="1" NCoef="0" IVar="-1" Cut="0.0000000000000000e+00" cType="1" res="1.9739477429538965e-03" rms="2.6189354062080383e-01" purity="8.8051801919937134e-01" nType="-99"/>
        <Node pos="r" depth="1" NCoef="0" IVar="1" Cut="1.7359093017578125e+03" cType="1" res="-1.7826328985393047e-03" rms="3.1249484419822693e-01" purity="7.3087573051452637e-01" nType="0">
          <Node pos="l" depth="2" NCoef="0" IVar="-1" Cut="0.0000000000000000e+00" cType="1" res="2.3563525173813105e-03" rms="2.9534247517585754e-01" purity="7.8327244520187378e-01" nType="-99"/>
          <Node pos="r" depth="2" NCoef="0" IVar="-1" Cut="0.0000000000000000e+00" cType="1" res="-8.5848774760961533e-03" rms="3.6114335060119629e-01" purity="5.6336170434951782e-01" nType="-99"/>
        </Node>
      </Node>
    </BinaryTree>
    <BinaryTree type="DecisionTree" boostWeight="1.0000000000000000e+00" itree="860">
      <Node pos="s" depth="0" NCoef="0" IVar="23" Cut="2.1878569335937500e+03" cType="0" res="-9.9776982096955180e-05" rms="2.9567217826843262e-01" purity="7.8480809926986694e-01" nType="0">
        <Node pos="l" depth="1" NCoef="0" IVar="-1" Cut="0.0000000000000000e+00" cType="1" res="-4.8275102744810283e-04" rms="2.9478418827056885e-01" purity="7.8795254230499268e-01" nType="-99"/>
        <Node pos="r" depth="1" NCoef="0" IVar="1" Cut="1.7787460937500000e+03" cType="1" res="1.2492262758314610e-02" rms="3.0867817997932434e-01" purity="7.3665618896484375e-01" nType="0">
          <Node pos="l" depth="2" NCoef="0" IVar="-1" Cut="0.0000000000000000e+00" cType="1" res="1.9867654889822006e-02" rms="3.1483277678489685e-01" purity="8.1985062360763550e-01" nType="-99"/>
          <Node pos="r" depth="2" NCoef="0" IVar="-1" Cut="0.0000000000000000e+00" cType="1" res="-5.2892086096107960e-03" rms="3.0215930938720703e-01" purity="6.7629796266555786e-01" nType="-99"/>
        </Node>
      </Node>
    </BinaryTree>
    <BinaryTree type="DecisionTree" boostWeight="1.0000000000000000e+00" itree="861">
      <Node pos="s" depth="0" NCoef="0" IVar="9" Cut="4.9940457153320312e+02" cType="0" res="-7.7210734161781147e-06" rms="2.9454371333122253e-01" purity="7.8462487459182739e-01" nType="0">
        <Node pos="l" depth="1" NCoef="0" IVar="-1" Cut="0.0000000000000000e+00" cType="1" res="2.0261199679225683e-03" rms="2.5980016589164734e-01" purity="8.8142067193984985e-01" nType="-99"/>
        <Node pos="r" depth="1" NCoef="0" IVar="1" Cut="2.1992963867187500e+03" cType="1" res="-1.7537785461172462e-03" rms="3.1248798966407776e-01" purity="7.2983807325363159e-01" nType="0">
          <Node pos="l" depth="2" NCoef="0" IVar="-1" Cut="0.0000000000000000e+00" cType="1" res="-2.1971780806779861e-03" rms="3.0608731508255005e-01" purity="7.5633120536804199e-01" nType="-99"/>
          <Node pos="r" depth="2" NCoef="0" IVar="-1" Cut="0.0000000000000000e+00" cType="1" res="1.1110349558293819e-02" rms="3.8084721565246582e-01" purity="4.0424111485481262e-01" nType="-99"/>
        </Node>
      </Node>
    </BinaryTree>
    <BinaryTree type="DecisionTree" boostWeight="1.0000000000000000e+00" itree="862">
      <Node pos="s" depth="0" NCoef="0" IVar="0" Cut="2.8571429252624512e+00" cType="1" res="-4.0360813727602363e-04" rms="2.9499229788780212e-01" purity="7.8491163253784180e-01" nType="0">
        <Node pos="l" depth="1" NCoef="0" IVar="-1" Cut="0.0000000000000000e+00" cType="1" res="7.8982124105095863e-03" rms="2.2752369940280914e-01" purity="9.2596793174743652e-01" nType="-99"/>
        <Node pos="r" depth="1" NCoef="0" IVar="9" Cut="6.5222729492187500e+02" cType="0" res="-9.3837495660409331e-04" rms="2.9807442426681519e-01" purity="7.7757459878921509e-01" nType="0">
          <Node pos="l" depth="2" NCoef="0" IVar="-1" Cut="0.0000000000000000e+00" cType="1" res="4.0272292681038380e-03" rms="2.6091092824935913e-01" purity="8.9755594730377197e-01" nType="-99"/>
          <Node pos="r" depth="2" NCoef="0" IVar="-1" Cut="0.0000000000000000e+00" cType="1" res="-1.3883350184187293e-03" rms="3.0779260396957397e-01" purity="7.4346929788589478e-01" nType="-99"/>
        </Node>
      </Node>
    </BinaryTree>
    <BinaryTree type="DecisionTree" boostWeight="1.0000000000000000e+00" itree="863">
      <Node pos="s" depth="0" NCoef="0" IVar="2" Cut="4.7613012790679932e-01" cType="1" res="1.9241230620536953e-04" rms="2.9435268044471741e-01" purity="7.8463691473007202e-01" nType="0">
        <Node pos="l" depth="1" NCoef="0" IVar="-1" Cut="0.0000000000000000e+00" cType="1" res="2.1279217617120594e-04" rms="2.9383188486099243e-01" purity="7.8634214401245117e-01" nType="-99"/>
        <Node pos="r" depth="1" NCoef="0" IVar="26" Cut="4.2224550781250000e+03" cType="0" res="-2.7699908241629601e-02" rms="3.5478457808494568e-01" purity="5.6190478801727295e-01" nType="0">
          <Node pos="l" depth="2" NCoef="0" IVar="-1" Cut="0.0000000000000000e+00" cType="1" res="6.5748319029808044e-03" rms="3.5812479257583618e-01" purity="6.4154410362243652e-01" nType="-99"/>
          <Node pos="r" depth="2" NCoef="0" IVar="-1" Cut="0.0000000000000000e+00" cType="1" res="-3.8095176219940186e-02" rms="3.4119433164596558e-01" purity="4.5386534929275513e-01" nType="-99"/>
        </Node>
      </Node>
    </BinaryTree>
    <BinaryTree type="DecisionTree" boostWeight="1.0000000000000000e+00" itree="864">
      <Node pos="s" depth="0" NCoef="0" IVar="0" Cut="4.7142858505249023e+00" cType="1" res="5.6744733592495322e-04" rms="2.9331642389297485e-01" purity="7.8587478399276733e-01" nType="0">
        <Node pos="l" depth="1" NCoef="0" IVar="-1" Cut="0.0000000000000000e+00" cType="1" res="3.1859495211392641e-03" rms="2.3418104648590088e-01" purity="9.2026734352111816e-01" nType="-99"/>
        <Node pos="r" depth="1" NCoef="0" IVar="9" Cut="2.1282218933105469e+02" cType="0" res="-9.2158769257366657e-04" rms="3.1602638959884644e-01" purity="7.2622454166412354e-01" nType="0">
          <Node pos="l" depth="2" NCoef="0" IVar="-1" Cut="0.0000000000000000e+00" cType="1" res="9.5406139735132456e-04" rms="3.0590161681175232e-01" purity="7.6106357574462891e-01" nType="-99"/>
          <Node pos="r" depth="2" NCoef="0" IVar="-1" Cut="0.0000000000000000e+00" cType="1" res="-4.9200430512428284e-03" rms="3.5511553287506104e-01" purity="5.8004695177078247e-01" nType="-99"/>
        </Node>
      </Node>
    </BinaryTree>
    <BinaryTree type="DecisionTree" boostWeight="1.0000000000000000e+00" itree="865">
      <Node pos="s" depth="0" NCoef="0" IVar="19" Cut="4.7698240625000000e+05" cType="1" res="1.3748684432357550e-03" rms="2.9303973913192749e-01" purity="7.8598964214324951e-01" nType="0">
        <Node pos="l" depth="1" NCoef="0" IVar="-1" Cut="0.0000000000000000e+00" cType="1" res="7.7329151099547744e-04" rms="2.9296505451202393e-01" purity="7.8601318597793579e-01" nType="-99"/>
        <Node pos="r" depth="1" NCoef="0" IVar="29" Cut="2.3215506076812744e+00" cType="0" res="-4.8788029700517654e-02" rms="3.2446059584617615e-01" purity="7.7419352531433105e-01" nType="0">
          <Node pos="l" depth="2" NCoef="0" IVar="-1" Cut="0.0000000000000000e+00" cType="1" res="1.1886600404977798e-02" rms="2.4222284555435181e-01" purity="8.4090906381607056e-01" nType="-99"/>
          <Node pos="r" depth="2" NCoef="0" IVar="-1" Cut="0.0000000000000000e+00" cType="1" res="-1.2291584908962250e-01" rms="4.1986894607543945e-01" purity="6.1111110448837280e-01" nType="-99"/>
        </Node>
      </Node>
    </BinaryTree>
    <BinaryTree type="DecisionTree" boostWeight="1.0000000000000000e+00" itree="866">
      <Node pos="s" depth="0" NCoef="0" IVar="2" Cut="4.0471062064170837e-01" cType="1" res="6.8131455918774009e-05" rms="2.9463434219360352e-01" purity="7.8565657138824463e-01" nType="0">
        <Node pos="l" depth="1" NCoef="0" IVar="-1" Cut="0.0000000000000000e+00" cType="1" res="-2.2527955297846347e-04" rms="2.9250773787498474e-01" purity="7.9216945171356201e-01" nType="-99"/>
        <Node pos="r" depth="1" NCoef="0" IVar="13" Cut="2.3485759277343750e+03" cType="1" res="1.3913255184888840e-02" rms="3.4886059165000916e-01" purity="6.0260891914367676e-01" nType="0">
          <Node pos="l" depth="2" NCoef="0" IVar="-1" Cut="0.0000000000000000e+00" cType="1" res="1.5292430296540260e-02" rms="3.5908946394920349e-01" purity="6.0655736923217773e-01" nType="-99"/>
          <Node pos="r" depth="2" NCoef="0" IVar="-1" Cut="0.0000000000000000e+00" cType="1" res="-6.0084788128733635e-03" rms="3.3485865592956543e-01" purity="5.9823185205459595e-01" nType="-99"/>
        </Node>
      </Node>
    </BinaryTree>
    <BinaryTree type="DecisionTree" boostWeight="1.0000000000000000e+00" itree="867">
      <Node pos="s" depth="0" NCoef="0" IVar="11" Cut="2.3808914184570312e+01" cType="1" res="-1.9322845037095249e-04" rms="2.9503309726715088e-01" purity="7.8434634208679199e-01" nType="0">
        <Node pos="l" depth="1" NCoef="0" IVar="-1" Cut="0.0000000000000000e+00" cType="1" res="-4.3711299076676369e-04" rms="2.9441833496093750e-01" purity="7.8800672292709351e-01" nType="-99"/>
        <Node pos="r" depth="1" NCoef="0" IVar="11" Cut="2.3922552108764648e+01" cType="1" res="9.3577476218342781e-03" rms="3.0395525693893433e-01" purity="7.2938013076782227e-01" nType="0">
          <Node pos="l" depth="2" NCoef="0" IVar="-1" Cut="0.0000000000000000e+00" cType="1" res="2.8655245900154114e-02" rms="2.5188562273979187e-01" purity="7.9791396856307983e-01" nType="-99"/>
          <Node pos="r" depth="2" NCoef="0" IVar="-1" Cut="0.0000000000000000e+00" cType="1" res="1.7355928430333734e-03" rms="3.0856323242187500e-01" purity="7.2191452980041504e-01" nType="-99"/>
        </Node>
      </Node>
    </BinaryTree>
    <BinaryTree type="DecisionTree" boostWeight="1.0000000000000000e+00" itree="868">
      <Node pos="s" depth="0" NCoef="0" IVar="22" Cut="7.0675146484375000e+02" cType="0" res="2.2043085482437164e-04" rms="2.9425099492073059e-01" purity="7.8444826602935791e-01" nType="0">
        <Node pos="l" depth="1" NCoef="0" IVar="-1" Cut="0.0000000000000000e+00" cType="1" res="6.1976583674550056e-03" rms="2.8347751498222351e-01" purity="8.0004096031188965e-01" nType="-99"/>
        <Node pos="r" depth="1" NCoef="0" IVar="1" Cut="2.8378195800781250e+03" cType="1" res="-2.5851477403193712e-04" rms="2.9467305541038513e-01" purity="7.8381097316741943e-01" nType="0">
          <Node pos="l" depth="2" NCoef="0" IVar="-1" Cut="0.0000000000000000e+00" cType="1" res="1.6339567082468420e-04" rms="2.9425346851348877e-01" purity="7.8543239831924438e-01" nType="-99"/>
          <Node pos="r" depth="2" NCoef="0" IVar="-1" Cut="0.0000000000000000e+00" cType="1" res="-5.2390089258551598e-03" rms="3.0040109157562256e-01" purity="7.6098483800888062e-01" nType="-99"/>
        </Node>
      </Node>
    </BinaryTree>
    <BinaryTree type="DecisionTree" boostWeight="1.0000000000000000e+00" itree="869">
      <Node pos="s" depth="0" NCoef="0" IVar="31" Cut="4.6095056533813477e+00" cType="0" res="-1.0368449693487491e-05" rms="2.9465886950492859e-01" purity="7.8445744514465332e-01" nType="0">
        <Node pos="l" depth="1" NCoef="0" IVar="-1" Cut="0.0000000000000000e+00" cType="1" res="2.2819028235971928e-03" rms="2.7173769474029541e-01" purity="8.1788223981857300e-01" nType="-99"/>
        <Node pos="r" depth="1" NCoef="0" IVar="32" Cut="1.5832839012145996e+00" cType="0" res="-1.3699654955416918e-03" rms="3.0223155021667480e-01" purity="7.7280169725418091e-01" nType="0">
          <Node pos="l" depth="2" NCoef="0" IVar="-1" Cut="0.0000000000000000e+00" cType="1" res="-7.4397390708327293e-03" rms="2.9124796390533447e-01" purity="7.9380476474761963e-01" nType="-99"/>
          <Node pos="r" depth="2" NCoef="0" IVar="-1" Cut="0.0000000000000000e+00" cType="1" res="6.3511257758364081e-04" rms="3.0459773540496826e-01" purity="7.6805180311203003e-01" nType="-99"/>
        </Node>
      </Node>
    </BinaryTree>
    <BinaryTree type="DecisionTree" boostWeight="1.0000000000000000e+00" itree="870">
      <Node pos="s" depth="0" NCoef="0" IVar="2" Cut="1.1903253197669983e-01" cType="1" res="7.1595219196751714e-05" rms="2.9522544145584106e-01" purity="7.8489196300506592e-01" nType="0">
        <Node pos="l" depth="1" NCoef="0" IVar="-1" Cut="0.0000000000000000e+00" cType="1" res="-6.9855432957410812e-04" rms="2.8162074089050293e-01" purity="8.2751715183258057e-01" nType="-99"/>
        <Node pos="r" depth="1" NCoef="0" IVar="14" Cut="1.4765631103515625e+03" cType="0" res="3.9489925839006901e-03" rms="3.3284199237823486e-01" purity="6.5646070241928101e-01" nType="0">
          <Node pos="l" depth="2" NCoef="0" IVar="-1" Cut="0.0000000000000000e+00" cType="1" res="-2.7711885049939156e-02" rms="3.1995728611946106e-01" purity="7.2519081830978394e-01" nType="-99"/>
          <Node pos="r" depth="2" NCoef="0" IVar="-1" Cut="0.0000000000000000e+00" cType="1" res="1.9799268338829279e-03" rms="3.3292523026466370e-01" purity="6.5557807683944702e-01" nType="-99"/>
        </Node>
      </Node>
    </BinaryTree>
    <BinaryTree type="DecisionTree" boostWeight="1.0000000000000000e+00" itree="871">
      <Node pos="s" depth="0" NCoef="0" IVar="0" Cut="1.5857142448425293e+01" cType="1" res="8.4376364247873425e-04" rms="2.9461777210235596e-01" purity="7.8610861301422119e-01" nType="0">
        <Node pos="l" depth="1" NCoef="0" IVar="-1" Cut="0.0000000000000000e+00" cType="1" res="1.4180448488332331e-04" rms="2.9292419552803040e-01" purity="8.0748122930526733e-01" nType="-99"/>
        <Node pos="r" depth="1" NCoef="0" IVar="5" Cut="-4.4300675392150879e-01" cType="0" res="1.3055430725216866e-02" rms="3.2817000150680542e-01" purity="3.3392509818077087e-01" nType="0">
          <Node pos="l" depth="2" NCoef="0" IVar="-1" Cut="0.0000000000000000e+00" cType="1" res="1.1330855078995228e-02" rms="3.4070813655853271e-01" purity="3.7537166476249695e-01" nType="-99"/>
          <Node pos="r" depth="2" NCoef="0" IVar="-1" Cut="0.0000000000000000e+00" cType="1" res="-1.2649810872972012e-02" rms="2.8981298208236694e-01" purity="2.2917971014976501e-01" nType="-99"/>
        </Node>
      </Node>
    </BinaryTree>
    <BinaryTree type="DecisionTree" boostWeight="1.0000000000000000e+00" itree="872">
      <Node pos="s" depth="0" NCoef="0" IVar="32" Cut="3.0535781383514404e+00" cType="0" res="-1.4350378187373281e-03" rms="2.9575785994529724e-01" purity="7.8309988975524902e-01" nType="0">
        <Node pos="l" depth="1" NCoef="0" IVar="-1" Cut="0.0000000000000000e+00" cType="1" res="-6.5975240431725979e-03" rms="2.6875147223472595e-01" purity="8.3509117364883423e-01" nType="-99"/>
        <Node pos="r" depth="1" NCoef="0" IVar="31" Cut="1.1683840751647949e+00" cType="0" res="-3.2554610515944660e-04" rms="2.9904791712760925e-01" purity="7.7638947963714600e-01" nType="0">
          <Node pos="l" depth="2" NCoef="0" IVar="-1" Cut="0.0000000000000000e+00" cType="1" res="6.2076695030555129e-04" rms="2.9619583487510681e-01" purity="7.8409361839294434e-01" nType="-99"/>
          <Node pos="r" depth="2" NCoef="0" IVar="-1" Cut="0.0000000000000000e+00" cType="1" res="-2.8414966072887182e-03" rms="3.0920556187629700e-01" purity="7.4817150831222534e-01" nType="-99"/>
        </Node>
      </Node>
    </BinaryTree>
    <BinaryTree type="DecisionTree" boostWeight="1.0000000000000000e+00" itree="873">
      <Node pos="s" depth="0" NCoef="0" IVar="14" Cut="2.0681425781250000e+03" cType="0" res="-8.4972020704299212e-04" rms="2.9550075531005859e-01" purity="7.8361392021179199e-01" nType="0">
        <Node pos="l" depth="1" NCoef="0" IVar="-1" Cut="0.0000000000000000e+00" cType="1" res="-8.9757451787590981e-03" rms="2.6933914422988892e-01" purity="8.8483238220214844e-01" nType="-99"/>
        <Node pos="r" depth="1" NCoef="0" IVar="14" Cut="3.3657449340820312e+02" cType="0" res="-5.5506988428533077e-04" rms="2.9611206054687500e-01" purity="7.8111207485198975e-01" nType="0">
          <Node pos="l" depth="2" NCoef="0" IVar="-1" Cut="0.0000000000000000e+00" cType="1" res="-1.8368460005149245e-03" rms="2.8335502743721008e-01" purity="8.1577974557876587e-01" nType="-99"/>
          <Node pos="r" depth="2" NCoef="0" IVar="-1" Cut="0.0000000000000000e+00" cType="1" res="1.6269154148176312e-03" rms="3.1415444612503052e-01" purity="7.2934776544570923e-01" nType="-99"/>
        </Node>
      </Node>
    </BinaryTree>
    <BinaryTree type="DecisionTree" boostWeight="1.0000000000000000e+00" itree="874">
      <Node pos="s" depth="0" NCoef="0" IVar="1" Cut="2.3031530761718750e+03" cType="1" res="-1.3148993020877242e-03" rms="2.9511800408363342e-01" purity="7.8463560342788696e-01" nType="0">
        <Node pos="l" depth="1" NCoef="0" IVar="-1" Cut="0.0000000000000000e+00" cType="1" res="2.6367344617028721e-05" rms="2.9408511519432068e-01" purity="7.9545259475708008e-01" nType="-99"/>
        <Node pos="r" depth="1" NCoef="0" IVar="8" Cut="5.2267199754714966e-01" cType="0" res="-8.6285052821040154e-03" rms="3.0048337578773499e-01" purity="7.2670745849609375e-01" nType="0">
          <Node pos="l" depth="2" NCoef="0" IVar="-1" Cut="0.0000000000000000e+00" cType="1" res="-8.3773666992783546e-03" rms="2.9851654171943665e-01" purity="7.4346667528152466e-01" nType="-99"/>
          <Node pos="r" depth="2" NCoef="0" IVar="-1" Cut="0.0000000000000000e+00" cType="1" res="1.3181210495531559e-02" rms="3.0976140499114990e-01" purity="6.2367939949035645e-01" nType="-99"/>
        </Node>
      </Node>
    </BinaryTree>
    <BinaryTree type="DecisionTree" boostWeight="1.0000000000000000e+00" itree="875">
      <Node pos="s" depth="0" NCoef="0" IVar="3" Cut="1.3248686523437500e+04" cType="1" res="3.0268804403021932e-04" rms="2.9353725910186768e-01" purity="7.8615105152130127e-01" nType="0">
        <Node pos="l" depth="1" NCoef="0" IVar="25" Cut="1.8001124267578125e+03" cType="0" res="3.6087410990148783e-04" rms="2.9348778724670410e-01" purity="7.8618168830871582e-01" nType="0">
          <Node pos="l" depth="2" NCoef="0" IVar="-1" Cut="0.0000000000000000e+00" cType="1" res="1.2243619421496987e-03" rms="2.8498646616935730e-01" purity="8.1260293722152710e-01" nType="-99"/>
          <Node pos="r" depth="2" NCoef="0" IVar="-1" Cut="0.0000000000000000e+00" cType="1" res="-1.8642572686076164e-03" rms="3.1292968988418579e-01" purity="7.2269070148468018e-01" nType="-99"/>
        </Node>
        <Node pos="r" depth="1" NCoef="0" IVar="-1" Cut="0.0000000000000000e+00" cType="1" res="-7.0985741913318634e-02" rms="3.5601314902305603e-01" purity="7.3239433765411377e-01" nType="-99"/>
      </Node>
    </BinaryTree>
    <BinaryTree type="DecisionTree" boostWeight="1.0000000000000000e+00" itree="876">
      <Node pos="s" depth="0" NCoef="0" IVar="3" Cut="3.7244675292968750e+03" cType="0" res="-2.8178392676636577e-04" rms="2.9501986503601074e-01" purity="7.8484630584716797e-01" nType="0">
        <Node pos="l" depth="1" NCoef="0" IVar="-1" Cut="0.0000000000000000e+00" cType="1" res="1.8696537008509040e-03" rms="2.9240626096725464e-01" purity="7.9606270790100098e-01" nType="-99"/>
        <Node pos="r" depth="1" NCoef="0" IVar="4" Cut="5.9512567520141602e+00" cType="0" res="-3.0552123207598925e-03" rms="2.9693600535392761e-01" purity="7.7642875909805298e-01" nType="0">
          <Node pos="l" depth="2" NCoef="0" IVar="-1" Cut="0.0000000000000000e+00" cType="1" res="9.2721246182918549e-03" rms="2.3007276654243469e-01" purity="9.1401392221450806e-01" nType="-99"/>
          <Node pos="r" depth="2" NCoef="0" IVar="-1" Cut="0.0000000000000000e+00" cType="1" res="-3.8943390827625990e-03" rms="3.1682759523391724e-01" purity="7.2831058502197266e-01" nType="-99"/>
        </Node>
      </Node>
    </BinaryTree>
    <BinaryTree type="DecisionTree" boostWeight="1.0000000000000000e+00" itree="877">
      <Node pos="s" depth="0" NCoef="0" IVar="9" Cut="7.2427697753906250e+02" cType="0" res="9.0913905296474695e-05" rms="2.9366004467010498e-01" purity="7.8510338068008423e-01" nType="0">
        <Node pos="l" depth="1" NCoef="0" IVar="-1" Cut="0.0000000000000000e+00" cType="1" res="3.9819530211389065e-03" rms="2.4957714974880219e-01" purity="9.1131114959716797e-01" nType="-99"/>
        <Node pos="r" depth="1" NCoef="0" IVar="1" Cut="1.8755104980468750e+03" cType="1" res="-1.1658031726256013e-03" rms="3.0317816138267517e-01" purity="7.5512123107910156e-01" nType="0">
          <Node pos="l" depth="2" NCoef="0" IVar="-1" Cut="0.0000000000000000e+00" cType="1" res="9.0882170479744673e-04" rms="2.9169273376464844e-01" purity="7.9836386442184448e-01" nType="-99"/>
          <Node pos="r" depth="2" NCoef="0" IVar="-1" Cut="0.0000000000000000e+00" cType="1" res="-4.9824775196611881e-03" rms="3.4363299608230591e-01" purity="5.8850663900375366e-01" nType="-99"/>
        </Node>
      </Node>
    </BinaryTree>
    <BinaryTree type="DecisionTree" boostWeight="1.0000000000000000e+00" itree="878">
      <Node pos="s" depth="0" NCoef="0" IVar="0" Cut="1.4000000000000000e+01" cType="1" res="-7.4673321796581149e-04" rms="2.9582795500755310e-01" purity="7.8388631343841553e-01" nType="0">
        <Node pos="l" depth="1" NCoef="0" IVar="-1" Cut="0.0000000000000000e+00" cType="1" res="-3.5735973506234586e-04" rms="2.9351913928985596e-01" purity="8.1098324060440063e-01" nType="-99"/>
        <Node pos="r" depth="1" NCoef="0" IVar="24" Cut="1.8217405319213867e+01" cType="0" res="-2.0414106547832489e-03" rms="3.3262214064598083e-01" purity="3.2337230443954468e-01" nType="0">
          <Node pos="l" depth="2" NCoef="0" IVar="-1" Cut="0.0000000000000000e+00" cType="1" res="1.1938196606934071e-02" rms="3.3891192078590393e-01" purity="3.5743924975395203e-01" nType="-99"/>
          <Node pos="r" depth="2" NCoef="0" IVar="-1" Cut="0.0000000000000000e+00" cType="1" res="-4.8153861425817013e-03" rms="3.2990509271621704e-01" purity="3.1240457296371460e-01" nType="-99"/>
        </Node>
      </Node>
    </BinaryTree>
    <BinaryTree type="DecisionTree" boostWeight="1.0000000000000000e+00" itree="879">
      <Node pos="s" depth="0" NCoef="0" IVar="26" Cut="5.4557468750000000e+04" cType="0" res="2.6664754841476679e-04" rms="2.9462811350822449e-01" purity="7.8590178489685059e-01" nType="0">
        <Node pos="l" depth="1" NCoef="0" IVar="-1" Cut="0.0000000000000000e+00" cType="1" res="1.3888997957110405e-02" rms="2.4804577231407166e-01" purity="8.9999997615814209e-01" nType="-99"/>
        <Node pos="r" depth="1" NCoef="0" IVar="14" Cut="1.3533270263671875e+03" cType="0" res="-4.7085108235478401e-05" rms="2.9523053765296936e-01" purity="7.8426647186279297e-01" nType="0">
          <Node pos="l" depth="2" NCoef="0" IVar="-1" Cut="0.0000000000000000e+00" cType="1" res="-7.7694579958915710e-03" rms="2.6771807670593262e-01" purity="8.7424290180206299e-01" nType="-99"/>
          <Node pos="r" depth="2" NCoef="0" IVar="-1" Cut="0.0000000000000000e+00" cType="1" res="2.9205044847913086e-04" rms="2.9662716388702393e-01" purity="7.7942174673080444e-01" nType="-99"/>
        </Node>
      </Node>
    </BinaryTree>
    <BinaryTree type="DecisionTree" boostWeight="1.0000000000000000e+00" itree="880">
      <Node pos="s" depth="0" NCoef="0" IVar="11" Cut="3.5716667175292969e+00" cType="1" res="1.1914670467376709e-03" rms="2.9378324747085571e-01" purity="7.8506803512573242e-01" nType="0">
        <Node pos="l" depth="1" NCoef="0" IVar="-1" Cut="0.0000000000000000e+00" cType="1" res="4.3671303428709507e-03" rms="2.6335948705673218e-01" purity="8.8373285531997681e-01" nType="-99"/>
        <Node pos="r" depth="1" NCoef="0" IVar="13" Cut="1.3931588134765625e+03" cType="1" res="4.8973475350067019e-04" rms="2.9731464385986328e-01" purity="7.7289164066314697e-01" nType="0">
          <Node pos="l" depth="2" NCoef="0" IVar="-1" Cut="0.0000000000000000e+00" cType="1" res="-3.0546805355697870e-03" rms="2.8912198543548584e-01" purity="7.9642552137374878e-01" nType="-99"/>
          <Node pos="r" depth="2" NCoef="0" IVar="-1" Cut="0.0000000000000000e+00" cType="1" res="9.3501538503915071e-04" rms="2.9917162656784058e-01" purity="7.6741701364517212e-01" nType="-99"/>
        </Node>
      </Node>
    </BinaryTree>
    <BinaryTree type="DecisionTree" boostWeight="1.0000000000000000e+00" itree="881">
      <Node pos="s" depth="0" NCoef="0" IVar="17" Cut="2.1179867187500000e+05" cType="0" res="4.8659503590897657e-06" rms="2.9435181617736816e-01" purity="7.8514683246612549e-01" nType="0">
        <Node pos="l" depth="1" NCoef="0" IVar="-1" Cut="0.0000000000000000e+00" cType="1" res="3.1967692077159882e-02" rms="2.3394684493541718e-01" purity="8.6426115036010742e-01" nType="-99"/>
        <Node pos="r" depth="1" NCoef="0" IVar="19" Cut="2.3540921875000000e+05" cType="1" res="-2.0560658595059067e-04" rms="2.9458913207054138e-01" purity="7.8477674722671509e-01" nType="0">
          <Node pos="l" depth="2" NCoef="0" IVar="-1" Cut="0.0000000000000000e+00" cType="1" res="1.5915160474833101e-04" rms="2.9331952333450317e-01" purity="7.8692483901977539e-01" nType="-99"/>
          <Node pos="r" depth="2" NCoef="0" IVar="-1" Cut="0.0000000000000000e+00" cType="1" res="-5.7588778436183929e-03" rms="3.2504534721374512e-01" purity="7.2996592521667480e-01" nType="-99"/>
        </Node>
      </Node>
    </BinaryTree>
    <BinaryTree type="DecisionTree" boostWeight="1.0000000000000000e+00" itree="882">
      <Node pos="s" depth="0" NCoef="0" IVar="9" Cut="2.0511848144531250e+03" cType="0" res="1.0246246820315719e-03" rms="2.9390206933021545e-01" purity="7.8599458932876587e-01" nType="0">
        <Node pos="l" depth="1" NCoef="0" IVar="-1" Cut="0.0000000000000000e+00" cType="1" res="1.9619068130850792e-02" rms="1.7143075168132782e-01" purity="9.6706312894821167e-01" nType="-99"/>
        <Node pos="r" depth="1" NCoef="0" IVar="1" Cut="3.9871020507812500e+03" cType="1" res="7.2149542393162847e-04" rms="2.9562300443649292e-01" purity="7.8275460004806519e-01" nType="0">
          <Node pos="l" depth="2" NCoef="0" IVar="-1" Cut="0.0000000000000000e+00" cType="1" res="4.3179199565201998e-04" rms="2.9541435837745667e-01" purity="7.8300225734710693e-01" nType="-99"/>
          <Node pos="r" depth="2" NCoef="0" IVar="-1" Cut="0.0000000000000000e+00" cType="1" res="-4.7688666731119156e-02" rms="4.7984549403190613e-01" purity="4.5054945349693298e-01" nType="-99"/>
        </Node>
      </Node>
    </BinaryTree>
    <BinaryTree type="DecisionTree" boostWeight="1.0000000000000000e+00" itree="883">
      <Node pos="s" depth="0" NCoef="0" IVar="6" Cut="1.9840013427734375e+03" cType="0" res="9.1409758897498250e-04" rms="2.9379239678382874e-01" purity="7.8683364391326904e-01" nType="0">
        <Node pos="l" depth="1" NCoef="0" IVar="-1" Cut="0.0000000000000000e+00" cType="1" res="2.5878950953483582e-02" rms="1.6601477563381195e-01" purity="9.6229380369186401e-01" nType="-99"/>
        <Node pos="r" depth="1" NCoef="0" IVar="6" Cut="9.4438423156738281e+01" cType="0" res="6.8412540713325143e-04" rms="2.9481425881385803e-01" purity="7.8502196073532104e-01" nType="0">
          <Node pos="l" depth="2" NCoef="0" IVar="-1" Cut="0.0000000000000000e+00" cType="1" res="7.3001259006559849e-03" rms="2.4750183522701263e-01" purity="8.9018696546554565e-01" nType="-99"/>
          <Node pos="r" depth="2" NCoef="0" IVar="-1" Cut="0.0000000000000000e+00" cType="1" res="-1.3599640224128962e-03" rms="3.0983561277389526e-01" purity="7.4760258197784424e-01" nType="-99"/>
        </Node>
      </Node>
    </BinaryTree>
    <BinaryTree type="DecisionTree" boostWeight="1.0000000000000000e+00" itree="884">
      <Node pos="s" depth="0" NCoef="0" IVar="26" Cut="3.6783976562500000e+04" cType="0" res="-6.9899111986160278e-04" rms="2.9396170377731323e-01" purity="7.8541904687881470e-01" nType="0">
        <Node pos="l" depth="1" NCoef="0" IVar="-1" Cut="0.0000000000000000e+00" cType="1" res="7.3044523596763611e-03" rms="2.5882139801979065e-01" purity="8.8199049234390259e-01" nType="-99"/>
        <Node pos="r" depth="1" NCoef="0" IVar="26" Cut="2.9062282714843750e+03" cType="0" res="-1.1346462415531278e-03" rms="2.9510828852653503e-01" purity="7.8203326463699341e-01" nType="0">
          <Node pos="l" depth="2" NCoef="0" IVar="-1" Cut="0.0000000000000000e+00" cType="1" res="8.6990745330695063e-05" rms="2.9329770803451538e-01" purity="7.8935754299163818e-01" nType="-99"/>
          <Node pos="r" depth="2" NCoef="0" IVar="-1" Cut="0.0000000000000000e+00" cType="1" res="-5.5317818187177181e-03" rms="3.0845531821250916e-01" purity="7.2587847709655762e-01" nType="-99"/>
        </Node>
      </Node>
    </BinaryTree>
    <BinaryTree type="DecisionTree" boostWeight="1.0000000000000000e+00" itree="885">
      <Node pos="s" depth="0" NCoef="0" IVar="19" Cut="2.0998990625000000e+05" cType="1" res="5.2324560238048434e-04" rms="2.9382100701332092e-01" purity="7.8622746467590332e-01" nType="0">
        <Node pos="l" depth="1" NCoef="0" IVar="-1" Cut="0.0000000000000000e+00" cType="1" res="5.3626496810466051e-04" rms="2.9245579242706299e-01" purity="7.8879570960998535e-01" nType="-99"/>
        <Node pos="r" depth="1" NCoef="0" IVar="0" Cut="1.0285714149475098e+01" cType="1" res="-6.9474433548748493e-03" rms="3.1387758255004883e-01" purity="7.4692809581756592e-01" nType="0">
          <Node pos="l" depth="2" NCoef="0" IVar="-1" Cut="0.0000000000000000e+00" cType="1" res="1.3648282219946850e-05" rms="3.1018635630607605e-01" purity="8.0543261766433716e-01" nType="-99"/>
          <Node pos="r" depth="2" NCoef="0" IVar="-1" Cut="0.0000000000000000e+00" cType="1" res="-1.6694555059075356e-02" rms="3.3204346895217896e-01" purity="3.9744758605957031e-01" nType="-99"/>
        </Node>
      </Node>
    </BinaryTree>
    <BinaryTree type="DecisionTree" boostWeight="1.0000000000000000e+00" itree="886">
      <Node pos="s" depth="0" NCoef="0" IVar="4" Cut="3.5707595348358154e+00" cType="0" res="5.5552832782268524e-04" rms="2.9476702213287354e-01" purity="7.8510558605194092e-01" nType="0">
        <Node pos="l" depth="1" NCoef="0" IVar="-1" Cut="0.0000000000000000e+00" cType="1" res="-1.3743391027674079e-03" rms="2.6360100507736206e-01" purity="8.7033957242965698e-01" nType="-99"/>
        <Node pos="r" depth="1" NCoef="0" IVar="1" Cut="2.0589724121093750e+03" cType="1" res="1.8991600954905152e-03" rms="3.0941674113273621e-01" purity="7.4172729253768921e-01" nType="0">
          <Node pos="l" depth="2" NCoef="0" IVar="-1" Cut="0.0000000000000000e+00" cType="1" res="-6.3730741385370493e-04" rms="3.0698552727699280e-01" purity="7.5971513986587524e-01" nType="-99"/>
          <Node pos="r" depth="2" NCoef="0" IVar="-1" Cut="0.0000000000000000e+00" cType="1" res="6.5346909686923027e-03" rms="3.1814736127853394e-01" purity="6.7369818687438965e-01" nType="-99"/>
        </Node>
      </Node>
    </BinaryTree>
    <BinaryTree type="DecisionTree" boostWeight="1.0000000000000000e+00" itree="887">
      <Node pos="s" depth="0" NCoef="0" IVar="3" Cut="3.7215258789062500e+03" cType="0" res="-1.5365834115073085e-03" rms="2.9497987031936646e-01" purity="7.8313696384429932e-01" nType="0">
        <Node pos="l" depth="1" NCoef="0" IVar="-1" Cut="0.0000000000000000e+00" cType="1" res="7.3618168244138360e-04" rms="2.9324418306350708e-01" purity="7.9352033138275146e-01" nType="-99"/>
        <Node pos="r" depth="1" NCoef="0" IVar="0" Cut="7.8571429252624512e+00" cType="1" res="-3.7244216073304415e-03" rms="2.9627338051795959e-01" purity="7.7524626255035400e-01" nType="0">
          <Node pos="l" depth="2" NCoef="0" IVar="-1" Cut="0.0000000000000000e+00" cType="1" res="1.3458164175972342e-03" rms="2.6833689212799072e-01" purity="8.7554293870925903e-01" nType="-99"/>
          <Node pos="r" depth="2" NCoef="0" IVar="-1" Cut="0.0000000000000000e+00" cType="1" res="-7.2239902801811695e-03" rms="3.6538425087928772e-01" purity="4.8191702365875244e-01" nType="-99"/>
        </Node>
      </Node>
    </BinaryTree>
    <BinaryTree type="DecisionTree" boostWeight="1.0000000000000000e+00" itree="888">
      <Node pos="s" depth="0" NCoef="0" IVar="2" Cut="1.9045205414295197e-01" cType="1" res="-1.7113564535975456e-04" rms="2.9512324929237366e-01" purity="7.8501981496810913e-01" nType="0">
        <Node pos="l" depth="1" NCoef="0" IVar="-1" Cut="0.0000000000000000e+00" cType="1" res="-6.2695180531591177e-04" rms="2.8649327158927917e-01" purity="8.1403499841690063e-01" nType="-99"/>
        <Node pos="r" depth="1" NCoef="0" IVar="0" Cut="8.4285717010498047e+00" cType="1" res="4.3995622545480728e-03" rms="3.3320072293281555e-01" purity="6.4657092094421387e-01" nType="0">
          <Node pos="l" depth="2" NCoef="0" IVar="-1" Cut="0.0000000000000000e+00" cType="1" res="-4.1406266391277313e-03" rms="3.1396123766899109e-01" purity="8.1620913743972778e-01" nType="-99"/>
          <Node pos="r" depth="2" NCoef="0" IVar="-1" Cut="0.0000000000000000e+00" cType="1" res="5.4721408523619175e-03" rms="3.4833890199661255e-01" purity="5.0257027149200439e-01" nType="-99"/>
        </Node>
      </Node>
    </BinaryTree>
    <BinaryTree type="DecisionTree" boostWeight="1.0000000000000000e+00" itree="889">
      <Node pos="s" depth="0" NCoef="0" IVar="0" Cut="1.4000000000000000e+01" cType="1" res="5.2444136235862970e-04" rms="2.9341682791709900e-01" purity="7.8521209955215454e-01" nType="0">
        <Node pos="l" depth="1" NCoef="0" IVar="-1" Cut="0.0000000000000000e+00" cType="1" res="2.8377538546919823e-04" rms="2.9083099961280823e-01" purity="8.1228834390640259e-01" nType="-99"/>
        <Node pos="r" depth="1" NCoef="0" IVar="29" Cut="2.8579921722412109e+00" cType="0" res="4.3284086859785020e-04" rms="3.3449372649192810e-01" purity="3.2294985651969910e-01" nType="0">
          <Node pos="l" depth="2" NCoef="0" IVar="-1" Cut="0.0000000000000000e+00" cType="1" res="1.7105083679780364e-03" rms="3.3644661307334900e-01" purity="3.3203241229057312e-01" nType="-99"/>
          <Node pos="r" depth="2" NCoef="0" IVar="-1" Cut="0.0000000000000000e+00" cType="1" res="-5.3290311247110367e-02" rms="2.5054800510406494e-01" purity="7.0833332836627960e-02" nType="-99"/>
        </Node>
      </Node>
    </BinaryTree>
    <BinaryTree type="DecisionTree" boostWeight="1.0000000000000000e+00" itree="890">
      <Node pos="s" depth="0" NCoef="0" IVar="2" Cut="4.0471062064170837e-01" cType="1" res="5.2533292910084128e-04" rms="2.9393464326858521e-01" purity="7.8556811809539795e-01" nType="0">
        <Node pos="l" depth="1" NCoef="0" IVar="-1" Cut="0.0000000000000000e+00" cType="1" res="2.1881065549678169e-05" rms="2.9181614518165588e-01" purity="7.9200392961502075e-01" nType="-99"/>
        <Node pos="r" depth="1" NCoef="0" IVar="4" Cut="1.1755716800689697e+00" cType="0" res="1.4184396713972092e-02" rms="3.4816110134124756e-01" purity="6.0398590564727783e-01" nType="0">
          <Node pos="l" depth="2" NCoef="0" IVar="-1" Cut="0.0000000000000000e+00" cType="1" res="-4.4642062857747078e-03" rms="3.4420806169509888e-01" purity="6.3963961601257324e-01" nType="-99"/>
          <Node pos="r" depth="2" NCoef="0" IVar="-1" Cut="0.0000000000000000e+00" cType="1" res="1.7371116206049919e-02" rms="3.5047960281372070e-01" purity="5.6101346015930176e-01" nType="-99"/>
        </Node>
      </Node>
    </BinaryTree>
    <BinaryTree type="DecisionTree" boostWeight="1.0000000000000000e+00" itree="891">
      <Node pos="s" depth="0" NCoef="0" IVar="0" Cut="2.7000000000000000e+01" cType="1" res="2.4537689751014113e-04" rms="2.9452833533287048e-01" purity="7.8506189584732056e-01" nType="0">
        <Node pos="l" depth="1" NCoef="0" IVar="-1" Cut="0.0000000000000000e+00" cType="1" res="1.8116418505087495e-04" rms="2.9501244425773621e-01" purity="7.8797721862792969e-01" nType="-99"/>
        <Node pos="r" depth="1" NCoef="0" IVar="26" Cut="1.9954133300781250e+03" cType="1" res="-2.3797487840056419e-02" rms="1.3089247047901154e-01" purity="7.9922027885913849e-02" nType="0">
          <Node pos="l" depth="2" NCoef="0" IVar="-1" Cut="0.0000000000000000e+00" cType="1" res="5.0017233937978745e-02" rms="1.9592876732349396e-01" purity="2.1929824352264404e-01" nType="-99"/>
          <Node pos="r" depth="2" NCoef="0" IVar="-1" Cut="0.0000000000000000e+00" cType="1" res="-4.4677924364805222e-02" rms="8.9186757802963257e-02" purity="4.0100250393152237e-02" nType="-99"/>
        </Node>
      </Node>
    </BinaryTree>
    <BinaryTree type="DecisionTree" boostWeight="1.0000000000000000e+00" itree="892">
      <Node pos="s" depth="0" NCoef="0" IVar="25" Cut="9.9070292968750000e+03" cType="1" res="-4.5094630331732333e-04" rms="2.9425469040870667e-01" purity="7.8561174869537354e-01" nType="0">
        <Node pos="l" depth="1" NCoef="0" IVar="-1" Cut="0.0000000000000000e+00" cType="1" res="-1.8934336549136788e-04" rms="2.9416385293006897e-01" purity="7.8568959236145020e-01" nType="-99"/>
        <Node pos="r" depth="1" NCoef="0" IVar="29" Cut="7.8325762748718262e+00" cType="1" res="-6.5217085182666779e-02" rms="3.4734421968460083e-01" purity="7.2988504171371460e-01" nType="0">
          <Node pos="l" depth="2" NCoef="0" IVar="-1" Cut="0.0000000000000000e+00" cType="1" res="5.3665056824684143e-02" rms="1.4203618466854095e-01" purity="8.0769228935241699e-01" nType="-99"/>
          <Node pos="r" depth="2" NCoef="0" IVar="-1" Cut="0.0000000000000000e+00" cType="1" res="-7.7983565628528595e-02" rms="3.8198280334472656e-01" purity="6.9672131538391113e-01" nType="-99"/>
        </Node>
      </Node>
    </BinaryTree>
    <BinaryTree type="DecisionTree" boostWeight="1.0000000000000000e+00" itree="893">
      <Node pos="s" depth="0" NCoef="0" IVar="1" Cut="2.3031530761718750e+03" cType="1" res="2.6290173991583288e-04" rms="2.9472211003303528e-01" purity="7.8473007678985596e-01" nType="0">
        <Node pos="l" depth="1" NCoef="0" IVar="-1" Cut="0.0000000000000000e+00" cType="1" res="7.2805630043148994e-04" rms="2.9324027895927429e-01" purity="7.9511398077011108e-01" nType="-99"/>
        <Node pos="r" depth="1" NCoef="0" IVar="9" Cut="4.8389053344726562e+02" cType="0" res="-5.8099934831261635e-03" rms="3.0241939425468445e-01" purity="7.2942787408828735e-01" nType="0">
          <Node pos="l" depth="2" NCoef="0" IVar="-1" Cut="0.0000000000000000e+00" cType="1" res="-1.1381522752344608e-02" rms="2.7410316467285156e-01" purity="8.3496546745300293e-01" nType="-99"/>
          <Node pos="r" depth="2" NCoef="0" IVar="-1" Cut="0.0000000000000000e+00" cType="1" res="1.0997828096151352e-02" rms="3.8083386421203613e-01" purity="3.7132024765014648e-01" nType="-99"/>
        </Node>
      </Node>
    </BinaryTree>
    <BinaryTree type="DecisionTree" boostWeight="1.0000000000000000e+00" itree="894">
      <Node pos="s" depth="0" NCoef="0" IVar="19" Cut="5.4317243750000000e+05" cType="1" res="8.5759413195773959e-05" rms="2.9373770952224731e-01" purity="7.8533321619033813e-01" nType="0">
        <Node pos="l" depth="1" NCoef="0" IVar="-1" Cut="0.0000000000000000e+00" cType="1" res="7.9414749052375555e-05" rms="2.9371261596679688e-01" purity="7.8537577390670776e-01" nType="-99"/>
        <Node pos="r" depth="1" NCoef="0" IVar="31" Cut="2.4636921882629395e+00" cType="1" res="-8.1237703561782837e-02" rms="3.1287491321563721e-01" purity="7.3267328739166260e-01" nType="0">
          <Node pos="l" depth="2" NCoef="0" IVar="-1" Cut="0.0000000000000000e+00" cType="1" res="1.6392558813095093e-02" rms="2.3768447339534760e-01" purity="9.1379308700561523e-01" nType="-99"/>
          <Node pos="r" depth="2" NCoef="0" IVar="-1" Cut="0.0000000000000000e+00" cType="1" res="-1.1596018821001053e-01" rms="3.3933219313621521e-01" purity="4.8837208747863770e-01" nType="-99"/>
        </Node>
      </Node>
    </BinaryTree>
    <BinaryTree type="DecisionTree" boostWeight="1.0000000000000000e+00" itree="895">
      <Node pos="s" depth="0" NCoef="0" IVar="27" Cut="7.5431078125000000e+04" cType="0" res="5.6895794114097953e-04" rms="2.9404208064079285e-01" purity="7.8524911403656006e-01" nType="0">
        <Node pos="l" depth="1" NCoef="0" IVar="-1" Cut="0.0000000000000000e+00" cType="1" res="-1.9764166790992022e-03" rms="3.0017408728599548e-01" purity="7.9040473699569702e-01" nType="-99"/>
        <Node pos="r" depth="1" NCoef="0" IVar="27" Cut="2.1360191406250000e+04" cType="0" res="2.2953187581151724e-03" rms="2.9161056876182556e-01" purity="7.8324931859970093e-01" nType="0">
          <Node pos="l" depth="2" NCoef="0" IVar="-1" Cut="0.0000000000000000e+00" cType="1" res="4.2647385271266103e-04" rms="2.9116356372833252e-01" purity="7.8603947162628174e-01" nType="-99"/>
          <Node pos="r" depth="2" NCoef="0" IVar="-1" Cut="0.0000000000000000e+00" cType="1" res="1.0300472378730774e-02" rms="2.9626929759979248e-01" purity="7.5028455257415771e-01" nType="-99"/>
        </Node>
      </Node>
    </BinaryTree>
    <BinaryTree type="DecisionTree" boostWeight="1.0000000000000000e+00" itree="896">
      <Node pos="s" depth="0" NCoef="0" IVar="2" Cut="3.3329108357429504e-01" cType="1" res="-3.1795605900697410e-04" rms="2.9412865638732910e-01" purity="7.8494632244110107e-01" nType="0">
        <Node pos="l" depth="1" NCoef="0" IVar="-1" Cut="0.0000000000000000e+00" cType="1" res="1.8023184384219348e-04" rms="2.9020604491233826e-01" purity="8.0045378208160400e-01" nType="-99"/>
        <Node pos="r" depth="1" NCoef="0" IVar="24" Cut="5.9303030967712402e+00" cType="1" res="-8.6367186158895493e-03" rms="3.4003186225891113e-01" purity="5.8749586343765259e-01" nType="0">
          <Node pos="l" depth="2" NCoef="0" IVar="-1" Cut="0.0000000000000000e+00" cType="1" res="-1.7955478280782700e-02" rms="3.4580793976783752e-01" purity="6.6577178239822388e-01" nType="-99"/>
          <Node pos="r" depth="2" NCoef="0" IVar="-1" Cut="0.0000000000000000e+00" cType="1" res="-8.5646257502958179e-04" rms="3.3850422501564026e-01" purity="5.7210713624954224e-01" nType="-99"/>
        </Node>
      </Node>
    </BinaryTree>
    <BinaryTree type="DecisionTree" boostWeight="1.0000000000000000e+00" itree="897">
      <Node pos="s" depth="0" NCoef="0" IVar="2" Cut="3.3329108357429504e-01" cType="1" res="4.5739841880276799e-04" rms="2.9329040646553040e-01" purity="7.8608447313308716e-01" nType="0">
        <Node pos="l" depth="1" NCoef="0" IVar="-1" Cut="0.0000000000000000e+00" cType="1" res="5.8789283502846956e-04" rms="2.8947281837463379e-01" purity="8.0152207612991333e-01" nType="-99"/>
        <Node pos="r" depth="1" NCoef="0" IVar="20" Cut="6.1905455589294434e-01" cType="0" res="-7.5871809385716915e-03" rms="3.3773630857467651e-01" purity="5.9098368883132935e-01" nType="0">
          <Node pos="l" depth="2" NCoef="0" IVar="-1" Cut="0.0000000000000000e+00" cType="1" res="-1.7184511525556445e-03" rms="3.3700829744338989e-01" purity="6.0307621955871582e-01" nType="-99"/>
          <Node pos="r" depth="2" NCoef="0" IVar="-1" Cut="0.0000000000000000e+00" cType="1" res="-3.0104685574769974e-02" rms="3.4539639949798584e-01" purity="3.4426230192184448e-01" nType="-99"/>
        </Node>
      </Node>
    </BinaryTree>
    <BinaryTree type="DecisionTree" boostWeight="1.0000000000000000e+00" itree="898">
      <Node pos="s" depth="0" NCoef="0" IVar="3" Cut="3.2201086425781250e+03" cType="0" res="-1.0521191870793700e-03" rms="2.9473075270652771e-01" purity="7.8421032428741455e-01" nType="0">
        <Node pos="l" depth="1" NCoef="0" IVar="-1" Cut="0.0000000000000000e+00" cType="1" res="-1.8159031169489026e-03" rms="2.9248309135437012e-01" purity="7.8975814580917358e-01" nType="-99"/>
        <Node pos="r" depth="1" NCoef="0" IVar="9" Cut="2.5823141479492188e+02" cType="0" res="2.7376585640013218e-03" rms="2.9839566349983215e-01" purity="7.7497643232345581e-01" nType="0">
          <Node pos="l" depth="2" NCoef="0" IVar="-1" Cut="0.0000000000000000e+00" cType="1" res="-2.3784965742379427e-03" rms="2.9107293486595154e-01" purity="8.1247818470001221e-01" nType="-99"/>
          <Node pos="r" depth="2" NCoef="0" IVar="-1" Cut="0.0000000000000000e+00" cType="1" res="7.7197607606649399e-03" rms="3.1248110532760620e-01" purity="6.9733637571334839e-01" nType="-99"/>
        </Node>
      </Node>
    </BinaryTree>
    <BinaryTree type="DecisionTree" boostWeight="1.0000000000000000e+00" itree="899">
      <Node pos="s" depth="0" NCoef="0" IVar="6" Cut="8.0599462890625000e+03" cType="0" res="-1.2076591519871727e-04" rms="2.9519325494766235e-01" purity="7.8449726104736328e-01" nType="0">
        <Node pos="l" depth="1" NCoef="0" IVar="-1" Cut="0.0000000000000000e+00" cType="1" res="7.0206835865974426e-02" rms="1.2300545722246170e-01" purity="1.0000000000000000e+00" nType="-99"/>
        <Node pos="r" depth="1" NCoef="0" IVar="6" Cut="7.6228649902343750e+02" cType="0" res="-1.8299743533134460e-04" rms="2.9529538750648499e-01" purity="7.8430384397506714e-01" nType="0">
          <Node pos="l" depth="2" NCoef="0" IVar="-1" Cut="0.0000000000000000e+00" cType="1" res="1.1876699514687061e-02" rms="2.0981504023075104e-01" purity="9.3499130010604858e-01" nType="-99"/>
          <Node pos="r" depth="2" NCoef="0" IVar="-1" Cut="0.0000000000000000e+00" cType="1" res="-3.5460694925859571e-04" rms="2.9805886745452881e-01" purity="7.7855706214904785e-01" nType="-99"/>
        </Node>
      </Node>
    </BinaryTree>
    <BinaryTree type="DecisionTree" boostWeight="1.0000000000000000e+00" itree="900">
      <Node pos="s" depth="0" NCoef="0" IVar="9" Cut="2.9362788085937500e+03" cType="0" res="4.1362538468092680e-04" rms="2.9374054074287415e-01" purity="7.8557008504867554e-01" nType="0">
        <Node pos="l" depth="1" NCoef="0" IVar="-1" Cut="0.0000000000000000e+00" cType="1" res="4.1685592383146286e-02" rms="1.1118783801794052e-01" purity="9.8815166950225830e-01" nType="-99"/>
        <Node pos="r" depth="1" NCoef="0" IVar="9" Cut="2.9025149536132812e+02" cType="0" res="2.8266984736546874e-04" rms="2.9415848851203918e-01" purity="7.8488278388977051e-01" nType="0">
          <Node pos="l" depth="2" NCoef="0" IVar="-1" Cut="0.0000000000000000e+00" cType="1" res="1.2841074494645000e-03" rms="2.7658897638320923e-01" purity="8.3472913503646851e-01" nType="-99"/>
          <Node pos="r" depth="2" NCoef="0" IVar="-1" Cut="0.0000000000000000e+00" cType="1" res="-1.5899467980489135e-03" rms="3.2718068361282349e-01" purity="6.8277621269226074e-01" nType="-99"/>
        </Node>
      </Node>
    </BinaryTree>
    <BinaryTree type="DecisionTree" boostWeight="1.0000000000000000e+00" itree="901">
      <Node pos="s" depth="0" NCoef="0" IVar="31" Cut="2.3098530769348145e+00" cType="0" res="4.2527588084340096e-04" rms="2.9392483830451965e-01" purity="7.8544032573699951e-01" nType="0">
        <Node pos="l" depth="1" NCoef="0" IVar="-1" Cut="0.0000000000000000e+00" cType="1" res="1.3521634973585606e-03" rms="2.8481593728065491e-01" purity="8.0402922630310059e-01" nType="-99"/>
        <Node pos="r" depth="1" NCoef="0" IVar="1" Cut="1.8014117431640625e+03" cType="1" res="-2.1315638441592455e-03" rms="3.0503654479980469e-01" purity="7.6193070411682129e-01" nType="0">
          <Node pos="l" depth="2" NCoef="0" IVar="-1" Cut="0.0000000000000000e+00" cType="1" res="-3.9090570062398911e-03" rms="3.1066247820854187e-01" purity="7.6441931724548340e-01" nType="-99"/>
          <Node pos="r" depth="2" NCoef="0" IVar="-1" Cut="0.0000000000000000e+00" cType="1" res="3.8662857841700315e-03" rms="2.9524731636047363e-01" purity="7.5781965255737305e-01" nType="-99"/>
        </Node>
      </Node>
    </BinaryTree>
    <BinaryTree type="DecisionTree" boostWeight="1.0000000000000000e+00" itree="902">
      <Node pos="s" depth="0" NCoef="0" IVar="7" Cut="1.0729921875000000e+04" cType="0" res="-6.4586923690512776e-04" rms="2.9563489556312561e-01" purity="7.8383803367614746e-01" nType="0">
        <Node pos="l" depth="1" NCoef="0" IVar="-1" Cut="0.0000000000000000e+00" cType="1" res="1.1563629843294621e-02" rms="2.2700074315071106e-01" purity="9.3190091848373413e-01" nType="-99"/>
        <Node pos="r" depth="1" NCoef="0" IVar="23" Cut="1.0891237304687500e+04" cType="0" res="-9.5809815684333444e-04" rms="2.9699143767356873e-01" purity="7.8050142526626587e-01" nType="0">
          <Node pos="l" depth="2" NCoef="0" IVar="-1" Cut="0.0000000000000000e+00" cType="1" res="-9.0446854010224342e-03" rms="2.6997357606887817e-01" purity="8.6422908306121826e-01" nType="-99"/>
          <Node pos="r" depth="2" NCoef="0" IVar="-1" Cut="0.0000000000000000e+00" cType="1" res="-9.2014844994992018e-05" rms="2.9864686727523804e-01" purity="7.7505767345428467e-01" nType="-99"/>
        </Node>
      </Node>
    </BinaryTree>
    <BinaryTree type="DecisionTree" boostWeight="1.0000000000000000e+00" itree="903">
      <Node pos="s" depth="0" NCoef="0" IVar="22" Cut="9.4342742919921875e+02" cType="0" res="-7.6786102727055550e-04" rms="2.9470792412757874e-01" purity="7.8355652093887329e-01" nType="0">
        <Node pos="l" depth="1" NCoef="0" IVar="-1" Cut="0.0000000000000000e+00" cType="1" res="8.5927490144968033e-03" rms="2.6787814497947693e-01" purity="8.1565511226654053e-01" nType="-99"/>
        <Node pos="r" depth="1" NCoef="0" IVar="19" Cut="2.0998990625000000e+05" cType="1" res="-1.2608153047040105e-03" rms="2.9544031620025635e-01" purity="7.8261911869049072e-01" nType="0">
          <Node pos="l" depth="2" NCoef="0" IVar="-1" Cut="0.0000000000000000e+00" cType="1" res="-3.2971627661027014e-04" rms="2.9407596588134766e-01" purity="7.8549337387084961e-01" nType="-99"/>
          <Node pos="r" depth="2" NCoef="0" IVar="-1" Cut="0.0000000000000000e+00" cType="1" res="-5.0109159201383591e-03" rms="3.1499102711677551e-01" purity="7.3962461948394775e-01" nType="-99"/>
        </Node>
      </Node>
    </BinaryTree>
    <BinaryTree type="DecisionTree" boostWeight="1.0000000000000000e+00" itree="904">
      <Node pos="s" depth="0" NCoef="0" IVar="3" Cut="1.1994725585937500e+04" cType="0" res="-5.0761445891112089e-04" rms="2.9488158226013184e-01" purity="7.8508752584457397e-01" nType="0">
        <Node pos="l" depth="1" NCoef="0" IVar="-1" Cut="0.0000000000000000e+00" cType="1" res="4.2570423334836960e-02" rms="1.7974472045898438e-01" purity="8.9090907573699951e-01" nType="-99"/>
        <Node pos="r" depth="1" NCoef="0" IVar="25" Cut="2.1062028808593750e+03" cType="0" res="-5.7696434669196606e-04" rms="2.9495406150817871e-01" purity="7.8499418497085571e-01" nType="0">
          <Node pos="l" depth="2" NCoef="0" IVar="-1" Cut="0.0000000000000000e+00" cType="1" res="1.1669998057186604e-03" rms="2.7931761741638184e-01" purity="8.2412415742874146e-01" nType="-99"/>
          <Node pos="r" depth="2" NCoef="0" IVar="-1" Cut="0.0000000000000000e+00" cType="1" res="-1.8155453726649284e-03" rms="3.1341096758842468e-01" purity="7.3598062992095947e-01" nType="-99"/>
        </Node>
      </Node>
    </BinaryTree>
    <BinaryTree type="DecisionTree" boostWeight="1.0000000000000000e+00" itree="905">
      <Node pos="s" depth="0" NCoef="0" IVar="17" Cut="2.5019543750000000e+05" cType="0" res="9.3414232833310962e-04" rms="2.9412579536437988e-01" purity="7.8591930866241455e-01" nType="0">
        <Node pos="l" depth="1" NCoef="0" IVar="-1" Cut="0.0000000000000000e+00" cType="1" res="4.2216915637254715e-02" rms="1.7162986099720001e-01" purity="9.5833331346511841e-01" nType="-99"/>
        <Node pos="r" depth="1" NCoef="0" IVar="17" Cut="9.5532281250000000e+04" cType="0" res="8.3000818267464638e-04" rms="2.9432275891304016e-01" purity="7.8555357456207275e-01" nType="0">
          <Node pos="l" depth="2" NCoef="0" IVar="-1" Cut="0.0000000000000000e+00" cType="1" res="6.0686836950480938e-03" rms="2.8557595610618591e-01" purity="7.9503697156906128e-01" nType="-99"/>
          <Node pos="r" depth="2" NCoef="0" IVar="-1" Cut="0.0000000000000000e+00" cType="1" res="-3.3116382837761194e-05" rms="2.9501378536224365e-01" purity="7.8477257490158081e-01" nType="-99"/>
        </Node>
      </Node>
    </BinaryTree>
    <BinaryTree type="DecisionTree" boostWeight="1.0000000000000000e+00" itree="906">
      <Node pos="s" depth="0" NCoef="0" IVar="27" Cut="7.5578273437500000e+04" cType="0" res="-1.6587476420681924e-04" rms="2.9426148533821106e-01" purity="7.8472834825515747e-01" nType="0">
        <Node pos="l" depth="1" NCoef="0" IVar="-1" Cut="0.0000000000000000e+00" cType="1" res="-2.3376445751637220e-03" rms="2.9859700798988342e-01" purity="7.9046082496643066e-01" nType="-99"/>
        <Node pos="r" depth="1" NCoef="0" IVar="26" Cut="4.0799860839843750e+03" cType="0" res="1.5317413490265608e-03" rms="2.9255458712577820e-01" purity="7.8251755237579346e-01" nType="0">
          <Node pos="l" depth="2" NCoef="0" IVar="-1" Cut="0.0000000000000000e+00" cType="1" res="2.3810483980923891e-03" rms="2.8741499781608582e-01" purity="8.0121141672134399e-01" nType="-99"/>
          <Node pos="r" depth="2" NCoef="0" IVar="-1" Cut="0.0000000000000000e+00" cType="1" res="-2.0075342617928982e-03" rms="3.0202597379684448e-01" purity="7.4691456556320190e-01" nType="-99"/>
        </Node>
      </Node>
    </BinaryTree>
    <BinaryTree type="DecisionTree" boostWeight="1.0000000000000000e+00" itree="907">
      <Node pos="s" depth="0" NCoef="0" IVar="12" Cut="-9.0439189453125000e+03" cType="1" res="8.8423688430339098e-04" rms="2.9351940751075745e-01" purity="7.8579878807067871e-01" nType="0">
        <Node pos="l" depth="1" NCoef="0" IVar="-1" Cut="0.0000000000000000e+00" cType="1" res="5.7694055140018463e-02" rms="8.1720948219299316e-02" purity="9.9817520380020142e-01" nType="-99"/>
        <Node pos="r" depth="1" NCoef="0" IVar="3" Cut="2.1653886718750000e+03" cType="0" res="7.5626134639605880e-04" rms="2.9411214590072632e-01" purity="7.8485810756683350e-01" nType="0">
          <Node pos="l" depth="2" NCoef="0" IVar="-1" Cut="0.0000000000000000e+00" cType="1" res="5.7080673286691308e-04" rms="2.9445141553878784e-01" purity="7.8600388765335083e-01" nType="-99"/>
          <Node pos="r" depth="2" NCoef="0" IVar="-1" Cut="0.0000000000000000e+00" cType="1" res="-5.0631999038159847e-03" rms="2.8386935591697693e-01" purity="7.5146198272705078e-01" nType="-99"/>
        </Node>
      </Node>
    </BinaryTree>
    <BinaryTree type="DecisionTree" boostWeight="1.0000000000000000e+00" itree="908">
      <Node pos="s" depth="0" NCoef="0" IVar="9" Cut="1.6433538818359375e+03" cType="0" res="-1.7971977285924368e-05" rms="2.9378405213356018e-01" purity="7.8543424606323242e-01" nType="0">
        <Node pos="l" depth="1" NCoef="0" IVar="-1" Cut="0.0000000000000000e+00" cType="1" res="1.3108523562550545e-02" rms="1.8324393033981323e-01" purity="9.6275013685226440e-01" nType="-99"/>
        <Node pos="r" depth="1" NCoef="0" IVar="1" Cut="2.8441103515625000e+03" cType="1" res="-5.0683878362178802e-04" rms="2.9754269123077393e-01" purity="7.7794057130813599e-01" nType="0">
          <Node pos="l" depth="2" NCoef="0" IVar="-1" Cut="0.0000000000000000e+00" cType="1" res="2.2028360035619698e-05" rms="2.9395875334739685e-01" purity="7.8608620166778564e-01" nType="-99"/>
          <Node pos="r" depth="2" NCoef="0" IVar="-1" Cut="0.0000000000000000e+00" cType="1" res="-7.4969283305108547e-03" rms="4.0001842379570007e-01" purity="5.0189894437789917e-01" nType="-99"/>
        </Node>
      </Node>
    </BinaryTree>
    <BinaryTree type="DecisionTree" boostWeight="1.0000000000000000e+00" itree="909">
      <Node pos="s" depth="0" NCoef="0" IVar="19" Cut="2.0998990625000000e+05" cType="1" res="-1.0396248399047181e-05" rms="2.9465600848197937e-01" purity="7.8422969579696655e-01" nType="0">
        <Node pos="l" depth="1" NCoef="0" IVar="-1" Cut="0.0000000000000000e+00" cType="1" res="2.5663588894531131e-04" rms="2.9342910647392273e-01" purity="7.8685325384140015e-01" nType="-99"/>
        <Node pos="r" depth="1" NCoef="0" IVar="0" Cut="1.0285714149475098e+01" cType="1" res="-7.5778923928737640e-03" rms="3.1266880035400391e-01" purity="7.4422848224639893e-01" nType="0">
          <Node pos="l" depth="2" NCoef="0" IVar="-1" Cut="0.0000000000000000e+00" cType="1" res="-6.5525213722139597e-04" rms="3.0900377035140991e-01" purity="8.0392754077911377e-01" nType="-99"/>
          <Node pos="r" depth="2" NCoef="0" IVar="-1" Cut="0.0000000000000000e+00" cType="1" res="-1.5433613210916519e-02" rms="3.3130356669425964e-01" purity="3.8706740736961365e-01" nType="-99"/>
        </Node>
      </Node>
    </BinaryTree>
    <BinaryTree type="DecisionTree" boostWeight="1.0000000000000000e+00" itree="910">
      <Node pos="s" depth="0" NCoef="0" IVar="4" Cut="9.5234422683715820e+00" cType="0" res="-2.2617739887209609e-05" rms="2.9389351606369019e-01" purity="7.8555601835250854e-01" nType="0">
        <Node pos="l" depth="1" NCoef="0" IVar="-1" Cut="0.0000000000000000e+00" cType="1" res="5.4094251245260239e-03" rms="2.2285453975200653e-01" purity="9.2419517040252686e-01" nType="-99"/>
        <Node pos="r" depth="1" NCoef="0" IVar="32" Cut="2.9051263332366943e+00" cType="1" res="-9.0117700165137649e-04" rms="3.0232065916061401e-01" purity="7.6655626296997070e-01" nType="0">
          <Node pos="l" depth="2" NCoef="0" IVar="-1" Cut="0.0000000000000000e+00" cType="1" res="-4.4614218495553359e-05" rms="3.0120915174484253e-01" purity="7.7122873067855835e-01" nType="-99"/>
          <Node pos="r" depth="2" NCoef="0" IVar="-1" Cut="0.0000000000000000e+00" cType="1" res="-7.6108290813863277e-03" rms="3.2375207543373108e-01" purity="6.7108595371246338e-01" nType="-99"/>
        </Node>
      </Node>
    </BinaryTree>
    <BinaryTree type="DecisionTree" boostWeight="1.0000000000000000e+00" itree="911">
      <Node pos="s" depth="0" NCoef="0" IVar="31" Cut="4.8100562095642090e+00" cType="0" res="-1.1407767888158560e-03" rms="2.9480227828025818e-01" purity="7.8410726785659790e-01" nType="0">
        <Node pos="l" depth="1" NCoef="0" IVar="-1" Cut="0.0000000000000000e+00" cType="1" res="1.4964365400373936e-03" rms="2.7202153205871582e-01" purity="8.1848597526550293e-01" nType="-99"/>
        <Node pos="r" depth="1" NCoef="0" IVar="9" Cut="1.4857548828125000e+03" cType="0" res="-2.3068364243954420e-03" rms="3.0169811844825745e-01" purity="7.7314084768295288e-01" nType="0">
          <Node pos="l" depth="2" NCoef="0" IVar="-1" Cut="0.0000000000000000e+00" cType="1" res="1.5824921429157257e-02" rms="1.8213017284870148e-01" purity="9.6517670154571533e-01" nType="-99"/>
          <Node pos="r" depth="2" NCoef="0" IVar="-1" Cut="0.0000000000000000e+00" cType="1" res="-1.4837968628853559e-03" rms="3.0571585893630981e-01" purity="7.6500070095062256e-01" nType="-99"/>
        </Node>
      </Node>
    </BinaryTree>
    <BinaryTree type="DecisionTree" boostWeight="1.0000000000000000e+00" itree="912">
      <Node pos="s" depth="0" NCoef="0" IVar="23" Cut="2.3912603515625000e+04" cType="0" res="2.6841688668355346e-04" rms="2.9332593083381653e-01" purity="7.8469425439834595e-01" nType="0">
        <Node pos="l" depth="1" NCoef="0" IVar="-1" Cut="0.0000000000000000e+00" cType="1" res="4.0349476039409637e-02" rms="1.5094234049320221e-01" purity="9.5505619049072266e-01" nType="-99"/>
        <Node pos="r" depth="1" NCoef="0" IVar="7" Cut="2.2543435058593750e+03" cType="0" res="1.7401756485924125e-04" rms="2.9354915022850037e-01" purity="7.8433018922805786e-01" nType="0">
          <Node pos="l" depth="2" NCoef="0" IVar="-1" Cut="0.0000000000000000e+00" cType="1" res="8.8104151654988527e-04" rms="2.8147298097610474e-01" purity="8.2297194004058838e-01" nType="-99"/>
          <Node pos="r" depth="2" NCoef="0" IVar="-1" Cut="0.0000000000000000e+00" cType="1" res="-1.4959543477743864e-03" rms="3.2164925336837769e-01" purity="6.8803799152374268e-01" nType="-99"/>
        </Node>
      </Node>
    </BinaryTree>
    <BinaryTree type="DecisionTree" boostWeight="1.0000000000000000e+00" itree="913">
      <Node pos="s" depth="0" NCoef="0" IVar="4" Cut="3.5712995529174805e+00" cType="0" res="1.7128205217886716e-04" rms="2.9412716627120972e-01" purity="7.8498989343643188e-01" nType="0">
        <Node pos="l" depth="1" NCoef="0" IVar="-1" Cut="0.0000000000000000e+00" cType="1" res="-1.8156288424506783e-03" rms="2.6333332061767578e-01" purity="8.7008970975875854e-01" nType="-99"/>
        <Node pos="r" depth="1" NCoef="0" IVar="1" Cut="1.6390532226562500e+03" cType="0" res="1.6466130036860704e-03" rms="3.0855694413185120e-01" purity="7.4184560775756836e-01" nType="0">
          <Node pos="l" depth="2" NCoef="0" IVar="-1" Cut="0.0000000000000000e+00" cType="1" res="2.8734288644045591e-03" rms="2.9681855440139771e-01" purity="7.6067590713500977e-01" nType="-99"/>
          <Node pos="r" depth="2" NCoef="0" IVar="-1" Cut="0.0000000000000000e+00" cType="1" res="-1.2729990994557738e-03" rms="3.2106158137321472e-01" purity="7.2088104486465454e-01" nType="-99"/>
        </Node>
      </Node>
    </BinaryTree>
    <BinaryTree type="DecisionTree" boostWeight="1.0000000000000000e+00" itree="914">
      <Node pos="s" depth="0" NCoef="0" IVar="2" Cut="7.1419522166252136e-02" cType="1" res="1.5151736442930996e-04" rms="2.9482850432395935e-01" purity="7.8471261262893677e-01" nType="0">
        <Node pos="l" depth="1" NCoef="0" IVar="-1" Cut="0.0000000000000000e+00" cType="1" res="-8.8536308612674475e-04" rms="2.7478334307670593e-01" purity="8.4400767087936401e-01" nType="-99"/>
        <Node pos="r" depth="1" NCoef="0" IVar="0" Cut="8.4285717010498047e+00" cType="1" res="3.3863603603094816e-03" rms="3.3119738101959229e-01" purity="6.6639447212219238e-01" nType="0">
          <Node pos="l" depth="2" NCoef="0" IVar="-1" Cut="0.0000000000000000e+00" cType="1" res="-1.7963126301765442e-03" rms="3.0873128771781921e-01" purity="8.1613391637802124e-01" nType="-99"/>
          <Node pos="r" depth="2" NCoef="0" IVar="-1" Cut="0.0000000000000000e+00" cType="1" res="4.1227466426789761e-03" rms="3.5554012656211853e-01" purity="4.9097737669944763e-01" nType="-99"/>
        </Node>
      </Node>
    </BinaryTree>
    <BinaryTree type="DecisionTree" boostWeight="1.0000000000000000e+00" itree="915">
      <Node pos="s" depth="0" NCoef="0" IVar="18" Cut="1.8949934840202332e-01" cType="0" res="9.0924499090760946e-04" rms="2.9401355981826782e-01" purity="7.8583937883377075e-01" nType="0">
        <Node pos="l" depth="1" NCoef="0" IVar="-1" Cut="0.0000000000000000e+00" cType="1" res="1.6485961154103279e-02" rms="2.3509305715560913e-01" purity="9.1938775777816772e-01" nType="-99"/>
        <Node pos="r" depth="1" NCoef="0" IVar="18" Cut="6.3161753118038177e-02" cType="0" res="7.3087908094748855e-04" rms="2.9442703723907471e-01" purity="7.8477978706359863e-01" nType="0">
          <Node pos="l" depth="2" NCoef="0" IVar="-1" Cut="0.0000000000000000e+00" cType="1" res="-1.1596594005823135e-02" rms="3.0651432275772095e-01" purity="8.3068239688873291e-01" nType="-99"/>
          <Node pos="r" depth="2" NCoef="0" IVar="-1" Cut="0.0000000000000000e+00" cType="1" res="5.6197866797447205e-04" rms="2.9421663284301758e-01" purity="7.8404390811920166e-01" nType="-99"/>
        </Node>
      </Node>
    </BinaryTree>
    <BinaryTree type="DecisionTree" boostWeight="1.0000000000000000e+00" itree="916">
      <Node pos="s" depth="0" NCoef="0" IVar="2" Cut="1.4283904433250427e-01" cType="1" res="-7.4918684549629688e-04" rms="2.9485121369361877e-01" purity="7.8378683328628540e-01" nType="0">
        <Node pos="l" depth="1" NCoef="0" IVar="-1" Cut="0.0000000000000000e+00" cType="1" res="-1.1193482205271721e-03" rms="2.8351727128028870e-01" purity="8.2142454385757446e-01" nType="-99"/>
        <Node pos="r" depth="1" NCoef="0" IVar="5" Cut="-5.4335480928421021e-01" cType="0" res="3.5949675366282463e-03" rms="3.3183482289314270e-01" purity="6.5057253837585449e-01" nType="0">
          <Node pos="l" depth="2" NCoef="0" IVar="-1" Cut="0.0000000000000000e+00" cType="1" res="2.9679685831069946e-03" rms="3.3025726675987244e-01" purity="6.8530321121215820e-01" nType="-99"/>
          <Node pos="r" depth="2" NCoef="0" IVar="-1" Cut="0.0000000000000000e+00" cType="1" res="-4.6945936046540737e-03" rms="3.3865430951118469e-01" purity="4.8820364475250244e-01" nType="-99"/>
        </Node>
      </Node>
    </BinaryTree>
    <BinaryTree type="DecisionTree" boostWeight="1.0000000000000000e+00" itree="917">
      <Node pos="s" depth="0" NCoef="0" IVar="0" Cut="1.4000000000000000e+01" cType="1" res="-4.3596414616331458e-04" rms="2.9407000541687012e-01" purity="7.8402960300445557e-01" nType="0">
        <Node pos="l" depth="1" NCoef="0" IVar="-1" Cut="0.0000000000000000e+00" cType="1" res="-2.0702100300695747e-04" rms="2.9168409109115601e-01" purity="8.1169247627258301e-01" nType="-99"/>
        <Node pos="r" depth="1" NCoef="0" IVar="5" Cut="-4.4590207934379578e-01" cType="0" res="-1.2799140531569719e-03" rms="3.3155891299247742e-01" purity="3.1977158784866333e-01" nType="0">
          <Node pos="l" depth="2" NCoef="0" IVar="-1" Cut="0.0000000000000000e+00" cType="1" res="4.0665445849299431e-03" rms="3.4374579787254333e-01" purity="3.5904985666275024e-01" nType="-99"/>
          <Node pos="r" depth="2" NCoef="0" IVar="-1" Cut="0.0000000000000000e+00" cType="1" res="-1.4868828468024731e-02" rms="2.9421237111091614e-01" purity="2.1507064998149872e-01" nType="-99"/>
        </Node>
      </Node>
    </BinaryTree>
    <BinaryTree type="DecisionTree" boostWeight="1.0000000000000000e+00" itree="918">
      <Node pos="s" depth="0" NCoef="0" IVar="1" Cut="2.3031530761718750e+03" cType="1" res="-1.3545430556405336e-04" rms="2.9418188333511353e-01" purity="7.8525429964065552e-01" nType="0">
        <Node pos="l" depth="1" NCoef="0" IVar="-1" Cut="0.0000000000000000e+00" cType="1" res="4.6565456432290375e-04" rms="2.9293289780616760e-01" purity="7.9547214508056641e-01" nType="-99"/>
        <Node pos="r" depth="1" NCoef="0" IVar="9" Cut="4.8389053344726562e+02" cType="0" res="-5.5934917181730270e-03" rms="3.0064207315444946e-01" purity="7.3121649026870728e-01" nType="0">
          <Node pos="l" depth="2" NCoef="0" IVar="-1" Cut="0.0000000000000000e+00" cType="1" res="-1.0043903253972530e-02" rms="2.7293106913566589e-01" purity="8.3584141731262207e-01" nType="-99"/>
          <Node pos="r" depth="2" NCoef="0" IVar="-1" Cut="0.0000000000000000e+00" cType="1" res="8.8974721729755402e-03" rms="3.7835782766342163e-01" purity="3.7538939714431763e-01" nType="-99"/>
        </Node>
      </Node>
    </BinaryTree>
    <BinaryTree type="DecisionTree" boostWeight="1.0000000000000000e+00" itree="919">
      <Node pos="s" depth="0" NCoef="0" IVar="2" Cut="4.7613013535737991e-02" cType="1" res="-6.0285325162112713e-04" rms="2.9404640197753906e-01" purity="7.8471297025680542e-01" nType="0">
        <Node pos="l" depth="1" NCoef="0" IVar="-1" Cut="0.0000000000000000e+00" cType="1" res="1.0145192500203848e-03" rms="2.6377087831497192e-01" purity="8.6657124757766724e-01" nType="-99"/>
        <Node pos="r" depth="1" NCoef="0" IVar="32" Cut="2.1433610916137695e+00" cType="0" res="-3.5374388098716736e-03" rms="3.3030739426612854e-01" purity="6.7490398883819580e-01" nType="0">
          <Node pos="l" depth="2" NCoef="0" IVar="-1" Cut="0.0000000000000000e+00" cType="1" res="-6.6917915828526020e-03" rms="3.1348225474357605e-01" purity="6.9658988714218140e-01" nType="-99"/>
          <Node pos="r" depth="2" NCoef="0" IVar="-1" Cut="0.0000000000000000e+00" cType="1" res="-4.0064565837383270e-04" rms="3.3417290449142456e-01" purity="6.6969352960586548e-01" nType="-99"/>
        </Node>
      </Node>
    </BinaryTree>
    <BinaryTree type="DecisionTree" boostWeight="1.0000000000000000e+00" itree="920">
      <Node pos="s" depth="0" NCoef="0" IVar="0" Cut="1.4000000000000000e+01" cType="1" res="5.3321849554777145e-04" rms="2.9361632466316223e-01" purity="7.8494632244110107e-01" nType="0">
        <Node pos="l" depth="1" NCoef="0" IVar="-1" Cut="0.0000000000000000e+00" cType="1" res="2.8118060436099768e-04" rms="2.9133099317550659e-01" purity="8.1187790632247925e-01" nType="-99"/>
        <Node pos="r" depth="1" NCoef="0" IVar="17" Cut="8.7512976562500000e+04" cType="0" res="6.7405711160972714e-04" rms="3.3018660545349121e-01" purity="3.2535538077354431e-01" nType="0">
          <Node pos="l" depth="2" NCoef="0" IVar="-1" Cut="0.0000000000000000e+00" cType="1" res="2.2020699456334114e-02" rms="3.6126285791397095e-01" purity="4.6563574671745300e-01" nType="-99"/>
          <Node pos="r" depth="2" NCoef="0" IVar="-1" Cut="0.0000000000000000e+00" cType="1" res="-1.9480012124404311e-03" rms="3.2659903168678284e-01" purity="3.1242078542709351e-01" nType="-99"/>
        </Node>
      </Node>
    </BinaryTree>
    <BinaryTree type="DecisionTree" boostWeight="1.0000000000000000e+00" itree="921">
      <Node pos="s" depth="0" NCoef="0" IVar="9" Cut="7.6663940429687500e+02" cType="0" res="-3.4980720374733210e-04" rms="2.9325062036514282e-01" purity="7.8450816869735718e-01" nType="0">
        <Node pos="l" depth="1" NCoef="0" IVar="-1" Cut="0.0000000000000000e+00" cType="1" res="3.3723134547472000e-03" rms="2.4635541439056396e-01" purity="9.1668188571929932e-01" nType="-99"/>
        <Node pos="r" depth="1" NCoef="0" IVar="1" Cut="1.8929570312500000e+03" cType="1" res="-1.3510428834706545e-03" rms="3.0229470133781433e-01" purity="7.5634521245956421e-01" nType="0">
          <Node pos="l" depth="2" NCoef="0" IVar="-1" Cut="0.0000000000000000e+00" cType="1" res="1.2169824913144112e-03" rms="2.9051968455314636e-01" purity="8.0009973049163818e-01" nType="-99"/>
          <Node pos="r" depth="2" NCoef="0" IVar="-1" Cut="0.0000000000000000e+00" cType="1" res="-6.3228183425962925e-03" rms="3.4474021196365356e-01" purity="5.8252799510955811e-01" nType="-99"/>
        </Node>
      </Node>
    </BinaryTree>
    <BinaryTree type="DecisionTree" boostWeight="1.0000000000000000e+00" itree="922">
      <Node pos="s" depth="0" NCoef="0" IVar="1" Cut="2.6440297851562500e+03" cType="1" res="-4.4520458322949708e-04" rms="2.9419362545013428e-01" purity="7.8479331731796265e-01" nType="0">
        <Node pos="l" depth="1" NCoef="0" IVar="-1" Cut="0.0000000000000000e+00" cType="1" res="1.0411101538920775e-04" rms="2.9352450370788574e-01" purity="7.8831875324249268e-01" nType="-99"/>
        <Node pos="r" depth="1" NCoef="0" IVar="9" Cut="4.9467422485351562e+02" cType="0" res="-6.9495970383286476e-03" rms="3.0077242851257324e-01" purity="7.4928623437881470e-01" nType="0">
          <Node pos="l" depth="2" NCoef="0" IVar="-1" Cut="0.0000000000000000e+00" cType="1" res="-1.0202717967331409e-02" rms="2.7841266989707947e-01" purity="8.3372265100479126e-01" nType="-99"/>
          <Node pos="r" depth="2" NCoef="0" IVar="-1" Cut="0.0000000000000000e+00" cType="1" res="1.1748341843485832e-02" rms="3.9590778946876526e-01" purity="3.0502793192863464e-01" nType="-99"/>
        </Node>
      </Node>
    </BinaryTree>
    <BinaryTree type="DecisionTree" boostWeight="1.0000000000000000e+00" itree="923">
      <Node pos="s" depth="0" NCoef="0" IVar="14" Cut="8.2706279296875000e+03" cType="0" res="6.3132907962426543e-04" rms="2.9419076442718506e-01" purity="7.8518056869506836e-01" nType="0">
        <Node pos="l" depth="1" NCoef="0" IVar="-1" Cut="0.0000000000000000e+00" cType="1" res="-9.8084561526775360e-02" rms="2.7326354384422302e-01" purity="8.9772725105285645e-01" nType="-99"/>
        <Node pos="r" depth="1" NCoef="0" IVar="9" Cut="2.9362788085937500e+03" cType="0" res="6.7798286909237504e-04" rms="2.9419982433319092e-01" purity="7.8510093688964844e-01" nType="0">
          <Node pos="l" depth="2" NCoef="0" IVar="-1" Cut="0.0000000000000000e+00" cType="1" res="3.4479033201932907e-02" rms="1.2727488577365875e-01" purity="9.8341232538223267e-01" nType="-99"/>
          <Node pos="r" depth="2" NCoef="0" IVar="-1" Cut="0.0000000000000000e+00" cType="1" res="3.0333190807141364e-04" rms="2.9460179805755615e-01" purity="7.8442573547363281e-01" nType="-99"/>
        </Node>
      </Node>
    </BinaryTree>
    <BinaryTree type="DecisionTree" boostWeight="1.0000000000000000e+00" itree="924">
      <Node pos="s" depth="0" NCoef="0" IVar="35" Cut="1.1580952453613281e+02" cType="0" res="-5.1927199820056558e-04" rms="2.9463875293731689e-01" purity="7.8485751152038574e-01" nType="0">
        <Node pos="l" depth="1" NCoef="0" IVar="-1" Cut="0.0000000000000000e+00" cType="1" res="-5.2948686061426997e-04" rms="2.9426187276840210e-01" purity="7.8568631410598755e-01" nType="-99"/>
        <Node pos="r" depth="1" NCoef="0" IVar="0" Cut="4.7142858505249023e+00" cType="1" res="1.2139363214373589e-02" rms="3.0401334166526794e-01" purity="7.6327770948410034e-01" nType="0">
          <Node pos="l" depth="2" NCoef="0" IVar="-1" Cut="0.0000000000000000e+00" cType="1" res="-1.1922056786715984e-02" rms="2.7031582593917847e-01" purity="8.9731049537658691e-01" nType="-99"/>
          <Node pos="r" depth="2" NCoef="0" IVar="-1" Cut="0.0000000000000000e+00" cType="1" res="7.9654948785901070e-03" rms="3.1048688292503357e-01" purity="7.3438733816146851e-01" nType="-99"/>
        </Node>
      </Node>
    </BinaryTree>
    <BinaryTree type="DecisionTree" boostWeight="1.0000000000000000e+00" itree="925">
      <Node pos="s" depth="0" NCoef="0" IVar="7" Cut="4.2958872070312500e+03" cType="0" res="2.9163336148485541e-04" rms="2.9413887858390808e-01" purity="7.8493863344192505e-01" nType="0">
        <Node pos="l" depth="1" NCoef="0" IVar="-1" Cut="0.0000000000000000e+00" cType="1" res="2.2977776825428009e-03" rms="2.6886075735092163e-01" purity="8.6079686880111694e-01" nType="-99"/>
        <Node pos="r" depth="1" NCoef="0" IVar="3" Cut="4.9050966796875000e+03" cType="1" res="-1.3001349288970232e-03" rms="3.0519035458564758e-01" purity="7.4959117174148560e-01" nType="0">
          <Node pos="l" depth="2" NCoef="0" IVar="-1" Cut="0.0000000000000000e+00" cType="1" res="6.6135602537542582e-05" rms="3.0267944931983948e-01" purity="7.5992286205291748e-01" nType="-99"/>
          <Node pos="r" depth="2" NCoef="0" IVar="-1" Cut="0.0000000000000000e+00" cType="1" res="-9.9236005917191505e-03" rms="3.4478399157524109e-01" purity="5.7099825143814087e-01" nType="-99"/>
        </Node>
      </Node>
    </BinaryTree>
    <BinaryTree type="DecisionTree" boostWeight="1.0000000000000000e+00" itree="926">
      <Node pos="s" depth="0" NCoef="0" IVar="2" Cut="3.5709759593009949e-01" cType="1" res="5.6958565255627036e-04" rms="2.9380688071250916e-01" purity="7.8585988283157349e-01" nType="0">
        <Node pos="l" depth="1" NCoef="0" IVar="-1" Cut="0.0000000000000000e+00" cType="1" res="-2.1357678633648902e-05" rms="2.9068857431411743e-01" purity="7.9724967479705811e-01" nType="-99"/>
        <Node pos="r" depth="1" NCoef="0" IVar="1" Cut="3.6724606933593750e+03" cType="1" res="1.0241386480629444e-02" rms="3.3933171629905701e-01" purity="6.0511708259582520e-01" nType="0">
          <Node pos="l" depth="2" NCoef="0" IVar="-1" Cut="0.0000000000000000e+00" cType="1" res="4.6669449657201767e-03" rms="3.3854028582572937e-01" purity="6.0659313201904297e-01" nType="-99"/>
          <Node pos="r" depth="2" NCoef="0" IVar="-1" Cut="0.0000000000000000e+00" cType="1" res="-1.0132170468568802e-01" rms="3.8350757956504822e-01" purity="3.6956521868705750e-01" nType="-99"/>
        </Node>
      </Node>
    </BinaryTree>
    <BinaryTree type="DecisionTree" boostWeight="1.0000000000000000e+00" itree="927">
      <Node pos="s" depth="0" NCoef="0" IVar="0" Cut="1.4000000000000000e+01" cType="1" res="-5.5864430032670498e-04" rms="2.9392609000205994e-01" purity="7.8453665971755981e-01" nType="0">
        <Node pos="l" depth="1" NCoef="0" IVar="-1" Cut="0.0000000000000000e+00" cType="1" res="-1.6947218682616949e-04" rms="2.9153698682785034e-01" purity="8.1163638830184937e-01" nType="-99"/>
        <Node pos="r" depth="1" NCoef="0" IVar="17" Cut="8.7512976562500000e+04" cType="0" res="-4.7100400552153587e-03" rms="3.3211413025856018e-01" purity="3.2099303603172302e-01" nType="0">
          <Node pos="l" depth="2" NCoef="0" IVar="-1" Cut="0.0000000000000000e+00" cType="1" res="1.9262691959738731e-02" rms="3.5660749673843384e-01" purity="4.6128499507904053e-01" nType="-99"/>
          <Node pos="r" depth="2" NCoef="0" IVar="-1" Cut="0.0000000000000000e+00" cType="1" res="-4.0215426124632359e-03" rms="3.2910367846488953e-01" purity="3.0743512511253357e-01" nType="-99"/>
        </Node>
      </Node>
    </BinaryTree>
    <BinaryTree type="DecisionTree" boostWeight="1.0000000000000000e+00" itree="928">
      <Node pos="s" depth="0" NCoef="0" IVar="2" Cut="4.7613013535737991e-02" cType="1" res="-8.4682117449119687e-04" rms="2.9497188329696655e-01" purity="7.8517609834671021e-01" nType="0">
        <Node pos="l" depth="1" NCoef="0" IVar="-1" Cut="0.0000000000000000e+00" cType="1" res="6.0409004800021648e-04" rms="2.6403111219406128e-01" purity="8.6690264940261841e-01" nType="-99"/>
        <Node pos="r" depth="1" NCoef="0" IVar="26" Cut="1.0379992187500000e+05" cType="1" res="-3.2581614796072245e-03" rms="3.3213984966278076e-01" purity="6.7499148845672607e-01" nType="0">
          <Node pos="l" depth="2" NCoef="0" IVar="-1" Cut="0.0000000000000000e+00" cType="1" res="-1.3045958476141095e-03" rms="3.3196422457695007e-01" purity="6.7500567436218262e-01" nType="-99"/>
          <Node pos="r" depth="2" NCoef="0" IVar="-1" Cut="0.0000000000000000e+00" cType="1" res="-7.5835637748241425e-02" rms="4.5009952783584595e-01" purity="6.6000002622604370e-01" nType="-99"/>
        </Node>
      </Node>
    </BinaryTree>
    <BinaryTree type="DecisionTree" boostWeight="1.0000000000000000e+00" itree="929">
      <Node pos="s" depth="0" NCoef="0" IVar="18" Cut="2.3711383342742920e-02" cType="0" res="-2.1272791491355747e-04" rms="2.9514613747596741e-01" purity="7.8486609458923340e-01" nType="0">
        <Node pos="l" depth="1" NCoef="0" IVar="-1" Cut="0.0000000000000000e+00" cType="1" res="-4.6939831227064133e-03" rms="2.9822990298271179e-01" purity="8.2738459110260010e-01" nType="-99"/>
        <Node pos="r" depth="1" NCoef="0" IVar="18" Cut="7.9021286219358444e-03" cType="0" res="2.4138137814588845e-04" rms="2.9496905207633972e-01" purity="7.8253006935119629e-01" nType="0">
          <Node pos="l" depth="2" NCoef="0" IVar="-1" Cut="0.0000000000000000e+00" cType="1" res="-4.3533626012504101e-03" rms="2.9505431652069092e-01" purity="8.2776415348052979e-01" nType="-99"/>
          <Node pos="r" depth="2" NCoef="0" IVar="-1" Cut="0.0000000000000000e+00" cType="1" res="5.6724430760368705e-04" rms="2.9494726657867432e-01" purity="7.7769148349761963e-01" nType="-99"/>
        </Node>
      </Node>
    </BinaryTree>
    <BinaryTree type="DecisionTree" boostWeight="1.0000000000000000e+00" itree="930">
      <Node pos="s" depth="0" NCoef="0" IVar="11" Cut="1.1904650688171387e+01" cType="1" res="-2.3692980175837874e-04" rms="2.9453659057617188e-01" purity="7.8452724218368530e-01" nType="0">
        <Node pos="l" depth="1" NCoef="0" IVar="-1" Cut="0.0000000000000000e+00" cType="1" res="1.3617962831631303e-03" rms="2.7733293175697327e-01" purity="8.3410227298736572e-01" nType="-99"/>
        <Node pos="r" depth="1" NCoef="0" IVar="1" Cut="1.9284299316406250e+03" cType="1" res="-2.1739937365055084e-03" rms="3.0673423409461975e-01" purity="7.4752640724182129e-01" nType="0">
          <Node pos="l" depth="2" NCoef="0" IVar="-1" Cut="0.0000000000000000e+00" cType="1" res="3.8148026214912534e-04" rms="3.0550494790077209e-01" purity="7.7144747972488403e-01" nType="-99"/>
          <Node pos="r" depth="2" NCoef="0" IVar="-1" Cut="0.0000000000000000e+00" cType="1" res="-4.6051945537328720e-03" rms="3.0947780609130859e-01" purity="6.9161862134933472e-01" nType="-99"/>
        </Node>
      </Node>
    </BinaryTree>
    <BinaryTree type="DecisionTree" boostWeight="1.0000000000000000e+00" itree="931">
      <Node pos="s" depth="0" NCoef="0" IVar="17" Cut="2.5025700000000000e+05" cType="0" res="-1.1702440679073334e-04" rms="2.9357081651687622e-01" purity="7.8483897447586060e-01" nType="0">
        <Node pos="l" depth="1" NCoef="0" IVar="-1" Cut="0.0000000000000000e+00" cType="1" res="3.1057920306921005e-02" rms="2.0724739134311676e-01" purity="9.4941633939743042e-01" nType="-99"/>
        <Node pos="r" depth="1" NCoef="0" IVar="26" Cut="1.2847044921875000e+04" cType="0" res="-1.9400009477976710e-04" rms="2.9371753334999084e-01" purity="7.8449994325637817e-01" nType="0">
          <Node pos="l" depth="2" NCoef="0" IVar="-1" Cut="0.0000000000000000e+00" cType="1" res="2.2258537355810404e-03" rms="2.7742895483970642e-01" purity="8.4258204698562622e-01" nType="-99"/>
          <Node pos="r" depth="2" NCoef="0" IVar="-1" Cut="0.0000000000000000e+00" cType="1" res="-6.2959239585325122e-04" rms="2.9772788286209106e-01" purity="7.6965886354446411e-01" nType="-99"/>
        </Node>
      </Node>
    </BinaryTree>
    <BinaryTree type="DecisionTree" boostWeight="1.0000000000000000e+00" itree="932">
      <Node pos="s" depth="0" NCoef="0" IVar="9" Cut="8.4069299316406250e+02" cType="0" res="-1.1783148511312902e-04" rms="2.9413029551506042e-01" purity="7.8470623493194580e-01" nType="0">
        <Node pos="l" depth="1" NCoef="0" IVar="-1" Cut="0.0000000000000000e+00" cType="1" res="4.5868586748838425e-03" rms="2.3537783324718475e-01" purity="9.2853075265884399e-01" nType="-99"/>
        <Node pos="r" depth="1" NCoef="0" IVar="1" Cut="2.0766623535156250e+03" cType="1" res="-1.1444096453487873e-03" rms="3.0362772941589355e-01" purity="7.5842851400375366e-01" nType="0">
          <Node pos="l" depth="2" NCoef="0" IVar="-1" Cut="0.0000000000000000e+00" cType="1" res="3.8824873627163470e-04" rms="2.9190260171890259e-01" purity="7.9761266708374023e-01" nType="-99"/>
          <Node pos="r" depth="2" NCoef="0" IVar="-1" Cut="0.0000000000000000e+00" cType="1" res="-5.3812237456440926e-03" rms="3.8145998120307922e-01" purity="4.5787185430526733e-01" nType="-99"/>
        </Node>
      </Node>
    </BinaryTree>
    <BinaryTree type="DecisionTree" boostWeight="1.0000000000000000e+00" itree="933">
      <Node pos="s" depth="0" NCoef="0" IVar="17" Cut="1.8797882812500000e+05" cType="0" res="-3.3473355870228261e-05" rms="2.9352614283561707e-01" purity="7.8574752807617188e-01" nType="0">
        <Node pos="l" depth="1" NCoef="0" IVar="-1" Cut="0.0000000000000000e+00" cType="1" res="1.4494282193481922e-02" rms="2.5157329440116882e-01" purity="8.5325556993484497e-01" nType="-99"/>
        <Node pos="r" depth="1" NCoef="0" IVar="25" Cut="7.4478876953125000e+03" cType="1" res="-2.1647427638527006e-04" rms="2.9384335875511169e-01" purity="7.8518551588058472e-01" nType="0">
          <Node pos="l" depth="2" NCoef="0" IVar="-1" Cut="0.0000000000000000e+00" cType="1" res="-2.0119539112783968e-04" rms="2.9388681054115295e-01" purity="7.8528797626495361e-01" nType="-99"/>
          <Node pos="r" depth="2" NCoef="0" IVar="-1" Cut="0.0000000000000000e+00" cType="1" res="1.4098308980464935e-02" rms="2.8321066498756409e-01" purity="7.6489531993865967e-01" nType="-99"/>
        </Node>
      </Node>
    </BinaryTree>
    <BinaryTree type="DecisionTree" boostWeight="1.0000000000000000e+00" itree="934">
      <Node pos="s" depth="0" NCoef="0" IVar="29" Cut="3.2435928344726562e+01" cType="1" res="2.7173428679816425e-04" rms="2.9455310106277466e-01" purity="7.8538405895233154e-01" nType="0">
        <Node pos="l" depth="1" NCoef="0" IVar="24" Cut="3.4516899108886719e+01" cType="0" res="3.1924663926474750e-04" rms="2.9457876086235046e-01" purity="7.8570795059204102e-01" nType="0">
          <Node pos="l" depth="2" NCoef="0" IVar="-1" Cut="0.0000000000000000e+00" cType="1" res="5.0063785165548325e-02" rms="2.0669460296630859e-01" purity="8.7500000000000000e-01" nType="-99"/>
          <Node pos="r" depth="2" NCoef="0" IVar="-1" Cut="0.0000000000000000e+00" cType="1" res="1.4254778216127306e-04" rms="2.9459047317504883e-01" purity="7.8567928075790405e-01" nType="-99"/>
        </Node>
        <Node pos="r" depth="1" NCoef="0" IVar="-1" Cut="0.0000000000000000e+00" cType="1" res="-5.7562835514545441e-02" rms="2.1163734793663025e-01" purity="1.0169491171836853e-01" nType="-99"/>
      </Node>
    </BinaryTree>
    <BinaryTree type="DecisionTree" boostWeight="1.0000000000000000e+00" itree="935">
      <Node pos="s" depth="0" NCoef="0" IVar="0" Cut="1.4000000000000000e+01" cType="1" res="-5.0359795568510890e-04" rms="2.9365053772926331e-01" purity="7.8515088558197021e-01" nType="0">
        <Node pos="l" depth="1" NCoef="0" IVar="-1" Cut="0.0000000000000000e+00" cType="1" res="-1.8922162416856736e-04" rms="2.9148605465888977e-01" purity="8.1210821866989136e-01" nType="-99"/>
        <Node pos="r" depth="1" NCoef="0" IVar="25" Cut="4.1843139648437500e+03" cType="0" res="-3.1110779382288456e-03" rms="3.2858595252037048e-01" purity="3.2230925559997559e-01" nType="0">
          <Node pos="l" depth="2" NCoef="0" IVar="-1" Cut="0.0000000000000000e+00" cType="1" res="1.2618202716112137e-02" rms="3.0869385600090027e-01" purity="5.2182674407958984e-01" nType="-99"/>
          <Node pos="r" depth="2" NCoef="0" IVar="-1" Cut="0.0000000000000000e+00" cType="1" res="-5.3517725318670273e-03" rms="3.3312094211578369e-01" purity="2.6734504103660583e-01" nType="-99"/>
        </Node>
      </Node>
    </BinaryTree>
    <BinaryTree type="DecisionTree" boostWeight="1.0000000000000000e+00" itree="936">
      <Node pos="s" depth="0" NCoef="0" IVar="20" Cut="9.0476191043853760e-01" cType="0" res="-9.5194950699806213e-04" rms="2.9435959458351135e-01" purity="7.8440457582473755e-01" nType="0">
        <Node pos="l" depth="1" NCoef="0" IVar="-1" Cut="0.0000000000000000e+00" cType="1" res="-3.4522064379416406e-04" rms="2.9336515069007874e-01" purity="7.8928047418594360e-01" nType="-99"/>
        <Node pos="r" depth="1" NCoef="0" IVar="27" Cut="3.5225269531250000e+04" cType="0" res="-1.8261676654219627e-02" rms="3.4638646245002747e-01" purity="5.0375586748123169e-01" nType="0">
          <Node pos="l" depth="2" NCoef="0" IVar="-1" Cut="0.0000000000000000e+00" cType="1" res="1.0121187660843134e-03" rms="3.4763887524604797e-01" purity="5.5087524652481079e-01" nType="-99"/>
          <Node pos="r" depth="2" NCoef="0" IVar="-1" Cut="0.0000000000000000e+00" cType="1" res="-6.8229265511035919e-02" rms="3.0972212553024292e-01" purity="2.1854305267333984e-01" nType="-99"/>
        </Node>
      </Node>
    </BinaryTree>
    <BinaryTree type="DecisionTree" boostWeight="1.0000000000000000e+00" itree="937">
      <Node pos="s" depth="0" NCoef="0" IVar="0" Cut="1.4000000000000000e+01" cType="1" res="-3.1515650334767997e-04" rms="2.9447844624519348e-01" purity="7.8336685895919800e-01" nType="0">
        <Node pos="l" depth="1" NCoef="0" IVar="-1" Cut="0.0000000000000000e+00" cType="1" res="-1.3195505016483366e-04" rms="2.9222366213798523e-01" purity="8.0998331308364868e-01" nType="-99"/>
        <Node pos="r" depth="1" NCoef="0" IVar="11" Cut="1.3017855644226074e+01" cType="0" res="-1.4917739899829030e-03" rms="3.3095473051071167e-01" purity="3.2433226704597473e-01" nType="0">
          <Node pos="l" depth="2" NCoef="0" IVar="-1" Cut="0.0000000000000000e+00" cType="1" res="1.5702671371400356e-03" rms="3.3393391966819763e-01" purity="3.3784213662147522e-01" nType="-99"/>
          <Node pos="r" depth="2" NCoef="0" IVar="-1" Cut="0.0000000000000000e+00" cType="1" res="-2.6856537908315659e-02" rms="2.8535977005958557e-01" purity="1.6415093839168549e-01" nType="-99"/>
        </Node>
      </Node>
    </BinaryTree>
    <BinaryTree type="DecisionTree" boostWeight="1.0000000000000000e+00" itree="938">
      <Node pos="s" depth="0" NCoef="0" IVar="9" Cut="2.0885798339843750e+03" cType="0" res="1.4935577928554267e-04" rms="2.9487556219100952e-01" purity="7.8587812185287476e-01" nType="0">
        <Node pos="l" depth="1" NCoef="0" IVar="-1" Cut="0.0000000000000000e+00" cType="1" res="1.8744504079222679e-02" rms="1.7359715700149536e-01" purity="9.6827721595764160e-01" nType="-99"/>
        <Node pos="r" depth="1" NCoef="0" IVar="9" Cut="2.1559472656250000e+02" cType="0" res="-1.1977378017036244e-04" rms="2.9646781086921692e-01" purity="7.8284114599227905e-01" nType="0">
          <Node pos="l" depth="2" NCoef="0" IVar="-1" Cut="0.0000000000000000e+00" cType="1" res="8.7886018445715308e-04" rms="2.8594639897346497e-01" purity="8.1230103969573975e-01" nType="-99"/>
          <Node pos="r" depth="2" NCoef="0" IVar="-1" Cut="0.0000000000000000e+00" cType="1" res="-3.4406103659421206e-03" rms="3.4376272559165955e-01" purity="6.3685637712478638e-01" nType="-99"/>
        </Node>
      </Node>
    </BinaryTree>
    <BinaryTree type="DecisionTree" boostWeight="1.0000000000000000e+00" itree="939">
      <Node pos="s" depth="0" NCoef="0" IVar="1" Cut="3.6177341308593750e+03" cType="0" res="-2.6068848092108965e-04" rms="2.9382473230361938e-01" purity="7.8369277715682983e-01" nType="0">
        <Node pos="l" depth="1" NCoef="0" IVar="-1" Cut="0.0000000000000000e+00" cType="1" res="-1.4197144657373428e-02" rms="3.1995803117752075e-01" purity="8.1867754459381104e-01" nType="-99"/>
        <Node pos="r" depth="1" NCoef="0" IVar="9" Cut="6.8612670898437500e+02" cType="0" res="-2.0665136617026292e-05" rms="2.9349136352539062e-01" purity="7.8327643871307373e-01" nType="0">
          <Node pos="l" depth="2" NCoef="0" IVar="-1" Cut="0.0000000000000000e+00" cType="1" res="4.3180808424949646e-03" rms="2.5120928883552551e-01" purity="9.0896260738372803e-01" nType="-99"/>
          <Node pos="r" depth="2" NCoef="0" IVar="-1" Cut="0.0000000000000000e+00" cType="1" res="-7.4598717037588358e-04" rms="3.0319580435752869e-01" purity="7.5161486864089966e-01" nType="-99"/>
        </Node>
      </Node>
    </BinaryTree>
    <BinaryTree type="DecisionTree" boostWeight="1.0000000000000000e+00" itree="940">
      <Node pos="s" depth="0" NCoef="0" IVar="4" Cut="9.5234422683715820e+00" cType="0" res="-1.2419045669957995e-03" rms="2.9609996080398560e-01" purity="7.8246349096298218e-01" nType="0">
        <Node pos="l" depth="1" NCoef="0" IVar="-1" Cut="0.0000000000000000e+00" cType="1" res="3.3608423545956612e-03" rms="2.2520942986011505e-01" purity="9.2265969514846802e-01" nType="-99"/>
        <Node pos="r" depth="1" NCoef="0" IVar="31" Cut="1.6107767105102539e+01" cType="1" res="-1.9496808527037501e-03" rms="3.0447539687156677e-01" purity="7.6336550712585449e-01" nType="0">
          <Node pos="l" depth="2" NCoef="0" IVar="-1" Cut="0.0000000000000000e+00" cType="1" res="-1.0609475430101156e-03" rms="3.0427056550979614e-01" purity="7.6380074024200439e-01" nType="-99"/>
          <Node pos="r" depth="2" NCoef="0" IVar="-1" Cut="0.0000000000000000e+00" cType="1" res="1.4669361524283886e-02" rms="3.4807872772216797e-01" purity="6.5777778625488281e-01" nType="-99"/>
        </Node>
      </Node>
    </BinaryTree>
    <BinaryTree type="DecisionTree" boostWeight="1.0000000000000000e+00" itree="941">
      <Node pos="s" depth="0" NCoef="0" IVar="19" Cut="1.4335339062500000e+05" cType="1" res="4.7325101331807673e-04" rms="2.9427793622016907e-01" purity="7.8411877155303955e-01" nType="0">
        <Node pos="l" depth="1" NCoef="0" IVar="-1" Cut="0.0000000000000000e+00" cType="1" res="8.6617755005136132e-04" rms="2.9237797856330872e-01" purity="7.8856652975082397e-01" nType="-99"/>
        <Node pos="r" depth="1" NCoef="0" IVar="0" Cut="1.0285714149475098e+01" cType="1" res="-4.7978418879210949e-03" rms="3.0279821157455444e-01" purity="7.6368361711502075e-01" nType="0">
          <Node pos="l" depth="2" NCoef="0" IVar="-1" Cut="0.0000000000000000e+00" cType="1" res="5.2557887102011591e-05" rms="2.9405108094215393e-01" purity="8.2140070199966431e-01" nType="-99"/>
          <Node pos="r" depth="2" NCoef="0" IVar="-1" Cut="0.0000000000000000e+00" cType="1" res="-1.1994779109954834e-02" rms="3.5036569833755493e-01" purity="4.0852290391921997e-01" nType="-99"/>
        </Node>
      </Node>
    </BinaryTree>
    <BinaryTree type="DecisionTree" boostWeight="1.0000000000000000e+00" itree="942">
      <Node pos="s" depth="0" NCoef="0" IVar="0" Cut="1.4000000000000000e+01" cType="1" res="-2.7021960704587400e-04" rms="2.9444029927253723e-01" purity="7.8544747829437256e-01" nType="0">
        <Node pos="l" depth="1" NCoef="0" IVar="-1" Cut="0.0000000000000000e+00" cType="1" res="-3.2284155167872086e-05" rms="2.9209232330322266e-01" purity="8.1206738948822021e-01" nType="-99"/>
        <Node pos="r" depth="1" NCoef="0" IVar="6" Cut="4.1774463653564453e+01" cType="1" res="-3.9218375459313393e-03" rms="3.3259177207946777e-01" purity="3.2276993989944458e-01" nType="0">
          <Node pos="l" depth="2" NCoef="0" IVar="-1" Cut="0.0000000000000000e+00" cType="1" res="8.5109745850786567e-04" rms="3.3265486359596252e-01" purity="3.2566314935684204e-01" nType="-99"/>
          <Node pos="r" depth="2" NCoef="0" IVar="-1" Cut="0.0000000000000000e+00" cType="1" res="-2.7684828266501427e-02" rms="3.2410401105880737e-01" purity="2.9032257199287415e-01" nType="-99"/>
        </Node>
      </Node>
    </BinaryTree>
    <BinaryTree type="DecisionTree" boostWeight="1.0000000000000000e+00" itree="943">
      <Node pos="s" depth="0" NCoef="0" IVar="0" Cut="1.4000000000000000e+01" cType="1" res="6.4634968293830752e-04" rms="2.9342696070671082e-01" purity="7.8520643711090088e-01" nType="0">
        <Node pos="l" depth="1" NCoef="0" IVar="-1" Cut="0.0000000000000000e+00" cType="1" res="3.4379598218947649e-04" rms="2.9115468263626099e-01" purity="8.1258380413055420e-01" nType="-99"/>
        <Node pos="r" depth="1" NCoef="0" IVar="12" Cut="-4.4936397552490234e+01" cType="1" res="7.4216211214661598e-04" rms="3.2954287528991699e-01" purity="3.2149532437324524e-01" nType="0">
          <Node pos="l" depth="2" NCoef="0" IVar="-1" Cut="0.0000000000000000e+00" cType="1" res="1.1568809859454632e-02" rms="3.4588056802749634e-01" purity="4.4960835576057434e-01" nType="-99"/>
          <Node pos="r" depth="2" NCoef="0" IVar="-1" Cut="0.0000000000000000e+00" cType="1" res="-4.5014154165983200e-03" rms="3.2232278585433960e-01" purity="2.7281746268272400e-01" nType="-99"/>
        </Node>
      </Node>
    </BinaryTree>
    <BinaryTree type="DecisionTree" boostWeight="1.0000000000000000e+00" itree="944">
      <Node pos="s" depth="0" NCoef="0" IVar="27" Cut="2.2212696875000000e+05" cType="1" res="6.1235047178342938e-04" rms="2.9371061921119690e-01" purity="7.8479498624801636e-01" nType="0">
        <Node pos="l" depth="1" NCoef="0" IVar="-1" Cut="0.0000000000000000e+00" cType="1" res="4.6474038390442729e-04" rms="2.9297235608100891e-01" purity="7.8498041629791260e-01" nType="-99"/>
        <Node pos="r" depth="1" NCoef="0" IVar="20" Cut="-9.0446114540100098e-01" cType="1" res="-1.8285689875483513e-02" rms="3.4080192446708679e-01" purity="7.7185016870498657e-01" nType="0">
          <Node pos="l" depth="2" NCoef="0" IVar="-1" Cut="0.0000000000000000e+00" cType="1" res="5.7262010872364044e-02" rms="2.0368392765522003e-01" purity="9.2156863212585449e-01" nType="-99"/>
          <Node pos="r" depth="2" NCoef="0" IVar="-1" Cut="0.0000000000000000e+00" cType="1" res="-1.0758570395410061e-02" rms="3.4250509738922119e-01" purity="7.6738750934600830e-01" nType="-99"/>
        </Node>
      </Node>
    </BinaryTree>
    <BinaryTree type="DecisionTree" boostWeight="1.0000000000000000e+00" itree="945">
      <Node pos="s" depth="0" NCoef="0" IVar="14" Cut="2.3179091796875000e+03" cType="0" res="-8.6203726823441684e-06" rms="2.9517918825149536e-01" purity="7.8332799673080444e-01" nType="0">
        <Node pos="l" depth="1" NCoef="0" IVar="-1" Cut="0.0000000000000000e+00" cType="1" res="-1.3348232954740524e-02" rms="2.6976612210273743e-01" purity="8.8607048988342285e-01" nType="-99"/>
        <Node pos="r" depth="1" NCoef="0" IVar="14" Cut="3.4845745849609375e+02" cType="0" res="3.3305340912193060e-04" rms="2.9563120007514954e-01" purity="7.8137224912643433e-01" nType="0">
          <Node pos="l" depth="2" NCoef="0" IVar="-1" Cut="0.0000000000000000e+00" cType="1" res="-1.5031159855425358e-03" rms="2.8172639012336731e-01" purity="8.1786620616912842e-01" nType="-99"/>
          <Node pos="r" depth="2" NCoef="0" IVar="-1" Cut="0.0000000000000000e+00" cType="1" res="1.9992380402982235e-03" rms="3.1293731927871704e-01" purity="7.3337376117706299e-01" nType="-99"/>
        </Node>
      </Node>
    </BinaryTree>
    <BinaryTree type="DecisionTree" boostWeight="1.0000000000000000e+00" itree="946">
      <Node pos="s" depth="0" NCoef="0" IVar="9" Cut="7.6663940429687500e+02" cType="0" res="4.1441788198426366e-04" rms="2.9404735565185547e-01" purity="7.8469681739807129e-01" nType="0">
        <Node pos="l" depth="1" NCoef="0" IVar="-1" Cut="0.0000000000000000e+00" cType="1" res="4.1571729816496372e-03" rms="2.4543727934360504e-01" purity="9.1728639602661133e-01" nType="-99"/>
        <Node pos="r" depth="1" NCoef="0" IVar="1" Cut="1.8755104980468750e+03" cType="1" res="-6.4108840888366103e-04" rms="3.0341818928718567e-01" purity="7.5635772943496704e-01" nType="0">
          <Node pos="l" depth="2" NCoef="0" IVar="-1" Cut="0.0000000000000000e+00" cType="1" res="1.2660584179684520e-03" rms="2.9169765114784241e-01" purity="7.9936295747756958e-01" nType="-99"/>
          <Node pos="r" depth="2" NCoef="0" IVar="-1" Cut="0.0000000000000000e+00" cType="1" res="-4.8296265304088593e-03" rms="3.4297752380371094e-01" purity="5.9769535064697266e-01" nType="-99"/>
        </Node>
      </Node>
    </BinaryTree>
    <BinaryTree type="DecisionTree" boostWeight="1.0000000000000000e+00" itree="947">
      <Node pos="s" depth="0" NCoef="0" IVar="7" Cut="1.0732369140625000e+04" cType="0" res="-1.1017695214832202e-04" rms="2.9397720098495483e-01" purity="7.8441447019577026e-01" nType="0">
        <Node pos="l" depth="1" NCoef="0" IVar="-1" Cut="0.0000000000000000e+00" cType="1" res="1.1499151587486267e-02" rms="2.2231890261173248e-01" purity="9.3133497238159180e-01" nType="-99"/>
        <Node pos="r" depth="1" NCoef="0" IVar="7" Cut="5.2034320068359375e+02" cType="0" res="-4.2078457772731781e-04" rms="2.9545235633850098e-01" purity="7.8094494342803955e-01" nType="0">
          <Node pos="l" depth="2" NCoef="0" IVar="-1" Cut="0.0000000000000000e+00" cType="1" res="1.2685891124419868e-04" rms="2.9431441426277161e-01" purity="7.8823715448379517e-01" nType="-99"/>
          <Node pos="r" depth="2" NCoef="0" IVar="-1" Cut="0.0000000000000000e+00" cType="1" res="-1.1428003199398518e-02" rms="3.3589369058609009e-01" purity="4.9604222178459167e-01" nType="-99"/>
        </Node>
      </Node>
    </BinaryTree>
    <BinaryTree type="DecisionTree" boostWeight="1.0000000000000000e+00" itree="948">
      <Node pos="s" depth="0" NCoef="0" IVar="2" Cut="1.4283904433250427e-01" cType="1" res="-9.3970482703298330e-04" rms="2.9481846094131470e-01" purity="7.8375732898712158e-01" nType="0">
        <Node pos="l" depth="1" NCoef="0" IVar="-1" Cut="0.0000000000000000e+00" cType="1" res="-1.0534205939620733e-03" rms="2.8386300802230835e-01" purity="8.2159328460693359e-01" nType="-99"/>
        <Node pos="r" depth="1" NCoef="0" IVar="0" Cut="8.4285717010498047e+00" cType="1" res="2.2993872407823801e-03" rms="3.3082863688468933e-01" purity="6.4921832084655762e-01" nType="0">
          <Node pos="l" depth="2" NCoef="0" IVar="-1" Cut="0.0000000000000000e+00" cType="1" res="-2.6834034360945225e-03" rms="3.1052771210670471e-01" purity="8.1287997961044312e-01" nType="-99"/>
          <Node pos="r" depth="2" NCoef="0" IVar="-1" Cut="0.0000000000000000e+00" cType="1" res="3.4948149695992470e-03" rms="3.4882771968841553e-01" purity="4.9405822157859802e-01" nType="-99"/>
        </Node>
      </Node>
    </BinaryTree>
    <BinaryTree type="DecisionTree" boostWeight="1.0000000000000000e+00" itree="949">
      <Node pos="s" depth="0" NCoef="0" IVar="11" Cut="2.3808914184570312e+01" cType="1" res="-1.0402178158983588e-03" rms="2.9497680068016052e-01" purity="7.8351861238479614e-01" nType="0">
        <Node pos="l" depth="1" NCoef="0" IVar="-1" Cut="0.0000000000000000e+00" cType="1" res="-8.2035688683390617e-04" rms="2.9439973831176758e-01" purity="7.8692752122879028e-01" nType="-99"/>
        <Node pos="r" depth="1" NCoef="0" IVar="13" Cut="3.4648798828125000e+03" cType="0" res="6.6480878740549088e-03" rms="3.0348828434944153e-01" purity="7.3183053731918335e-01" nType="0">
          <Node pos="l" depth="2" NCoef="0" IVar="-1" Cut="0.0000000000000000e+00" cType="1" res="-1.1192987672984600e-02" rms="2.9548004269599915e-01" purity="7.8303748369216919e-01" nType="-99"/>
          <Node pos="r" depth="2" NCoef="0" IVar="-1" Cut="0.0000000000000000e+00" cType="1" res="7.6735587790608406e-03" rms="3.0568012595176697e-01" purity="7.1358287334442139e-01" nType="-99"/>
        </Node>
      </Node>
    </BinaryTree>
    <BinaryTree type="DecisionTree" boostWeight="1.0000000000000000e+00" itree="950">
      <Node pos="s" depth="0" NCoef="0" IVar="32" Cut="4.2731251716613770e+00" cType="0" res="1.5204694354906678e-03" rms="2.9319354891777039e-01" purity="7.8601640462875366e-01" nType="0">
        <Node pos="l" depth="1" NCoef="0" IVar="-1" Cut="0.0000000000000000e+00" cType="1" res="-6.1958292499184608e-03" rms="2.5704586505889893e-01" purity="8.4860718250274658e-01" nType="-99"/>
        <Node pos="r" depth="1" NCoef="0" IVar="32" Cut="1.4318941831588745e+00" cType="0" res="1.9482332281768322e-03" rms="2.9458966851234436e-01" purity="7.8341960906982422e-01" nType="0">
          <Node pos="l" depth="2" NCoef="0" IVar="-1" Cut="0.0000000000000000e+00" cType="1" res="-3.7158120539970696e-04" rms="2.8065559267997742e-01" purity="8.0399048328399658e-01" nType="-99"/>
          <Node pos="r" depth="2" NCoef="0" IVar="-1" Cut="0.0000000000000000e+00" cType="1" res="1.7721528420224786e-03" rms="3.0301588773727417e-01" purity="7.7047860622406006e-01" nType="-99"/>
        </Node>
      </Node>
    </BinaryTree>
    <BinaryTree type="DecisionTree" boostWeight="1.0000000000000000e+00" itree="951">
      <Node pos="s" depth="0" NCoef="0" IVar="14" Cut="5.0623779296875000e+03" cType="0" res="4.8434713971801102e-04" rms="2.9352486133575439e-01" purity="7.8606051206588745e-01" nType="0">
        <Node pos="l" depth="1" NCoef="0" IVar="-1" Cut="0.0000000000000000e+00" cType="1" res="-4.5137103646993637e-02" rms="2.4733662605285645e-01" purity="9.1922003030776978e-01" nType="-99"/>
        <Node pos="r" depth="1" NCoef="0" IVar="7" Cut="6.4405654296875000e+03" cType="0" res="5.8680016081780195e-04" rms="2.9364180564880371e-01" purity="7.8567510843276978e-01" nType="0">
          <Node pos="l" depth="2" NCoef="0" IVar="-1" Cut="0.0000000000000000e+00" cType="1" res="4.3005608022212982e-03" rms="2.5584155321121216e-01" purity="8.8522744178771973e-01" nType="-99"/>
          <Node pos="r" depth="2" NCoef="0" IVar="-1" Cut="0.0000000000000000e+00" cType="1" res="-1.0476336319698021e-04" rms="2.9848876595497131e-01" purity="7.7189457416534424e-01" nType="-99"/>
        </Node>
      </Node>
    </BinaryTree>
    <BinaryTree type="DecisionTree" boostWeight="1.0000000000000000e+00" itree="952">
      <Node pos="s" depth="0" NCoef="0" IVar="26" Cut="1.6040534375000000e+05" cType="0" res="-2.8090487467125058e-04" rms="2.9451692104339600e-01" purity="7.8434085845947266e-01" nType="0">
        <Node pos="l" depth="1" NCoef="0" IVar="-1" Cut="0.0000000000000000e+00" cType="1" res="-4.2851120233535767e-02" rms="3.1772032380104065e-01" purity="8.3908045291900635e-01" nType="-99"/>
        <Node pos="r" depth="1" NCoef="0" IVar="7" Cut="2.3072691406250000e+04" cType="0" res="-2.3454184702131897e-04" rms="2.9449483752250671e-01" purity="7.8430253267288208e-01" nType="0">
          <Node pos="l" depth="2" NCoef="0" IVar="-1" Cut="0.0000000000000000e+00" cType="1" res="-1.0601771622896194e-01" rms="3.1808018684387207e-01" purity="8.4444445371627808e-01" nType="-99"/>
          <Node pos="r" depth="2" NCoef="0" IVar="-1" Cut="0.0000000000000000e+00" cType="1" res="-1.0473734437255189e-04" rms="2.9447993636131287e-01" purity="7.8428077697753906e-01" nType="-99"/>
        </Node>
      </Node>
    </BinaryTree>
    <BinaryTree type="DecisionTree" boostWeight="1.0000000000000000e+00" itree="953">
      <Node pos="s" depth="0" NCoef="0" IVar="0" Cut="1.5857142448425293e+01" cType="1" res="4.4543269905261695e-04" rms="2.9450544714927673e-01" purity="7.8583115339279175e-01" nType="0">
        <Node pos="l" depth="1" NCoef="0" IVar="-1" Cut="0.0000000000000000e+00" cType="1" res="1.5487987184314989e-05" rms="2.9269030690193176e-01" purity="8.0751979351043701e-01" nType="-99"/>
        <Node pos="r" depth="1" NCoef="0" IVar="4" Cut="1.7237927913665771e+00" cType="0" res="9.2867445200681686e-03" rms="3.3057138323783875e-01" purity="3.2542794942855835e-01" nType="0">
          <Node pos="l" depth="2" NCoef="0" IVar="-1" Cut="0.0000000000000000e+00" cType="1" res="1.7123721539974213e-02" rms="3.5546484589576721e-01" purity="4.2884370684623718e-01" nType="-99"/>
          <Node pos="r" depth="2" NCoef="0" IVar="-1" Cut="0.0000000000000000e+00" cType="1" res="-2.1258676424622536e-03" rms="3.1916302442550659e-01" purity="2.8507685661315918e-01" nType="-99"/>
        </Node>
      </Node>
    </BinaryTree>
    <BinaryTree type="DecisionTree" boostWeight="1.0000000000000000e+00" itree="954">
      <Node pos="s" depth="0" NCoef="0" IVar="9" Cut="1.2355228271484375e+03" cType="0" res="3.3572019310668111e-04" rms="2.9368618130683899e-01" purity="7.8379654884338379e-01" nType="0">
        <Node pos="l" depth="1" NCoef="0" IVar="-1" Cut="0.0000000000000000e+00" cType="1" res="7.9713677987456322e-03" rms="2.0530192553997040e-01" purity="9.5151573419570923e-01" nType="-99"/>
        <Node pos="r" depth="1" NCoef="0" IVar="1" Cut="3.8050612792968750e+03" cType="1" res="-3.0749570578336716e-04" rms="3.0012577772140503e-01" purity="7.6923477649688721e-01" nType="0">
          <Node pos="l" depth="2" NCoef="0" IVar="-1" Cut="0.0000000000000000e+00" cType="1" res="-2.3820568458177149e-04" rms="2.9990234971046448e-01" purity="7.6944071054458618e-01" nType="-99"/>
          <Node pos="r" depth="2" NCoef="0" IVar="-1" Cut="0.0000000000000000e+00" cType="1" res="1.0650298744440079e-01" rms="4.8628637194633484e-01" purity="4.3661972880363464e-01" nType="-99"/>
        </Node>
      </Node>
    </BinaryTree>
    <BinaryTree type="DecisionTree" boostWeight="1.0000000000000000e+00" itree="955">
      <Node pos="s" depth="0" NCoef="0" IVar="3" Cut="4.4709638671875000e+03" cType="1" res="3.8932781899347901e-04" rms="2.9445192217826843e-01" purity="7.8534179925918579e-01" nType="0">
        <Node pos="l" depth="1" NCoef="0" IVar="-1" Cut="0.0000000000000000e+00" cType="1" res="-3.8449850399047136e-04" rms="2.9382872581481934e-01" purity="7.8817683458328247e-01" nType="-99"/>
        <Node pos="r" depth="1" NCoef="0" IVar="8" Cut="5.7177386283874512e+00" cType="0" res="5.6495810858905315e-03" rms="2.9732376337051392e-01" purity="7.7194029092788696e-01" nType="0">
          <Node pos="l" depth="2" NCoef="0" IVar="-1" Cut="0.0000000000000000e+00" cType="1" res="-2.0063385367393494e-02" rms="3.0117833614349365e-01" purity="8.3349281549453735e-01" nType="-99"/>
          <Node pos="r" depth="2" NCoef="0" IVar="-1" Cut="0.0000000000000000e+00" cType="1" res="5.7995053939521313e-03" rms="2.9620420932769775e-01" purity="7.6161950826644897e-01" nType="-99"/>
        </Node>
      </Node>
    </BinaryTree>
    <BinaryTree type="DecisionTree" boostWeight="1.0000000000000000e+00" itree="956">
      <Node pos="s" depth="0" NCoef="0" IVar="32" Cut="1.5334827899932861e+00" cType="0" res="1.2118051527068019e-03" rms="2.9370221495628357e-01" purity="7.8620636463165283e-01" nType="0">
        <Node pos="l" depth="1" NCoef="0" IVar="-1" Cut="0.0000000000000000e+00" cType="1" res="-1.2114373967051506e-03" rms="2.7749997377395630e-01" purity="8.1081080436706543e-01" nType="-99"/>
        <Node pos="r" depth="1" NCoef="0" IVar="3" Cut="3.8135246582031250e+03" cType="0" res="3.2152037601917982e-03" rms="3.0315029621124268e-01" purity="7.7118623256683350e-01" nType="0">
          <Node pos="l" depth="2" NCoef="0" IVar="-1" Cut="0.0000000000000000e+00" cType="1" res="5.9047103859484196e-03" rms="2.9270511865615845e-01" purity="7.9678899049758911e-01" nType="-99"/>
          <Node pos="r" depth="2" NCoef="0" IVar="-1" Cut="0.0000000000000000e+00" cType="1" res="-1.2359996326267719e-03" rms="3.1059727072715759e-01" purity="7.5205582380294800e-01" nType="-99"/>
        </Node>
      </Node>
    </BinaryTree>
    <BinaryTree type="DecisionTree" boostWeight="1.0000000000000000e+00" itree="957">
      <Node pos="s" depth="0" NCoef="0" IVar="0" Cut="1.4000000000000000e+01" cType="1" res="1.1821012012660503e-03" rms="2.9302132129669189e-01" purity="7.8718656301498413e-01" nType="0">
        <Node pos="l" depth="1" NCoef="0" IVar="-1" Cut="0.0000000000000000e+00" cType="1" res="7.5897807255387306e-04" rms="2.9055330157279968e-01" purity="8.1425589323043823e-01" nType="-99"/>
        <Node pos="r" depth="1" NCoef="0" IVar="11" Cut="2.3999549865722656e+01" cType="0" res="-2.6627294719219208e-03" rms="3.3208644390106201e-01" purity="3.2793289422988892e-01" nType="0">
          <Node pos="l" depth="2" NCoef="0" IVar="-1" Cut="0.0000000000000000e+00" cType="1" res="-1.8876042217016220e-02" rms="3.5040757060050964e-01" purity="3.3626589179039001e-01" nType="-99"/>
          <Node pos="r" depth="2" NCoef="0" IVar="-1" Cut="0.0000000000000000e+00" cType="1" res="2.1830634213984013e-03" rms="3.2809969782829285e-01" purity="3.2648557424545288e-01" nType="-99"/>
        </Node>
      </Node>
    </BinaryTree>
    <BinaryTree type="DecisionTree" boostWeight="1.0000000000000000e+00" itree="958">
      <Node pos="s" depth="0" NCoef="0" IVar="19" Cut="3.9859890625000000e+05" cType="0" res="-1.0781902819871902e-03" rms="2.9487872123718262e-01" purity="7.8429502248764038e-01" nType="0">
        <Node pos="l" depth="1" NCoef="0" IVar="-1" Cut="0.0000000000000000e+00" cType="1" res="2.1856283769011497e-02" rms="2.5944441556930542e-01" purity="8.5537916421890259e-01" nType="-99"/>
        <Node pos="r" depth="1" NCoef="0" IVar="27" Cut="2.7857291015625000e+04" cType="0" res="-1.2817347887903452e-03" rms="2.9501557350158691e-01" purity="7.8396993875503540e-01" nType="0">
          <Node pos="l" depth="2" NCoef="0" IVar="-1" Cut="0.0000000000000000e+00" cType="1" res="-1.3223917922005057e-03" rms="2.9382967948913574e-01" purity="7.8933334350585938e-01" nType="-99"/>
          <Node pos="r" depth="2" NCoef="0" IVar="-1" Cut="0.0000000000000000e+00" cType="1" res="3.0105605255812407e-03" rms="3.0170926451683044e-01" purity="7.5283980369567871e-01" nType="-99"/>
        </Node>
      </Node>
    </BinaryTree>
    <BinaryTree type="DecisionTree" boostWeight="1.0000000000000000e+00" itree="959">
      <Node pos="s" depth="0" NCoef="0" IVar="19" Cut="2.1056390625000000e+05" cType="1" res="1.9949008128605783e-04" rms="2.9339617490768433e-01" purity="7.8413367271423340e-01" nType="0">
        <Node pos="l" depth="1" NCoef="0" IVar="-1" Cut="0.0000000000000000e+00" cType="1" res="4.3103680945932865e-04" rms="2.9201114177703857e-01" purity="7.8689533472061157e-01" nType="-99"/>
        <Node pos="r" depth="1" NCoef="0" IVar="0" Cut="1.0285714149475098e+01" cType="1" res="-9.1354381293058395e-03" rms="3.1356167793273926e-01" purity="7.4212855100631714e-01" nType="0">
          <Node pos="l" depth="2" NCoef="0" IVar="-1" Cut="0.0000000000000000e+00" cType="1" res="-1.9638924859464169e-03" rms="3.1028237938880920e-01" purity="8.0134063959121704e-01" nType="-99"/>
          <Node pos="r" depth="2" NCoef="0" IVar="-1" Cut="0.0000000000000000e+00" cType="1" res="-1.3742598704993725e-02" rms="3.3049133419990540e-01" purity="3.9572191238403320e-01" nType="-99"/>
        </Node>
      </Node>
    </BinaryTree>
    <BinaryTree type="DecisionTree" boostWeight="1.0000000000000000e+00" itree="960">
      <Node pos="s" depth="0" NCoef="0" IVar="3" Cut="3.2170036621093750e+03" cType="0" res="-1.5867298934608698e-03" rms="2.9471048712730408e-01" purity="7.8295761346817017e-01" nType="0">
        <Node pos="l" depth="1" NCoef="0" IVar="-1" Cut="0.0000000000000000e+00" cType="1" res="-1.8367618322372437e-03" rms="2.9188036918640137e-01" purity="7.8891354799270630e-01" nType="-99"/>
        <Node pos="r" depth="1" NCoef="0" IVar="25" Cut="2.0553371582031250e+03" cType="1" res="1.4100193511694670e-03" rms="2.9939755797386169e-01" purity="7.7291595935821533e-01" nType="0">
          <Node pos="l" depth="2" NCoef="0" IVar="-1" Cut="0.0000000000000000e+00" cType="1" res="1.9989579450339079e-03" rms="2.9875791072845459e-01" purity="7.8393757343292236e-01" nType="-99"/>
          <Node pos="r" depth="2" NCoef="0" IVar="-1" Cut="0.0000000000000000e+00" cType="1" res="-1.8808338791131973e-02" rms="3.0565774440765381e-01" purity="6.2457019090652466e-01" nType="-99"/>
        </Node>
      </Node>
    </BinaryTree>
    <BinaryTree type="DecisionTree" boostWeight="1.0000000000000000e+00" itree="961">
      <Node pos="s" depth="0" NCoef="0" IVar="0" Cut="1.4000000000000000e+01" cType="1" res="-3.7708281888626516e-04" rms="2.9398015141487122e-01" purity="7.8515315055847168e-01" nType="0">
        <Node pos="l" depth="1" NCoef="0" IVar="-1" Cut="0.0000000000000000e+00" cType="1" res="-2.4529261281713843e-04" rms="2.9165685176849365e-01" purity="8.1178361177444458e-01" nType="-99"/>
        <Node pos="r" depth="1" NCoef="0" IVar="13" Cut="4.5447368164062500e+03" cType="0" res="9.9721725564450026e-04" rms="3.3164083957672119e-01" purity="3.2396426796913147e-01" nType="0">
          <Node pos="l" depth="2" NCoef="0" IVar="-1" Cut="0.0000000000000000e+00" cType="1" res="2.0960235968232155e-02" rms="3.5732787847518921e-01" purity="5.8977901935577393e-01" nType="-99"/>
          <Node pos="r" depth="2" NCoef="0" IVar="-1" Cut="0.0000000000000000e+00" cType="1" res="-2.4691338185220957e-03" rms="3.2773354649543762e-01" purity="2.9245129227638245e-01" nType="-99"/>
        </Node>
      </Node>
    </BinaryTree>
    <BinaryTree type="DecisionTree" boostWeight="1.0000000000000000e+00" itree="962">
      <Node pos="s" depth="0" NCoef="0" IVar="19" Cut="4.7653593750000000e+05" cType="1" res="-1.4850849402137101e-04" rms="2.9534146189689636e-01" purity="7.8458327054977417e-01" nType="0">
        <Node pos="l" depth="1" NCoef="0" IVar="-1" Cut="0.0000000000000000e+00" cType="1" res="-2.9181232093833387e-05" rms="2.9529803991317749e-01" purity="7.8458690643310547e-01" nType="-99"/>
        <Node pos="r" depth="1" NCoef="0" IVar="9" Cut="3.0032873535156250e+02" cType="0" res="-5.0656676292419434e-02" rms="3.1396552920341492e-01" purity="7.8260868787765503e-01" nType="0">
          <Node pos="l" depth="2" NCoef="0" IVar="-1" Cut="0.0000000000000000e+00" cType="1" res="1.0227256454527378e-02" rms="2.4771834909915924e-01" purity="8.9999997615814209e-01" nType="-99"/>
          <Node pos="r" depth="2" NCoef="0" IVar="-1" Cut="0.0000000000000000e+00" cType="1" res="-6.9382503628730774e-02" rms="3.8070750236511230e-01" purity="5.6250000000000000e-01" nType="-99"/>
        </Node>
      </Node>
    </BinaryTree>
    <BinaryTree type="DecisionTree" boostWeight="1.0000000000000000e+00" itree="963">
      <Node pos="s" depth="0" NCoef="0" IVar="20" Cut="-8.0952346324920654e-01" cType="0" res="-2.1866781753487885e-04" rms="2.9417526721954346e-01" purity="7.8539258241653442e-01" nType="0">
        <Node pos="l" depth="1" NCoef="0" IVar="-1" Cut="0.0000000000000000e+00" cType="1" res="3.8337384467013180e-05" rms="2.9364320635795593e-01" purity="7.8895205259323120e-01" nType="-99"/>
        <Node pos="r" depth="1" NCoef="0" IVar="2" Cut="3.0948308110237122e-01" cType="1" res="-2.4633571505546570e-02" rms="3.3493307232856750e-01" purity="4.8670756816864014e-01" nType="0">
          <Node pos="l" depth="2" NCoef="0" IVar="-1" Cut="0.0000000000000000e+00" cType="1" res="1.0189088061451912e-03" rms="3.3059418201446533e-01" purity="5.4693484306335449e-01" nType="-99"/>
          <Node pos="r" depth="2" NCoef="0" IVar="-1" Cut="0.0000000000000000e+00" cType="1" res="-3.4972403198480606e-02" rms="3.3605527877807617e-01" purity="3.3806145191192627e-01" nType="-99"/>
        </Node>
      </Node>
    </BinaryTree>
    <BinaryTree type="DecisionTree" boostWeight="1.0000000000000000e+00" itree="964">
      <Node pos="s" depth="0" NCoef="0" IVar="0" Cut="1.4000000000000000e+01" cType="1" res="1.6241757839452475e-04" rms="2.9374590516090393e-01" purity="7.8490608930587769e-01" nType="0">
        <Node pos="l" depth="1" NCoef="0" IVar="-1" Cut="0.0000000000000000e+00" cType="1" res="9.4181901658885181e-05" rms="2.9135090112686157e-01" purity="8.1226736307144165e-01" nType="-99"/>
        <Node pos="r" depth="1" NCoef="0" IVar="22" Cut="-4.6401176452636719e+01" cType="1" res="-4.6853947424096987e-05" rms="3.3157846331596375e-01" purity="3.2297956943511963e-01" nType="0">
          <Node pos="l" depth="2" NCoef="0" IVar="-1" Cut="0.0000000000000000e+00" cType="1" res="5.7526189833879471e-02" rms="2.2350308299064636e-01" purity="8.7820512056350708e-01" nType="-99"/>
          <Node pos="r" depth="2" NCoef="0" IVar="-1" Cut="0.0000000000000000e+00" cType="1" res="-1.1635399423539639e-03" rms="3.3308026194572449e-01" purity="3.1023830175399780e-01" nType="-99"/>
        </Node>
      </Node>
    </BinaryTree>
    <BinaryTree type="DecisionTree" boostWeight="1.0000000000000000e+00" itree="965">
      <Node pos="s" depth="0" NCoef="0" IVar="19" Cut="5.4400887500000000e+05" cType="1" res="-5.6211173068732023e-04" rms="2.9365661740303040e-01" purity="7.8421145677566528e-01" nType="0">
        <Node pos="l" depth="1" NCoef="0" IVar="-1" Cut="0.0000000000000000e+00" cType="1" res="-2.6737499865703285e-04" rms="2.9361128807067871e-01" purity="7.8424620628356934e-01" nType="-99"/>
        <Node pos="r" depth="1" NCoef="0" IVar="30" Cut="1.9014428853988647e+00" cType="1" res="-6.5838545560836792e-02" rms="3.3708065748214722e-01" purity="7.4285715818405151e-01" nType="0">
          <Node pos="l" depth="2" NCoef="0" IVar="-1" Cut="0.0000000000000000e+00" cType="1" res="3.6171242594718933e-02" rms="2.0559874176979065e-01" purity="8.7272727489471436e-01" nType="-99"/>
          <Node pos="r" depth="2" NCoef="0" IVar="-1" Cut="0.0000000000000000e+00" cType="1" res="-1.0155302286148071e-01" rms="3.9135101437568665e-01" purity="6.0000002384185791e-01" nType="-99"/>
        </Node>
      </Node>
    </BinaryTree>
    <BinaryTree type="DecisionTree" boostWeight="1.0000000000000000e+00" itree="966">
      <Node pos="s" depth="0" NCoef="0" IVar="26" Cut="5.8088332031250000e+04" cType="0" res="-1.0785523045342416e-04" rms="2.9333651065826416e-01" purity="7.8396749496459961e-01" nType="0">
        <Node pos="l" depth="1" NCoef="0" IVar="-1" Cut="0.0000000000000000e+00" cType="1" res="1.4402892440557480e-02" rms="2.4129851162433624e-01" purity="8.9772725105285645e-01" nType="-99"/>
        <Node pos="r" depth="1" NCoef="0" IVar="14" Cut="1.3952424316406250e+03" cType="0" res="-4.0419626748189330e-04" rms="2.9393768310546875e-01" purity="7.8249579668045044e-01" nType="0">
          <Node pos="l" depth="2" NCoef="0" IVar="-1" Cut="0.0000000000000000e+00" cType="1" res="-8.1399809569120407e-03" rms="2.6812443137168884e-01" purity="8.7648457288742065e-01" nType="-99"/>
          <Node pos="r" depth="2" NCoef="0" IVar="-1" Cut="0.0000000000000000e+00" cType="1" res="9.0171321062371135e-05" rms="2.9517140984535217e-01" purity="7.7774250507354736e-01" nType="-99"/>
        </Node>
      </Node>
    </BinaryTree>
    <BinaryTree type="DecisionTree" boostWeight="1.0000000000000000e+00" itree="967">
      <Node pos="s" depth="0" NCoef="0" IVar="0" Cut="1.7714284896850586e+01" cType="1" res="5.8861001161858439e-04" rms="2.9309478402137756e-01" purity="7.8582066297531128e-01" nType="0">
        <Node pos="l" depth="1" NCoef="0" IVar="-1" Cut="0.0000000000000000e+00" cType="1" res="5.0708098569884896e-04" rms="2.9322013258934021e-01" purity="8.0123978853225708e-01" nType="-99"/>
        <Node pos="r" depth="1" NCoef="0" IVar="24" Cut="1.6551437377929688e+01" cType="1" res="-1.2024804018437862e-02" rms="2.8849029541015625e-01" purity="2.5831922888755798e-01" nType="0">
          <Node pos="l" depth="2" NCoef="0" IVar="-1" Cut="0.0000000000000000e+00" cType="1" res="4.8447279259562492e-03" rms="2.9349228739738464e-01" purity="2.9256048798561096e-01" nType="-99"/>
          <Node pos="r" depth="2" NCoef="0" IVar="-1" Cut="0.0000000000000000e+00" cType="1" res="-2.2119149565696716e-02" rms="2.7619206905364990e-01" purity="2.0295202732086182e-01" nType="-99"/>
        </Node>
      </Node>
    </BinaryTree>
    <BinaryTree type="DecisionTree" boostWeight="1.0000000000000000e+00" itree="968">
      <Node pos="s" depth="0" NCoef="0" IVar="34" Cut="-7.1427416801452637e-01" cType="0" res="1.0375012643635273e-03" rms="2.9321035742759705e-01" purity="7.8577226400375366e-01" nType="0">
        <Node pos="l" depth="1" NCoef="0" IVar="-1" Cut="0.0000000000000000e+00" cType="1" res="5.1137193804606795e-04" rms="2.9326429963111877e-01" purity="7.8583145141601562e-01" nType="-99"/>
        <Node pos="r" depth="1" NCoef="0" IVar="24" Cut="1.1626446723937988e+01" cType="1" res="6.4114928245544434e-02" rms="2.2693569958209991e-01" purity="7.2868216037750244e-01" nType="0">
          <Node pos="l" depth="2" NCoef="0" IVar="-1" Cut="0.0000000000000000e+00" cType="1" res="5.4545756429433823e-02" rms="2.1933703124523163e-01" purity="8.3783781528472900e-01" nType="-99"/>
          <Node pos="r" depth="2" NCoef="0" IVar="-1" Cut="0.0000000000000000e+00" cType="1" res="-3.1624096445739269e-03" rms="2.1667446196079254e-01" purity="5.8181816339492798e-01" nType="-99"/>
        </Node>
      </Node>
    </BinaryTree>
    <BinaryTree type="DecisionTree" boostWeight="1.0000000000000000e+00" itree="969">
      <Node pos="s" depth="0" NCoef="0" IVar="5" Cut="2.0682981014251709e+00" cType="0" res="9.0738263679668307e-04" rms="2.9217550158500671e-01" purity="7.8654855489730835e-01" nType="0">
        <Node pos="l" depth="1" NCoef="0" IVar="-1" Cut="0.0000000000000000e+00" cType="1" res="8.7283663451671600e-03" rms="2.1158041059970856e-01" purity="9.4002914428710938e-01" nType="-99"/>
        <Node pos="r" depth="1" NCoef="0" IVar="32" Cut="3.5918478965759277e+00" cType="1" res="2.4875425151549280e-04" rms="2.9746860265731812e-01" purity="7.7472716569900513e-01" nType="0">
          <Node pos="l" depth="2" NCoef="0" IVar="-1" Cut="0.0000000000000000e+00" cType="1" res="4.9415766261518002e-04" rms="2.9711374640464783e-01" purity="7.7651304006576538e-01" nType="-99"/>
          <Node pos="r" depth="2" NCoef="0" IVar="-1" Cut="0.0000000000000000e+00" cType="1" res="-1.0117198340594769e-02" rms="3.0677056312561035e-01" purity="7.2344791889190674e-01" nType="-99"/>
        </Node>
      </Node>
    </BinaryTree>
    <BinaryTree type="DecisionTree" boostWeight="1.0000000000000000e+00" itree="970">
      <Node pos="s" depth="0" NCoef="0" IVar="24" Cut="1.1226819038391113e+01" cType="1" res="-5.2268424769863486e-04" rms="2.9472625255584717e-01" purity="7.8370732069015503e-01" nType="0">
        <Node pos="l" depth="1" NCoef="0" IVar="-1" Cut="0.0000000000000000e+00" cType="1" res="-1.4308185782283545e-03" rms="2.8538295626640320e-01" purity="8.1234717369079590e-01" nType="-99"/>
        <Node pos="r" depth="1" NCoef="0" IVar="0" Cut="8.4285717010498047e+00" cType="1" res="3.1639335211366415e-03" rms="3.1089216470718384e-01" purity="7.3186373710632324e-01" nType="0">
          <Node pos="l" depth="2" NCoef="0" IVar="-1" Cut="0.0000000000000000e+00" cType="1" res="-1.0944871464744210e-03" rms="2.8083023428916931e-01" purity="8.5824692249298096e-01" nType="-99"/>
          <Node pos="r" depth="2" NCoef="0" IVar="-1" Cut="0.0000000000000000e+00" cType="1" res="3.9964984171092510e-03" rms="3.5377815365791321e-01" purity="5.2860087156295776e-01" nType="-99"/>
        </Node>
      </Node>
    </BinaryTree>
    <BinaryTree type="DecisionTree" boostWeight="1.0000000000000000e+00" itree="971">
      <Node pos="s" depth="0" NCoef="0" IVar="13" Cut="1.2977002929687500e+04" cType="0" res="7.6119659934192896e-04" rms="2.9378420114517212e-01" purity="7.8645092248916626e-01" nType="0">
        <Node pos="l" depth="1" NCoef="0" IVar="-1" Cut="0.0000000000000000e+00" cType="1" res="-3.3923860639333725e-02" rms="2.5645792484283447e-01" purity="8.4423673152923584e-01" nType="-99"/>
        <Node pos="r" depth="1" NCoef="0" IVar="13" Cut="1.4606202392578125e+03" cType="1" res="8.7089266162365675e-04" rms="2.9386642575263977e-01" purity="7.8630179166793823e-01" nType="0">
          <Node pos="l" depth="2" NCoef="0" IVar="-1" Cut="0.0000000000000000e+00" cType="1" res="-2.3777007590979338e-03" rms="2.9129296541213989e-01" purity="8.0485641956329346e-01" nType="-99"/>
          <Node pos="r" depth="2" NCoef="0" IVar="-1" Cut="0.0000000000000000e+00" cType="1" res="1.1730041587725282e-03" rms="2.9456245899200439e-01" purity="7.8114342689514160e-01" nType="-99"/>
        </Node>
      </Node>
    </BinaryTree>
    <BinaryTree type="DecisionTree" boostWeight="1.0000000000000000e+00" itree="972">
      <Node pos="s" depth="0" NCoef="0" IVar="25" Cut="2.5296042480468750e+03" cType="0" res="2.9556680237874389e-04" rms="2.9408055543899536e-01" purity="7.8466755151748657e-01" nType="0">
        <Node pos="l" depth="1" NCoef="0" IVar="-1" Cut="0.0000000000000000e+00" cType="1" res="-1.8531855894252658e-03" rms="2.7052173018455505e-01" purity="8.3441275358200073e-01" nType="-99"/>
        <Node pos="r" depth="1" NCoef="0" IVar="3" Cut="4.1389438476562500e+03" cType="1" res="2.2447144147008657e-03" rms="3.0723208189010620e-01" purity="7.5505405664443970e-01" nType="0">
          <Node pos="l" depth="2" NCoef="0" IVar="-1" Cut="0.0000000000000000e+00" cType="1" res="-2.8927155653946102e-04" rms="3.0066967010498047e-01" purity="7.6754921674728394e-01" nType="-99"/>
          <Node pos="r" depth="2" NCoef="0" IVar="-1" Cut="0.0000000000000000e+00" cType="1" res="1.9730273634195328e-02" rms="4.1820770502090454e-01" purity="4.9118816852569580e-01" nType="-99"/>
        </Node>
      </Node>
    </BinaryTree>
    <BinaryTree type="DecisionTree" boostWeight="1.0000000000000000e+00" itree="973">
      <Node pos="s" depth="0" NCoef="0" IVar="1" Cut="1.5721202392578125e+03" cType="0" res="8.5160761955194175e-05" rms="2.9395124316215515e-01" purity="7.8487849235534668e-01" nType="0">
        <Node pos="l" depth="1" NCoef="0" IVar="-1" Cut="0.0000000000000000e+00" cType="1" res="-1.1307194363325834e-03" rms="2.9045289754867554e-01" purity="7.9818505048751831e-01" nType="-99"/>
        <Node pos="r" depth="1" NCoef="0" IVar="9" Cut="5.8899792480468750e+02" cType="1" res="3.4440020099282265e-03" rms="2.9931420087814331e-01" purity="7.6404982805252075e-01" nType="0">
          <Node pos="l" depth="2" NCoef="0" IVar="-1" Cut="0.0000000000000000e+00" cType="1" res="3.3524588216096163e-03" rms="2.9575470089912415e-01" purity="7.6784557104110718e-01" nType="-99"/>
          <Node pos="r" depth="2" NCoef="0" IVar="-1" Cut="0.0000000000000000e+00" cType="1" res="-9.4842433929443359e-02" rms="4.3648594617843628e-01" purity="4.5094662904739380e-01" nType="-99"/>
        </Node>
      </Node>
    </BinaryTree>
    <BinaryTree type="DecisionTree" boostWeight="1.0000000000000000e+00" itree="974">
      <Node pos="s" depth="0" NCoef="0" IVar="1" Cut="9.5094628906250000e+02" cType="0" res="1.2108024384360760e-04" rms="2.9328945279121399e-01" purity="7.8457450866699219e-01" nType="0">
        <Node pos="l" depth="1" NCoef="0" IVar="-1" Cut="0.0000000000000000e+00" cType="1" res="1.9042889471165836e-04" rms="2.9488569498062134e-01" purity="7.9543858766555786e-01" nType="-99"/>
        <Node pos="r" depth="1" NCoef="0" IVar="27" Cut="6.8901171875000000e+04" cType="0" res="-1.6985952854156494e-02" rms="1.4123176038265228e-01" purity="2.3455377668142319e-02" nType="0">
          <Node pos="l" depth="2" NCoef="0" IVar="-1" Cut="0.0000000000000000e+00" cType="1" res="2.9741041362285614e-02" rms="2.2825725376605988e-01" purity="6.5217390656471252e-02" nType="-99"/>
          <Node pos="r" depth="2" NCoef="0" IVar="-1" Cut="0.0000000000000000e+00" cType="1" res="-3.5037782043218613e-02" rms="1.1651730537414551e-01" purity="1.5625000000000000e-02" nType="-99"/>
        </Node>
      </Node>
    </BinaryTree>
    <BinaryTree type="DecisionTree" boostWeight="1.0000000000000000e+00" itree="975">
      <Node pos="s" depth="0" NCoef="0" IVar="14" Cut="3.8862817382812500e+03" cType="0" res="6.5283052390441298e-04" rms="2.9359620809555054e-01" purity="7.8564262390136719e-01" nType="0">
        <Node pos="l" depth="1" NCoef="0" IVar="-1" Cut="0.0000000000000000e+00" cType="1" res="-2.5721002370119095e-02" rms="2.5855010747909546e-01" purity="9.1366904973983765e-01" nType="-99"/>
        <Node pos="r" depth="1" NCoef="0" IVar="14" Cut="4.2304681396484375e+02" cType="0" res="7.9773546895012259e-04" rms="2.9377454519271851e-01" purity="7.8492462635040283e-01" nType="0">
          <Node pos="l" depth="2" NCoef="0" IVar="-1" Cut="0.0000000000000000e+00" cType="1" res="-9.3975826166570187e-04" rms="2.7415421605110168e-01" purity="8.3666360378265381e-01" nType="-99"/>
          <Node pos="r" depth="2" NCoef="0" IVar="-1" Cut="0.0000000000000000e+00" cType="1" res="1.2242378434166312e-03" rms="3.0714616179466248e-01" purity="7.4758255481719971e-01" nType="-99"/>
        </Node>
      </Node>
    </BinaryTree>
    <BinaryTree type="DecisionTree" boostWeight="1.0000000000000000e+00" itree="976">
      <Node pos="s" depth="0" NCoef="0" IVar="31" Cut="4.6095056533813477e+00" cType="0" res="-1.0815564019139856e-04" rms="2.9265314340591431e-01" purity="7.8514611721038818e-01" nType="0">
        <Node pos="l" depth="1" NCoef="0" IVar="-1" Cut="0.0000000000000000e+00" cType="1" res="2.7348268777132034e-03" rms="2.7135869860649109e-01" purity="8.1873345375061035e-01" nType="-99"/>
        <Node pos="r" depth="1" NCoef="0" IVar="32" Cut="1.5832839012145996e+00" cType="0" res="-1.7613986274227500e-03" rms="2.9968297481536865e-01" purity="7.7347165346145630e-01" nType="0">
          <Node pos="l" depth="2" NCoef="0" IVar="-1" Cut="0.0000000000000000e+00" cType="1" res="-7.0013548247516155e-03" rms="2.8791853785514832e-01" purity="7.9212921857833862e-01" nType="-99"/>
          <Node pos="r" depth="2" NCoef="0" IVar="-1" Cut="0.0000000000000000e+00" cType="1" res="3.1797369592823088e-04" rms="3.0222329497337341e-01" purity="7.6926034688949585e-01" nType="-99"/>
        </Node>
      </Node>
    </BinaryTree>
    <BinaryTree type="DecisionTree" boostWeight="1.0000000000000000e+00" itree="977">
      <Node pos="s" depth="0" NCoef="0" IVar="32" Cut="4.2513432502746582e+00" cType="0" res="1.4583056326955557e-04" rms="2.9357650876045227e-01" purity="7.8509378433227539e-01" nType="0">
        <Node pos="l" depth="1" NCoef="0" IVar="-1" Cut="0.0000000000000000e+00" cType="1" res="-6.8155317567288876e-03" rms="2.6240929961204529e-01" purity="8.4309828281402588e-01" nType="-99"/>
        <Node pos="r" depth="1" NCoef="0" IVar="5" Cut="1.1555210351943970e+00" cType="0" res="5.6684116134420037e-04" rms="2.9480975866317749e-01" purity="7.8265017271041870e-01" nType="0">
          <Node pos="l" depth="2" NCoef="0" IVar="-1" Cut="0.0000000000000000e+00" cType="1" res="6.6645769402384758e-03" rms="2.3384647071361542e-01" purity="9.1617619991302490e-01" nType="-99"/>
          <Node pos="r" depth="2" NCoef="0" IVar="-1" Cut="0.0000000000000000e+00" cType="1" res="-3.0939775751903653e-04" rms="3.0280444025993347e-01" purity="7.6281040906906128e-01" nType="-99"/>
        </Node>
      </Node>
    </BinaryTree>
    <BinaryTree type="DecisionTree" boostWeight="1.0000000000000000e+00" itree="978">
      <Node pos="s" depth="0" NCoef="0" IVar="9" Cut="6.5222729492187500e+02" cType="0" res="7.7491923002526164e-04" rms="2.9326802492141724e-01" purity="7.8543365001678467e-01" nType="0">
        <Node pos="l" depth="1" NCoef="0" IVar="-1" Cut="0.0000000000000000e+00" cType="1" res="3.7881564348936081e-03" rms="2.5600749254226685e-01" purity="9.0083330869674683e-01" nType="-99"/>
        <Node pos="r" depth="1" NCoef="0" IVar="1" Cut="1.8186917724609375e+03" cType="1" res="-6.1145512154325843e-04" rms="3.0360367894172668e-01" purity="7.5060260295867920e-01" nType="0">
          <Node pos="l" depth="2" NCoef="0" IVar="-1" Cut="0.0000000000000000e+00" cType="1" res="1.5398965915665030e-03" rms="2.9261013865470886e-01" purity="7.9418718814849854e-01" nType="-99"/>
          <Node pos="r" depth="2" NCoef="0" IVar="-1" Cut="0.0000000000000000e+00" cType="1" res="-5.0673135556280613e-03" rms="3.3624428510665894e-01" purity="6.1056160926818848e-01" nType="-99"/>
        </Node>
      </Node>
    </BinaryTree>
    <BinaryTree type="DecisionTree" boostWeight="1.0000000000000000e+00" itree="979">
      <Node pos="s" depth="0" NCoef="0" IVar="5" Cut="-3.1235611438751221e+00" cType="0" res="-1.5710869047325104e-04" rms="2.9396021366119385e-01" purity="7.8437513113021851e-01" nType="0">
        <Node pos="l" depth="1" NCoef="0" IVar="8" Cut="6.0879814624786377e-01" cType="0" res="-8.2137637946289033e-05" rms="2.9390692710876465e-01" purity="7.8463608026504517e-01" nType="0">
          <Node pos="l" depth="2" NCoef="0" IVar="-1" Cut="0.0000000000000000e+00" cType="1" res="8.5118471179157495e-04" rms="2.8779661655426025e-01" purity="8.1043529510498047e-01" nType="-99"/>
          <Node pos="r" depth="2" NCoef="0" IVar="-1" Cut="0.0000000000000000e+00" cType="1" res="-2.6138583198189735e-03" rms="3.1404873728752136e-01" purity="6.9545811414718628e-01" nType="-99"/>
        </Node>
        <Node pos="r" depth="1" NCoef="0" IVar="-1" Cut="0.0000000000000000e+00" cType="1" res="-6.9678381085395813e-02" rms="3.5912877321243286e-01" purity="1.6981132328510284e-01" nType="-99"/>
      </Node>
    </BinaryTree>
    <BinaryTree type="DecisionTree" boostWeight="1.0000000000000000e+00" itree="980">
      <Node pos="s" depth="0" NCoef="0" IVar="3" Cut="1.3248686523437500e+04" cType="1" res="3.5619668778963387e-04" rms="2.9377928376197815e-01" purity="7.8380662202835083e-01" nType="0">
        <Node pos="l" depth="1" NCoef="0" IVar="25" Cut="1.8001124267578125e+03" cType="0" res="4.0936531149782240e-04" rms="2.9374480247497559e-01" purity="7.8385108709335327e-01" nType="0">
          <Node pos="l" depth="2" NCoef="0" IVar="-1" Cut="0.0000000000000000e+00" cType="1" res="1.6840662574395537e-03" rms="2.8408932685852051e-01" purity="8.1065624952316284e-01" nType="-99"/>
          <Node pos="r" depth="2" NCoef="0" IVar="-1" Cut="0.0000000000000000e+00" cType="1" res="-2.6786464732140303e-03" rms="3.1550815701484680e-01" purity="7.1988534927368164e-01" nType="-99"/>
        </Node>
        <Node pos="r" depth="1" NCoef="0" IVar="-1" Cut="0.0000000000000000e+00" cType="1" res="-6.4918793737888336e-02" rms="3.3785319328308105e-01" purity="7.0149254798889160e-01" nType="-99"/>
      </Node>
    </BinaryTree>
    <BinaryTree type="DecisionTree" boostWeight="1.0000000000000000e+00" itree="981">
      <Node pos="s" depth="0" NCoef="0" IVar="7" Cut="6.4405654296875000e+03" cType="0" res="-1.5063850441947579e-03" rms="2.9521343111991882e-01" purity="7.8402543067932129e-01" nType="0">
        <Node pos="l" depth="1" NCoef="0" IVar="-1" Cut="0.0000000000000000e+00" cType="1" res="2.9642693698406219e-03" rms="2.5821611285209656e-01" purity="8.8475787639617920e-01" nType="-99"/>
        <Node pos="r" depth="1" NCoef="0" IVar="25" Cut="5.0445078125000000e+03" cType="1" res="-2.3488136939704418e-03" rms="3.0014562606811523e-01" purity="7.6955133676528931e-01" nType="0">
          <Node pos="l" depth="2" NCoef="0" IVar="-1" Cut="0.0000000000000000e+00" cType="1" res="-9.4937486574053764e-04" rms="2.9913255572319031e-01" purity="7.7230674028396606e-01" nType="-99"/>
          <Node pos="r" depth="2" NCoef="0" IVar="-1" Cut="0.0000000000000000e+00" cType="1" res="-1.2020499445497990e-02" rms="3.5053420066833496e-01" purity="6.1725205183029175e-01" nType="-99"/>
        </Node>
      </Node>
    </BinaryTree>
    <BinaryTree type="DecisionTree" boostWeight="1.0000000000000000e+00" itree="982">
      <Node pos="s" depth="0" NCoef="0" IVar="4" Cut="1.1902623176574707e+00" cType="0" res="1.3453063729684800e-04" rms="2.9336005449295044e-01" purity="7.8596001863479614e-01" nType="0">
        <Node pos="l" depth="1" NCoef="0" IVar="-1" Cut="0.0000000000000000e+00" cType="1" res="9.5632352167740464e-04" rms="2.8005343675613403e-01" purity="8.2794982194900513e-01" nType="-99"/>
        <Node pos="r" depth="1" NCoef="0" IVar="1" Cut="1.8901248779296875e+03" cType="1" res="-2.5330779608339071e-03" rms="3.1516107916831970e-01" purity="7.1289193630218506e-01" nType="0">
          <Node pos="l" depth="2" NCoef="0" IVar="-1" Cut="0.0000000000000000e+00" cType="1" res="-4.3050884269177914e-03" rms="3.1766384840011597e-01" purity="7.2236114740371704e-01" nType="-99"/>
          <Node pos="r" depth="2" NCoef="0" IVar="-1" Cut="0.0000000000000000e+00" cType="1" res="6.6308341920375824e-03" rms="3.0825585126876831e-01" purity="6.8951058387756348e-01" nType="-99"/>
        </Node>
      </Node>
    </BinaryTree>
    <BinaryTree type="DecisionTree" boostWeight="1.0000000000000000e+00" itree="983">
      <Node pos="s" depth="0" NCoef="0" IVar="0" Cut="1.4000000000000000e+01" cType="1" res="7.8148317697923630e-05" rms="2.9264315962791443e-01" purity="7.8568613529205322e-01" nType="0">
        <Node pos="l" depth="1" NCoef="0" IVar="-1" Cut="0.0000000000000000e+00" cType="1" res="3.4108135878341272e-05" rms="2.9051107168197632e-01" purity="8.1234693527221680e-01" nType="-99"/>
        <Node pos="r" depth="1" NCoef="0" IVar="22" Cut="-4.6401176452636719e+01" cType="1" res="3.3690326381474733e-04" rms="3.2728719711303711e-01" purity="3.2515788078308105e-01" nType="0">
          <Node pos="l" depth="2" NCoef="0" IVar="-1" Cut="0.0000000000000000e+00" cType="1" res="4.9535449594259262e-02" rms="2.6413261890411377e-01" purity="8.3529412746429443e-01" nType="-99"/>
          <Node pos="r" depth="2" NCoef="0" IVar="-1" Cut="0.0000000000000000e+00" cType="1" res="-8.2683243090286851e-04" rms="3.2838225364685059e-01" purity="3.1209519505500793e-01" nType="-99"/>
        </Node>
      </Node>
    </BinaryTree>
    <BinaryTree type="DecisionTree" boostWeight="1.0000000000000000e+00" itree="984">
      <Node pos="s" depth="0" NCoef="0" IVar="9" Cut="1.2355228271484375e+03" cType="0" res="-1.5228991105686873e-04" rms="2.9210320115089417e-01" purity="7.8546547889709473e-01" nType="0">
        <Node pos="l" depth="1" NCoef="0" IVar="-1" Cut="0.0000000000000000e+00" cType="1" res="8.0407829955220222e-03" rms="2.0323295891284943e-01" purity="9.5275986194610596e-01" nType="-99"/>
        <Node pos="r" depth="1" NCoef="0" IVar="1" Cut="2.3368332519531250e+03" cType="1" res="-8.3177030319347978e-04" rms="2.9854670166969299e-01" purity="7.7097976207733154e-01" nType="0">
          <Node pos="l" depth="2" NCoef="0" IVar="-1" Cut="0.0000000000000000e+00" cType="1" res="3.4397954004816711e-04" rms="2.9143443703651428e-01" purity="7.9450744390487671e-01" nType="-99"/>
          <Node pos="r" depth="2" NCoef="0" IVar="-1" Cut="0.0000000000000000e+00" cType="1" res="-6.9171627983450890e-03" rms="3.7080457806587219e-01" purity="4.9796634912490845e-01" nType="-99"/>
        </Node>
      </Node>
    </BinaryTree>
    <BinaryTree type="DecisionTree" boostWeight="1.0000000000000000e+00" itree="985">
      <Node pos="s" depth="0" NCoef="0" IVar="11" Cut="1.1904722213745117e+01" cType="1" res="-1.3978895731270313e-03" rms="2.9523485898971558e-01" purity="7.8361880779266357e-01" nType="0">
        <Node pos="l" depth="1" NCoef="0" IVar="-1" Cut="0.0000000000000000e+00" cType="1" res="8.2848925376310945e-04" rms="2.7892372012138367e-01" purity="8.3302325010299683e-01" nType="-99"/>
        <Node pos="r" depth="1" NCoef="0" IVar="25" Cut="2.5296042480468750e+03" cType="0" res="-3.5071386955678463e-03" rms="3.0679750442504883e-01" purity="7.4684184789657593e-01" nType="0">
          <Node pos="l" depth="2" NCoef="0" IVar="-1" Cut="0.0000000000000000e+00" cType="1" res="-4.3778107501566410e-03" rms="2.9706469178199768e-01" purity="7.8488928079605103e-01" nType="-99"/>
          <Node pos="r" depth="2" NCoef="0" IVar="-1" Cut="0.0000000000000000e+00" cType="1" res="-2.1697515330743045e-04" rms="3.1291666626930237e-01" purity="7.2214019298553467e-01" nType="-99"/>
        </Node>
      </Node>
    </BinaryTree>
    <BinaryTree type="DecisionTree" boostWeight="1.0000000000000000e+00" itree="986">
      <Node pos="s" depth="0" NCoef="0" IVar="13" Cut="8.5235888671875000e+03" cType="0" res="-2.8510382981039584e-04" rms="2.9377457499504089e-01" purity="7.8366518020629883e-01" nType="0">
        <Node pos="l" depth="1" NCoef="0" IVar="-1" Cut="0.0000000000000000e+00" cType="1" res="1.3856898061931133e-02" rms="2.0945571362972260e-01" purity="9.2604804039001465e-01" nType="-99"/>
        <Node pos="r" depth="1" NCoef="0" IVar="13" Cut="3.0078415527343750e+03" cType="0" res="-5.6558789219707251e-04" rms="2.9501751065254211e-01" purity="7.8119403123855591e-01" nType="0">
          <Node pos="l" depth="2" NCoef="0" IVar="-1" Cut="0.0000000000000000e+00" cType="1" res="2.6126182638108730e-03" rms="2.7629554271697998e-01" purity="8.2923835515975952e-01" nType="-99"/>
          <Node pos="r" depth="2" NCoef="0" IVar="-1" Cut="0.0000000000000000e+00" cType="1" res="-1.5295754419639707e-03" rms="3.0389118194580078e-01" purity="7.5723755359649658e-01" nType="-99"/>
        </Node>
      </Node>
    </BinaryTree>
    <BinaryTree type="DecisionTree" boostWeight="1.0000000000000000e+00" itree="987">
      <Node pos="s" depth="0" NCoef="0" IVar="29" Cut="3.2485523223876953e+01" cType="1" res="1.4875952911097556e-04" rms="2.9493278264999390e-01" purity="7.8419095277786255e-01" nType="0">
        <Node pos="l" depth="1" NCoef="0" IVar="24" Cut="1.8407421112060547e+01" cType="1" res="1.9917465397156775e-04" rms="2.9497057199478149e-01" purity="7.8456777334213257e-01" nType="0">
          <Node pos="l" depth="2" NCoef="0" IVar="-1" Cut="0.0000000000000000e+00" cType="1" res="-3.2761442707851529e-04" rms="2.9245540499687195e-01" purity="7.9143249988555908e-01" nType="-99"/>
          <Node pos="r" depth="2" NCoef="0" IVar="-1" Cut="0.0000000000000000e+00" cType="1" res="3.9381738752126694e-03" rms="3.1898826360702515e-01" purity="7.1571403741836548e-01" nType="-99"/>
        </Node>
        <Node pos="r" depth="1" NCoef="0" IVar="-1" Cut="0.0000000000000000e+00" cType="1" res="-6.0555715113878250e-02" rms="1.8674518167972565e-01" purity="6.1538461595773697e-02" nType="-99"/>
      </Node>
    </BinaryTree>
    <BinaryTree type="DecisionTree" boostWeight="1.0000000000000000e+00" itree="988">
      <Node pos="s" depth="0" NCoef="0" IVar="26" Cut="7.2343664062500000e+04" cType="0" res="1.1232655197090935e-05" rms="2.9441964626312256e-01" purity="7.8371024131774902e-01" nType="0">
        <Node pos="l" depth="1" NCoef="0" IVar="-1" Cut="0.0000000000000000e+00" cType="1" res="1.3048735447227955e-02" rms="2.4105098843574524e-01" purity="9.0784984827041626e-01" nType="-99"/>
        <Node pos="r" depth="1" NCoef="0" IVar="14" Cut="2.5910402832031250e+03" cType="0" res="-1.3219559332355857e-04" rms="2.9475939273834229e-01" purity="7.8282803297042847e-01" nType="0">
          <Node pos="l" depth="2" NCoef="0" IVar="-1" Cut="0.0000000000000000e+00" cType="1" res="-2.0684957504272461e-02" rms="2.6501137018203735e-01" purity="8.9646673202514648e-01" nType="-99"/>
          <Node pos="r" depth="2" NCoef="0" IVar="-1" Cut="0.0000000000000000e+00" cType="1" res="5.7525619922671467e-05" rms="2.9502984881401062e-01" purity="7.8169882297515869e-01" nType="-99"/>
        </Node>
      </Node>
    </BinaryTree>
    <BinaryTree type="DecisionTree" boostWeight="1.0000000000000000e+00" itree="989">
      <Node pos="s" depth="0" NCoef="0" IVar="2" Cut="3.3329108357429504e-01" cType="1" res="-7.4972066795453429e-04" rms="2.9360273480415344e-01" purity="7.8405559062957764e-01" nType="0">
        <Node pos="l" depth="1" NCoef="0" IVar="-1" Cut="0.0000000000000000e+00" cType="1" res="3.3323256502626464e-05" rms="2.8938847780227661e-01" purity="7.9993575811386108e-01" nType="-99"/>
        <Node pos="r" depth="1" NCoef="0" IVar="7" Cut="1.0707346191406250e+03" cType="0" res="-1.1103313416242599e-02" rms="3.4268873929977417e-01" purity="5.8143144845962524e-01" nType="0">
          <Node pos="l" depth="2" NCoef="0" IVar="-1" Cut="0.0000000000000000e+00" cType="1" res="-1.7543480498716235e-03" rms="3.4244954586029053e-01" purity="6.3436299562454224e-01" nType="-99"/>
          <Node pos="r" depth="2" NCoef="0" IVar="-1" Cut="0.0000000000000000e+00" cType="1" res="-1.9469654187560081e-02" rms="3.4186390042304993e-01" purity="3.1220498681068420e-01" nType="-99"/>
        </Node>
      </Node>
    </BinaryTree>
    <BinaryTree type="DecisionTree" boostWeight="1.0000000000000000e+00" itree="990">
      <Node pos="s" depth="0" NCoef="0" IVar="2" Cut="4.5232361555099487e-01" cType="1" res="-4.8215468996204436e-04" rms="2.9537826776504517e-01" purity="7.8343427181243896e-01" nType="0">
        <Node pos="l" depth="1" NCoef="0" IVar="-1" Cut="0.0000000000000000e+00" cType="1" res="-1.0205181752098724e-04" rms="2.9439342021942139e-01" purity="7.8735315799713135e-01" nType="-99"/>
        <Node pos="r" depth="1" NCoef="0" IVar="25" Cut="1.2977598876953125e+03" cType="1" res="-1.7198635265231133e-02" rms="3.4712955355644226e-01" purity="5.5717647075653076e-01" nType="0">
          <Node pos="l" depth="2" NCoef="0" IVar="-1" Cut="0.0000000000000000e+00" cType="1" res="6.6513143479824066e-02" rms="4.0435749292373657e-01" purity="7.4242424964904785e-01" nType="-99"/>
          <Node pos="r" depth="2" NCoef="0" IVar="-1" Cut="0.0000000000000000e+00" cType="1" res="-1.0049036704003811e-02" rms="3.4271368384361267e-01" purity="5.5123847723007202e-01" nType="-99"/>
        </Node>
      </Node>
    </BinaryTree>
    <BinaryTree type="DecisionTree" boostWeight="1.0000000000000000e+00" itree="991">
      <Node pos="s" depth="0" NCoef="0" IVar="11" Cut="9.5238828659057617e+00" cType="1" res="-2.0535078874672763e-05" rms="2.9434847831726074e-01" purity="7.8422552347183228e-01" nType="0">
        <Node pos="l" depth="1" NCoef="0" IVar="-1" Cut="0.0000000000000000e+00" cType="1" res="1.9152247114107013e-03" rms="2.7447396516799927e-01" purity="8.4469026327133179e-01" nType="-99"/>
        <Node pos="r" depth="1" NCoef="0" IVar="1" Cut="1.9284299316406250e+03" cType="1" res="-1.6733263619244099e-03" rms="3.0393400788307190e-01" purity="7.5350946187973022e-01" nType="0">
          <Node pos="l" depth="2" NCoef="0" IVar="-1" Cut="0.0000000000000000e+00" cType="1" res="4.1397576569579542e-04" rms="3.0188214778900146e-01" purity="7.7600884437561035e-01" nType="-99"/>
          <Node pos="r" depth="2" NCoef="0" IVar="-1" Cut="0.0000000000000000e+00" cType="1" res="-3.8974434137344360e-03" rms="3.0865404009819031e-01" purity="7.0026504993438721e-01" nType="-99"/>
        </Node>
      </Node>
    </BinaryTree>
    <BinaryTree type="DecisionTree" boostWeight="1.0000000000000000e+00" itree="992">
      <Node pos="s" depth="0" NCoef="0" IVar="31" Cut="4.6113286018371582e+00" cType="0" res="3.4985125239472836e-05" rms="2.9340985417366028e-01" purity="7.8440314531326294e-01" nType="0">
        <Node pos="l" depth="1" NCoef="0" IVar="-1" Cut="0.0000000000000000e+00" cType="1" res="2.1392283961176872e-03" rms="2.7247247099876404e-01" purity="8.1622904539108276e-01" nType="-99"/>
        <Node pos="r" depth="1" NCoef="0" IVar="0" Cut="1.1571428298950195e+01" cType="1" res="-1.2067569186910987e-03" rms="3.0032512545585632e-01" purity="7.7335816621780396e-01" nType="0">
          <Node pos="l" depth="2" NCoef="0" IVar="-1" Cut="0.0000000000000000e+00" cType="1" res="4.9164358642883599e-05" rms="2.9235249757766724e-01" purity="8.2864415645599365e-01" nType="-99"/>
          <Node pos="r" depth="2" NCoef="0" IVar="-1" Cut="0.0000000000000000e+00" cType="1" res="-3.5792081616818905e-03" rms="3.4998649358749390e-01" purity="3.9443451166152954e-01" nType="-99"/>
        </Node>
      </Node>
    </BinaryTree>
    <BinaryTree type="DecisionTree" boostWeight="1.0000000000000000e+00" itree="993">
      <Node pos="s" depth="0" NCoef="0" IVar="25" Cut="6.2640498046875000e+03" cType="1" res="1.4845591795165092e-04" rms="2.9369145631790161e-01" purity="7.8478389978408813e-01" nType="0">
        <Node pos="l" depth="1" NCoef="0" IVar="-1" Cut="0.0000000000000000e+00" cType="1" res="-3.7433866964420304e-05" rms="2.9362520575523376e-01" purity="7.8532266616821289e-01" nType="-99"/>
        <Node pos="r" depth="1" NCoef="0" IVar="0" Cut="9.3809528350830078e+00" cType="1" res="2.1888261660933495e-02" rms="2.9939001798629761e-01" purity="7.3135524988174438e-01" nType="0">
          <Node pos="l" depth="2" NCoef="0" IVar="-1" Cut="0.0000000000000000e+00" cType="1" res="-2.6770092546939850e-02" rms="3.2145300507545471e-01" purity="8.3870965242385864e-01" nType="-99"/>
          <Node pos="r" depth="2" NCoef="0" IVar="-1" Cut="0.0000000000000000e+00" cType="1" res="1.9569331780076027e-02" rms="2.8509789705276489e-01" purity="6.8571430444717407e-01" nType="-99"/>
        </Node>
      </Node>
    </BinaryTree>
    <BinaryTree type="DecisionTree" boostWeight="1.0000000000000000e+00" itree="994">
      <Node pos="s" depth="0" NCoef="0" IVar="9" Cut="5.0551937866210938e+02" cType="0" res="1.2193811126053333e-03" rms="2.9206997156143188e-01" purity="7.8607094287872314e-01" nType="0">
        <Node pos="l" depth="1" NCoef="0" IVar="-1" Cut="0.0000000000000000e+00" cType="1" res="3.1833937391638756e-03" rms="2.5678861141204834e-01" purity="8.8336545228958130e-01" nType="-99"/>
        <Node pos="r" depth="1" NCoef="0" IVar="1" Cut="1.7359093017578125e+03" cType="1" res="-7.1914354339241982e-04" rms="3.0964425206184387e-01" purity="7.3288619518280029e-01" nType="0">
          <Node pos="l" depth="2" NCoef="0" IVar="-1" Cut="0.0000000000000000e+00" cType="1" res="2.6469235308468342e-03" rms="2.9349389672279358e-01" purity="7.8610867261886597e-01" nType="-99"/>
          <Node pos="r" depth="2" NCoef="0" IVar="-1" Cut="0.0000000000000000e+00" cType="1" res="-7.4862539768218994e-03" rms="3.5508421063423157e-01" purity="5.6535375118255615e-01" nType="-99"/>
        </Node>
      </Node>
    </BinaryTree>
    <BinaryTree type="DecisionTree" boostWeight="1.0000000000000000e+00" itree="995">
      <Node pos="s" depth="0" NCoef="0" IVar="7" Cut="1.0729921875000000e+04" cType="0" res="3.6485540476860479e-05" rms="2.9253944754600525e-01" purity="7.8481578826904297e-01" nType="0">
        <Node pos="l" depth="1" NCoef="0" IVar="-1" Cut="0.0000000000000000e+00" cType="1" res="1.0461053811013699e-02" rms="2.2446480393409729e-01" purity="9.3078589439392090e-01" nType="-99"/>
        <Node pos="r" depth="1" NCoef="0" IVar="23" Cut="1.0479681640625000e+04" cType="0" res="-2.2901856573298573e-04" rms="2.9389998316764832e-01" purity="7.8149360418319702e-01" nType="0">
          <Node pos="l" depth="2" NCoef="0" IVar="-1" Cut="0.0000000000000000e+00" cType="1" res="-5.8487509377300739e-03" rms="2.6461094617843628e-01" purity="8.6392009258270264e-01" nType="-99"/>
          <Node pos="r" depth="2" NCoef="0" IVar="-1" Cut="0.0000000000000000e+00" cType="1" res="2.1475162066053599e-04" rms="2.9605090618133545e-01" purity="7.7507054805755615e-01" nType="-99"/>
        </Node>
      </Node>
    </BinaryTree>
    <BinaryTree type="DecisionTree" boostWeight="1.0000000000000000e+00" itree="996">
      <Node pos="s" depth="0" NCoef="0" IVar="19" Cut="4.5410156250000000e+05" cType="1" res="4.6418982674367726e-04" rms="2.9420286417007446e-01" purity="7.8471487760543823e-01" nType="0">
        <Node pos="l" depth="1" NCoef="0" IVar="-1" Cut="0.0000000000000000e+00" cType="1" res="3.0496739782392979e-04" rms="2.9416495561599731e-01" purity="7.8473192453384399e-01" nType="-99"/>
        <Node pos="r" depth="1" NCoef="0" IVar="29" Cut="2.3215506076812744e+00" cType="0" res="-4.5172426849603653e-02" rms="3.0581393837928772e-01" purity="7.7777779102325439e-01" nType="0">
          <Node pos="l" depth="2" NCoef="0" IVar="-1" Cut="0.0000000000000000e+00" cType="1" res="1.1622549500316381e-03" rms="2.3996874690055847e-01" purity="8.2870370149612427e-01" nType="-99"/>
          <Node pos="r" depth="2" NCoef="0" IVar="-1" Cut="0.0000000000000000e+00" cType="1" res="-9.1671235859394073e-02" rms="4.0182682871818542e-01" purity="6.5555554628372192e-01" nType="-99"/>
        </Node>
      </Node>
    </BinaryTree>
    <BinaryTree type="DecisionTree" boostWeight="1.0000000000000000e+00" itree="997">
      <Node pos="s" depth="0" NCoef="0" IVar="31" Cut="1.6809696197509766e+01" cType="0" res="1.8670489953365177e-04" rms="2.9288917779922485e-01" purity="7.8580272197723389e-01" nType="0">
        <Node pos="l" depth="1" NCoef="0" IVar="-1" Cut="0.0000000000000000e+00" cType="1" res="1.3238687999546528e-02" rms="2.4762707948684692e-01" purity="8.6239194869995117e-01" nType="-99"/>
        <Node pos="r" depth="1" NCoef="0" IVar="31" Cut="8.1012970209121704e-01" cType="0" res="-2.9986069421283901e-05" rms="2.9334998130798340e-01" purity="7.8494381904602051e-01" nType="0">
          <Node pos="l" depth="2" NCoef="0" IVar="-1" Cut="0.0000000000000000e+00" cType="1" res="5.7837466010823846e-04" rms="2.9140955209732056e-01" purity="7.8968334197998047e-01" nType="-99"/>
          <Node pos="r" depth="2" NCoef="0" IVar="-1" Cut="0.0000000000000000e+00" cType="1" res="-4.3418454006314278e-03" rms="3.0820411443710327e-01" purity="7.4725115299224854e-01" nType="-99"/>
        </Node>
      </Node>
    </BinaryTree>
    <BinaryTree type="DecisionTree" boostWeight="1.0000000000000000e+00" itree="998">
      <Node pos="s" depth="0" NCoef="0" IVar="7" Cut="2.1512089843750000e+03" cType="0" res="-1.0326410119887441e-05" rms="2.9307991266250610e-01" purity="7.8552740812301636e-01" nType="0">
        <Node pos="l" depth="1" NCoef="0" IVar="-1" Cut="0.0000000000000000e+00" cType="1" res="6.9314957363530993e-04" rms="2.8147765994071960e-01" purity="8.2162308692932129e-01" nType="-99"/>
        <Node pos="r" depth="1" NCoef="0" IVar="13" Cut="1.6919110107421875e+03" cType="0" res="-3.5170649643987417e-03" rms="3.2353571057319641e-01" purity="6.8375074863433838e-01" nType="0">
          <Node pos="l" depth="2" NCoef="0" IVar="-1" Cut="0.0000000000000000e+00" cType="1" res="2.0649144425988197e-03" rms="3.1986099481582642e-01" purity="7.0477610826492310e-01" nType="-99"/>
          <Node pos="r" depth="2" NCoef="0" IVar="-1" Cut="0.0000000000000000e+00" cType="1" res="-9.7977202385663986e-03" rms="3.3111667633056641e-01" purity="6.3523924350738525e-01" nType="-99"/>
        </Node>
      </Node>
    </BinaryTree>
    <BinaryTree type="DecisionTree" boostWeight="1.0000000000000000e+00" itree="999">
      <Node pos="s" depth="0" NCoef="0" IVar="1" Cut="3.6177341308593750e+03" cType="0" res="2.2878036543261260e-04" rms="2.9306244850158691e-01" purity="7.8509372472763062e-01" nType="0">
        <Node pos="l" depth="1" NCoef="0" IVar="-1" Cut="0.0000000000000000e+00" cType="1" res="-1.3018894940614700e-02" rms="3.1886878609657288e-01" purity="8.1167978048324585e-01" nType="-99"/>
        <Node pos="r" depth="1" NCoef="0" IVar="9" Cut="2.7109906005859375e+02" cType="0" res="4.5855680946260691e-04" rms="2.9272201657295227e-01" purity="7.8476530313491821e-01" nType="0">
          <Node pos="l" depth="2" NCoef="0" IVar="-1" Cut="0.0000000000000000e+00" cType="1" res="1.4527677558362484e-03" rms="2.7687162160873413e-01" purity="8.3082151412963867e-01" nType="-99"/>
          <Node pos="r" depth="2" NCoef="0" IVar="-1" Cut="0.0000000000000000e+00" cType="1" res="-1.9436889560893178e-03" rms="3.2799640297889709e-01" purity="6.7289304733276367e-01" nType="-99"/>
        </Node>
      </Node>
    </BinaryTree>
  </Weights>
</MethodSetup>
